#version: 0.2
् र
न ्
ा र
क ्
् य
् त
म ा
ि य
र ्
् ट
प ्र
व ि
क े</w>
क र
क् क
ि ल
त ्त
न े</w>
् प
क ा
न ि
न ा
व ा
र ा
म े
स ्
त ि
द े
र ि
न् न
त ा
स ा
र ु
् ल
ब ा
्य ा
म ्</w>
म ु
ह ै</w>
ङ ्
न ा</w>
प ्प
द ्
य ा
प ा
त े</w>
मे ं</w>
क ि
क ी</w>
ल ि
ो ं</w>
ट ्ट
क ळ
ल ा
स ि
य ़
् च
ं द
ह ा
त ्र
स े</w>
क ु
क् ष
त ा</w>
त ्
क ार
े र</w>
ज ा
स ं
ु ं</w>
त ु</w>
ब ि
क ो
म ि
ल ्ल
् ऱ
क ा</w>
क े
क ि</w>
ह ो
छ े</w>
औ र</w>
भ ा
त ु
ल े</w>
स ु
प ु
य ़</w>
स ्त
च ्च
न े
द ि
क ो</w>
ं ग
च ि
न ी</w>
द ा
त ि</w>
ह ि
स् थ
ु म्</w>
स म
च ा
ल े
न ि</w>
य ा</w>
ल ा</w>
ट ि
व र
प ि
ऩ ्</w>
व े
ट ु
ण ्ट
ळ ्
िय ा</w>
ऱ ्ऱ
ड ़
ॆ य
ह ी</w>
प र</w>
प ो
म ्
ध ा
स े
न ु
ल ो
त ी
य ि
ल ्</w>
त्त ि
न्न ु</w>
र ु</w>
्य ा</w>
र ो
ग ु
ट ि</w>
प र
ग ा
भ ार
् य</w>
श ा
ध ि
त ्</w>
ब े
िल ्</w>
ह ु
िय ़
ज ि
ड ि
ै ं</w>
द ी</w>
ल ्
ष ्ट
र ्</w>
अ व
क ु</w>
ह ी
न ी
ं च
क्क ु
त ी</w>
त े
क ॊ
क ्र
ार ्
क र</w>
ल ु</w>
ह ा</w>
रा ज
ग ि
म ो
स ्</w>
कळ ्</w>
ब े</w>
य ो
त ो</w>
प रि
ङ् ङ
प ू
ए क</w>
ह े</w>
श ्
िय ा
स र
न् त
ं ड
ह ैं</w>
च े
ह े
ल ी</w>
ण ्</w>
श ि
ळ् ळ
र े
का र</w>
दे र</w>
य ु
ल ो</w>
े न</w>
द े</w>
ग ्र
द ु
ल ी
न ु</w>
ख ा
स ्ट
म ी
ध ्य
भ ी</w>
र ा</w>
स ी
ा र</w>
व ी
ग ा</w>
इ स</w>
द ा</w>
र े</w>
ही ं</w>
ार ु</w>
भ ि
ळ ि
िल ्
मा ं</w>
न ्</w>
क ू
प े
ार ा</w>
लि ए</w>
म ं
ै य
व ु
ष ्
न् न</w>
आ प
ट ा
स ी</w>
त र
दे श
ज ी
स्थ ा
न हीं</w>
ज े
य़ े
द ु</w>
ंद ि</w>
प ार
च ॆय
व ा</w>
न् त</w>
नि र्
र ू
म ै
च ्
ए क
म ार
ऩ ्
श ्र
अ प
थ ा</w>
क ्</w>
य ि</w>
त ्या
म ू
ऩ ्ऱ
क ी
त् र</w>
उ न्
ि त</w>
मं त्र
अ नु
त्त ु</w>
स ़
ण ा
ग ॆ</w>
य े</w>
न ू
च ु
ए ब
ट ्
क्क ु</w>
त ॆ
र ी
उ प
ल्ल ि</w>
् ञ
द ॆ</w>
र ी</w>
एब ं</w>
ब ी
म ्प
न् य</w>
ट ॆ</w>
त ्य
ऱ ि
क्क ा
द ी
ग ळ
प्र ति
व ॆ
व ्य
थ ा
व र्
ण ्
थ ी</w>
आ हे</w>
ज ़
त्त ु
क िया</w>
श ु
िल ा
प्र ा
इ स
कर े</w>
अ धि
आ म
व ी</w>
प्र धा
न् तु</w>
म ा</w>
ार ्</w>
स ू
न ो
िल ्ल
ं त
द ि</w>
प ॆ
ल ु
कर े
ट्ट ु
ट ा</w>
ट ्र
घ ट
मा न
त ो
मु ख
ज न
द् द
श े
स ्प
दे श</w>
भार त</w>
क हा</w>
न ो</w>
ट ी
ह ो</w>
ऱ ्
व े</w>
व ु</w>
ऱ ॆ</w>
थ े</w>
ब ्
ग े</w>
ड ा
पू र्
नू ੰ</w>
क्क ि
स ो
ब ो
2 0
ार े</w>
ट ्</w>
प ्</w>
प ी
रा ष्ट
म ह
द र
क ृ
द् र</w>
य ह</w>
म ॆ
द् ध
िल् ल</w>
न् ना
य े
िय़ े</w>
न् त्र
ता र</w>
िय ि
क्क ्</w>
ब ं
व ै
स्त ा
ब ा</w>
ज ा</w>
ट े
आ ं</w>
म ी</w>
ण ि
र ्त
म े</w>
ब ु
ओ य़
ट ै
्र ी
च ार
पु लि
ए इ</w>
द ्य
प ॊ
ऱ ु
न िय
च ॆ
स ा</w>
ड ु
ग ो
ज ो
व रु
कर ने</w>
न ेर</w>
ण ि</w>
मा न</w>
छ ि
इ रु
ग या</w>
ण े</w>
म ध्य
हा ं</w>
ळ् ळ</w>
ग ्
स क
आ र
ज न</w>
प्प ि
कर ि
व र</w>
्र ा
कार ्य
ड ु</w>
ल्ल ा
कर ा</w>
क् त</w>
मंत्र ी</w>
उ न
िय ों</w>
क ै
फ ि
ज ो</w>
अ ने</w>
ार ा
त ॊ
न ट
ग ी</w>
च ा</w>
य़ े</w>
च े</w>
कर ते</w>
क र्
द र्
ट े</w>
ल ै
द ो
आ मा
ल ि</w>
ङ् कळ
र ू</w>
ट्ट ि
क्ष े
ऒ रु</w>
ज ी</w>
बा द</w>
क ॆ
म र
ार ी</w>
थ े
ति नि</w>
य़े छे</w>
स र्
ब ै
ण ्या
च ्या</w>
न्न ्</w>
छि ल</w>
ण ा</w>
स्त ु
्र े
ह न</w>
द ू
सा थ</w>
अ ति
छ ेन</w>
िय ु
दे ख
अ ं
छ ि</w>
क् ष</w>
ि क</w>
म न्त्र
ट ी</w>
श न</w>
प ह
अ वर
ग े
क ल
भ ू
ब ्य
ं ब
स ि</w>
ं ग</w>
ग ि</w>
च्च ु</w>
ं ने</w>
उ त्त
न ॆ</w>
ंद ि
ल् ल</w>
न् ऱॆ</w>
ऩ ा
ह य़</w>
अ भि
र क्ष
बा र</w>
आ र</w>
व ्
ज ु
ङ्ङ ळ
ंद ु</w>
ज ्ञ
सर कार</w>
त र</w>
च्च ि
न ॆ
स मा
अ ते</w>
ड ी
फ ो
ख े
त् त</w>
ख ु
ण ी</w>
ध ार
ण्ट ्</w>
म िल
च ी</w>
म ौ
च ी
न ों</w>
ङ्ङ ൾ</w>
व ार
उ स
ज न्य</w>
य ू
ङ् कळ्</w>
ंग ा</w>
र् थ
मध्य े</w>
क ट
य ुं</w>
ऩ र्</w>
इ न्
हो ंने</w>
चा र</w>
प्प ॆ
म ऱ्ऱ
ं द</w>
ध ी</w>
कि ऱ
छ ा
द ्र
कार ी</w>
प्रधा न
प ्
अ त
आ णि</w>
ब न्
पो ली
क् त
ट ु</w>
ञ ्ञ
प ि</w>
र ि</w>
ठ ा
मा म
ओ ं</w>
ड ा</w>
सम ्
रु न्नु</w>
थे के</w>
आ रो
ब हु
उन् होंने</w>
न् या
प ण</w>
भार ती
ड ़</w>
िय़ े
म् म
0 0</w>
प ी</w>
झ ा
फ ा
ू न</w>
स्थ ि
चि त्र
म ृ
स् व
ध ी
घ ा
ज े</w>
चॆय ्त
अ स
कर ा
कळ ु
अ र
इ त
ड ्
प्प ु
श ी
त ों</w>
ङ् क
न िल
ड े
श ्च
छ िल
ड ि</w>
म ने</w>
अ ने
स भ
व ं</w>
न ुं</w>
ार ॆ</w>
यो ग</w>
क्कु न्न
त्ति ൽ</w>
ण ं</w>
ग्र ा
ं त</w>
फ े
20 1
न ं</w>
वि ष
पुलि स</w>
व ह</w>
इ न्त
अप ने</w>
ञ ्च
द िया</w>
क् क</w>
ट्ट ु</w>
ता ँ
स ब
र हे</w>
को ई</w>
क ൾ</w>
त्त िल्</w>
स ह
ं ट
ब र</w>
ग त</w>
ग ई</w>
शि क्ष
मुख ्य
ऩ् ऩ
्री य</w>
ट् ट</w>
त क</w>
च ो
श ो
राज ्य
ड ्</w>
प ै
न्न ारु</w>
ए म
क्क ुम्</w>
ं नी</w>
क्र ि
आ व
त्त ा
िल ा</w>
ार ि
कि न्तु</w>
ब ल
ड़ ा</w>
गळ ु</w>
भ े
म ार्
िय ो
पा कि
प्र े
म त्तु</w>
ग ी
ं द्र</w>
भ ु
वि ੱ
द् व
दि न</w>
व ुं</w>
ह य़ेछे</w>
ह र
एक टि</w>
ज्ञ ा
य ्
म ॊ
ऎ ऩ्ऱ
वि श्
र ही</w>
ब ्या
ण्ट ा
ड़ े</w>
अ भ
आम ि</w>
ंद ु
ऎ न्
ंग े</w>
ऩ ्प
क् ति</w>
ड ी</w>
ऴ ु
प ्त
सि ं
इ न</w>
छिल ेन</w>
ग ों</w>
य ं</w>
मू ल
रू प</w>
प क्ष
ऴ ि
ष् ट</w>
् र</w>
हा र</w>
प ऱ
राष्ट ्र
द् ध</w>
ए र</w>
्र ि
प्प ो
ढ ़
ळ ा
ता देर</w>
श े</w>
वा र</w>
चॆय ्य
ह र</w>
ं प
थ ि
ल क्ष
स न</w>
अ ध्य
र ह
अ ब
ए स
ळ ्</w>
दा न</w>
उ त
ह बे</w>
म हा
क्क ॆ</w>
ख ़
द्व ारा</w>
द्द ारॆ</w>
स ै
स ङ्
क्क प्प
ं ड</w>
फ िल्
द ल्लि</w>
ं लो</w>
श्र ी</w>
मो दी</w>
द र</w>
ल ों</w>
ना ल</w>
मऱ्ऱ ुम्</w>
व ि</w>
भा बे</w>
ब र
भारती य</w>
अ र्
लो क
ह म</w>
हु ए</w>
प्रधा न</w>
म ि</w>
पाकि स्ता
ति क</w>
ग र</w>
ब ना
न्न ि</w>
उ स</w>
र ै
प्प ु</w>
राज ्य</w>
ैय िल्</w>
मा र</w>
च् च</w>
का ंग
विੱ च</w>
ट र</w>
ज ॆ
त्त ि</w>
ठ ी</w>
ऱ ्प
व ्या
स ॆ
सं बं
प ति</w>
ल ई</w>
न रे
ल ेर</w>
उ द्
नि कि</w>
क् ति
बि ष
ड े</w>
ध न</w>
कॊ ण्ट
के न्
आम रा</w>
या ण्</w>
ज ू
क्ष ि
म ैं</w>
ळ्ळ तु</w>
क व
ङ् क</w>
ं च</w>
नि क</w>
श ा</w>
र् कळ्</w>
ओय़ ा</w>
लो गों</w>
जा न
क्क ुं</w>
श ्य
यि रुन्नु</w>
अने क</w>
िल े</w>
च ू
वि धा
चा ल
ह ै
कर ु
द ्या
ल ्या
ग ए</w>
पु र
स् त</w>
फ ़
म न
द ौ
ना ही</w>
सं ख
कळ ि
ं ना</w>
द िल्ल
च् छ
च ्</w>
ब ि</w>
ऩ ै
सा थे</w>
ळ ु
ऩा ल्</w>
ऱ ै
स् वा
ध ि</w>
न् य
मा यि</w>
त ार
हे ं</w>
प ट
द ो</w>
कि छ
पूर् ण</w>
ना र</w>
त ै
क्कि ऱ
ल य</w>
स् ऱ्ऱ
भा ग
कु छ</w>
ले न</w>
र ॆ
इ न्त</w>
म् ह
म न</w>
इ ं
वे ण्ट
ल ्या</w>
का ल
ब द
वा ले</w>
गि दॆ</w>
ैय ुम्</w>
दा र</w>
व ർ
यो ग
आ ई
ह त</w>
कर ेन</w>
क ों</w>
कळ ै</w>
त ारा</w>
ग ॊ
कि न</w>
ना ं</w>
ं चि
िल ॆ</w>
ह ॆ
म ध
ल्ल ै</w>
भा ज
जि स
का म</w>
मा ण्</w>
प ा</w>
र हा</w>
क्षे त्र
भा ष
रा न</w>
ह ू
न्न ुं</w>
ल नु</w>
व्य व
ए न
प्प ा
कर ी</w>
ड ॆ
वि च</w>
ग ू</w>
गा ं
र ॆ</w>
सि नि
स द
कार ण</w>
न् ति
जी व
ड़ ा
भार त
ज ै
श ी</w>
ब्य ब
भ ी
्ल ा
कर ण</w>
िल े
आमा देर</w>
ट र्
व न्नु</w>
सङ् गे</w>
बि श्
स र</w>
हि त</w>
च् छे</w>
सिं ह</w>
मि ल</w>
ज ्
ख न</w>
ऱ् कु</w>
मा ण
ट ो
ळ े</w>
न् तु
्प ा
ृ ष्ट
मा क</w>
त िय
व ्</w>
च ना</w>
स ौ
स् ट</w>
च ल
स्थ ा</w>
शे ष</w>
न्न ु
प्र ति</w>
ब ार
सि ੰ
आ हे
मे ल
ब ी</w>
च र्
य ्</w>
च र
ख ा</w>
पि र
त था</w>
ल्ल ि
पर ्य
अ न्य</w>
इ न
टु त्त
व रि
ण ी
ने इ</w>
इ ट
स्था न</w>
गळ न्नु</w>
ंग ्</w>
वर ्</w>
स हा
आ य
ऴ ्
न िय़े</w>
पा ल
इ ति
सभ ा</w>
ऎ ंदु</w>
व ॆ</w>
भा ग</w>
कर ार</w>
कर ्त
िय़ ा
मि क</w>
ट ॆ
क्र म
ल िया</w>
त् य</w>
स न्
न ओ</w>
उन के</w>
व ऴ
त ं
1 9
आहे त</w>
व ळ
य हो
अ ल
सा र</w>
ब ॆ
सर कार
द् दे
सिੰ घ</w>
कु ऱि
ब ल</w>
क ौ
ऩ ि
स ्य
बहु त</w>
ख ि
सा ठी</w>
को र्
पर ी
मा टे</w>
ङ् कि
किऱ तु</w>
व ृ
र िय
व ो
क म</w>
2 0</w>
ब ारे</w>
क ॆ</w>
यि ൽ</w>
ज वा
स ार
ण्या त</w>
घ ो
वि ज
मा य</w>
सा ं
पार ्ट
न् ति</w>
द्य ो
ति य</w>
आमा र</w>
अधि कार
क् या</w>
ड़ ी</w>
ज ि</w>
श ि</w>
ऱ्ऱ ु
रा म
ध ु
य ॆ
नि र
प् त</w>
प्र श्
इस के</w>
शे ष
क्कु क
ड िय
ना म</w>
ञ ्
प्र त्य
कर ो
च्च ्</w>
ऎ ं
त्त ॆ</w>
्रे स</w>
ंच ि</w>
प्र का
धा र</w>
ऎऩ्ऱ ु</w>
पर े</w>
कर ना</w>
प्र ो
म त</w>
म त
व त
य़ ा
मन्त्र ी</w>
म ्या
पा स</w>
इ ंड
फिल् म</w>
अप नी</w>
प्र थ
ं कि</w>
मा त्र</w>
िल ि
वि चार
क ई</w>
मा ण</w>
ल िय
इ ह</w>
कि सी</w>
सा म
त बे</w>
मा ध्य
ग ळ</w>
ल कु</w>
पु र</w>
जा ए
प त्र
घट ना</w>
ध ्या
वा द</w>
ण ु
सम ्प
कॊ ळ्ळ
ताँ र</w>
पह ले</w>
मु त
वा मां</w>
त ृ
मा त्र
ह य़े</w>
ती ल</w>
वि का
तु ट
बा इ
ह त
द न</w>
ब र्त
प द
ट िय
ञ ा
हो ता</w>
ब ले</w>
्ल ु</w>
माम ले</w>
भि न्न</w>
चि त</w>
फ ै
१ ९
ऎ न्ना
य़ ेर</w>
दि व
छ ो
ले किन</w>
रक्ष ा</w>
आ स
ए वं</w>
आ ई</w>
उन् हां</w>
राष्ट ्रीय</w>
ंग ा
िल ुं</w>
इ तु</w>
म क्क
ध र
घट ना
चि कि
त न</w>
से इ</w>
सम य</w>
आ त्
ग ठ
ंत र</w>
स ला
ंच ारु</w>
स्थ ित</w>
किछ ु</w>
ब ढ़
दर ॆ</w>
वि रु
ङ् कु</w>
ल्ल ो</w>
अ ल्ला
ज ़</w>
न्न त्</w>
सा मा
ऎ ऩ्
मे रि
क् या
प्र भा
ॆय ुं</w>
ह ते</w>
ग र
दि ੱ
यो ज
ब र्
िय़ ा</w>
कू डा</w>
ह ि</w>
प ड़
ऎ स्</w>
ता ं</w>
पॊ ली
म द
भ ो
बा त</w>
ह ती</w>
च्च ु
्य ू
म ੰ
कळ ा
प ं
ति रु
२ ०
के ंद
ज ब</w>
व ੱ
ंच ्या</w>
उत्त र</w>
व ल
ार् थ
स ब</w>
ल गा
खा ने</w>
ब ता
न्न ॆ</w>
मु ख</w>
ख ो
स ़</w>
श्र ी
त् व
उन् हें</w>
कार ण
रु प
स्थि ति</w>
कु म्</w>
अधि क</w>
नि क
इ र
रा हु
ह ार
ह म
हो ते</w>
ऱ्ऱ ि
स भी</w>
त्त ै</w>
क था</w>
प्प ट
ह ता</w>
ं ट</w>
ं क</w>
वा य
अ ऱ
ऱ ा
ख िला
ൻ ऱॆ</w>
क्क ॊ
ह ॊ
त र्
पार े</w>
प्र ी
आ इ
न् द्र</w>
द ल</w>
कर ता</w>
अ न
ए म</w>
प ै</w>
पऱ ञ्ञ
ट्ट ि</w>
हो ने</w>
ध ा</w>
सं भ
बा ं
ड ो
दिल्ल ी</w>
अ म
ट ्च
छ े
ग ण
ना य
ष ि
वा ई</w>
क्ष ा</w>
ंच ी</w>
प हु
नि श्च
र य़ेछे</w>
लो ग</w>
ल ै</w>
ष ्</w>
ऱ ु</w>
ग्र ह
ह ्
ने ता</w>
ले दु</w>
म् म</w>
आ र्
प्रधान मंत्री</w>
वि ल्</w>
ध र्
न य़</w>
क ॉ
तर ह</w>
त्त दॆ</w>
स चि
व ै</w>
स ह</w>
दर् श
विका स</w>
फि र</w>
न टि
स ं</w>
न ൽ
ऩ ु
दौ रान</w>
प्र देश</w>
मि त</w>
क्षे त्र</w>
ना ग
त्त ्</w>
टै य</w>
क्र म</w>
ए स</w>
स्ट े
न ै
ार् कळ्</w>
पो र्
घ े
खा न</w>
च ॊ
आ प</w>
का य
कर ी
व रा
दु र्
अ थ
ज न्
ऎन्ना ൽ</w>
अवर ्</w>
हु आ</w>
ंच े</w>
ठ ि
क म
दा ख
झ े</w>
कु टु
स ੰ
ियि ൽ</w>
प्रथ म</w>
तर ी</w>
ब ्ल
ग ळि
प र्
जा र</w>
अ मै
क्कु न्नु</w>
ं डि
हो ती</w>
स्था न
वि ल्लै</w>
अ ऱि
इन्त ्य
ऩ ै</w>
प ौ
क्का ൻ</w>
सम य़</w>
क्कुन्न त्</w>
आ दरॆ</w>
5 0</w>
कळ िल्</w>
मा ऩ</w>
त म
ह य़े
बि जॆ
उ ट
श् मी
आव श्य
त ं</w>
द ार
ह मार
क्क ि</w>
क ता</w>
बे न</w>
ळ ी</w>
नु ष
ी ल</w>
िय ु</w>
तॆ रि
द रु</w>
या य़</w>
कार ्
प श्च
वा त</w>
कर न</w>
फ ्</w>
त ॆ</w>
की ता</w>
1 0</w>
बै ठ
ण्ट ु</w>
त् व</w>
चा हि
यु क्त</w>
ला र</w>
मै न</w>
स़ ा
ट्ट ा
कर् म
इ क</w>
वा ह
वर ्त
राष्ट्र पति</w>
र ख
अ न्
स ु</w>
के ट</w>
ए ं</w>
र ण
ऎ ल्ल
क ंप
मुख ्य</w>
ज ारी</w>
का ल</w>
भू मि
त मि
ग्र े
य दि</w>
रा ख
ज ग
द ्</w>
का ज</w>
् य़
ट क</w>
ज र</w>
हु ई</w>
क् य
पाकिस्ता न</w>
इ ला
यु टॆ</w>
प्रत्य े
मु ंब
मु ळे</w>
द क्षि
या र</w>
शा मिल</w>
रा त</w>
या त्र
ॆ टु
प ड
कळु क्कु</w>
ण ार</w>
ट्ट ्</w>
स ल
अ मेरि
ङ्ङळ ु
स् वी
त म</w>
पुलि श</w>
प्र देश
न थी</w>
ब ्र
च ौ
स फ
प ्ल
द् द</w>
प य
क् ट
कु मार</w>
क ेर</w>
आ ऩाल्</w>
ओय़ ार</w>
ब ू
प्र मुख</w>
रु व</w>
कि ऩ्ऱ
ंड ि</w>
घो ष
ण् ण
आ न
ष े
ञा ൻ</w>
िल ु
ल त</w>
बन् ध
उस के</w>
जा ता</w>
पूर् व</w>
त्ति ऩ्</w>
प ण
गु रु
मृ त्य
0 00</w>
स् बा
उ ळ्ळ
को ट
कु मार
द्दे ह
र त</w>
सा न</w>
ए टा</w>
अवर ु</w>
व ो</w>
वेण्ट ुम्</w>
चु ना
स ർ
मह ारा
च ै
दो नों</w>
वा स</w>
ज िल्ल
वा गि</w>
व ुम्</w>
उ पा
अध्य क्ष</w>
य ी</w>
जा ने</w>
को नो</w>
हो गा</w>
फ ी
रि क</w>
पो लि
स्त ्र
क् स</w>
वि रो
चाहि ए</w>
ट ऩ्</w>
अ न्त
म क</w>
प ल
म हि
ष् ठ</w>
सं स्
फ ी</w>
अ ग
कांग ्रेस</w>
मुख्य मंत्री</w>
दे शा
सक ता</w>
दू सर
ऎ ऩ्प
ं स</w>
ऎ ति
ऱ्ऱ ि</w>
प्प टु
वि द्य
करे छे</w>
आ गे</w>
चॆय्त ु</w>
फ ु
ङ्ङ ൾ
गि आ</w>
ं तो</w>
ष् ठ
इ द
ੱ क</w>
ी य</w>
नि ർ
ऎ ऩ
आ ज</w>
पा इ
धि त</w>
क ़
गु लो</w>
उ न्न
स ेर</w>
े ऩ्</w>
को न</w>
उ न</w>
बी च</w>
श र्
नी ति
न ंतर</w>
आ छे</w>
अ ंत
प्पॆ टु
क ल</w>
न ौ
कर ो</w>
मन्त्र ि</w>
ब न</w>
पु न
इ दु</w>
अ यि
मर ियु</w>
कि ए</w>
तॊ टर्
उ ह</w>
द्द रु</w>
ऎन् नि
म ै</w>
ब ृ
ऒ रु
गां धी</w>
वॆ ळ
प्र ि
च ु</w>
लो क</w>
स् य</w>
ते म
ं चा
म ु</w>
ण ॆ
से ना</w>
ल ॆ
पार्ट ी</w>
स्था प
अ द्देह
ल ग
वर् ष
्य ु
बा ब
आ ं
ंच ा</w>
प ार्
इ तु
द्ध ि</w>
छ न्ति</w>
य़ नि</w>
क्क े
त ू
हो इ
श न
कर ि</w>
जा ंच</w>
ओय़ ा
ट्र ो
ग ॆ
्र ॆ
उन की</w>
भाज पा</w>
प्र भु
्य ो</w>
न् नि
भा व
धा न</w>
उ द्यो
मंत्र ा
का ं
टी म</w>
ट ो</w>
वा ली</w>
िल ुम्</w>
त य
पश्च ि
जा ना
निर् ण
ह च्छे</w>
व तु</w>
अ र्थ
मा डि
व ल</w>
कि हा</w>
मे र</w>
द् य</w>
ब न
स त्य
त लै
आप णे</w>
सा इ
इ त्</w>
कर ण
सक ते</w>
ट्र ा
ङ्कळ ु
आ र्थ
मा ने</w>
ज ्</w>
ब लेन</w>
उ ं
कार ्य</w>
ड ं</w>
जि त</w>
चे य
सा धार
द िल
क ं
क मि
शु रु</w>
क ण्ट
तु म</w>
पा र</w>
उ से</w>
अव र्
ब ले
ल्ल े
ब् ब
ह ल</w>
अव ർ</w>
हा ल</w>
द् दु</w>
विश् व
वि द्या
संख ्या</w>
ट न</w>
निर् माण</w>
िय़े छे</w>
इ य
अ ल्ल
मी ड
ौ र</w>
कल ्प
के ंद्र</w>
की ती</w>
रू प
का म
र ो</w>
के र
खिला फ</w>
ता ऩ्</w>
पर मे
1 9</w>
हा स
आ लो
गु ज
ट्ट तु</w>
को वि
व ज
क्क ॆ
ज रि
व य
सम ू
ब ्रि
का छे</w>
प्र दान</w>
ह तो</w>
ता ल</w>
ग ृ
हा ला
कु ल</w>
ऩ्ऱ ु</w>
सम स
ता ण्</w>
को टि</w>
्य ुं</w>
ए क्
श ारु</w>
स मु
करे छेन</w>
बता या</w>
ला ग
ऱ् का
अ तु</w>
त्ति न्ऱॆ</w>
ष ण</w>
महारा ष्ट
आ क
ब च्च
ता त</w>
द् धा
एक जन</w>
वा ल</w>
तॆरि वि
विष य
भ र
ज्ञा न</w>
म नो
नी ति</w>
च्च ा
ना ऩ्</w>
व हि
्य ं</w>
चॆय्य ु
स्ट ्रे
सु कु
इ दि</w>
प ट्ट
वि ध
ै प्</w>
क ला
मा ड
ती न</w>
सब से</w>
कव ुम्</w>
ज ्या
प ृ
त ्या</w>
स भा
ट्टु ण्ट्</w>
न्त तु</w>
ॆय ल्लि</w>
प ति
िल ो</w>
अ त्</w>
ष् ठा
ल ं</w>
न् यू
क पू
ळ ि</w>
ना यि</w>
स ंद
अ त्य
द ै
्त ्त
नरे ंद्र</w>
दर् शन</w>
न िय़
घ र</w>
क म्</w>
क्कु न्न</w>
लि क</w>
व ध
के ली</w>
आरो ग
ड़ ि
अव रु
के न</w>
ॆय ि
मौ के</w>
प ल</w>
ढ ़</w>
कृ त</w>
ई श्
कळि ऩ्</w>
व न</w>
अ ्या
माम ला</w>
अ ला
वि ऩ्</w>
देख ा</w>
िय िल्</w>
ियु टॆ</w>
ज रू
मंत्र ि</w>
योज ना</w>
ऱ्ऱ ्</w>
व्य क्त
प ु</w>
न िया</w>
उत ्पा
श ं
ल ं
ए टि</w>
आर्थ िक</w>
वा ला</w>
वा द
ंद ा
म ति</w>
वि ट
र हे
द ृ
त क
रा ं</w>
आर ओ</w>
क्किऱ तु</w>
डिय ो</w>
बिश् ब
त्त ा</w>
वर ु</w>
त्ति य</w>
य़ ो
य र</w>
सु रक्षा</w>
न् ऱ
ट िया
पॆ रु
नरे न्द्र</w>
मह िला</w>
म ंड
ऱ् ऱ</w>
य ो</w>
यि रु
गा र</w>
बे कु</w>
ती य़</w>
ख़ ु
उ ल
ता के</w>
म रि
तर ी
ङ्ङळु टॆ</w>
ता न</w>
न् ड
दक्षि ण</w>
द ृष्ट
ऱ ै</w>
ल य
ण ै
चिकि त्
ज ेर</w>
हि से
ऒ क</w>
त्ति न्</w>
ए ऱ्प
प ्ट
गि र
श्र े
ल ्प
मंत्रा लय</w>
मु झे</w>
एक टा</w>
कांग ्रॆ
व न
ब ह
प्रा प्त</w>
पु ऱ
िला ण्</w>
प त
था क
ळि ൽ</w>
थ िले</w>
ले कर</w>
् य़</w>
ची न</w>
रा म</w>
बिजॆ पि</w>
मद द</w>
ग ं
ह ृ
वे श</w>
जी वि
पा ल</w>
भ र</w>
जीव न</w>
ल ॆ</w>
का ं</w>
सा ले</w>
ष ि</w>
र्त ि</w>
वु दु</w>
रा ज</w>
हू ं</w>
ता क</w>
उप ल
पि टि
त्र ि
उ दा
क्र ा
कर ण्यात</w>
सि न</w>
ंचि न</w>
या ंनी</w>
ग ौ
i n
ल या
म रु
म ो</w>
को नओ</w>
च न</w>
ने ता
क्क ार
श ु</w>
तु म्
सू चना</w>
प रा
गळ ल्लि</w>
बां ला
उ ंदि</w>
च्छ ा</w>
क ह
स् ब
अभ ियो
ओ र</w>
त न्नॆ</w>
राहु ल</w>
ंदु कु</w>
त्त े
1 0
ध ो
मा नि
चॆय ्
इ रा
इंड िया</w>
ल ुं</w>
ऎ टु
ै क्</w>
ला भ</w>
च ि</w>
उत्त र
जि क</w>
जा ना</w>
त रु
न ल्लि</w>
ॆय ु
व ं
शु रू</w>
ैय ै</w>
यि रि
क ट्ट
पुर स्
क्क िय
आय न</w>
1 5</w>
ए हि</w>
ज़ ि
सं घ
पोली सु
श ुं</w>
ट र
हिसे बे</w>
स्ट ा
ए ल</w>
पि छ
ळ्ळ ार्</w>
पऱञ्ञ ु</w>
ब छ
वा ं</w>
तु ल
ख ू
म ता</w>
म्ह ण
ज ्य
सा क्ष
अध्य क्ष
प क्ष</w>
िय े</w>
पर े
स द</w>
न् ट</w>
च्च त्</w>
मा हि
मा ं
र हि
अ ट
ंत ॆ</w>
य़ ा</w>
हा गू</w>
बी जे
बा स</w>
ति रि
य क</w>
वा ह</w>
ट्र े
शिक्ष ा</w>
र ेर</w>
व िय
वर् कळ्</w>
मौ त</w>
क ल्
हमार े</w>
अव र्कळ्</w>
िया ं</w>
ङ्कळ िल्</w>
जि स</w>
नि रा
विधा न
मध ्य</w>
ङ् कु
देश ेर</w>
स ार्
म ळ
तॆ लि
ह ले</w>
सिनि मा
कार ा
दे ने</w>
ण् ड
प्प ्</w>
से वा</w>
ढ ा
हे ळि
ब ॉ
द िय़े</w>
हा य
त्त िय
ऎ ऩ</w>
पर ं
न म
जी त</w>
प डि
इस से</w>
प्र या
सू न</w>
ऱ ि</w>
या न</w>
च रि
ऎ ं</w>
अ द
जा ब</w>
सम्प र्
ु लु</w>
म ति
प्र क्र
कर ्</w>
ो म्</w>
ंद ा</w>
ता इ</w>
ना थ</w>
ऐ सा</w>
उपल ब्
क त</w>
राष्ट ्र</w>
स मि
म्प ि
के ले</w>
पॊली स्</w>
पोर् ट</w>
कर वा
क लि
जाए गा</w>
सी ं</w>
ार ि</w>
ति र
प्रत्ये क</w>
अ टि
उ ंड
न गर</w>
ी आं</w>
मੰ तरी</w>
का य</w>
श ल</w>
श त</w>
ग र्
अधि कारी</w>
प्र शा
सम र्थ
अ ंग
वु द
क्कु क</w>
ख े</w>
तो मा
श ब्
इ से</w>
क ं</w>
दे ओय़ा</w>
ंद ्र
िल ो
श ेर</w>
प्त ा
ज ल
यो गि
ज ल</w>
तॆ लु
न् स</w>
म ला</w>
उ म्
बे श</w>
बिष य़
नि ऱु
उदा हर
कांग्रॆ स्</w>
ंच ु
न डॆ
ट म्</w>
क्क ै</w>
पु तिय</w>
पू री</w>
ल ू
ए ख
ध न
च ल</w>
त ौर</w>
वर ॆ</w>
य त्
स्थ ्य</w>
ग्रह ण</w>
निर् बा
प्रधान मन्त्री</w>
स ृष्ट
ि रु
पर ्या
टि र</w>
ੱ ख</w>
, 000</w>
त द
प त्
न्या या
निश्च ित</w>
दी आं</w>
स रि
अनु भ
ख ्या
आ यो
के ट
उ ੱ
हय़े छिल</w>
मि क
करे ं</w>
उप स्थित</w>
वर् ष</w>
मा ऩ
नि न्न्</w>
ए फ
बि रु
केन् द्र</w>
ॊ रु</w>
ण् ट</w>
न म्
बि भिन्न</w>
चे शारु</w>
ने र
त् ब</w>
परी क्ष
र् ड</w>
ब ्रा
कळ ुं</w>
अ मॆ
प त्र</w>
ंड ु</w>
पॊ रु
1 2</w>
फ ़</w>
शि व
आ ग
प्प टि
द् धि
रुप ये</w>
का ही</w>
दि के</w>
ए र
रि य</w>
स्ट ि
ज म्म
२० १
3 0</w>
पु रु
ला ख</w>
उ ण्टा
क ऴि
ङ्ङ नॆ</w>
त्त ्
कॊ टु
दर् ज</w>
कर ण्या
श री
मा ल</w>
बि जे
उ ठ
गु लो
का नू
इ ੱक</w>
ह में</w>
वि शेष</w>
त ल
मौ जू
व्य क्ति</w>
मे रे</w>
ॆय न्नु</w>
कॆ ल
मार ी</w>
के ला</w>
ला इ
म्प ा
ख बर</w>
जै से</w>
सा ल</w>
सम ी
उ य
संद र्
गु लि</w>
मा डु
दे र
तु म्</w>
अ नि</w>
ज य
ज र्
स् कू
गु लि
ऎ न्न
प्र कार</w>
वि चार</w>
क श्मी
स़ ु
पोली स्</w>
का नी</w>
प्रका श</w>
भी र</w>
स्ट ्</w>
a n
त्र ी</w>
िय़े छेन</w>
प्र स्ता
सामा जिक</w>
सम य
परं तु</w>
अ ञ्च
द्ध े</w>
ार ं
व ड
प क
सि क</w>
अ ब</w>
केन् द
ंद े</w>
फ ल
ं त्र
2 5</w>
अल ग</w>
करो ड़</w>
न तु
थ िला</w>
ङ्ङ ळिൽ</w>
त् वं</w>
ग ति</w>
या इ
र ल</w>
ग्रा म</w>
अयि ते</w>
वि स्त
ने तृ
इस में</w>
स् थ</w>
बीजे पी</w>
उ त्
ज़ ा
न् ड</w>
भार ी</w>
वरु म्</w>
ऎ ऴु
त् मक</w>
च म
क् यो
यि हो
बैठ क</w>
अद्देह ं</w>
क ै</w>
श् वर</w>
र ੱ
कार्य क्रम</w>
गठ न</w>
रु न्तु</w>
म ऩ
तॆ र
सम झ
नि ङ्ङൾ</w>
हाला ंकि</w>
क ൾ
प्र कार
त ै</w>
आप नि</w>
र ों</w>
ले ल्या</w>
ना नु</w>
दि न
परि वार</w>
दु इ</w>
कळ ुम्</w>
पक्ष े</w>
का फी</w>
य खन</w>
अ रु
वि ध</w>
चा ला</w>
सिनि मा</w>
भूमि का</w>
ख ी</w>
ब ग्
जा ण
चुना व</w>
दू र</w>
कार णे</w>
ती र्
प्र वർ
व ർ</w>
घोष णा</w>
बे शि</w>
ल ू</w>
का श
पाइ ँ</w>
ऒ ंदु</w>
20 0
क ੰ
त् ब
न्न ॆ
उ ल्ले
र्त ्त
र ंग
नतु न</w>
ङ्कळ ै</w>
आ ल्ला
प्र मा
ङ ्</w>
कार ्या
परि णा
ग ै
य ल</w>
मृ त
व ऩ
टु त
मेल ुम्</w>
ह रि
ऱ्ऱ ु</w>
एम न</w>
फ र
उ ण</w>
सचि व</w>
ंद ी</w>
लो नि</w>
वि वर
बिष य़े</w>
क ट</w>
ला म</w>
ज ब
था के</w>
अमॆ रि
पा ठ
ंचि ंदि</w>
म ंदि</w>
अथ वा</w>
प न</w>
प्रति शत</w>
अ न्त</w>
स्तु न्नारु</w>
म र्
ण्ट ु
च िय
क ण
स्था नी
फो न</w>
वि ट्ट
ऐ से</w>
अनु सार</w>
ऩ ार्</w>
ल भि
य न</w>
च ट्ट
मो दि</w>
मा नु
म ज
फ ्त
क्कुक युं</w>
ट्टु ळ्ळतु</w>
स ारे</w>
न्ना यि</w>
अ से</w>
न नि</w>
प ੰ
भारत ेर</w>
र ं</w>
कर के</w>
त खन</w>
धार ित</w>
a t
ला का
ल ुम्</w>
इ ल्लै</w>
मीड िया</w>
की य</w>
ऎ ल्ला
अभि न
ब ारा</w>
शर् मा</w>
ति ट्ट
सि द्दारॆ</w>
ड़ ि</w>
वे ं</w>
ऎ नि
वि विध</w>
लि त</w>
अ गर</w>
क्क ो
ष ा
स लु</w>
वी डियो</w>
न व
ग ु</w>
ऎऩ् ऩ</w>
श क
ऴ ै
छा त्र
प द</w>
बग् गॆ</w>
क टि
सद स्य</w>
प क</w>
मि ळ
प ता</w>
आ वी</w>
ੰ दर</w>
पऱ यु
ऎ स्
द ों</w>
ंग ्ल
ं ः</w>
ർ क्क्</w>
पि त</w>
आ दा
प्रति नि
ੱ ल</w>
ना म्</w>
का ब
ऱ ्च
इ ल
क्यो ंकि</w>
तॊ ऴ
केंद ्रीय</w>
ळ ॆ</w>
मु टि
म नुष
पर्य न्त</w>
ध ्
निय म
िया न</w>
खु ब</w>
वा स
उ ॎ
श क्ति</w>
वि ळ
ना म
सा ध्य
ए ल
चि ल</w>
ऱ िय
रि गॆ</w>
ळ ा</w>
य़ ा
क् स्</w>
न र</w>
संबं ध</w>
रि ंद</w>
उद् देश
को ൺ
पश्चि म</w>
सा मने</w>
1 00</w>
ड ॉ
बढ़ ा
मा त
ओ इ</w>
ज ु</w>
को ह
अ क
सु प्री
पु स्त
अ ऩु
य ्य
सद स्य
वे ष
ते ओ</w>
न ार
ड ्र
शि त</w>
फै स
द म</w>
ऎल्ल ा</w>
कपू र</w>
पार ि
ि त
प द्ध
ण ेर</w>
क्रि केट</w>
ति ळि
क मा
कर वामां</w>
अ भी</w>
ल र</w>
म रा</w>
आ र्</w>
फ ्
मुंब ई</w>
सि त</w>
इ ल</w>
वि त</w>
अव र</w>
क य़े
प्पो ൾ</w>
सं गी
धि क</w>
प्र यत्
वि रा
पि ता</w>
सु रक्ष
बिरु द्धे</w>
प्र िय
द रा
त ऩ
ट ुम्</w>
कृ षि</w>
न ई</w>
ळ ं</w>
ला म्</w>
उ च्च</w>
साधार ण</w>
डा निकि</w>
वि भाग</w>
मै या
य हां</w>
प्र स्तु
वा स्त
स हित</w>
कार ि
केन् द्र
न ः</w>
ट्ट िल्ल</w>
न्ना ण्</w>
नाग रि
कृ ति</w>
च ्या
ख़ु दा</w>
अ नि
क् स
थ ो
या द
त्ति रु
द् दा
त्या ंनी</w>
म ंदि
अ ंद
ति र</w>
कळि ൽ</w>
अभियो ग</w>
म क
कृ ष्
यु व
बे ह
त्त ी
ह मने</w>
हि न्
िय ुं</w>
बि क</w>
कॊण्ट ु</w>
ब ना</w>
न िया
मु म्</w>
सहा य
व टि
व ारु</w>
बै ंक</w>
क्क ू
त्तु व
क ड
ब रा
1 .
आ तं
महाराष्ट ्र</w>
त ेर</w>
प े</w>
उप योग</w>
ार ो
त ू</w>
हि स्
आर ं
स़ न</w>
कोर् ट</w>
र स</w>
आ ले</w>
व च
ा ऩ्</w>
व ण
न वी
रि त</w>
उस की</w>
मॊ द
प्प टि</w>
अ ळ
पोलीसु लु</w>
अप ना</w>
तुट ർ
के उ</w>
द ारी</w>
स्त ि
ी र</w>
प्र सि
श ू
सं रक्ष
अ न्य
ना वु</w>
उस ने</w>
हास पा
को वा
उम् मी
त िया
तु म्ह
ंड ्</w>
ह य़नि</w>
पू रा</w>
यहो वा</w>
अ ऩै
कोൺ ग्र
शिक्ष ण</w>
क था
मह िला
मा ऱ्ऱ
सि द्धा
के वल</w>
आरो प</w>
ल ॉ
पाल न</w>
ङ्कि ൽ</w>
ंड ा</w>
दूसर े</w>
तु मि</w>
सा ह
ट ार</w>
1 1</w>
कू टुत
क्र ी
ए का
ङ्ङळ ुं</w>
वार ि
का ण
ष्ट ु</w>
िय़ ार</w>
क ৰ
जिस में</w>
य़ ी</w>
प टि
ऎऩ् ऱ</w>
िला म</w>
जि न
a r
ल् ड</w>
e r
दे ह</w>
मू ल</w>
अ स्प
ष न्</w>
e n
हो गी</w>
मा व
ऩ् ऱ</w>
वि क
योग ्य</w>
उपलब् ध</w>
ੰ ग</w>
गु ण
घ ु
मो ह
न् स्</w>
न्न ू</w>
उ पर</w>
नु ंचि</w>
ह रा
श ्</w>
सि ൽ</w>
हत ुं</w>
कि य</w>
तु म
अ मि
वर ै</w>
ऴ ्</w>
किछ ु
ट ल</w>
िल्ल ै</w>
इ ल्ल</w>
गळि गॆ</w>
ला ं</w>
क्षेत्र े</w>
व लि
मा नुष
1 2
ब्य क्ति
ई ल</w>
ियि ऩ्</w>
त्त ो
इ उ
परि स्थि
स्तु ंदि</w>
मह त्व
क युं</w>
इ तर</w>
हु ੰ
चर् चा</w>
अधि कार</w>
य ी
माध्य मे</w>
बा हि
ऎति र्
1 4</w>
ता ना</w>
श ै
वि भिन्न</w>
करे छिलेन</w>
कु ऴ
आ ली</w>
देश ों</w>
ंब र</w>
ॆ न्न्</w>
प्र य़ो
वा न</w>
थि बा</w>
रो ग
थ ी
उ ळ्ळ</w>
पा टु</w>
ब स
चे ष्ट
री ते</w>
आ म</w>
ज रु
प ्या
सि ंग्</w>
सर कारी</w>
सि दरु</w>
शी र्
इन् तिय</w>
प्र दर्शन</w>
स रा
प ्ला
प्प ट्ट</w>
आ फ
अ ळि
म्प ो
निर्ण य</w>
समस ्या</w>
ह ्या
करे ंगे</w>
जान कारी</w>
सा हि
प्रा थ
ब्यब हार</w>
या यिरुन्नु</w>
अ न्या
ट्टु ळ्ळ
न् द</w>
क िलो
प्रश् न</w>
अ फ
क्कि ऩ्ऱ
व च्च
के इ</w>
ङ्ङൾ क्क्</w>
जब कि</w>
प्र ारं
ब ड़ी</w>
भा ल</w>
न् ता
ियि रु
न जर</w>
क ंग
इ व्
अप रा
आ दि
द ॊ
आ धार</w>
अ टु
म तो</w>
स्वा स्थ्य</w>
वि ल
तु ंदि</w>
हा ँ</w>
को सं</w>
प छ
देर के</w>
ए ऱ्ऱ
न गर
इ स्त
पोली स</w>
परि स्थिति</w>
ब ड़</w>
य ारा</w>
स न
अला वा</w>
ल्ल ा</w>
मॆ न्न्</w>
कि ं
उ चित</w>
च म्प
पा त्र
ल क्ष</w>
क्का ർ</w>
अर चु</w>
नी ङ्कळ्</w>
उ ण
कू ट्ट
न म्म
20 20</w>
मुत ल्</w>
इस लिए</w>
ठ ी
िले क्क्</w>
इति हा
ठ े
फ िल
बि त</w>
चित्र ं</w>
ग्र ह</w>
ना थ
आ म्
ज णा
म ल
ने नु</w>
सं युक्त</w>
रू पा
ब ेर</w>
ली वु
ॆ गॆ</w>
र ्य
त थ
क्का ऩ</w>
सा हाय
ो र</w>
इ ंट
त हत</w>
तै यार</w>
अर् थ</w>
प ङ्
ले ख
पुरस् कार</w>
प कु
प थ
क्ष मता</w>
ग ति
त ुं</w>
ऴ ्च
सा ंग
दे खा
उन का</w>
विश् वास</w>
वि क</w>
वृ द्धि</w>
त रि
ठ िक</w>
द्यो गि
इ ੰ
आप नार</w>
हृ द
प ड़े</w>
दाख ल</w>
1 6</w>
ऎ ऩ्ऩ
बना ने</w>
ं क
1 8</w>
न् द्र
ंच ्या
दे शि
स्प ष्ट</w>
ता यि</w>
खि आ</w>
मा झ
शा ह</w>
झा ला</w>
उ रु
द् बारा</w>
व्यव स्था</w>
श त
अ तु
० ०</w>
्प ्प
मूल क</w>
क् टर</w>
विश् व</w>
त्या ंना</w>
दिੱ ता</w>
ज ना
्ल ो</w>
प्र ती
कुऱि त्तु</w>
पा ट
गा न्
ण्ट ि
यॆ हो
ङ्क िलुं</w>
ह ल
नै तिक</w>
ब ्</w>
व्य क्ति
इस का</w>
जि न्
कॊळ्ळ ु
आप ण</w>
चि ऱ
लि ख
ट् वी
ह ेर</w>
समू ह</w>
त न
झा ले</w>
वि टॆ</w>
उ ठा
स्त र</w>
4 0</w>
अ क्ष
स्त ्री
स त</w>
दि खा
पु रा
मृत्य ु</w>
बा द
चे य़े</w>
कर त</w>
चाल क</w>
सि ंदि</w>
क ऴ
स्प ि
आ ने</w>
ट ू
वि टु
दि ंद</w>
क्कि य</w>
च ले</w>
का श्मी
ला ल</w>
पिछ ले</w>
लिय े</w>
ंग ी</w>
श के</w>
को ण
वा दी</w>
पिर तम
्र ी</w>
स्त ्र</w>
मार ्ट
बी र</w>
नि जे
ब ੰ
श ्य</w>
मो दी
े इ</w>
सामा न्य</w>
दु निया</w>
है दरा
ष ्य
ं ट्</w>
त व
क्ष ण</w>
दिੱ ती</w>
सं स्थान</w>
श हर</w>
o r
ण ु</w>
इ ंग्ल
न्न िल्ल</w>
न ल</w>
ऩ ुम्</w>
निय म</w>
श र
हि ं
उ ळ्ळतु</w>
स्त ो
रे ल
कर बे</w>
ग ल</w>
बि द्या
वॆ ळ्ळ
इन्त िया
आ रा
को र
आ वे
त म्</w>
अव ൻ</w>
ज र
दा य़
कु ऱ्ऱ
विरु द्ध</w>
न टि</w>
ळ ु</w>
वि शेष
कर ु</w>
तोमा देर</w>
परि ष
क न
1 8
वॆ ळि
परमे श्वर</w>
ना य़</w>
सम स्त</w>
वा नी</w>
त्त ॆ
बद ला
कृ तिक</w>
र् गत</w>
प्र चार</w>
प्पु डु</w>
मु ऴु
ज ार
ल लो</w>
फ ्रा
ं टि</w>
पू र
लोक सभा</w>
ल भ
कुमार ्</w>
हो र</w>
अ सीं</w>
ल िल्ल</w>
कर् ना
सं स
परी क्षा</w>
समर्थ न</w>
संबं धित</w>
ति रॆ</w>
गि न</w>
1 3</w>
ख ्
वा गिदॆ</w>
आ द
ऱ ो
अ मित</w>
ी देर</w>
ब स</w>
ंद नि</w>
न र
स ड़
ॉ र्
त्ति ऱ्कु</w>
सा धि
स्ऱ्ऱ ्</w>
ड र</w>
जवा ब</w>
सर् व</w>
राज ी
या वु
न ग
शा ं
अ दा
धी न</w>
रि पोर्ट</w>
श क्ति
व ऴि
201 9</w>
निऱु वऩ
त ल्</w>
क्क ै
ङ्ङ ि
चॆ प्प
हासपा ता
अ ंदु
उ ऱु
त ब</w>
सा ध
थ ई</w>
से न</w>
नु ळ्ळ</w>
एख नओ</w>
ग ़
घे त
उं टु
फ ले</w>
हत ्या</w>
छ िलाम</w>
ऐ ੱ
ध्या न</w>
ना ण्</w>
थ ि</w>
इ आ</w>
सा लेर</w>
ति न</w>
क हि
म् प</w>
201 8</w>
े ं</w>
च िल
अभि ने
प्र ार्थ
हि सा
म ल</w>
च ला
ङ्कळु क्कु</w>
ब ंगा
मार ु
ञ्ञ ॆटु
द ॆ
प्रे म</w>
ता ओं</w>
व स्तु
ज्या दा</w>
नु क
मु ऩ्ऩ
ैय े</w>
ंदि न</w>
ज य</w>
अमै च्च
फिल् म
कल ्या
आप ल्या</w>
ख ्रि
i o
दे न</w>
ते इ</w>
प्प ट्ट
चे र्
झा ली</w>
7 0</w>
कंप नी</w>
शी ल</w>
िय न</w>
1 7</w>
क भी</w>
हो य</w>
टा इ</w>
कश्मी र</w>
आ यु
का श</w>
ए ते</w>
वरु किऩ्ऱ
गं भीर</w>
वरु ं</w>
का ँ
प्प त
आ देश</w>
कर छे</w>
अल्ला ह
त्त ार्</w>
ർ च्च
कर ती</w>
द् बि
भ ्र
प्रधा नि</w>
कर वा</w>
स्प र्
कि टै
छ ु
पा ർ
ै त्</w>
अं तर
त्या मुळे</w>
आ गा
त्ति दॆ</w>
ब ड़ा</w>
उप योगि
य ार
निर् देश
कु ऱ
अ र</w>
वा ऴ्
माहि ती</w>
ऑ फ</w>
1 ,
य़ न</w>
ष्ट ा
आ शु
रा क</w>
हि ँ</w>
मौजू द</w>
स के</w>
नी वु</w>
बि ज
कॊण्ट ु
त मा
पोलि सा
बिद्या ल
ण ै</w>
देख ते</w>
जा ते</w>
फ ल</w>
तु का
क ण्
न्न ा</w>
मर ण
1 5
मु स्
भाष ा</w>
अ पे
न टै
सं शो
ब ने</w>
ब्यब स्था</w>
ला इन</w>
पा न</w>
भारती य़</w>
विज य
चेष्ट ा</w>
का दु</w>
ह ों</w>
स्थ ळ
तं त्र
कुटु ंब
ख र्
से खाने</w>
सक ती</w>
छा ड़ा</w>
मेल ॆ</w>
अ क्क
ल ने</w>
छ बि
कॊ ंडि
ध र</w>
भा ई</w>
रु ं</w>
कॊ ण्ट्</w>
कुऱि प्पि
त मे</w>
प ंत
स रु</w>
म ही
प्र णा
बं द</w>
भ विष
ट ेर</w>
अव सर</w>
कु ल
वा ग
प ढ़
जन ता</w>
चि त्र</w>
आरोग ्य</w>
पि रि
कर्म चार
नी डि
्ल ि
ती य</w>
विरो ध</w>
अस्प ताल</w>
पि ऱ
क त
गे छे</w>
क थ
अल्ल तु</w>
प थ</w>
दि क</w>
े छे</w>
ध े</w>
वरु किऱतु</w>
ल ता</w>
व हीं</w>
कोवि ड</w>
स प
ग ेर</w>
भू मि</w>
आ त</w>
आ ला</w>
दि ओ</w>
बं धन</w>
इ ऩ्ऩ
ॆ य</w>
मा ർ</w>
ध ारा</w>
बा ल
ह मे
ड़ िय़े</w>
आत् मह
संभ व
ङ्ङळ ॆ</w>
ए फ</w>
रा व
ट् ल</w>
यि ऩ्</w>
र् जा
आ ल
इन्त्य ൻ</w>
बछ र</w>
2 1</w>
जा ती</w>
्ल ो
ज ल्
मा ल
िय ॆ</w>
अ दि</w>
सु व</w>
मे ऱ्
निय ंत्र
िल ी
उद्यो ग</w>
ब जा
पा तुका
उ च्च
उ भ
विधान सभा</w>
तो मार</w>
तर फ</w>
कळु टॆ</w>
च ार्
द ੱ
दे य़</w>
फ ा</w>
मार् ग</w>
ड ू</w>
गु त्तदॆ</w>
ला य़</w>
दिव स</w>
दि ते</w>
ज हां</w>
ब ला</w>
देश े</w>
अ ੰ
ब ळ
ठ े</w>
न् द
उ ण्
राज ा</w>
मक्क ळ्</w>
त ट
ब ੱ
दी प</w>
वा गि
बर ेर</w>
ऎ ंद
टे स्ट</w>
उत ्प
अमेरि का</w>
मात्र ं</w>
क्क म्</w>
कृ त
न् हा</w>
आ शा</w>
म ण
स ारा</w>
अ द</w>
मा ट
लो कां</w>
तो मरा</w>
यात्र ा</w>
पु ल
कु ऱै
मानु ष</w>
कळ ॆ</w>
त ः</w>
प्र वे
बा हर</w>
ख री
आप को</w>
मज बू
पिरतम र्</w>
म त्
न्या य
महत्व पूर्ण</w>
माध्य म</w>
संख ्य
िलु ळ्ळ</w>
नि ग
म हे
न ल्ल</w>
िलि रुन्तु</w>
उ ऱ
म ारा</w>
म िल्ल</w>
य् क्क्</w>
चॆय्त ि
घटना स्थ
इत िल्</w>
ब लि
न ॊ
परि बर्त
स्ट ो
भाज प
तं त्र</w>
क टि</w>
क ले
म ना
भार ता
गा गि</w>
सि द</w>
हो त</w>
रि हा</w>
य़ ार</w>
फा य
अऱ ियि
बहु दु</w>
सं स्था
घट न
दे व
आ ण
बा अद</w>
सं स्थ
अ प्प
तरी के</w>
भ ग</w>
अभ ्य
बा न</w>
२० ०
पो स्ट
ट ्लु</w>
पह ली</w>
यु द्ध
आशु पत्र
ज़ र</w>
क्क ळ
ड ो</w>
कुटु ं
कॊ ळ्
आ ट
ने ट</w>
बिजे पि</w>
गा य
सं विधा
रो ध</w>
ल गा</w>
क ख
उत्त म</w>
न्त ार्</w>
य ु</w>
लग भग</w>
ऎ न्न</w>
प्रवർ त्त
अव सर
न्ऱ ्</w>
निय ु
ण् ड</w>
दू र
ठ ा</w>
क ठि
वੱ लों</w>
्य े</w>
लि आ</w>
ध रे</w>
नि म
त्त िलॆ</w>
मार ा
मा ता</w>
समि ति</w>
ंग ्
ऱ्का ऩ</w>
इ म
ऎऩ्प तु</w>
वर ण</w>
िल्ल ा
दि ए</w>
पि न्न
तॊ ट
ल तो</w>
पा ओय़ा</w>
बन् ध</w>
आ ज
दी ंतो</w>
सम् भ
मु ੱख</w>
2 4</w>
स लि
मु क
हो ंगे</w>
मी रु</w>
से वा
मु ऱै
वि व
हि ंद
अल्ला ह</w>
िया क</w>
म त्तिय</w>
न ए</w>
आ क्रम
कर्त ा</w>
विद्य ार्थ
तु र
यु द्ध</w>
गुज रात</w>
न ू</w>
सह योग</w>
ल िल्</w>
म् मि
अ ल्ल</w>
201 7</w>
क्र ो
वे ऱु</w>
ब त</w>
करु न</w>
ऒ ऩ्ऱ
वि त्त
़ ्या
मिल े
आमा के</w>
कु ं</w>
ऎ र
ग िय़े</w>
घटना य़</w>
ट्टि रु
मु ता
र्त ि
ता प
पा लि
न म्म</w>
दु ः
करे गा</w>
ध ु</w>
सि ल</w>
सि ने
इन् त्य</w>
मध ्य़</w>
ताँ के</w>
म ऱु
ब ड़े</w>
स मे
य िलॆ</w>
2 2</w>
हमार ी</w>
जम्म ू</w>
के स</w>
टि ंग</w>
यावु दे</w>
उन् नायि</w>
ब िल
ळ्ळ ऩर्</w>
जिल्ल ा</w>
जा तीय़</w>
पर ियो
चे सुकु
ए खाने</w>
ट् स</w>
अ ੱ
कि सा
भा र</w>
1 4
मे री</w>
अनु मति</w>
मॊ त्त
यु क्त
ड ै
ർ त्
आ श
या बे</w>
जन क</w>
ये ते</w>
स्त े</w>
स भ</w>
निय ो
प रु
ह ुं</w>
प्रश् न
न ारा
ब्या ं
प ल्
ी ए</w>
म ैय
अव ु
हा थ</w>
वि देश
ड् ड
धर नेर</w>
6 0</w>
आ य्
नु ंडि</w>
मूल म्</w>
को रो
भाष ा
ला क</w>
फि र
तै रि</w>
क्क ण
कल् प</w>
पत् नी</w>
मंत्र ि
प्पट ुम्</w>
आत् म
ग ल
य ॊ
ग्रा मी
मु ळ्ळ</w>
निर् देश</w>
टु त्तु</w>
प ारु</w>
रि क्त</w>
आ ए</w>
आ ग</w>
ज़ रू
अं श</w>
अ ग्र
र स्</w>
पि ऩ्
इस की</w>
गिर फ्त
ग ार
न्ना डु</w>
स्था ना
के सु
ं टु
हासपाता ले</w>
ध ारा
आम ॆ</w>
ख र
आरो प
व च्चु</w>
प राम
च ंद्र
साहाय ्य</w>
केंद ्र
क डे</w>
पॆ ऱ्ऱ
पू ർ
ल ड़
बि शेष</w>
स्त्र ी</w>
व्य क्त</w>
ला गिदॆ</w>
भा लो</w>
ज ना</w>
मै ंने</w>
ै च्</w>
गृ ह</w>
प टि</w>
वे ळी</w>
स़ ि
आ व्य
प ड़ा</w>
अ दु</w>
अभि नेता</w>
कि र
म्या न</w>
पा क</w>
पी एम</w>
से व
ड् डि</w>
सർ क्काർ</w>
मै च</w>
क मी</w>
क् य</w>
लो को
ब इ</w>
कट ्च
तद न्त</w>
टे ड</w>
क ट्टु
ल नि</w>
्री य़</w>
धि कार
राज्य ों</w>
इ ऱ
ताँ देर</w>
क्कुन्न ति
र् जा</w>
िया ण्</w>
हा द
ए से
ब द्ध</w>
आ न</w>
5 00</w>
लक्ष ्य</w>
ण ॆ</w>
ल ੱ
आ दि</w>
श ो</w>
मार े</w>
क्क ൽ</w>
त कव
मार् ग
र ण्ट्</w>
ता कि</w>
अन् वेष
आतं क
स् बी
गु र
या क</w>
पो यि
राज ्या
ळ्ळ ि</w>
संबं धि
क् सि
ऩ ा</w>
नम् मु
पॊ तु
सो शल</w>
प्र सा
ला गू</w>
प्र दा
ट्र ि
हा इ
सि द्ध
ंद ो
म्प ु
वुद िल्ल</w>
किऱ ार्</w>
नि ज
एऱ्ऱ वुं</w>
प ॆय
प्रक्र िया</w>
जा ं</w>
गौ र
ळ्ळ ि
प्रा य़</w>
मा जी</w>
य दिओ</w>
़ ्या</w>
आ न्
श ता
बार ेर</w>
रि क्कुन्नत्</w>
ज ॆ</w>
म् बर</w>
अधिकार ियों</w>
इ सी</w>
क्क ा</w>
ला व
इतिहा स</w>
या द</w>
ब ल्
म ल्</w>
कूटुत ൽ</w>
ना हिँ</w>
य ॆ</w>
या त</w>
सी बी
मिल ी</w>
सं पर्
वा ट
हॊ ंदि
ंदि गॆ</w>
ऐ सी</w>
ग ू
ऩ म्</w>
चिकि ॎ
न्न ति
ार ी
अ जि
ते ल</w>
त्र ा
ऎ ऩ्</w>
उ प</w>
सम स्य
ल न</w>
म्म द</w>
यहो वाह</w>
जीव न
च्च ि</w>
ब चा
ता लि
पूर् व
शेष ं</w>
क म्प
चित्र प
नो र</w>
आ न्त
बिश् बास</w>
वि मान
प हे
ए र्
दी र्
पय ऩ्प
१ ०</w>
समस ्या
आ स्प
वा प
त ून</w>
मनुष ्य
न मु
पा नी</w>
वे गा</w>
क ർ
सी मा</w>
पा णी</w>
अ टै
ल्ल ु
अति रिक्त</w>
त्त ारॆ</w>
नൽ क
द िय़े
न ड
चल च्चि
व् व
2 .
फ ्र
मन स्
स्प े
िल ू
वा लों</w>
अ ग्
म रा
रुप ए</w>
s t
ळ ी
व ल्ल</w>
रि क्कुन्नु</w>
चा न</w>
मे रा</w>
अवरु टॆ</w>
प्रति क्र
ड़ ्
डि ओ</w>
ग त
आरो पी</w>
मुस् लि
नि री
उस का</w>
सम् मेल
दे स़</w>
वर कु</w>
न्त ो
म ल्ल</w>
्त ा</w>
परिणा म</w>
मं जू
खू ब</w>
िय ै</w>
मी तु</w>
ख र</w>
स ना</w>
टे ल</w>
नट वटि
ष ा</w>
हो ए</w>
पे र्</w>
क्षे प</w>
न न
ऱ्का क</w>
भाव ना</w>
ए श
निर् मि
1 3
स क</w>
म त्त
क्य ों</w>
ब ्य</w>
दे ह
व ू</w>
सर् व
उल्ले ख</w>
नि षे
a l
र् स</w>
ा त</w>
र न</w>
ट्ट िल्</w>
ं तर
दे ते</w>
प्र वा
च्चि न</w>
ड ॉ</w>
पो रा
ट क
क्षेत्र ों</w>
रे ल</w>
प्र शं
क्र े
दा बि</w>
ती रु
अभिने त्री</w>
ह ार्
फैस ला</w>
हा न</w>
अन्या न्य</w>
म सी
िल ॆ
च ों</w>
संख ्या
ञ्च ा
प्रभु त्वं</w>
ईश् बरेर</w>
अभ ियान</w>
गुज रा
प ੱ
पੰ जाब</w>
क् ला
ऒ प्प
देश ं</w>
म नि</w>
धर् म</w>
अ च्छ
मा ർ
द श
कु झ</w>
उदाहर ण</w>
प्ल े
समा ज</w>
ई ए</w>
ट्र ं
ङ्कळ ि
म र</w>
ङ्ङळ ा
गु रि
क्क ू</w>
वि र
स ो</w>
अ य
इ ल्ल
मे डि
अस ल्या
तॆलि पारु</w>
प्रो त्
मा यिरुन्नु</w>
क प्</w>
कू ऱ
क्कुक याण्</w>
राज धा
i t
आ धारित</w>
स् ने
का णि
कोൺग्र स्</w>
य ू</w>
उ द
यो गा
कै से</w>
का न</w>
यो जन
त नि
से टा</w>
करे छिल</w>
स मान</w>
मु टिया
सार् वज
ही त</w>
का व
र ै</w>
20 0</w>
दे वा
रु म्</w>
ग्र ी
उ न्न</w>
यि तु</w>
जाना न</w>
कु न्नु</w>
न वी</w>
िय े
ह ओय़ार</w>
को ण</w>
अथ बा</w>
च ार्</w>
मी न</w>
र सू
ग ो</w>
प्र माण
ंद र</w>
इ ळ
फ र्
स वाल</w>
प्र कर
यो गी</w>
पा ंच</w>
म ऩ्ऱ
्र ो
व ऩ्</w>
प्रस्तु त</w>
सल मान</w>
इ प्पटि
पू रे</w>
क्कु ऱि
उंटु ंदि</w>
उद् धार</w>
वा क</w>
वध ु</w>
ली न</w>
ति म</w>
पार ि</w>
ऱ्ऱ ा
फो टो</w>
आ धु
्ल े
r e
पुरु ष
बा बा</w>
वै द्य
ऎ न्ऱॆ</w>
मा ंग</w>
ब नी</w>
ंग ळ
आ ण्</w>
र ं
ला ई</w>
बि हार</w>
ते न</w>
न्ति रु
व त</w>
प्रधान मन्त्रि</w>
अ ंदि
फ ार
य ेन</w>
ऎ ण्
वरि ष्ठ</w>
बो र्ड</w>
वर ि</w>
ट ार
जा ए</w>
बा कु</w>
परि शो
ज ों</w>
२ ०</w>
म न्
म ण्ड
आप णी</w>
मान िल
लै ंड</w>
श क्त
चि ं
निल ै
वलि य</w>
लि मि
सू च
छ बि</w>
जन् म
एम न
आयो जित</w>
ू र्
व म्</w>
अ ध्या
नि म्म</w>
गुलि र</w>
स त
प्रति ष्ठा
व ार्
सा य
नि वड
वार ि</w>
स ही</w>
घा यल</w>
ण्या साठी</w>
वि श
कट वु
तुट ङ्ङ
आ ब
मु द्
सा त</w>
पृ थ
ती सुकु
ता य़</w>
ङ् कर</w>
शा ल</w>
ह ौ
रॆ ंडु</w>
ते ने</w>
दो ष
क्कु प्</w>
स बु
शु रु
क् ता</w>
वि भा
दि त</w>
व ्र
जे ला</w>
कू ल</w>
इत ऩाल्</w>
स दी</w>
चे ർ
प् प</w>
आवश्य क</w>
ल ते</w>
अ त्या
प्राथ मिक</w>
जिस के</w>
से च</w>
तुटർ न्न्</w>
मा य
मूल ्य</w>
वि ज्ञान</w>
झ ु
ग्र ी</w>
आलो चना</w>
आ हत</w>
लो को</w>
सम र्
अ का
तथ ्य</w>
सि दॆ</w>
किलो मी
व ों</w>
ए च
प्र त्या
ने ट
म्ह णा
कु न्न</w>
वी र</w>
चॆ ल
घट नार</w>
विष य</w>
आ म्</w>
त रा
स्प ष्ट
सम यं</w>
मृत्य ु
ग ड
ओ पर</w>
जन ेर</w>
ना मे</w>
ओ ने</w>
इन्त िया</w>
न मो
पर ्</w>
ल्ला ं</w>
विश् वा
प्प ट्टतु</w>
कु रि
न व्
संभ वि
जा त</w>
छ ो</w>
स्त ु</w>
आरं भि
से ल</w>
क ैयिल्</w>
उੱ ते</w>
सी सी
आ ता</w>
द न
ए हा</w>
इरु क्कुम्</w>
ञ् ञ</w>
तुम्ह ारे</w>
जि न</w>
स त्य</w>
त न्न</w>
ऴ्च ्च
इ स्
जाए गी</w>
प्र चार
डि जि
श ह
क देर</w>
कॊण्ट िरु
अत्य ंत</w>
ष ൻ</w>
सु त्ति
रा र</w>
जी बन</w>
ज ्य</w>
ु त</w>
अं श
ळ र्</w>
पा ति
प्र भ
टा इ
उत्पा दन</w>
सृष्ट ि
श िल
अम री
च र</w>
चॆय ्या
नि च्च
च ं</w>
ए का</w>
था य</w>
नाग रिक</w>
वा ढ
्या स</w>
पंत प्रधान</w>
0 0
वर ी</w>
कू ऱि
त्या ला</w>
को शि
ए खन</w>
म िय
बांला देश</w>
मे ंट</w>
त ना</w>
रा ह
मुख्य मंत्रि</w>
कु लु</w>
हर िया
ण ो</w>
वऴ ङ्क
वी र
ग्रामी ण</w>
पै दा</w>
क्का क</w>
क नि
सु वि
प ऱ्ऱि</w>
गुलो र</w>
से ना
मु टिय
जि से</w>
वा ർ
क न्
प णि
ब यान</w>
1 7
ञ्ञ ु</w>
टि य</w>
बह ु</w>
सि र
स्ता न</w>
प्पॆ ट्टु</w>
बन् धि
मा ता
पॊली सरु</w>
सं घ</w>
ज िले</w>
न वा
सला गिदॆ</w>
देख ील</w>
चे सिन</w>
कੰ म</w>
जो र</w>
उरु वा
इ ले
त पास</w>
ळ े
धर् म
इस्त े
ता हले</w>
ना टु
झ ा</w>
चि य</w>
र् य</w>
आ इ</w>
न न</w>
वु क्कु</w>
श हर
ऎ न्न्</w>
क दम</w>
नि न्नुं</w>
याइ छि</w>
अ द्
नी ड
इस ्रा
बच्च ों</w>
न र्
मां थी</w>
व ൻ</w>
सृष्ट ि</w>
ब ौ
क ऩ
o n
सि आ</w>
त्ति र
i c
मरु त्तुव
इऩ्ऩ ुम्</w>
ऱ् कु
ती त</w>
सू त्र
सि टी</w>
ग ं</w>
प डु
ार् थ</w>
आ द्य
सि र्
इरु क्किऱतु</w>
नि वे
सं प
के ल</w>
ध ्या</w>
प्र ौ
या ंच्या</w>
पू र्ति</w>
जान ते</w>
ऱ्प ो
गॊ ळि
ळ ्ल
पॊ लि
ल्ल े</w>
रह ्या</w>
ठी क</w>
a m
इस्ते माल</w>
ए नु</w>
सं गठन</w>
यिहो बार</w>
पछ ी</w>
व कु
पं जाब</w>
ऐ ति
राज कीय</w>
ति ऱ
वा ऱु</w>
स्त ि</w>
दिल ी</w>
व ट
गे ल</w>
र च
ज़ ी</w>
ड ्रा
प्पॆ ट्ट</w>
दे ता</w>
गिरफ्त ार</w>
बिष य़</w>
वा हन</w>
ब् य़
तु हा
1 6
ब ो</w>
भू त</w>
प्र ै
हो ना</w>
त् वा
अ च्छा</w>
मु क्त</w>
द क</w>
फ ्रे
कळ ैयुम्</w>
बं ध</w>
ले ने</w>
मि श्र
पत्र ि
बाइ बे
मिल ा</w>
संदर् भ
मा इ
से रि
दे व</w>
दि ल</w>
कर्ना टक</w>
न ही</w>
आगा मी</w>
प् ৰ
न ष्ट
क्ष ा
मु न्न
स्ऱ्ऱ ि
क्का ं</w>
जन् म</w>
बन्ध े</w>
इ ष्ट
त्र ि</w>
आ त
मे ल</w>
नुक सान</w>
तॆरिवि त्तु
नि जेर</w>
क ष्ट
प ट्टि
तॊटर् न्तु</w>
चर ्य
त ियों</w>
क्र मा
द्ध ा</w>
व ारी</w>
अ प्पो
भार ती</w>
मानुष ेर</w>
हिस् सा</w>
ऱि प्पो
ग् र</w>
बा इ</w>
जु न</w>
न्त ै
बा जार</w>
ते ं</w>
अनु ष्ठा
स्प ी
सु रे
स्तो ंदि</w>
मु ऩ्
वज ह</w>
जु ड़े</w>
ट् वि
र खा</w>
म्हण ून</w>
वि ൽ</w>
ट ों</w>
वि त्त</w>
सां स्
पिन्न ी
कार्य क्रम
हा त</w>
वि वा
ा ल्</w>
ग ्</w>
ष्ठ ित</w>
स्त ा</w>
पा व
यि क</w>
मा ना</w>
बि रो
नि ऱै
चित्र ा
ऩ तु</w>
उम्मी द
द लेर</w>
मा ना
शन ल</w>
ऎनि क्क्</w>
दो न</w>
ट ॆयुं</w>
ग्रा म
राज ्</w>
इ ंत
फा इ
नी य</w>
ॊ ंदु</w>
कार ्र
ब ार्
कि उ
य़ ार
त सेच</w>
वि भाग
गि ंदि</w>
अ क्
तर् वात</w>
त्र ु
म णि
ल ंगा
वळ रॆ</w>
प ती</w>
बा दी</w>
प्रया स</w>
हे गॆ</w>
स ों</w>
सार्वज निक</w>
पा ल्
स ੱ
एक इ</w>
लि दॆ</w>
मजबू त</w>
इरु न्तु</w>
e r</w>
दै व
जिल्ल ा
ं श</w>
टा का</w>
राज स्थान</w>
प डॆ
कर ्यो</w>
का ले</w>
नि ते</w>
नि शा
हिसा बे</w>
ध ्र
क्कुन्न ु
विज य</w>
वि ल्ल</w>
उ मे
समा धान</w>
कु ट्टि
मु य
अ ब्
सड़ क</w>
ल ्ट
ह य़
स प्ता
दृष्ट ि
कर बेन</w>
स हो
चर ण</w>
प्र माण</w>
य ौ
अव काश
ब णा
नि ङ्ङळुटॆ</w>
19 9
व ू
माम लों</w>
ट र्</w>
बिश्ब बिद्याल
रेल वे</w>
मान ं</w>
पार ेन</w>
आ योग</w>
वि देश</w>
विश्व विद्या
चॆय ्य</w>
ग यी</w>
का य़</w>
पो तु</w>
सरकार ेर</w>
ब य़
ल् प</w>
ॆय ्
समे त</w>
पा त्र</w>
लो ने</w>
बद ल</w>
व्या पार</w>
कൾ क्क्</w>
सर े</w>
ने ओय़ा</w>
ए जे
ऎऩ क्कु</w>
इ त्त
पा य
ट्च ि
वि स़
जा ति</w>
पूर् ण
ज ार्
चॆय्त ु
ऎ न्त
ओ य़े
अत ै</w>
सु ख
उ परे</w>
इ णै
सं स्थान
आफ ्रि
तु लु</w>
नि ऩै
चि न्
ञ ङ्ङൾ</w>
पा ँ
खा स</w>
स्तु न्न</w>
आ गु
न क</w>
जा न</w>
म ों</w>
ण् ण</w>
ए इ
आ सा
फ ू
विद्य ार्
ब ंद
चा हते</w>
शब् द</w>
वा य</w>
उद्देश ्य</w>
स्था पित</w>
कार्र वाई</w>
ट ुं</w>
सिद्धा न्त</w>
आरोग ्य
ऊ न</w>
िय न्नु</w>
ि र</w>
े ल</w>
क्कप्प टु
पि ता
लो का
चा ला
रा य</w>
पू छ
प वि
क क्</w>
क ू</w>
र क्त
पोलिसा ंनी</w>
भा व</w>
सू चि
ंग ्ला
प्रतिनि धि
अं तिम</w>
कर दे</w>
मु ल
प्रका शित</w>
तमि ऴ
त ारा
तेम णे</w>
द ल
बा धि
मीड िया
अदा लत</w>
नी तिक</w>
अ ख
पा सून</w>
रा नी</w>
बु झ
सु रू</w>
पे ർ</w>
पे ट्रो
शि ष्ट</w>
उ ൾ
निय ों</w>
प्त ि</w>
ज् ञ</w>
आम् ही</w>
वळ र्
स्ट्रे लिया</w>
क्क णं</w>
ग्रा ह
त्त र</w>
इ ट</w>
व ऱ्ऱ
अल्लाह ु</w>
सं स्था</w>
बल् कि</w>
स ल</w>
य ों</w>
सं श
कानू न</w>
कार न</w>
न् स
श िय
मी र</w>
सर् ब
इन् हां</w>
ड ल</w>
तर् हां</w>
प्र त
मे ळ
स्थाप न</w>
पा त</w>
भ ा</w>
स्ट ी
सम य़े</w>
णा ं</w>
क्किऱ ार्</w>
ते नी</w>
सम् मान</w>
बा ल</w>
गॊ ंडि
भ य
ल मां</w>
शिल ्प
इ न्न
त ऱ्पो
ङ् कि</w>
मुख्य मन्त्रि</w>
अल्ला हु
शि काय
साधार ण
धा न
बाब त</w>
मु ऱ
केन्द ्रीय</w>
प्प ै</w>
कॆ ट्</w>
चा इ</w>
ऱिप्पो ർ
ह ॉ
संबं ध
भ ग
ते ना</w>
हो ई</w>
बना या</w>
ण्या ची</w>
केर ळ
वि डु
पार े
परि च
लो के
दि नों</w>
बा ळ
पु ढ
ने न</w>
की भाबे</w>
जा ग
दाय़ ि
सिर् फ</w>
त्या ंच्या</w>
बे का
प ेर</w>
ध ू
ज़ ा</w>
रह ने</w>
स ारी</w>
व् हा</w>
चा इ
ग री
करी ब</w>
लु गा</w>
ल ौ
रो ज
मु ला
स् फो
्त ु
ब ्रे
चे सिंदि</w>
सु न
खु द</w>
चा ही
चरि त्र
सहाय ता</w>
ज ॊ
आ ंदो
io n</w>
ना ङ्कळ्</w>
अर चिय
आ या</w>
स़ ी</w>
को ंग
बा त
व्यव सा
ऎ ला</w>
खे ल</w>
क्रा न्त</w>
आ ർ
काँ ग्रे
ह र्
पह िल
आलो च
ङ् का
गृ ह
अऱि वि
वा ता
ल ड़ा
आ वे</w>
बा ड़ि
ले दा</w>
गु रु</w>
अ सून</w>
ंगळ ू
पे श</w>
शा ह
किऩ्ऱ ऩ</w>
पॆ ट्ट
समु दा
शा स्त्र
फ ्ट
संरक्ष ण</w>
यी शु</w>
मु ण्ट्</w>
ना कु</w>
कि त</w>
द ्रा
गुरु त्ब
बर्त ी</w>
म ण</w>
वत ऱ्कु</w>
मंदि र</w>
ऎ ल्</w>
कोरो ना</w>
चु के</w>
ग ੱल</w>
१ ५</w>
कि से</w>
जिस से</w>
कर्त ृ
ती आं</w>
विळ ै
त म्म</w>
अंत र्गत</w>
म ती</w>
प्प ं</w>
सि बि
क हा
तो ंदि</w>
परि वर्त
त ंड
पाकिस्ता न
प्र प
प्र कटि
बल ते</w>
उद् घा
त रां</w>
क न</w>
निच्च य
व हां</w>
्या त</w>
नि ऱ
अ ली</w>
गि त्तु</w>
सक ल</w>
त वि
हम ले</w>
भा ब
स् ना
पा त
ं का</w>
पुलि शेर</w>
प्पॆ ट्ट
कोट ति</w>
क्ष ो
स् क</w>
क प्ता
यॊ क्क</w>
प टु
देश क</w>
ती व्र
स था
स्ट ार</w>
नी य़</w>
8 0</w>
आधु निक</w>
ऎ न्त</w>
श ्या
सं बो
की ते</w>
दे ं</w>
म ट्ट
ू क</w>
बा द्</w>
इ या
ए ला
क्ट र्</w>
201 6</w>
ना त</w>
च्छ े
मु लाका
जम्म ु</w>
कू ड</w>
क् ट</w>
सम ारो
त ळ
आ मि
व्यव स्थ
ा ं</w>
मो बाइ
ऊ र्जा</w>
दि ग्
जरू रत</w>
मान व</w>
केन्द ्रीय़</w>
ष क</w>
मु ं
सु निश्चित</w>
पा ठा
मृ त</w>
ट री</w>
ल ट्च
दर ू</w>
न दी</w>
र कम</w>
िय़ा न</w>
कु ंडा</w>
र िया
घा त</w>
प ऴ
दे ख</w>
ले ं</w>
ॆ न्नुं</w>
न र्</w>
गा न</w>
उ द्ध
कल्प ना</w>
क् के</w>
र ॊ
सि ੱ
सां सद</w>
न्त र</w>
प्रणा ली</w>
नि ज</w>
अ न्नारु</w>
र िया</w>
एर पर</w>
ए लाका
कॊ ल्ल
रा य
पुन र्
को ल
क ला</w>
क्कप्प ट्ट</w>
कार वाई</w>
कि ंग</w>
प्रौ द्योगि
म ॆ</w>
ला भ
मि कवुम्</w>
कड ून</w>
शा सन</w>
त्त ुं</w>
क्क ं</w>
सु धार</w>
्त ाऩ्</w>
ंच े
ती सु
इ रु</w>
पर्य ंत</w>
नि मि
पोलि स</w>
नी चे</w>
सर् कार
सु योग</w>
द् दी
नी र</w>
प्र दर्श
आ बार</w>
सब चेय़े</w>
अत ऩ्</w>
हॆ च्चु</w>
योज ना
य ही</w>
स्वी करि
पो ता
श्रे ष्ठ</w>
किऱ ार्कळ्</w>
त ने</w>
ट्ट ो
सब ੰ
बिषय़ टि</w>
अ ल</w>
गा ने</w>
ऱि य</w>
स् वर
जा ण</w>
रो हि
पिऩ् ऩर्</w>
ৰ ्
व धि</w>
जा य़
मात्र मे</w>
दर ज</w>
मु ऱै</w>
र वि
ब य
कार् ड</w>
मि ळा
स्थ ल
ह लो</w>
न क
पृ थि
ग ण</w>
दि शा</w>
स के
ऱि ൽ</w>
निर् वहि
द ल्लि
याद व</w>
सांस् कृतिक</w>
छा ड़ा
च ੰ
सं तो
कोह ली</w>
िय ल्लि</w>
सांग ित
र मे
शा ली</w>
इर ण्टु</w>
क्रि य</w>
सम्पर् के</w>
मु ण्टा
रो हित</w>
कल्या ण</w>
कॊ त्त</w>
शि शु
ऎऩ्ऱ ुम्</w>
कण्ट ॆ
क याण्</w>
a l</w>
लगा तार</w>
म ॉ
प्र वेश</w>
थी ं</w>
करि बा</w>
ऎन् निक
प्रार्थ ना</w>
पिन्नी ट्</w>
जग ह</w>
न्त ऩर्</w>
पु त्र</w>
ले ले</w>
ग बे
आप ना
भार त्</w>
त न्नॆ
मा लि
विष यं</w>
हा सिल</w>
ज्ञ ा</w>
वच्च े</w>
च्चि ट्टुण्ट्</w>
प्रशा सन</w>
तमि ऴ्
ंड ु
रा ब</w>
शो क</w>
प्र शिक्षण</w>
स मां</w>
स वा
फ तार</w>
कि ता
ये मन</w>
त ला
ब्या पारे</w>
संगी त</w>
सर् वा
आ उ
द् वि
ब ारि
बि ना</w>
ते र्
र िली
पॆ ण्
बि ल</w>
रख ने</w>
न ं
इरु प्प
लीवु ड</w>
सरकार ि</w>
द् दि
अ ति</w>
र जि
मह त्त्
रु ग्
सं गठ
आल्ला ह
मो द
ब डि
ऎ दु
ताँ रा</w>
कार णं</w>
नियंत्र ण</w>
चि ह्
आन्त र्जा
था य़</w>
एक् स
पॊ ऱु
सु र
सा ब
आ कर्
सम्भ ब</w>
च मू
खा न
अ ण
द ർ
प्प ट्टु</w>
सं सद</w>
ੱ ट</w>
अ ह
ष ण
प्रय़ो जन</w>
रसू ल</w>
ड़ े</w>
ता ते</w>
सं पूर्ण</w>
स़ु रू</w>
कंग ्रेस</w>
ज क</w>
सुरक्ष ित</w>
र िल्</w>
इंट र
कि स</w>
आप ल्या
वा ई
चे या
राज्य ेर</w>
दे इ
भ र्त
प्रा य
किसा नों</w>
ला ने</w>
म स
किऱ ेऩ्</w>
स्ट ्र
नटै पॆ
इ च्छा</w>
बेह तर</w>
दे ना</w>
ङ् ग</w>
शु धु</w>
पुरु ष</w>
वी ं</w>
िला ं</w>
स्थानी य़</w>
त न्
द नि</w>
जल् द</w>
प्रभा वित</w>
कळा क</w>
िय ुम्</w>
लि खा</w>
घ ड
ट्वी ट</w>
दी नि
ड़ ी</w>
लगा या</w>
क् लि
अ शी</w>
प्पो ऴ
राज नैतिक</w>
स्ट्रे ल
नम्मु टॆ</w>
ी रा</w>
रे क</w>
के ज
स् को
व्यक्त मा
प्र करण</w>
हू ँ</w>
दा न
तमिऴ् ना
गी त</w>
आ ध्या
ं मध्ये</w>
ऎंद रु</w>
ट् स्</w>
o m
अ ना
ळ ै</w>
अर् था
प्र जा
प्प ट्टुळ्ळतु</w>
उं टा
ं सी</w>
श क</w>
न ल्ल
ना ना</w>
रो ग</w>
त् य़
आध्या त्
इ क्कार
शां ति</w>
ले ओ</w>
त्तु क्</w>
चल छे</w>
वि मान</w>
या ऩ</w>
त्ति ൻऱॆ</w>
वੱ ख</w>
प्पटु किऱतु</w>
i n</w>
मार् किन</w>
ऎऩ्ऱ ार्</w>
कार ो
तिय िल्</w>
शा ख</w>
च्चि रुन्नु</w>
ट्च ि</w>
टी वी</w>
योग दान</w>
पॆ ट्रो
सफ ल</w>
उन से</w>
इ दे</w>
त्या ने</w>
द्बि तीय़</w>
बा ड़
ग ढ़</w>
चॆय ल्प
जान िय़ेछेन</w>
ी करि
ए न</w>
म् मे
ढ िल्ल
मृ ति</w>
१ ८
इन् ड
या ंच्या
ड ൽ
प्प टुत्त
ना डु</w>
पे र्
ब ज
ळ्ळ ु
पोली से</w>
ते र्त
र ज
बन् धु
आ इन</w>
अच्छ ी</w>
िय तु</w>
प सं
वि प
धी न
दु टि</w>
ये खाने</w>
वि ट्टु</w>
आप के</w>
सु बि
क ंगा</w>
अव ऩ्</w>
नि म्
ब रु
ज ख
म् भ</w>
ऎ ण्ण
राज े
च न्ति
य र
हाद से</w>
ची त</w>
ज्य ारे</w>
कॊ न्नि</w>
ड ू
लो कि</w>
्य ेर</w>
परि चाल
स ्या
अ ङ्ङनॆ</w>
ग णि
परमे स़ु
परिष द</w>
है ः</w>
2 3</w>
विष या
दि ष्ट</w>
वं टि</w>
ियि रुन्नु</w>
नन गॆ</w>
कू टा
म ट्टु
3 .
लभ ्य
म ऩै
द ंतॆ</w>
इ क्क
रु क्कु</w>
बले छेन</w>
साम ना</w>
सम्मेल न</w>
आक िय
जो ईए</w>
बो ल
भाज प</w>
गा ँ
मि ड
अन्वेष णं</w>
कू ट
कोशि श</w>
पर स्प
स हि
अ म्
विरा ट</w>
दार ु
प्पि च्चु</w>
मोबाइ ल</w>
रि ൽ</w>
मु क्किय
स्थाप ना</w>
ॆ ङ्किलुं</w>
परमेस़ु र</w>
श्र मि
तय ारि
गुरि ंचि</w>
राष्ट ्रा
वि त
क न्न
राहु ल्</w>
निर्बा च
सुवि धा</w>
य़ इ</w>
हि र</w>
माध्य म
आन्तर्जा तिक</w>
या य़नि</w>
प्रे रित</w>
रि ऩ्</w>
मुलाका त</w>
प नि
अ सा</w>
िय ू</w>
ऩ ि</w>
टि के</w>
स्त ारु</w>
आ धार
ध्य क्ष</w>
पूर् ब</w>
हा जार</w>
ज िला</w>
ल ग्
विक सित</w>
प्र ख्या
सं बन्धि
न ल
ध न्य
ॆ ङ्किൽ</w>
ो ट्</w>
समझ ौ
अव ्
भ ौ
जे लार</w>
घट न</w>
जरू री</w>
य़े छेन</w>
पा स
निय़ न्त्र
प्र ण
सी मा
१ ९</w>
प्रत ियो
पो स्ट</w>
कह ना</w>
या च्छे</w>
चा य
d i
र ॉ
स् ୱ
निल ै</w>
ता ल्</w>
बा ँ
सु त्तदॆ</w>
धी ल</w>
आरो पि
म य
ङ् का</w>
आयो जन</w>
१ २</w>
ऱ् कुम्</w>
प त</w>
गुरुत्ब पूर्ण</w>
सु धी</w>
प्र ज
तु ं
ब हि
तुल ना</w>
यू नि
ञ्च ि
क ੱ
यु वा
कठि न</w>
या ळ
प्रधान मन्त्र
इ ल्ला
परि बारेर</w>
व ळ</w>
स म</w>
ट ार्
तॆ ळि
तु न्न</w>
होइ आ</w>
ध ार्
पराम र्
अभ ियु
कप्ता न</w>
उ सी</w>
बृ द्धि</w>
वर् ग</w>
म ർ
फु ट
अं त</w>
कू ट</w>
इ दॆ</w>
ियु ळ्ळतु</w>
ट्ट म्</w>
य था
क्ष म</w>
ह जार</w>
हा ला</w>
क्क विल्लै</w>
सु ल
अमेरि की</w>
सार ि</w>
सभा पति</w>
यिरि क्कुं</w>
पह िलां</w>
आ ळु
स्कू ल</w>
व् र</w>
लिख ित</w>
क्कॆ तिरॆ</w>
मही ने</w>
च्च े
नि का
जवा न</w>
मु म्प
प्रयत् न</w>
ल ब</w>
रो जु
ब्रि टि
च् छ</w>
विज य्</w>
चॆप्प ारु</w>
त ऩ्</w>
ड ब्ल
१९ ९
रा जा
विचार णै</w>
ग्र हि
या चि
त रे</w>
शिव सेना</w>
भा इरा
्प ु
रक्ष ि
प्र कट
सु धार
बा ध
न् ते</w>
मा त</w>
पो ऩ्ऱ</w>
तु सीं</w>
टि क</w>
दिल्ल ी
व ंतॆ</w>
नाथ ्</w>
ੰ न</w>
संपर् क</w>
ती व्र</w>
सा धन</w>
ना ൽ</w>
करि छन्ति</w>
मार् च</w>
न डु
क हते</w>
रा स़
आ ल</w>
चित्रप टा
प िल्ल
क्कप्प ट्ट
का लीन</w>
वरुकिऩ्ऱ ऩर्</w>
ऎ क्कु
निरा प
ले इ</w>
्ल ी</w>
इला ज</w>
हमे शा</w>
उल्ले ख
दी पि
ड़ ित</w>
मंड ल</w>
ए ँ</w>
न्ति र</w>
फ ॆ
उ ङ्कळ्</w>
वे ग
वा च
क वे</w>
म ऱ
क मे
हा ते</w>
ट ॊ
इरु न्ततु</w>
फि रे</w>
भ द्र
य िल्ल</w>
अ ज
प्रारं भि
मो हन</w>
नि वेश</w>
प यि
सम् बन्धे</w>
म नी</w>
देख े</w>
मंजू री</w>
ध री</w>
उ इ
भा गी
सा व
सम ग्र</w>
परि शी
प्रवे शि
क्क ळ्</w>
न इ</w>
बा जी</w>
तार पर</w>
प्रौद्योगि की</w>
ू र्</w>
कर्त ा
विध े
अभ्य र्थ
का ळ
प्रभ ु</w>
कै तु</w>
न्त ेर</w>
ङ् ग
चा लित</w>
समा वे
दੱ सिआ</w>
प ॉ
स्प ो
पूर् ब
वर्त मान</w>
अ मे</w>
वर ॆ
वि ल</w>
सक दे</w>
मुता बिक</w>
अ ड
ज बा
स ने</w>
घ न</w>
निर् धार
नी र्</w>
कळ ्
करे छि</w>
वाप स</w>
मॆ न्नुं</w>
वाय ु</w>
िलू टॆ</w>
ले ली</w>
फो र्
कळा ण्</w>
बि चार
ब्य क्ति</w>
कर छि</w>
कर ून</w>
ज मा</w>
ु डु</w>
दा ँ
उप भो
कुटु म्प
4 .
क्का गि</w>
पृथ ्
सक दा</w>
समा चार
पोली चार्</w>
फ लि
हॊ र
भ व
म ता
प्र योग</w>
ळ्ळ त्</w>
ना य</w>
कु टि
ल् स</w>
कृष् ण</w>
नि ൽ
ऱ ुम्</w>
नाय क</w>
साइ ट</w>
्ल ि</w>
स्बी कार</w>
दि नेर</w>
शी घ
प्रा चीन</w>
खा स
कर ्युं</w>
िय त्</w>
य ारु</w>
ना लु</w>
हे तु</w>
आवश्य कता</w>
मैया ऩ</w>
ह ओय़ा</w>
समारो ह</w>
प्रा ं
पसं द</w>
श्र ा
स् मार्ट
क स</w>
च्च रि
आप ी</w>
ार ़्या</w>
ऱ ॆ
ग्र ि
र वा
नट त्त
अव धि</w>
लि न</w>
आ ह्
नट त्तु
समा वेश</w>
5 0
सा नूੰ</w>
नि न
परि चित</w>
ऴ ्त्त
दर्श क
वि दि
प व
द िय़ेछे</w>
हरिया णा</w>
उस से</w>
अव रिगॆ</w>
महि ळ
निर् वा
पहु ंच</w>
थाक बे</w>
ट का</w>
पौ ँ
आर ो</w>
सॆ क्र
बना ए</w>
अद न्नु</w>
राज नीतिक</w>
के त</w>
बा ज</w>
तर् क</w>
प हो
आ बे
प्रोत् सा
ं टे</w>
प्रभा व</w>
प्रदेश ्</w>
अति करि
यॆ कोवा
माट ्ला
व ॉ
का ङ्कि
सू ची</w>
ा ्</w>
ष िक</w>
लग ता</w>
त ग्
अनु या
न टु
दूसर ी</w>
छा त्र</w>
संस् कृति</w>
तु ले</w>
यि नि</w>
अर वि
ियि ट्टुण्ट्</w>
जन् ये</w>
ग िय़ेछे</w>
ह ੱ
कार ्</w>
र ्या
डा य
ही रो
तक नी
हे ब</w>
त स
व क्त</w>
य़ क</w>
उद्यो ग
म्पो ൾ</w>
भि त्ति
र ह</w>
निर वधि</w>
च्चि ंदि</w>
सम ्पा
ऎ व्
म ऩि
या ते</w>
ङ्ङ ु
िय़ा य़</w>
मर ो</w>
2 ,
च ले
हय़े छेन</w>
बांला देशेर</w>
वि मर्
अनुभ व</w>
नि देशक</w>
कळ ॆ
का न
१ १</w>
सा मे</w>
क ने</w>
यु ळ्ळ</w>
दि आं</w>
महिला ओं</w>
मी द</w>
ट ले</w>
मु का
कि ल</w>
व ंत
ं वर</w>
वा णि
संशो धन</w>
र ता</w>
चॆय् त</w>
फ ार्
िय न्</w>
वाह न
सुप्री म</w>
शिकाय त</w>
तमा म</w>
के सु</w>
िय ल्</w>
्त ा
वि रै
ऎं ब</w>
ग म</w>
टा ं</w>
कू ऱु
2 8</w>
क्ष ण
चा ंग
पार ्त्त
कॊ न
सि ं</w>
e s</w>
नि वा
ग ले</w>
ट्ट ै</w>
ऎ फ्</w>
पाल् गॊ
णि क</w>
मा ग
खा द्य</w>
र चि
नि र</w>
पु तु
मु ൻ</w>
आ ए
वाय ्प्प
ज ण</w>
ला ई
म् स</w>
नो ं
आ वा
आ मेरि
मॊत्त ं</w>
ी ने</w>
3 5</w>
त ियिൽ</w>
आ यि
क टु
r o
का ता</w>
म ट
प्र सार
प्प िल्</w>
गां धी
ट ्यू
तुम् ही</w>
नाय क
ता व
ते ओ
तऱ्पो तु</w>
तिरु वन
सम ृ
आव ्या</w>
वॆळ ियि
तलै वर्</w>
त्तु क्कु</w>
प्रसि ड
कर छेन</w>
ं ज
राजधा नी</w>
अ न्न
ख ो</w>
बा ह
बे इ</w>
क डा
बाब ु</w>
चु की</w>
न् त्</w>
मुय ऱ्च
करा या</w>
सौ थी</w>
णा त</w>
अवर तु</w>
वेण्ट ि</w>
१ ४</w>
तॊ रु</w>
इ विटॆ</w>
ल ्य
भ रो
सर् वो
स ॊ
नൽ कु
सला ह</w>
हा ज
मो टि</w>
चो द्य
दु ल</w>
हि मा
छाड़ा ओ</w>
ऎ म्
ऐति हा
ह स्ता
च ला</w>
ंड े</w>
स्त ी</w>
नि ष्
चे रु
श्र म</w>
ं टि
2 6</w>
मु द्र
आन ंद</w>
3 0
दा स</w>
र चना</w>
मान सिक</w>
न त</w>
प्पॆ टुत्त
अ न्नि</w>
र ल्</w>
ॆय े</w>
म् ब
तऩ तु</w>
ष्ट ि</w>
ए ऩ्</w>
त स्वी
ॊ ंदिगॆ</w>
प्रि य</w>
ड् ड</w>
चा हता</w>
टि ते</w>
णॆ न्न्</w>
ऱ ुं</w>
चो दि
वि वे
पि र</w>
न्त पुर
ने ं</w>
ग ड़े</w>
ग ये</w>
बाइ बल</w>
ल गे</w>
नि त</w>
जन रल</w>
ंचा डु</w>
कि सान</w>
छे ः</w>
म गर</w>
ग िय़े
का ज
लक्ष ्
त ैय
बंगा ल</w>
त्त तु</w>
आ से</w>
तो टॆ</w>
र ण्टु</w>
स्थानी य</w>
वि ळि
ൻ स्</w>
मार ि
च् छेन</w>
किछु इ</w>
अत िल्</w>
फ िलि
प्रकार ं</w>
छ ुं</w>
ठि का
हॊ स</w>
ता न
करो ना</w>
व ही</w>
ए मि
य ला</w>
त्ता ऩ्</w>
करि थिले</w>
ए हा
ർच्च या
प्रे र
तिर ञ्ञॆटु
पू र</w>
द िय़ेछेन</w>
विदेश ी</w>
स ार्</w>
आस्प त्र
हा लत</w>
दे ओय़ार</w>
संघ र्
वि न</w>
क् यू
ंच डं</w>
9 0</w>
चिकित् स
निर्बा चन</w>
वा ही</w>
द्द ल</w>
थ शे</w>
िय ो</w>
3 1</w>
इ ब्ब
शिक्ष क</w>
फिल हाल</w>
ार ेर</w>
प्र च
ॆय ु</w>
निल ैय
बॆ ळ
पङ् कॆ
त्या नंतर</w>
म ऴ
गबे ष
ष्ट ्रीय</w>
अर चा
पल् वेऱु</w>
ना ट
क्कप्प ट्टतु</w>
ल् कळ्</w>
ण्ट ुं</w>
क्कप्प ट्टुळ्ळतु</w>
श्र म
प्र सं
ङ्कळि ऩ्</w>
सिनि म
इ वर्</w>
प्रशा स
मुटिया तु</w>
इद न्नु</w>
कि ऱि
सि स्ट
परि ष्
पो लॆ</w>
चल ते</w>
ऩ्ऱ ि</w>
बु द्धि
कर ू</w>
बॉ लीवुड</w>
ड ियो
संख ्य</w>
ई आं</w>
का उ
उ न्नारु</w>
द िले</w>
लया त</w>
अब स्था
ने शनल</w>
कार ं</w>
अटु त्त</w>
सी ट</w>
कॊ ल
मन्त्र ि
केर ळ</w>
शे यर</w>
प्प तु</w>
वऴ ि</w>
उ द्य
झ े
महा न</w>
त न्त्र
आर थ
स्त ू</w>
ना इ
ते च</w>
201 4</w>
न कु</w>
की मत</w>
अग ले</w>
अ दे</w>
र ण्टा
गळ ा
कू टि</w>
रੱ खिआ</w>
तु र्
त्य ारे</w>
ट ॉ
प दा
थ इ</w>
ते चिय</w>
अमि त्</w>
परि बार</w>
यु ब
क्क लाम्</w>
शु ल्
सर् कार</w>
इत ै</w>
त्या च्या</w>
कोट ्लु</w>
मु श्
समु द्र
ज ऩ
नि ः
सा फ</w>
म ंचि</w>
पूर् वी</w>
ब ंदि
फो टो
अ ऴै
किं वा</w>
यिहो बा</w>
द ं</w>
ज िल
आ ला
तेम ना</w>
मिल े</w>
नमो दु</w>
वॆ ल्ल
3 00</w>
फे सबु
ख ्या</w>
ज ारि</w>
त ल</w>
प्रवർ त्ति
ऎं बु
ु न</w>
आ फ्</w>
बात चीत</w>
ए ड
निर् दिष्ट</w>
मू न्न्</w>
द ्या</w>
ग्र स्त</w>
प्रतियो गि
व्य क्
प्रस्ता व</w>
तर लि
नीति मऩ्ऱ
बो ध
र म
णा लु</w>
हुੰ दा</w>
स बाइ</w>
म नं</w>
क् शन</w>
सॆक्र ट्ट
ये त</w>
ने त</w>
आ सु
बि बे
का ढ
ना व</w>
गा नि
सं जय</w>
भा इ</w>
पु ੱ
नट त्ति</w>
कॊ ंड
रहि छि</w>
ह रा</w>
वार ों</w>
पार ा
क्कॊ ण्ट
नी ल</w>
न् ते
हा ई</w>
ष ्प
आ य</w>
पो रे
स ू</w>
अने क
अधि क
नेतृ त्व</w>
ना ल्
बि डु
शीर् ष</w>
भि डिओ</w>
ंचु कु
उदाहर ण
पे रु
अप ील</w>
ते ज</w>
तॆर ञ्ञॆटु
का जे</w>
दिव स
आ ड
पह चान</w>
नि ंद</w>
स िल
बॆ ंगळू
ू प</w>
फ़ ा
अमि ता
खा र</w>
पद्ध ति</w>
िय़ न</w>
जन के</w>
कि ट
टि ंग्</w>
क भाबे</w>
2 5
नि जी</w>
वि धि
जीवि त
अति क
को व
अनु सं
पी छे</w>
ऩ ्च
आप णा</w>
सि डे
दृ श्य
त्त िलाण्</w>
ग्रे फतार</w>
सम्पर् क</w>
प्रति षे
अऱियि च्चु</w>
बा लि
अध्य यन</w>
मूल ्य
रॆ ड्डि</w>
पार्ट ी
जे ट
ऐतिहा सिक</w>
स्व यं</w>
न्याया लय</w>
घोष ित</w>
र ंग</w>
ऩा ्</w>
ब ळि
अधिकार ि
दर कार</w>
प्प ि</w>
ह ारा
ऒ व्व
चे शा
वे गी</w>
स क्षम</w>
मानि त</w>
जी ब
योग ्य
ही न</w>
घ र
निर् भर</w>
जरु गु
उ छि</w>
रा खा</w>
त्त िया
पर ि</w>
अपरा ध</w>
ते च
निल ैयिल्</w>
परियो जना</w>
औ ष
ई मान</w>
201 5</w>
अस र</w>
मा झे</w>
न्ना ं</w>
शा स
का णु
ह स्त
फ र</w>
थे केइ</w>
हि क</w>
पक्ष ा
रुग् णा
तु ऱ
म ळी</w>
ती ർच्चया
आव्य ो</w>
त्त म</w>
मि न
ले ला</w>
e l
दा वा</w>
ग म
प णे</w>
खा ली</w>
अ फि
क ह</w>
हेळि दरु</w>
ख ंड</w>
ु ः</w>
उ र्
ड ्यू
आध्यात् मिक</w>
चिकित् सा</w>
त्त वॆ</w>
ट्र ेन</w>
7 5</w>
बृ ह
के ळ्
रा शि</w>
जि ੱ
तमि ऴ्</w>
क्क वुम्</w>
भर्त ी</w>
अ ड्
क िये</w>
वർ ष
कॊ ळ्ळ</w>
मत् सर
ब धा
न िय़े
वा नुं</w>
बर्त माने</w>
ते वै
स ुं</w>
नी डु
निच्चय माक</w>
पॆ रि
अवसर ं</w>
प्र श
आ द्य</w>
तीർच्चया युं</w>
क् र</w>
अवर न्नु</w>
मर ण</w>
कृष् ण
वि वाह
महाराष्ट ्र
बा स्त
खु बइ</w>
ऎऩ्प तै</w>
छो टे</w>
ङ् कुम्</w>
दे वु
व्यवसा य</w>
पॆ द्द</w>
बा ड़ि</w>
प टेल</w>
गे ंद
त् वर
तिरुवन न्तपुर
ब च
सहो दर
उ यि
ऎन् ताण्</w>
भविष ्य</w>
रा म्</w>
टि स</w>
पड़ े
आई सी
कय़े क
मध ्य़
क्के ण्ट
तॆ लंगा
7 .
स्थि ति
राज नीति</w>
यहो वा
छो ट</w>
2 7</w>
बच्च े</w>
प ञ्चा
चे सि</w>
मि थ
चॆ ऩ्ऩ
िले ये</w>
मान ङ्क</w>
नि हत</w>
तुम् हें</w>
पो ताना</w>
परि क्के
न कर
त्या ंच्या
ऎऩ वे</w>
कौ र</w>
एलाका य़</w>
मू र्ति</w>
चु का</w>
ब ता</w>
द नु</w>
ृ त</w>
ऒ ऴि
नेता ओं</w>
द् वी
तु न्नारु</w>
भु ग
बं ध
कर दा</w>
वरु टॆ</w>
ते मने</w>
जो वा</w>
रा हत</w>
इन में</w>
ऎ म्</w>
ह इ
पुस्त क</w>
क्क ारि
द् दु
निर् धारित</w>
ख़ ा
चॆ ंदिन</w>
उम्मी द</w>
य द</w>
जे मां</w>
नि ൽ</w>
ं स
मे ख
कर नी</w>
वि धि</w>
चा लु</w>
ऎ प्पटि</w>
चे स्तु
त्त ैयुम्</w>
ट्र ै
ल पै</w>
शरी र</w>
ळु टॆ</w>
र् जी</w>
ऎ ङ्ङनॆ</w>
ऩ िल्</w>
मु ൻ
चु नौ
6 .
स़ ा</w>
टॆ याण्</w>
त्त ऩर्</w>
इं रे
व हन</w>
अधि कां
थाक ते</w>
पॊरु ळा
प्रे स</w>
आशुपत्र ियिൽ</w>
वै ज्ञा
इ ੱ
अ धीन</w>
कौ न</w>
प्र ॊ
ब द्ध
ब ढ़</w>
घ रे</w>
क ठ
मु ंदु
ग न</w>
प शु
दिल्ल ि</w>
ह वाई</w>
आ सि
ल क</w>
इन्त प्</w>
मत दान</w>
ऎ ൻ
अद् भु
आ श्
ऒ ळ
स़ा मल</w>
ष ित</w>
ऩ े</w>
जा ति
जे ल</w>
ए थि
कह ्युं</w>
प्र व
प्रे सिडे
गे ले</w>
अब स्थित</w>
बि क्र
संबं धी</w>
क ैय
ब ला
नि ङ्ङൾक्क्</w>
बना व
छ ीए</w>
पह ला</w>
न स
भार ते</w>
मुद् दे</w>
य श
ब ल्ले
त न्ऱॆ</w>
जरू र</w>
वा टि
दर म्यान</w>
न दार</w>
ार नि</w>
a n</w>
र स्त
वु मायि</w>
दे वे
ंद न</w>
बो लि</w>
ग्र ु
ठे व
u r
पॆ रिय</w>
उन में</w>
सि ंदे</w>
क वि
श ारी
म लया
मि न</w>
काङ्कि रस्</w>
तॆ रिय
प्रकर णी</w>
लक्ष ्य
के ओ</w>
दीपि का</w>
बिज ली</w>
इ ंदु
स तान</w>
ग ੱ
प टै
व ारा
ट्टु ळ्ळ</w>
न म्पि
मि शन</w>
सि सि
म मता</w>
पा या</w>
न ारी</w>
श ं</w>
करे गी</w>
कुऴ न्तै
अवर ॆ</w>
प्र बंधन</w>
क्कुक यायिरुन्नु</w>
ङ् क्</w>
मॊ दल</w>
ना हीत</w>
ड़ ों</w>
१ ६</w>
वि ट</w>
श ौ
देश ीय</w>
प्रमा णे</w>
वि जे
रा इ
विरा ट्</w>
य त्</w>
म िल्ल
तकव ल्</w>
ऎ क्
चे सु
क्कु त्</w>
रोज गार</w>
ंद रॆ</w>
ऱ ्</w>
ार् थी</w>
म ना</w>
न्तो ष
मॆ डि
नि न्नु</w>
पेर् कॊ
फ ्ल
t h
ना यि
तेम नी</w>
न ारा</w>
कॊ ण्ट</w>
या व</w>
मिक च्च</w>
क्क ऱ्ऱ्</w>
क् ट्र
क लै
रह ्यो</w>
खू प</w>
ड ेर</w>
सांगित ले</w>
म्हणा ले</w>
कॊ ण्टा
व् हा
भु क्त</w>
जा नि</w>
शिक्ष ा
रा य़</w>
कार ु
विचार ि
इ ൻ
i l
a c
छात्र ों</w>
जाण कारी</w>
ऎ न्नु</w>
अवर् कळु
वि तर
ं टा
नि भा
शा सित</w>
घ टा
क्किऩ्ऱ ऩ</w>
क्क ൾ</w>
इं का</w>
मान ङ्कु</w>
या यि</w>
ंप ु</w>
१ ३</w>
खा न्</w>
जो र
e c
आ श्च
चॆ लु
टे लि
खु ँ
लिमि टेड</w>
प्त ि
हि ंदी</w>
ली स</w>
सि ंग</w>
करण्या साठी</w>
ङ् के</w>
तॆ लिय
टा टा</w>
ऱ े
ट ्ल
मा न्य
क्कप्प टुम्</w>
अपे क्षा</w>
च्चि रु
ऎर डु</w>
वै श्
मात्र ा</w>
तॆ गॆ</w>
इरु क्किऱ
पर्य टन</w>
कि ऴ
द्र ुत</w>
दाय़ि त्ब</w>
ा क</w>
विरो धी</w>
निजे देर</w>
आप ण
शु भ
पै पि
ळ र्
आ कुम्</w>
ए ऱ्ऱु
ञ् ज</w>
पो ट्ट
या ंना</w>
दीर् घ
कॊ ंडु</w>
गळि ंद</w>
व ैय
जी बी</w>
श ्त
के स्</w>
स िला
स्टे शन</w>
सि न
ऴ ु</w>
मुंब ई
िया द</w>
ण्ट ुम्</w>
नट ्लु</w>
था का</w>
च् छि</w>
स्वी कार</w>
ह त्या
अऩै त्तु</w>
पु त्र
र म्</w>
समा चार</w>
ओ डि
नൽ कि</w>
च् छा
3 2</w>
स़ र
बो र्
सो बत</w>
व स
विडु दल</w>
वि वाद</w>
स ारि
हा म
तॊऴ िला
पु रि
ज दों</w>
सि न्ऱॆ</w>
त ब
ति नि
र कु</w>
पू जा</w>
का उन्
सं घा
गु प्त
द िल्
इ द्दरु</w>
0 .
कूऱि ऩार्</w>
मक्क ळ
सु विधा
धार् मिक</w>
आल्ला ह</w>
भे ज</w>
अनु ष्
वि दॆ</w>
अ च्छे</w>
तॊ कु
पा से</w>
ध रि
औ द्योगि
न न्नु</w>
क्र ै
को ट्ल</w>
से न्
इ ये
मुटिय ुम्</w>
क डि
रा ओ</w>
5 .
अत ऱ्कु</w>
म री
संभ वं</w>
मु र
बे टे</w>
मि त्र
्ऱ ्ऱ
ऒ प्पु
खा ते</w>
अ शा</w>
भारत द</w>
मु ह
विश्वविद्या लय</w>
श व</w>
सि पि
ब हन</w>
मु क</w>
ार े
शि ष्ट
जी व</w>
चु ੱ
अ या
दाख लि
ग रि
जिस का</w>
शा तं</w>
वि अक
स बेकु</w>
उय ർ
म न्त
मि ळि
ना ळ्</w>
म ारु</w>
मानि ल</w>
ण म्</w>
खर् च</w>
कऴि ञ्ञ
ल ना</w>
घ ि
कर् मी
आ काश
न्या य</w>
ड़ ा</w>
रु ख</w>
ल व
ते व्हा</w>
ति रै
ंप ै</w>
विज यं</w>
सि ंग
कौ शल</w>
भ ि</w>
तॆ गॆ
वर्ष ा
a s
बिजॆ प
क् ल
ियु ळ्ळार्</w>
अब श्य
e s
अ ते
ना इ</w>
कॆल वु</w>
मा डि</w>
ल्ला म्</w>
नि न्नु
ळ ्लु</w>
चॆ ऩ्ऱ
4 5</w>
संस ारि
हि रा
अति कार
चॊ ल्
कार्य ्य़
अव ർक्क्</w>
प्र स
म कि
ज िल्
नॆ तिरॆ</w>
ार् ड</w>
व्या पक</w>
जा म</w>
व त्
नु सार</w>
पॆरु म्</w>
चाही दा</w>
बा सी</w>
लेख क</w>
त्ता ൻ</w>
ॆयि ंद</w>
वा ल्</w>
देख ि
न्तु ळ्ळतु</w>
वैश् विक</w>
सं देश</w>
अमैच्च र्</w>
य हाँ</w>
ता देरके</w>
8 .
ला ंटि</w>
स् मि
उप चार</w>
म धील</w>
पा शा
कोवि ड्</w>
प्पॆ ट्टि
त्ति नु</w>
हय़ तो</w>
कट न्त</w>
ट ं</w>
की ऴ्</w>
निय़ ो
ल ख
दिੱ ली</w>
द रि
न् दा</w>
ङ् गा
दि र</w>
त ऩि
हम ारा</w>
आ इन
गां व</w>
अ हम
प्रसा द</w>
यु वा</w>
सू चित</w>
बाहि नी</w>
पि क</w>
आ किय</w>
बढ़ा ने</w>
ते म</w>
क पो
अन्त र्
श नेर</w>
१ ७</w>
शुल् क</w>
गि द्दारॆ</w>
अल ्प
ੰ द
से बा</w>
ते जी</w>
अ श्
बा स
द्र ो
3 ,
प लि
या वेळी</w>
भ य़</w>
आ रा</w>
दृष्ट ि</w>
ट्टि ऩ्</w>
वा क्कु
पा ह
शिय ल</w>
अधि नियम</w>
ब् ब</w>
ट्टि ൽ</w>
ई टु
अप कट
कु डु</w>
सम्प ूर्
कळ ैप्</w>
सन् देह</w>
स मान
न या</w>
द बा
एस ब</w>
निय मि
मक्क ळि
बाइबे ल</w>
तार ी
2 9</w>
दा नि</w>
चॆ ल्
्य ू</w>
ध े
प ৰ
राहु ൽ</w>
र न्नु</w>
फ े</w>
क्र िय
बा की</w>
ण्या चा</w>
्रा ष्ट्रीय</w>
्या दा</w>
वि वरि
रो ल</w>
का छ</w>
शो ध</w>
ੱ ध</w>
अल्लाहु वि
त्त िल्ल</w>
बा ई
केज री
सि र</w>
जि म्मे
फा इल</w>
नि गॆ</w>
परामर् श</w>
का इ
ह सप
िया ऩ</w>
विधा यक</w>
क्क िल्</w>
त त्
वि केट</w>
ब्रिटि श</w>
ट्ट ुं</w>
नॆ य</w>
क त्त
क य
आ गे
च त
सि द्दरु</w>
म त्तॆ</w>
प्र करण
संभव त्तिൽ</w>
प्रभु त्व</w>
फैस ले</w>
कळु क्कुम्</w>
कांग रस</w>
इत ऩ्</w>
न दी
खि ल</w>
बि स्त
बा ज
पा शि</w>
पद क</w>
रे ं</w>
मिल ने</w>
अभि नय़</w>
इत ऱ्कु</w>
या ओय़ा</w>
शता ब्
उत्त े
न ल्</w>
पहु ੰ
अऱ स्ऱ्ऱ्</w>
अ लु
ी न</w>
सम् भा
इरु न्त
ट ्या
म ज़
पौ र
गै र</w>
मु ंद
अबश्य इ</w>
बे ठ
पे र
सि सि</w>
भविष ्य
मु क्किय</w>
मा स</w>
वർ क्क्</w>
ता ङ्क</w>
च्च े</w>
o l
क प
त्ति रि
ए न्
न य
पातुका प्पु</w>
बि शेष
क्ष ्
पाशा पाशि</w>
त्तु ळ्ळतु</w>
की ऴ
कार्य ं</w>
तिरि च्च
ं लोनि</w>
नियु क्त</w>
झ ि
फो न्</w>
ि य</w>
क्का यि</w>
उन्न त</w>
ला गत</w>
दु र
अब स्था</w>
अ य्य
इस् ला
कर् म</w>
दा म</w>
आ श्र
कण्ट ु
पो यि</w>
ज स्टि
त िल्</w>
चिकि च्च
कु ट्ट
त रा</w>
अरचिय ल्</w>
सह ज</w>
उन को</w>
1 :
क ल्ल
ट ू</w>
ड़ ने</w>
३ ०</w>
परिबर्त न</w>
प्रशं सा</w>
त प्प
ज हा
ङ्कळ ुम्</w>
स् वर्
भ वन</w>
ढा का</w>
कुरि तु</w>
भा ल
पट म्</w>
डो ना
ध ्र</w>
कर् मी</w>
सम न्
विश्व सि
गुरु तर</w>
के वी</w>
ह ता
रो ध
नारा य
टि व</w>
पऱयु न्नु</w>
दे ण्यात</w>
मौजू दा</w>
न ंबर</w>
अभ ्यास</w>
ने ह
अ म्म
ऱ्ऱ ർ</w>
य़ रे</w>
भ र्ति</w>
भ बिष
त त्त्
उळ्ळ ि
म्हण जे</w>
हिंद ू</w>
बै ं
ने रि
धार णा</w>
कख नओ</w>
ो टु</w>
डॉ लर</w>
ॊ रु
प्रा कृतिक</w>
द ग्
ट ्प
जो के</w>
य त</w>
बर् ण
चू ंट
कनि पि
ख ॆ</w>
कि रि
इतु वरॆ</w>
समी क्षा</w>
सु ना
उ यिरि
प ्य
ष्ट ि
मी य़</w>
१९ ७
व् हि
कर णं</w>
ब द्दल</w>
लो ड</w>
in g</w>
कर ब</w>
लट्च म्</w>
न शि
सं क्रम
चिकित् स</w>
च क्र
च न्द्र
बा ंग्ला
मे न्ट</w>
बे टी</w>
पिऱ कु</w>
सा ई
तॊटर् पाक</w>
ऩ ्ट
ब लि</w>
डी ओ</w>
व नु</w>
किता ब</w>
कॊ डु
इद रिंद</w>
द्दे नॆ</w>
स़ा ं</w>
ऱिप्पोർ ट्ट्</w>
राज नाथ</w>
अब श्य</w>
१ ८</w>
ी ओ</w>
भबिष ्य
पुन रु
वित्त ीय</w>
सी री
थ या</w>
सർ क्कारि
ङ्ङि य</w>
धी रे</w>
सीबी आई</w>
टु त्तु
नी रु</w>
दे ण</w>
द िला</w>
१ ०
पकु ति
ल र्</w>
बा ध्य
कळ ैक्</w>
इला के</w>
आद मी</w>
ळ र्कळ्</w>
मत लब</w>
प्र दर्
प क्क
वे ब
भ रण
परिवर्त न</w>
आव शे</w>
कुटुं ब</w>
मार ्च
क् ता
हे ळु
च ट
विद्यार् थि
वार ्त्त
फी सदी</w>
न मां</w>
भाष ण</w>
त लु</w>
द्दे वॆ</w>
का ही
साम र्थ
वि ला
मऱ्ऱ ॊरु</w>
ब रो
ऒ रा
क त्तिल्</w>
स नी</w>
न न्
क्क ी
श्री लं
ड न</w>
उद्घा टन</w>
कार्या लय</w>
सभ ्यु
इति ൽ</w>
क्ष ित</w>
न ये</w>
ति न
रੱ ख
स्थि र</w>
लि आं</w>
आ ण्टु
रि न</w>
ले ज</w>
मि नि
ओ ळ
ल् स्</w>
सम झ</w>
जा तीय</w>
ना मा</w>
मद त</w>
सा गर</w>
कले ज</w>
सदस्य ों</w>
न ऩ्
हा ई
त ङ्कळ्</w>
ंड ा
श् वर
त्तु टऩ्</w>
स ध्या</w>
वा ऩ</w>
जन ों</w>
वु कळ्</w>
आई पी
इन कार</w>
बा य़
आर म्भ</w>
क यायिरुन्नु</w>
गठ ित</w>
अंतर ्राष्ट्रीय</w>
न ना</w>
फ ि</w>
ख़ िला
ऱ्ऱि य</w>
आन् दो
मु द्द
ट्र ो</w>
रो ज</w>
गो ल
चलच्चि त्र</w>
आ ৰ
चि न्ति
घट े</w>
करा याइछि</w>
झ ो
ए से</w>
जरि गिंदि</w>
त नी</w>
अ धी
वि ट्टतु</w>
क्ष क</w>
प्प ी
मृत देह
अभि वृद्धि</w>
क प</w>
प्रिय ंका</w>
ए के
ला न</w>
ऎ न्नॆ</w>
ति क
णि त्</w>
संबो धित</w>
व ्या</w>
त ारि
म न्</w>
त ंगा</w>
बा सी
प ठि
रॆ ंड
त्ते नॆ</w>
वे ल</w>
हेळि द्दारॆ</w>
टिया क</w>
समाचार ं</w>
राज्य पाल</w>
प्पोऴ ुं</w>
उ ल्ल
ग ्या
कय़े क</w>
कर तो</w>
ैय टुत्तु</w>
स्प ू
ं चाल
लक्ष ल</w>
अ ंदा
2 4
सि न्</w>
अनि ल</w>
फ ेर</w>
ज ून</w>
ह वे</w>
अनु रोध</w>
श रू</w>
अव नु</w>
हो णार</w>
कार्य क्रमा
कॊन सा
दृ श्य</w>
प्पा क</w>
ध रा</w>
स्प ॆ
उम्मीद वार</w>
चॊ ल्ल
ऎ न्नु
मुंब ै</w>
दु सर
प्पि ൽ</w>
त् मा</w>
कार ों</w>
अति क</w>
झ ू
चिन् ता</w>
क्क ൻ</w>
तन्नॆ याण्</w>
अग त्य
चलच्चि त्र
ंच डानिकि</w>
स्ट र</w>
पो र
वर दि
त टु
इ ला</w>
रह ते</w>
मध्य ेइ</w>
वाता वरण</w>
मै नूੰ</w>
म य़
पद क्षेप</w>
ੰ ड</w>
फ ार</w>
सहा यि
भा गा
कार ा</w>
ये थे</w>
का णा
सा डे</w>
सू स</w>
कारा त्मक</w>
न दि</w>
स न्</w>
I n
फ ्या
पा प
विरो धा
हम ला</w>
मे य़े
इ ल्लि</w>
याचि का</w>
ते थी</w>
समा ज
स्बा स्थ्य</w>
मे ह
उय र्
मृत्य ू</w>
अ फ</w>
आपल्या ला</w>
बा णि
ब ारी</w>
क्ष ु
शा ल
बि द्य
छ त्ती
द ना</w>
ी करण</w>
जरि ए</w>
५ ०</w>
ता क्कु
तु ऱै
व की
घट ने
त्या चा</w>
ु ल</w>
स्व तंत्र</w>
प्रा ण
संभ व</w>
बा व
ता म</w>
रू आत</w>
किलोमी टर</w>
कुऱि त्त</w>
दर ल्लि</w>
व्या पार
रो क</w>
प्र यु
पवि त्र</w>
शा ंत</w>
कळ े</w>
निर् मा
सु मारु</w>
श ही
बे शि
पा टु
माव ट्ट
उळ्ळ ऩ</w>
इय क्कु
डी आ</w>
ल कर</w>
घ रे
ति रु</w>
कु र</w>
रा व</w>
ल्ल ो
ज्ञा न
ठ ि</w>
कर णे</w>
कार े</w>
अनुया य़ी</w>
क्कु ळ्ळ</w>
ंट ारु</w>
पक्ष ॆ</w>
पा ल्</w>
च क</w>
बछ रेर</w>
पॆ ൺ
ऊ ऴ
वि ल्ल
न ष्ट</w>
थ यो</w>
केर ल</w>
त्तिय त्</w>
मा ट्ट
शे त
निवड णु
या ंची</w>
जी एस
ला गु
भाव ना
करी ने</w>
य ं
सो निया</w>
पो ल
रे ख
के सिൽ</w>
पि न्तु
म टै
शा स्त्र</w>
पु लीस</w>
म ैयिल्</w>
एक मात्र</w>
सै नि
ए के</w>
कु माർ</w>
क हीं</w>
नि ति</w>
अवरु क्कु</w>
ष्ठ ा</w>
खो ँ
को थाय़</w>
म रे</w>
तम ारा</w>
परियो जना
स्ट ्री
अत्य न्त</w>
मो ठ
गान् धि</w>
ब्य़ ब
क हे
इ न्नू</w>
सा क्षि
ञ् ज
ंड र</w>
आ टक</w>
इद क्कॆ</w>
दर म
हसप ताल</w>
ह ण</w>
न ृ
केजरी वाल</w>
तॊऴ िल्
मु ळ्ळ
पाकिस्ता नेर</w>
स्वा गत</w>
कॆल स</w>
आ दा</w>
न्ना नु</w>
मॊ ऴि
स क्रिय</w>
हि ंदु
श िल्
वा नो</w>
ब क्त
आ ർ</w>
प्र गति</w>
एख नो</w>
बि मान
ड्र ै
१९ ८
ब्यब हार
वास्त व</w>
मुका बले</w>
च् छि
पूर्व क</w>
क ल्</w>
ियु ळ्ळ
अ रि
इ व
ऩा ळ्</w>
ज स
परि ण
वे लै
ङ्ङ ि</w>
प ङ्कु
ठा करे</w>
मुत ल्
अ न्नु</w>
भरो सा</w>
अंतर राष्ट्रीय</w>
अनुसं धान</w>
जान िय़ेछे</w>
स दा
न ॆय
बि क्षो
त म्
अटि प्पट
सं भा
उत्त राख
क्कुऱि च्च्</w>
य म्</w>
प थे</w>
स्ट ार्</w>
ऊ पर</w>
विव चा
अनु मान</w>
ते बे</w>
ऩि ऩ्</w>
विस्त ार</w>
ह टा
करा ने</w>
उ रि
ंट ने</w>
ब िल्
ले खा</w>
रख ते</w>
आ शीर्
बढ़ा वा</w>
नेता व्</w>
औ र
अनु मो
आरो पी
ख ्य
मे गा
नटवटि क्कै
9 .
बिश्ब ेर</w>
ऴ ा
य ार्</w>
चि ऱु
सप्ता ह</w>
ध ो</w>
कर्मचार ी</w>
अवर् कळुक्कु</w>
त्त िलुं</w>
साम ग्री</w>
न ती
ब्र ु
प्र ग
तरु वात</w>
ऋ ण</w>
थ र</w>
िला ऩ</w>
ऎ ंदुकु</w>
पी ठ</w>
गो ष्ट
रा ट</w>
ता नु</w>
ब्रि ट
भा ब</w>
स ्री</w>
ब्र ह्
त् म</w>
वी ण्टुं</w>
बदला व</w>
निषे धि
ऑ न
व कैयिल्</w>
पे क्षा</w>
शब् द
गु ण</w>
्या यि</w>
एन सी
बुझ ते</w>
वाय रस</w>
ॆयु ळ्ळ</w>
े ऱ्ऱ
क्कु क्</w>
पा हि
पहु ँ
जू द</w>
झा ल्या
व तुम्</w>
अग् नि
हिं सा</w>
वल ं</w>
चॆ न्न
बेह द</w>
वॆ ऱ्ऱि</w>
परि गणि
इंदु लो</w>
भा लो
डोना ल्ड</w>
प्रेसिडे न्ट</w>
रि ंग</w>
भे जा</w>
जा गा</w>
तॆलि सिंदे</w>
औद्योगि क</w>
देख ने</w>
व्य ुं</w>
जा ंदा</w>
खिला ड़ी</w>
19 8
ट्ट ी</w>
सं भावना</w>
कि शो
ै ंड</w>
ग्रे प्त
चु का
i s
प्रप ंच
ख ला</w>
वी टु
रि क्क
अधिकां श</w>
किऩ्ऱ ऩर्</w>
सन् दർ
र य़ेछेन</w>
ध ै
तु न्नायि</w>
स् क्री
वा ग</w>
व ले</w>
परीक्ष ण</w>
सु न्
मोह म्मद</w>
मू ऩ्ऱु</w>
हि ੱ
करि छि</w>
शेष े</w>
ार ु
स ृ
ण सि</w>
व दि
कय़े कटि</w>
उमे द
घ णा</w>
आरोप ियों</w>
अ ङ्कु</w>
तॆगॆ दु
दरम ियान</w>
मध ु
विधा न</w>
न ज़र</w>
ख़िला फ़</w>
ियु ळ्ळ</w>
उ ऱ्प
ष ो
शा न</w>
चत वी
मॊ ऴ
अ त्त
अमरी का</w>
र ल्लि</w>
या मुळे</w>
अर ब</w>
ब्यां क्</w>
देख े
सु तरां</w>
अस ते</w>
ॆ नु</w>
प्रति बे
अ ർ
अ सेल</w>
वर ून</w>
अ टक</w>
किऱ ोम्</w>
छ ा</w>
क्ष ति
निर् मित</w>
ण े
क त्</w>
श पथ</w>
ऎ तु
सॆक्रट्ट ऱि</w>
या ओय़ार</w>
न्य ू</w>
सर ि</w>
कू ड
प्रसि द्ध</w>
न न्न</w>
तॆलु गु</w>
मा युं</w>
ब ृष्ट
अति ൽ</w>
का गा</w>
चिं ता</w>
को ल</w>
वर् कळुक्कु</w>
त य</w>
अप्पो तु</w>
अवर ै</w>
पं जा
1 50</w>
इस ला
वाय रल</w>
बद ले</w>
ध ्य़
ईश् बर</w>
मॆ ंट्</w>
नी य
के बल</w>
u n
आ ना</w>
बरा बर</w>
हो ईल</w>
त्या त</w>
ई ने</w>
पयि ऱ्च
खे ला</w>
वि ट्टु
काल ं</w>
भि न्न
पोयि ंदि</w>
साम रिक</w>
ले ख</w>
शिल् प</w>
दुः ख
दि दॆ</w>
० ००</w>
िया गि</w>
श्र द्धा
दे य़ा</w>
पि ऩ्प
ग्र न्
विश् वास
ळु क्कु</w>
ऎ ൻऱॆ</w>
ज ੰ
सचि ब</w>
न् ट
अ ंगे</w>
त ੱक</w>
पति वु</w>
पा द
व ल्ल
ची ज़</w>
का ർ
िय ऩ्</w>
नवी न</w>
अमॆरि क्क</w>
नी र
चो त
मिले गा</w>
धर ती</w>
ৰ ा
उयिरि ऴ
अन् वे
e d</w>
त्या ं</w>
प द्
आक ियो
को च</w>
सहा यक</w>
िय िल्ल</w>
पा टि
ष ल्</w>
कुऱिप्पि ट
4 00</w>
पा ई</w>
बा लीवु
लि खे
ऑ स्ट्रेलिया</w>
स ट</w>
शा दी</w>
प्पॆ ट्ट्</w>
तु ः</w>
तु ल</w>
कॊ नि</w>
ङ्ङळा ण्</w>
सं गति</w>
बच्च न</w>
शुरु आत</w>
द िला
क ൻ</w>
जै सी</w>
ठ र
डे टा</w>
गुलि ते</w>
जै सा</w>
अ यो
स ब्
न के</w>
वि वाद
नि न</w>
साहि त्य</w>
छ ू
िय म्</w>
ंड ी
क ः</w>
विदि आरथ
वर ील</w>
हृद य
सुप्री ं</w>
आ य़ो
वरा ण्</w>
मा जि</w>
इला वा</w>
तॆ न्न्</w>
म ग</w>
9 9</w>
सं चार</w>
न् च</w>
नु ंदि</w>
ण्ट ो</w>
शे ख</w>
गि रु
पि रा
पर्या वरण</w>
स्व न्त
य हू
क्ष र</w>
वि नियो
विळै या
मु सलि
जी बन
आ नु
कोर् टु</w>
होइ छि</w>
त प्पि
इ द्द
प्रे क्ष
वॆ टि
ख राब</w>
अरचा ङ्क
अ द्या
सा द</w>
काश्मी र</w>
नि स</w>
कर ्या</w>
अ वि
इतु वरै</w>
यॆहो वा</w>
तक ർ
टि ं</w>
ष न्
बळि क</w>
मात ना
दॊ ड्ड</w>
जाय़ गा
अ प</w>
डी पी</w>
पाकि सतान</w>
ला गे</w>
शारी रिक</w>
अर्थ व्यवस्था</w>
प्प ट्टुळ्ळ
दा नि
त ला</w>
प्रां ता
उस में</w>
कट र</w>
ब ळ</w>
नॆ ल
गर म</w>
कौ णसि</w>
अ दर</w>
प्पटु त्तु
चॆय्य ुं</w>
मुत ൽ</w>
स गळ
हि त
ब ह</w>
माड लु</w>
पाकिस्ता नी</w>
ष ू
भुग तान</w>
इ नि</w>
कৰ ि
ने र्
स्वा मि</w>
वरि गॆ</w>
नि ल</w>
बाहि नीर</w>
पे य़े</w>
प्रख्या पि
वि नो
कि छि</w>
कर शे</w>
सफ लता</w>
ब ड्
ൾ क्क्</w>
भो जन</w>
पा य़</w>
शि शु</w>
सि रि
मरु त्तु
ड ण
ऒव्व ॊरु</w>
हा ज़र</w>
छो ड़</w>
मे ला
अऩु मति
मऱ्ऱ ्</w>
त ह
प नि</w>
आ ती</w>
वारि कि</w>
बाव जूद</w>
डा क्
ज ता
एसे छे</w>
क ब्
मु क्ति</w>
जाए ंगे</w>
ब ्ला
प्रतिनि धि</w>
मी ण्टुम्</w>
ए ं
वे ल
प्रतिषे ध
अलु वल
ऎन्न ी</w>
समा धा
चॊ ऩ्ऩ
उल्ल ं
दु इ
पा ळ
ऎ त्तु
अनु सर
स्था निक</w>
ए यर
स्ऱ्ऱ े
स् बु
ए ंड</w>
पेट्रो ल</w>
छे ले</w>
बां ध
त ऩ्ऩ
वि ति
काश्मी र
पं चाय
च्छे द</w>
प्प ट</w>
जिन में</w>
ह रे</w>
ब ड
पार टी</w>
ना लु
फ रार</w>
ख त</w>
के शन</w>
इन्तिया विल्</w>
प वार</w>
राख ते</w>
ज मा
आ ग्रह</w>
नेतृ त्व
क या
पॆट्रो ल्</w>
फाय दा</w>
जा ग्र
भु ल</w>
जन रु</w>
दिखा ई</w>
भे द
भार ्य</w>
अस लेल्या</w>
इक्क ड</w>
का लि
२ ५</w>
क्रि केट
ह ण
लै ंग
ति ते</w>
मुख्य मन्त्री</w>
ट म</w>
हो कर</w>
तु ऱै</w>
फा इन
इ का
निराप त्ता</w>
पा नि</w>
बाइ रे</w>
क्कु ळ्</w>
रि क्कुकयाण्</w>
ह लेन</w>
त च</w>
अवरु टैय</w>
क्क ैयिल्</w>
आ खि
समू ह
छे ड़े</w>
रहे गा</w>
सिनिमा लो</w>
मे ऱ्प
पि ळ्ळ
वि लु
सी एम</w>
ता वतु</w>
इव् वाऱु</w>
शा नदार</w>
निक ऴ्च्च
टि प्प
अं टे</w>
हॆ च्चिन</w>
ए गिय़े</w>
ए त</w>
स ला</w>
द ह
ऎण् णि
अ विटॆ</w>
कु ऴु
ँ कि</w>
साक्ष ा
न ज
पा टी
पा क्</w>
वै रस्</w>
त् कार</w>
ऒ न्नुं</w>
ർत् थि
ज ने</w>
ई ं</w>
न् ने</w>
य िल्</w>
समा प्त</w>
आ तर
प्रे म
बधा ई</w>
्या ं</w>
स् कु
क ही</w>
बे ळे</w>
न्या स</w>
इन् टार
कळि टम्</w>
से ं
ू र
ला या</w>
र क्त</w>
मध्य़ रे</w>
भार ्
ऱ ൺ
मू डु</w>
वे ळ</w>
भा इ
मु ँ</w>
क ़</w>
का जेर</w>
वा दि
प्रतिक्र िया</w>
या ं
त् स
ऎ च्चरि
संविधा न</w>
इ ल्लि
अ ऴि
र ओ</w>
शा ला</w>
ट्ट ॆ</w>
परि वहन</w>
कंप नियों</w>
दुर् घटना</w>
स्था ने</w>
वि टा
लगा ने</w>
देश ी</w>
क्र मि
पॆरु म्पा
चि न</w>
ना ळ
स ल्लि
गठ बंधन</w>
त्र ी
जा पान</w>
स्ऱ्ऱ ർ</w>
के श</w>
आत्मह त्या</w>
वा यि
मळ शे</w>
त मने</w>
अभि षे
द ारि
आৰ ु</w>
इ प्पट
शु द्ध</w>
िया य</w>
अबस्था य़</w>
समुदा य</w>
सि ब्ब
पार बे</w>
२ १</w>
मो डी</w>
ट्रं प</w>
योगा योग</w>
सं वत्
स त्ता</w>
ब डु
ंड ्र
व्यक्ति गत</w>
ॆ गळु</w>
सुप्री ं
द् ୱ
वध ारे</w>
प्री त</w>
इन्त्य युटॆ</w>
अला गे</w>
क्कप्प ट्टु</w>
न ने</w>
वु ड्</w>
द त्त</w>
वा यु
आदि त्य
ऎ लांटि</w>
पो कु
बिजॆ पि
उप योग
क ർ</w>
बं ने</w>
जि ते
अ न</w>
सत त</w>
दि ੰ
चु ऱ्ऱु
जा वेगा</w>
मो ड
त्त ल्</w>
प्रिय ़</w>
r i
मु काब
आ ँ
ൽ निन्न्</w>
के ल्या
अ ङ्ङ
बारि श</w>
से रा</w>
डि ग्री</w>
त्या ची</w>
r a
फ ौ
क्क ी</w>
सम य़ेर</w>
शा न्ति</w>
ग लत</w>
ज गा
रा ह</w>
ने वाले</w>
त्या ग</w>
ंतर ं</w>
सै निक</w>
नि कट
२ ४</w>
गै स</w>
आवे दन</w>
स्बा धीन
प्प ा</w>
पि ल</w>
प ं</w>
चे स्तुन्नारु</w>
रह मान</w>
ष् ण
कू ल
सि द्द
कर्ता ओं</w>
मृत्यु र</w>
मा ंग
ट्रं प्</w>
अ ष्ट
ग ्लो
इम रान</w>
कहि छन्ति</w>
स्व च्छ
हैदरा बाद्</w>
पक्ष ीय</w>
नम गॆ</w>
च को
गि रुव</w>
मिले गी</w>
मू सा</w>
ट्ट ार्</w>
भ ्या
कमे टी</w>
सी टों</w>
मु म्
4 4</w>
ऎ फ्
स्थ ल</w>
व द
हुੰ दे</w>
म ं</w>
वा ग्
गि द्दु</w>
ं पु
झ ार
आ घा
य़ क</w>
व चन</w>
आप वामां</w>
दू त</w>
समु द्र</w>
सि कॊळ्ळ
जिन् होंने</w>
पु रो
अव ർ
मु ंदु</w>
अर ॆ
व ार्कळ्</w>
व धा
व ्य</w>
इ त्या
नी त</w>
न्त ै</w>
त्या ंची</w>
क ण्ण
भा बेइ</w>
ट्ट ं</w>
खे ती</w>
न् ही</w>
वर्ष ों</w>
म ते</w>
क ॅ
कार्य दर्
सं ग्रह</w>
युक्त राष्ट्र
कु टिय
बा य
खा ना</w>
इ दर</w>
प्पि ऩ
कार ु</w>
पॆ ट्टु
ंड ी</w>
बल लेन</w>
आं ध्र</w>
पा ने</w>
ु टैय</w>
घरे लू</w>
दि ने</w>
टि ੰग</w>
रि ੰदर</w>
फ ॉ
त्त िलुळ्ळ</w>
हैदरा बाद</w>
बे क</w>
रोहि त्</w>
इप्पटि के</w>
मट्टु मे</w>
चॆ ल्ल
नॆ रु
ज्य ो
ब राम
क के</w>
तॆरिवि त्तार्</w>
यू रो
ऱ ൽ</w>
चमू क</w>
अनु ष्ठित</w>
ला ं
सा मू
रा स्ता</w>
अक्ष य</w>
नी आं</w>
3 3</w>
ർत् थ
मरि च्चु</w>
न्याया धी
ल गी</w>
नट त्तिय</w>
आ ण्ट
अ णि
ठ ो
निर् माण
य़ ता</w>
अल्ला ह्
अमिता भ</w>
लि ंग</w>
चौ क
त्त ुम्</w>
कु ंटु
बाड़ि ते</w>
आव्य ुं</w>
कऴि ञ्ञ</w>
पाँ च</w>
र वी
अन्त र्गत</w>
यिरु न्न</w>
अफ ्री
नि ङ्ङळ
ऒ रे</w>
जिस ने</w>
दॆ ह
र म</w>
मी टर</w>
वि शिष्ट</w>
कठ ोर</w>
ए ऱ्
इन्तिया विऩ्</w>
आक्रम ण
संबंधि ंचिन</w>
म नी
जि द</w>
पुढ े</w>
व्या प्त
स्पि ट
त्र ण</w>
वाणि ज्य</w>
री ति</w>
आ ण्टु</w>
ल् वे</w>
क टै
ने ते</w>
का ळा
खु शी</w>
नि धन</w>
ति न्</w>
मु ऩ्प
क ड़ी</w>
मनुष ्य</w>
्च ्च
पु त्त
सु रु</w>
का वल
अव सा
चा हे</w>
ना मक</w>
ळ रे</w>
फ क्त</w>
पर म्प
क ना
अव तरि
ष ी
क िल्</w>
क्कि ट
अन्य तम</w>
स त्र</w>
दूसर ा</w>
घेत ली</w>
ल्ल ू</w>
दे वी</w>
ख ारा
ॊ न्नुं</w>
चम्प वम्</w>
4 8</w>
रो ड</w>
ओ ർ
व डा
अ प्रै
वय स्
3 :
वा गु
यिरु न्निल्ल</w>
क्ष ति</w>
का ൻ</w>
प्र चु
वर् क</w>
ंट र</w>
अंग ्रे
श ने</w>
रो जु</w>
स ज्
सं क्रान्त</w>
इ ऴ
तोमा के</w>
पर वरदि
ऎन्नि व
परा ति</w>
मि टार</w>
ट्ट र्</w>
उ ङ्कळुक्कु</w>
दा दा
द म
पऱ या
ओ रो</w>
टा ल</w>
म्म द्</w>
न्न दि</w>
ज़रू री</w>
नॆ गॆ</w>
ने स</w>
दि ना
प्या र</w>
वॆ ंटने</w>
मार ्</w>
दु आरा</w>
दु ष्
पर इ</w>
नड ॆयु
लि ऩ्</w>
व्यव हार</w>
इ ऱै
पि न्नॆ</w>
ज ला
अप्रै ल</w>
सर् बो
सुबि धा</w>
ह नां</w>
पाहि जे</w>
दिव सं</w>
आन ंद
तार ं</w>
हो वेगा</w>
स कूल</w>
ण्टा म्</w>
अत नु</w>
यि सू</w>
ज़ि आदा</w>
शु भे
परवरदि गार</w>
ता कवुम्</w>
मो ट</w>
राष्ट ्री
था कार</w>
आ धिकार
ली ग</w>
क् वा
ज्ञा त</w>
कर लेन</w>
ब ंग
लि ൽ</w>
संस् करण</w>
दा ता</w>
कल न्तु</w>
बिश् ब</w>
प्पु कळ्</w>
दर ्या
का ले
क् करु
उण र्
तृ ण
उ ग्र
गो वा</w>
तिळि सिद्दारॆ</w>
ञ्ञ ु
वेण्ट ु
ड़ ियों</w>
बि ज्ञा
पा ड
मिल कर</w>
अ प्पोൾ</w>
3 70</w>
हे ले</w>
क ता
बा न
म् य</w>
निय मित</w>
दर् शा
ज्ञ ता</w>
शरी र
तिय ॆ</w>
जिन् हें</w>
भ ट
ं प</w>
ऎल्ला ं</w>
मॆडि क्कൽ</w>
निक ट</w>
मौ सम</w>
कार ेर</w>
च ेर</w>
अ स्ति
ं ति</w>
कि वें</w>
को वा</w>
हो तो</w>
जि र</w>
जा ये
चि त
नट पटि
प्रभा ब</w>
करवा नी</w>
ख ों</w>
लोको ने</w>
पश्चि म
द् बी
त्ता ल्</w>
वे लै</w>
प ऱ्ऱ
जीब नेर</w>
अ ऩ्प
सम य़
सा त
२ २</w>
लक्ष ं</w>
ङ् गि
ज न्य
कार ि</w>
प्रसिड न्ऱ्</w>
त्ते वॆ</w>
बि न</w>
वा ൻ</w>
अर् जन</w>
साब का</w>
ंड ्
2 :
तॆरिवित्तु ळ्ळार्</w>
धो नी</w>
ण्या स</w>
निर्देश क</w>
तन् त्र</w>
ना थी</w>
क्ष न्</w>
वर ॆगॆ</w>
सर्वो च्च</w>
याइ थिला</w>
वज ों</w>
ल ੰ
पर्या प्त</w>
क्क िल्ल</w>
बांग्ला देश</w>
ओ नी</w>
फिल म</w>
सा बित</w>
पु रा</w>
कऴ ियु
के सॆ
भाषा य़</w>
ळु टैय</w>
ण्ट ि</w>
न नु</w>
लय ों</w>
कोंग ्रे
ष ॆ
आस ले</w>
सि त
आ रे
ह वा
पुल स</w>
गु न्हा</w>
इउ रो
यहो व
ख ारि
ऎ त्त
तिट्ट म्</w>
स् कुल</w>
बि चार</w>
बे ओ</w>
न्ड ेर</w>
उन्न य़न</w>
आधिकार िक</w>
ग वर्
गुण व
वी स</w>
म िला
पै से</w>
ह ळ
मॊद टि</w>
मे ल्</w>
अव ൾ</w>
स्था पि
शक्ति शाली</w>
वि वरा
बि भाग
डिजि टल</w>
निल ि
ज म
en t</w>
म्पो तु</w>
निऱुवऩ म्</w>
ख्रि स्टा
सि कॊंडि
ती य
या चा</w>
आपना के</w>
ति ऩ
विरोधा त</w>
फेसबु क</w>
समा लो
ना क</w>
अति कारि
प ला
क् ट्</w>
मे मु</w>
एक टु</w>
उ ळ
गु र्ति
आ हार</w>
ती ने</w>
परि कल्पना</w>
यात्र ी</w>
तुहा नूੰ</w>
चि द
रा श
माहि ति</w>
प्र योजन
कृ त्य
व न्त</w>
नि ङ्ङൾ
भ ्रा
िया ई</w>
सू क्ष्
o f</w>
तॆलंगा ण</w>
नटवटि क्कै</w>
पोता नी</w>
न म</w>
व श
मु ग्
सु वुदु</w>
इय ों</w>
रि श्त
हिन् दु</w>
बा कि</w>
व च्चिंदि</w>
ं ती</w>
छ ह</w>
कळा ल्</w>
ंद गी</w>
ही आं</w>
श ृ
वारि नि</w>
दि ग
लग् न</w>
मिल ि
क्का ण्</w>
अध्यक्ष ता</w>
कार ्प
रक्ष ा
माझ ्या</w>
वा पर
त्तु ळ्ळार्</w>
मो टी</w>
आ कार</w>
पङ् के
कुटुं बा
काब ू</w>
शु द्ध
मैया क</w>
हिन् दु
स श
उ ड़ा
बराम द</w>
हे ळ
सरकार ने</w>
र् थ</w>
चिऱ न्त</w>
क्रि के
पी डि
ൻ ड्</w>
थ ों</w>
य िलाण्</w>
राज नीति
म ऱ्ऱ</w>
का ळ</w>
सम र
ट्ट ी
कलि सि</w>
ए ऱॆ</w>
रे खे
व ली</w>
कळ ा</w>
ता ङ्कु</w>
रा जि
दर्श क</w>
क्को ट
ति कळ्</w>
फ डण
काब ट्टि</w>
उ ळि
अल्लाह ्</w>
कृ ष
कोवा लि</w>
या ची</w>
वा त
थ युं</w>
परि चालक</w>
पु न्हा</w>
च ै</w>
न्न ी</w>
बि मान</w>
ची फ्</w>
स दर</w>
ऩु क्कु</w>
आत् मा</w>
हो ण
ए बार</w>
ता म
मा ऱु
स् वि
इ प्पो
शो ध
त्त म्</w>
3 6</w>
१९ ६
तुम् हाला</w>
विवचा यि
स्थ ार</w>
सहा य</w>
कॆ ळ
तरलि ंचारु</w>
उद्योग स्थ
e t
पाठा नो</w>
इले क्ट्र
श क्य
की त</w>
मेडि कल</w>
मारु ति</w>
पहु ंचे</w>
कथ ित</w>
दो ष</w>
अंग ीकरि
का ർ</w>
उ ण्ट्</w>
न्नु ण्ट्</w>
ऒ प्पि
था ए</w>
नि उ
ज ड़ित</w>
एमि टि</w>
ड ौ
बा नी</w>
ली आं</w>
दर्या प्त
द ख
ৱ ा
ऎ ल्ल</w>
इ प्पोൾ</w>
इ ऱु
हिरा सत</w>
वि रि
कौ श
इरु क्क</w>
चॆय्त त्</w>
गो ल</w>
ज़ मीन</w>
का लु</w>
एमन कि</w>
वेब साइट</w>
गॆ लु
पो लुं</w>
क्क ो</w>
बि भाग</w>
ग ज</w>
6 5</w>
तॆर कॆ
इस लाम</w>
मुस्लि म</w>
मु ट
न्न ट्लु</w>
द य
ष्य ൽ</w>
आउ ट</w>
पे य़े
इ न्नु</w>
व िया
ञ्ञ ि
ർ थि
आ शा
रा त्रि</w>
फ ॉर्
ർ च्च</w>
ति नटि</w>
ऒ तु
अक् टो
क्कप्प ट्टुळ्ळ
पि ऩ्</w>
द्द रिंद</w>
क्ष म
के मन</w>
संविधा नं</w>
नु न्नारु</w>
4 ,
स़ ी
चू ड
मार ुं</w>
ल ग</w>
कै गॊ
संघर् ष</w>
पण िया
ति ൽ</w>
ए गा</w>
वॆळ िया
मऱ्ऱ ु</w>
व ला</w>
कारण माक</w>
राज की
नमु क्क्</w>
मुऩ् ऩाळ्</w>
सन् तान</w>
नि न्ऱॆ</w>
चे न्न
अधि ना
र ौ
डा इ
ड्ड ारु</w>
उंटा यि</w>
ति ੰन</w>
प ंद
टुत्त ्</w>
र्त्त ु</w>
धि कार</w>
हो क</w>
भ ळि</w>
कर ू
निरा करि
अ ंच
श त्रु
त्त ं</w>
कळु टऩ्</w>
ज ॉ
सहा यं</w>
प्रव क्ता</w>
सिने मा</w>
स्ୱ ा
सां बा
गं भी
वॆल्ल डि
आल्लाह ्</w>
चार ा
रा ऩ</w>
बि धा
न्न े
जाना नो</w>
मुख ी</w>
वैज्ञा निक</w>
म रो
को रि
रहे शे</w>
वि ष्
स्व ർ
नि ंग</w>
प्रत्य क्ष</w>
अस ल</w>
सं साधन</w>
ण न</w>
शि कार</w>
ए प्रि
उप युक्त</w>
का त</w>
दी निकि</w>
मो टर
प्पॆटु त्तु
उंड ा
जख मी</w>
जरि गिन</w>
क म्
ऒ ऩ्ऱु</w>
त ः
टे क्
ऒरु वर्</w>
माण ु</w>
बा ग
ध् बं
आक्रम ण</w>
मो च
गी त
स्व तंत्र
जीवि तं</w>
वੱ ध</w>
कु र
सबੰ धी</w>
इ प्प
ी र्
महा मारी</w>
पा ठ</w>
प दे</w>
क् कर
न म्</w>
ह ർ
इक्कार ्यं</w>
फ ्ला
फि क</w>
त्तु ऱै</w>
चुना वण
ये ला</w>
पु ष्टि</w>
किउ ं</w>
मं लो</w>
द रेक</w>
ला ना</w>
न तम</w>
खारि ज</w>
मा तृ
स्था ൻ</w>
पा दन</w>
ऱा यि</w>
चा य़</w>
पि क्
डि ंग</w>
उप रा
चॆय्य ुम्</w>
मो र्
टे ं</w>
कार ीदेर</w>
लो क्
बज ट</w>
सा झा</w>
कंग ्रे
क्क ल्</w>
विचार णै
त्त िला
बिरो धी</w>
छ ड़िय़े</w>
कपू र्</w>
क मां</w>
भि ड</w>
स्टे ट</w>
आ ठ
पा प</w>
कर् णा
पॆ ऱु
ड ार</w>
प्रयत् नि
ताप मान</w>
मा ൻ</w>
पृथ् वी</w>
चित्र त्तिൽ</w>
वत ै</w>
वे गळ
त्या चे</w>
सि न्
पहु ंची</w>
इ क
सा ल
फ़ ै
सं बाद</w>
अनुष् का</w>
अर् जुन</w>
म ंग
भार े</w>
पो ल</w>
उल क</w>
बा ह</w>
पर बर्ती</w>
नि वार
201 3</w>
को न
आ छेन</w>
गुलो ते</w>
केट लाक</w>
ष ्य</w>
ऩ्ऩ ि
म शी
प्रारं भ
ऑन लाइन</w>
इंग्ल ैंड</w>
मर णं</w>
ऐ स</w>
तॊ ऴि
ੱ तर</w>
ओ फ्</w>
क्क र</w>
वी डियो
प्रति दिन</w>
6 ,
ता प</w>
सौ कर
छो ड़
ू ർ</w>
अंत रि
प ड़</w>
सं वे
व धार
देवे ंद्र</w>
ङ्ङळ िलुं</w>
ना ने</w>
कार्य वाही</w>
परिणा म
स्पो र्
त्त िलुम्</w>
अ शोक</w>
उत्प न्न</w>
मे य़े</w>
पॆ ऱ्ऱु
स्ट ार्
प लु</w>
ण् डि
टी मि
ढिल्ल ी</w>
कू ट्टु
आ ग्रहि
उ ङ्कळु
कु रु
एऱ्प टुत्त
बि ज्ञान</w>
न म्प
हाला त</w>
स िय
मरि ंत</w>
अनु वदि
विदिआरथ ीआं</w>
प्रोत्सा हन</w>
पे रा
ना ल्</w>
ऒ ळि
क प्प
ओय़ ार्
समय ंलो</w>
ग यो</w>
सह योगि
ंचा लि</w>
अवकाश ं</w>
रूप े</w>
ध म
देश ंलो</w>
सु प्रि
दिल ी
स ्रो
गति विध
कल्प ि
प्र वृ
परि वार
ण ्प
ख रे</w>
मि त्र</w>
त ङ्ङळुटॆ</w>
स्टा ग्राम</w>
सू र्य
बु ल</w>
ट ने</w>
ले दनि</w>
सै न्य</w>
प्रति ष्ठित</w>
ड्रा इ
महि ळा</w>
ए छाड़ाओ</w>
बा गा</w>
इ प्पटि</w>
आं तर
खारा प</w>
डे वि
संदर् भ</w>
था नाय़</w>
लक्ष ण
सं कट</w>
प्ट ॆ
अंद र</w>
इळ ै
त्ति ऱ
्य ु</w>
बी ते</w>
नू तन</w>
चर् व
वि क्र
खु श</w>
सु झा
चर्य लु</w>
न्नि ൽ</w>
कोंग ्रेस</w>
ब री</w>
ৰ े</w>
दो न्ही</w>
इ वർ</w>
ऑ फि
ल र्
ड्र ो
रण बीर</w>
कॊण्ट ि
ो र्</w>
या व
संक्रम ण</w>
सर् वात</w>
ੰ त</w>
बलि उ
ल ड़
ना ट्
तय ्या
सु रु
फिर ्या
कळ िलुं</w>
वा णी</w>
प्रा क्त
ङ् के
मन्त्र णा
खो ज</w>
मा यि
2 8
शही द</w>
मा स
म ऱै
उप करण
मुं बै
पर ेर</w>
क्का ना
हीरो यि
अस ं</w>
ष ु
मु ੱ
रे खे</w>
मर ि</w>
रा इ</w>
प ठ
दीर् घ</w>
र् ना
सा उ
इ ण
भार ्य
लो ड़</w>
वा ज
अप घा
या ब</w>
कार क</w>
किऱि स्त
द ू</w>
इ उन
संतो ष
वा ना</w>
खु न</w>
म ्यू
दा य़ेर</w>
इरु न्त</w>
पहु ंच
शहर ेर</w>
ए टाइ</w>
का ंना</w>
आ ठ</w>
वार् षिक</w>
नि ंदि
असल्या चे</w>
ता त्
घेत ला</w>
च्च ा</w>
ब्ल ि
निर् मला</w>
कु ं
वि ऱ्प
श्र द्धा</w>
बन्ध ु</w>
छत्ती स
डॉ क्ट
क्रि कॆट्</w>
र खे
च्च ॆ
दा ं</w>
ड र
मन्त ब्य</w>
से ट</w>
कं पॆ
हु म
मात्र माण्</w>
ना ल
गाँ व</w>
त यार</w>
आं क
वु लु</w>
जा हा
है क्कोट
वि र</w>
विरु द्ध
साम ्रा
अ त</w>
मा न्</w>
ऱि न्ऱॆ</w>
यौ न</w>
खा नेइ</w>
कख नो</w>
तद न्तेर</w>
कळ िलुम्</w>
कन्न ड</w>
वे ळॆ</w>
को म्पा
अवर् कळै</w>
ऴ् च</w>
आ उण</w>
मे रकु</w>
तॊऴिल् नु
चॆऩ्ऩ ै</w>
ग्रु प</w>
ख ंड
आगु न</w>
पऱञ्ञ ुः</w>
क् टि
सं हि
डि न</w>
ऎटु त्तु
क्का नुळ्ळ</w>
इ मार
का ने</w>
त लु
उप राष्ट्रपति</w>
वर् गा
व द्द</w>
प्रज लु</w>
के ट्
प राज
जिन् हां</w>
बी सीसी
ह ्य
प बि
णी य</w>
बा ला
कं टे</w>
ब् य़ा
टु त्ति
क्ष मा</w>
ओ र्</w>
ॊ ऴु
ऩ् कळ्</w>
निग रानी</w>
फलि ता
न मू
ले नि</w>
अनुष्ठा ने</w>
स्था नं</w>
am e</w>
प्रथ मे</w>
अ णि</w>
ग ੰ
क्किऱ ार्कळ्</w>
जा स्त</w>
हा कि
स चे
ियि ंद</w>
हिमा चल</w>
स्वा मी</w>
बर्त मान</w>
निक ऴ्
ड ॆ</w>
दौ रा</w>
स्ट ु</w>
ब इ
ब हार</w>
निग म</w>
को ट</w>
विद्य ु
े ओ</w>
अ हीं</w>
शह री</w>
ऎ न्</w>
िया ँ</w>
बाई बल</w>
मा लिक</w>
ज़ िल्
्त ि
ना ट्टु
त्ति नुं</w>
त मिल
ब िय़े</w>
पार ी</w>
त्या ंचे</w>
अळ विल्</w>
मुऴु वतुम्</w>
बिश्बबिद्याल य़</w>
अधिकार ुलु</w>
काँग्रे स</w>
मह त्व</w>
आबे दन</w>
3 7
र द्द</w>
दोष ी</w>
चॆय्यु न्नत्</w>
ऎ रि
या इ</w>
सिने मा
दुः ख</w>
त्ति द्दारॆ</w>
चॆय्या ൻ</w>
न्त र
प्राक्त न</w>
फ़ ी</w>
म ले
ळ्ळ ु</w>
उत ार
द स्ता
न्न ताण्</w>
क्किऩ्ऱ ऩर्</w>
अ हम</w>
कार्य ङ्ङൾ</w>
महा त्मा</w>
पा ट्</w>
ये सु</w>
य़ ारि</w>
सु लभ
जोर दार</w>
पॊरु ट्
ॆय ू</w>
प्रा ण</w>
अनु सरि
पै की</w>
रहे ंगे</w>
ओ ए</w>
सो म
कॊ लै</w>
ल् नि</w>
पो षण</w>
अति नाൽ</w>
ल के</w>
ध ियों</w>
चार ि
ंचाल नि</w>
परस्प र</w>
अ स्ट्रेल
ह वा</w>
श्री ल
विधे यक</w>
का ट्टु
था केन</w>
मो त</w>
द ने</w>
घट णा</w>
ऱ िया
खु ला
सा म्प
ग ड़
यॆ कोवा</w>
कोल काता</w>
क ष्ट</w>
ज़ ार</w>
पा जक</w>
के वलं</w>
मोठ ्या</w>
आ जा
कोर् ट्</w>
डि जा
जा य</w>
मा से</w>
क्कुन्नु ण्ट्</w>
शाह रुख</w>
बार ि</w>
हृ त</w>
an d</w>
स्बा स्थ
र ब</w>
अनि वार
द ली
सु नील</w>
र क</w>
ब रि
न हि</w>
१९ ४
ऩा लुम्</w>
ञ्च ि</w>
पु री</w>
कल् वि</w>
ंग ु
ञ्च ्</w>
बं धि
चॆय्यु न्नु</w>
माऩ तु</w>
ए देर</w>
टॆ स्ट्</w>
राज ्
खे तर</w>
ख ते</w>
लै न</w>
सो ड
म ई</w>
कर्मचार ियों</w>
कारण म्</w>
सम्पूर् ण</w>
बिजे पिर</w>
बन ने</w>
सु धी
स वार</w>
अभ िया
िय ॆ
भाग ्य
या नी</w>
प्प ऱ्ऱि</w>
क्किय त्</w>
दृ ढ़</w>
बा तें</w>
अध्यक्ष ुडु</w>
विअक ती</w>
र्त्त ि</w>
वि ੰदर</w>
क्क प्पॆटु
स्ट ार
चाल न</w>
य ्य</w>
बो ध</w>
ग्रेप्त ार</w>
व गा</w>
म् स्</w>
जीएस टी</w>
बे र
स्व च्छ</w>
परीक्ष ा
कॆ य</w>
द्दा नॆ</w>
नो ट्</w>
भ रा</w>
ऎ वर
ची नी</w>
रुग्णा लयात</w>
आं ध्र
विचार ण</w>
पैपि ळ्</w>
घट णा
ऎं तो</w>
आ हार
वकी ल</w>
ै कळ्</w>
कॉ न्
कार्य कर्त
ब्य ू
क्का नुं</w>
गां धि</w>
पो ल्</w>
भ रा
ज रा
विष यी</w>
आतंक वाद</w>
द ारा
ट्वि टर</w>
झा लेल्या</w>
या लु</w>
तॊ लि</w>
तॊ लै
मार् क</w>
ब ने
शुभे च्छा</w>
ऎ ल्
परि हार
ंच ंडि</w>
बी जा</w>
पिर च्चि
सा ं</w>
at ion</w>
र स
5 5</w>
कार्यदर् शि</w>
अ प्पटि</w>
ऎन् तु
तो रि
त्या ंचा</w>
ै न</w>
मुद्द ों</w>
इरु न्ता
अब् दु
प ऱ्ऱिय</w>
झ ी
भ्र ष्टा
3 4</w>
घ न
अब स्थान</w>
मुख ्या
वो म्</w>
मॊ बै
व ताक</w>
मा नी</w>
ब ारा
वै ऱ
सा ह</w>
प्पु ऱ
मौ का</w>
चि रिय
ी त</w>
वे ळा
दार ि</w>
ष े</w>
पहिल ी</w>
त ण्
घट ेछे</w>
घ टि
संदर्भ ंगा</w>
प्रसा द्</w>
स्ट ु
कृ ति
निय र</w>
ं श
ख ्</w>
न वा</w>
ऩि ऩुम्</w>
काम ना</w>
भा गे</w>
य्य ारु</w>
सु ंदर</w>
ध् व
बि ह
प्रतिष्ठा न</w>
अव रि
नि ष्प
साम्प त्ति
करी ए</w>
ह ं
म ्य
ना टु</w>
एर् पाटु</w>
रू स</w>
१ ७
भ ्य
उंड े
अव ै</w>
सला गु
डि से
शक तो</w>
प्र कल्प
इ ऩ्ऱु</w>
अत नि</w>
गा ड़ि
अमरी की</w>
म हो
भा वि
भग वान</w>
टा के</w>
प हा
फडण वीस</w>
इ च्च
ी र्कळ्</w>
पंद ्य
अन्तर् भुक्त</w>
3 7</w>
परियोजना ओं</w>
वि पण
मुसलि म</w>
श्या ल</w>
सि हत</w>
शा यद</w>
आदा लत</w>
सा थी</w>
तमिऴ्ना टु</w>
वि न
बर ं</w>
ार ो</w>
क्ति र</w>
ऎ ंदि
क ले</w>
आई टी</w>
स्बा भा
प्रवർत्त न
आप की</w>
परे इ</w>
तालि का</w>
प्र दू
व न्त
च्चि ट्टिल्ल</w>
अ णु
रूपा य्</w>
उ ज्
द प्त
हि द</w>
पा शे</w>
अनु सारे</w>
प्रय़ो ज
स ारा
डि ओ
पे ट</w>
सेवा ओं</w>
श्रीलं का</w>
अस म</w>
ख् त</w>
व ून</w>
िल्ल ॆन्न्</w>
पॊ तु</w>
वा न
तॊटर् पा
या ंचा</w>
पॊलि सार्</w>
ऎ त्ति
वे त
तुटङ्ङ ि</w>
ख्या त</w>
नेर त्तॆ</w>
टि कि</w>
उत वि</w>
a d
पूर् बे</w>
पॆ ण्</w>
बले छिलेन</w>
कर ल</w>
व्यक्तमा क्कि</w>
ह थ
प्रका श
टु त्त</w>
डि प
4 2</w>
ला इ</w>
सत्य ि
जा नेन</w>
दिय़े छिलेन</w>
कि ट</w>
चि आं</w>
विरै विल्</w>
मॆ न्नाण्</w>
पुर ो</w>
मनस् सिला
ल क्
ऐ लान</w>
एका धिक</w>
मह सूस</w>
की म
शै क्ष
दर्याप्त ु</w>
का लिक</w>
वत िल्लै</w>
बां ला</w>
ह क</w>
ऒ ऴु
मान ेर</w>
दी नि</w>
व ॊ
डि कि</w>
फे र
म ैयै</w>
ण्या चे</w>
सं ग
२ ३</w>
या देर</w>
म ऱि
गा ड़ि</w>
संस दी
पो क्कु
१ ५
दृष्ट ा
धि प
का न्
गुलो के</w>
श िया</w>
भ र्
सम्प न्न</w>
ं ज</w>
वि शे</w>
आत्मह त्य
सो च
ट ल्</w>
तकनी की</w>
व लों</w>
कलि गि</w>
त्त ैक्</w>
चॆय्यु न्न</w>
पे ർक्क्</w>
क लु</w>
ज णे</w>
मुख्य मन्त्र
चेर् न्त</w>
इत ैयटुत्तु</w>
वि वाह</w>
ल्या न्ड</w>
त ारु</w>
अ ला</w>
ह री</w>
अद्या प</w>
दे गा</w>
सि टि</w>
व ार्</w>
यॆकोवा विऩ्</w>
एप्रि ल</w>
स न्तोष
मान ना</w>
प ग
पट्ट ण
ऎ ऩिऩुम्</w>
मै दान</w>
पृ ष्ठ
निय न्त्र
आ चार
क िलो</w>
पु ल</w>
सु रੱखिआ</w>
विश ्ले
संगी तं</w>
तॊऴ िल्</w>
इ य़ा
रह ्युं</w>
मे ने</w>
शु क्र
ञ् च</w>
ह्या ँ</w>
को ने</w>
कॉ लेज</w>
कि रु
कट्च ि</w>
सु स्थ</w>
सा म्
ज मीन</w>
ऎ न्तु</w>
ख ्री
स् मार
बद ल
बिबे चना</w>
उपरा ंत</w>
ऎ क्क
न्ति र
अति र्
निर्धार ण</w>
अमॆरि का</w>
ऱ्ऱि ൽ</w>
अद क्कॆ</w>
अभियु क्त</w>
वा ऩ
सौ र
छे ले
क्कप्पटु किऱतु</w>
प्रभा वी</w>
रह ता</w>
सफ र</w>
डि स्
मा न्य</w>
o r</w>
वर् धन</w>
घ ੱट</w>
कार्य क्र
ह ना</w>
मो टा</w>
ला गि</w>
डे ल</w>
संदर् भा
ह री
ड़् ह</w>
निऱै वे
सम् प्रदा
तेर्त ल्</w>
स ठिक</w>
बु ल
मु नु</w>
रि पोर्
त ൻऱॆ</w>
सी सी</w>
व णी</w>
प्ट े
लि य</w>
चिकिॎ सा</w>
दी प्</w>
ने पाल</w>
हि ੰ
प्रा ंत
स्वर ूप</w>
पि न</w>
सि स</w>
राज ु</w>
कर तेन</w>
प्र योग
पै सा</w>
सं घटन
धि कं</w>
ई मान
हल वु</w>
पा क्कि
पश्च ा
ब धा</w>
ड् स</w>
ज़रू रत</w>
आल्ला हर</w>
सो श्याल</w>
इय क्क
पूर ण</w>
दे वर</w>
मुख ्य़
उप स्थि
र क
नि ङ्ङळॆ</w>
मुख्य मंत्र
ए त
दा बाद</w>
ढ ु
फे स्बु
c h
न्याया लया
देश द</w>
त्त ैप्</w>
सो च</w>
ट स</w>
ना ऩ्
ब हा
घटनास्थ ले</w>
र इ</w>
निम् न
भे ट</w>
न्ऱ ॆयुं</w>
िया यि</w>
म स</w>
उप करण</w>
इ ङ्ङनॆ</w>
यू नी
य़ ु
म िल्ला
ज न्</w>
याद व्</w>
ना टक</w>
सभ े
निन्नु ळ्ळ</w>
पू र्ति
अ प्पटि
सभा य़</w>
शि खर</w>
बिद्य ु
सी मित</w>
गो टा</w>
कोर् ट
ते ज
ऎ ൽ
आन न्
इत ना</w>
चा ह
एश िया</w>
ते मां</w>
मट्ट ुम्</w>
स्ने ह
क् लिक</w>
पा ए</w>
व लु
प्पॆटु त्ति</w>
िय़ा म</w>
द क्ष
इये चु</w>
तग् गि
सामा न्य
ञ ङ्ङळुटॆ</w>
भागी दारी</w>
भ े</w>
इंड ियन</w>
प्र ती</w>
पहे ला</w>
तेम ज</w>
मा न्
मा कुम्</w>
प्प ट्टिरु
स्ता यि</w>
तनि खॆ</w>
परि माण</w>
से स</w>
बी न</w>
बा दल</w>
ऎक्कु व</w>
प्रदर् शित</w>
व स्तु</w>
क्किऱ ेऩ्</w>
ੱ ड</w>
से न
काउ के</w>
क स़
ऎ ൻ</w>
किर दार</w>
ऎम् मॆ
पर बर्त
इति न्</w>
घ ु</w>
स्व तः
ख त्म</w>
अं क</w>
री य</w>
ऎ प्पो
सी ए
१ २
मसी ही</w>
्र ि</w>
आ सान</w>
फाइन ल</w>
पहु ंचा
5 ,
सो षल्</w>
हे र
दे बे</w>
चे य़ार
क्क ियि
दर् श</w>
बे कि
प्र कृति</w>
करी ना</w>
अ ंतर</w>
का ंत</w>
ण ॆयल्लि</w>
4 7</w>
स्ने हि
सु पर
इ टी
गरी ब</w>
स्प ा
र ण</w>
मु गि
सीरी ज</w>
गि द्द
ह त्य
विੱ चों</w>
ण ्य
सिस्ट म</w>
मू रु</w>
घट नॆ</w>
छिल ो</w>
रि क्कुन्न</w>
दे ंगे</w>
चोद्य ं</w>
फ री</w>
कि ट्ट
अर चि
या बाबत</w>
तुं बा</w>
नो ट</w>
सचि न</w>
दौ रे</w>
स्व प्
सम्पा दक</w>
श्रे णी</w>
प्रा धा
ते व
व धी
साहि त्य
ख ी
ध ू</w>
क पिल</w>
वो ट</w>
वॆ ऱु
सी य</w>
ङ् गे</w>
बचा व</w>
संस् थ</w>
राजी व</w>
न प
जाय़गा य़</w>
अ ज़ा
मुख े</w>
दी न</w>
का ट्ट
वि न्ऱॆ</w>
आन न्द</w>
बी मा</w>
आ काश</w>
फ् ट</w>
जस्टि स</w>
उम्मीद वारों</w>
गि ण
स ॉ
ड् डी</w>
ल् सिन</w>
पु णे</w>
201 1</w>
वृ द्धि
पाँ च
अ स्बीकार</w>
त्त ॊ
नि पट
जा नु
हा नि</w>
सै न्य
प्रति पक्ष</w>
ल् सि</w>
प्रश् नि
पाल्गॊ न्नारु</w>
निक ल</w>
मु हू
आरं भ
लु स</w>
जा ओ</w>
च्चि रिक्कुन्नत्</w>
व् हाय
उट ൻ</w>
बि नेट</w>
ता हा</w>
गबेष णा</w>
बल ों</w>
पाटी ल</w>
आ का
द िले
दू री</w>
ज़ ु
आरो पण
व श्य
म नु
वितर ण</w>
ण ों</w>
ते णे</w>
वऴ क्कु</w>
गर ज</w>
19 7
उट ्प
जि ज्ञा
ङ्क ै</w>
कि ंग्
व्याप्त ंगा</w>
कर णार</w>
अन ंतरं</w>
तिया क</w>
क्कॊ ळ्ळ
फा न</w>
स ञ्च
उत्पा द
स् व</w>
घ रा
परिचाल ना</w>
टि वि</w>
दस्ता वे
अव चिय
न नी</w>
ना नी</w>
तण् णी
आलो चि
निर् व
चो ण</w>
सम ोर</w>
मेख ल
सम् प्रति</w>
ता ൻ</w>
बिभाग ेर</w>
नम्म ൾ</w>
दीनि पै</w>
जा ल
l e</w>
म स्
अवतरि प्पि
अरु ण</w>
स ्रा
यि शु</w>
शा खा</w>
ब्रिट ेन</w>
पॆरु गु
चा प</w>
सु ख</w>
न ारे</w>
रण्टा ं</w>
रा ग</w>
फ ्रि
कु ति</w>
ब से</w>
सं केत</w>
अर चु
डे ट</w>
अनुसर ण</w>
टॆ क्
कटवु ळुटैय</w>
र त्
न् यं</w>
ल ढ
रि कॉ
कृ ष्ट</w>
ऩ् स्</w>
ज़ ्यादा</w>
जान ता</w>
द्वि पक्षीय</w>
जिस की</w>
मो हा
श य</w>
म लै
समझौ ता</w>
मि ट
भा ष</w>
पु ट</w>
ता ऩ</w>
मा ने
महत्त् वा
मन मोहन</w>
छिल े
ऊऴ िय
संशो ध
य़े ल</w>
चि र
ट्रि क्</w>
व न्तु</w>
इत्या दि</w>
बੱ चिआं</w>
पोरा ट्ट
रू पॊ
जन ऱൽ</w>
आ युक्त</w>
न्त्र ा
त ्प
इ वर
सम् मानित</w>
ता य
चर्व तेच</w>
था ना</w>
पऱयु न्नत्</w>
201 2</w>
a g
कोट ्ल
स् ब</w>
तुट रु
करो ड</w>
आंदो लन</w>
वा सी</w>
क्कु च्</w>
रा ते</w>
त् बे</w>
च यन</w>
विभा गा
भू त
अभियु क्त
र ने</w>
उट ऩ
ठिका णी</w>
ले ते</w>
पि ൻ
हस्ता क्षर</w>
ले ंगे</w>
सि ए
प्र बेश</w>
फिल्म ों</w>
अति न्</w>
अफ्री का</w>
क ने
त ख
पि क्स
प च्च
ऎतु वुम्</w>
आला दा</w>
बा ड़ा
प्पि टि
जन गण
सा बेक</w>
ङ्कळ ैयुम्</w>
भे द</w>
करे नि</w>
हॊंदि दॆ</w>
ने य़</w>
निम गॆ</w>
ई न्
ऩ् मै</w>
उन्न य़
मिल ियन</w>
क स्ऱ्ऱ
वि माऩ
प्रभु त्वा
ंदा गि</w>
क्रि स्त
मकि ऴ्च्च
म थ
त नु</w>
आ होत</w>
इंट र्
कार ो</w>
शीघ ्र</w>
वि कल्प</w>
ब क</w>
प्पि ऩ्</w>
ब रे</w>
प्रधान मंत्र
ज्ञा पन</w>
परि चालित</w>
अ चा
एन डी
इत ऩै</w>
नेट वर्क</w>
बो धन</w>
दार ों</w>
आंतर राष्ट्रीय</w>
निजे के</w>
ची फ</w>
ना कि</w>
धार ण</w>
कि राम
वर् ल्ड</w>
क दा
ट्रे स</w>
करण्या ची</w>
द्र ि
भा ई
एजे ंसी</w>
ले ट</w>
बह ळ</w>
मु क्त
अ वा
ऒ त्तु
ओ ना</w>
e m
जाग रू
ट्ट े
ये णार</w>
ब्यब हृत</w>
त ंद
बे शक</w>
नागरि कों</w>
पे रॆ</w>
अरवि ंद</w>
9 ,
शा स्ति</w>
a b
जिल ों</w>
मार् कॆ
अ जय</w>
शीघ ्र
त्त े</w>
परि बार
का ट
चि न्न</w>
सा क
विस्त ार
मु सल
उत्पा द</w>
उस को</w>
शर् म</w>
गुणव त्ता</w>
पद्ध ति
चित्रप ट</w>
दे हा
पड़ ेछे</w>
अव ऱ्ऱ
या गिदॆ</w>
अ लि
ऩु टैय</w>
क ट्टि
गु लु</w>
नि वृ
स्थ गि
ढिल्ल ी
णॆ गॆ</w>
चेन्न ई</w>
मू न्नु</w>
ळ् ल</w>
ऩ ॆ
इक्कार ्य
नरे न्तिर</w>
गु व</w>
आ उ</w>
ह तां</w>
ने ओय़ार</w>
सी न</w>
डाय रे
तमिल नाडु</w>
न देर</w>
मृ त्य़
म्ह टले</w>
बु निया
अ सा
सि ग
न द
सु द्धा</w>
ला श</w>
आक वे</w>
ज ू</w>
प्रया णि
स हा</w>
क्कॊ ळ्
रण वीर</w>
् त</w>
चेय डं</w>
चिकिच्च ै</w>
फिल्म मां</w>
चौ धरी</w>
डब्ल ्यू
लोका ंना</w>
अस तात</w>
आरा ध
पा ऊ
क लु
वळ वु</w>
वੱ डी</w>
प्रचु र</w>
टा ळ
निर् माता</w>
ंड े
संस्था नों</w>
आ घात</w>
्र ा</w>
अ च्च
छिले नः</w>
इतु कुऱित्तु</w>
राज ि</w>
उठ े</w>
ंट न</w>
श ॆ
राज्य सभा</w>
स त्त्
ज क
चुना व
म ळे</w>
ब ल्</w>
प्र देशा
नम तु</w>
न जी
जन वरी</w>
ओ रा</w>
पौ लुस</w>
सो शियल</w>
क्र िया
दा ग</w>
श क्य</w>
बालीवु ड्</w>
मे म्पा
वत ऱ्काऩ</w>
टु लो</w>
कॊ ड
अव न</w>
त्ता नॆ</w>
ट कु</w>
ऩ्ऱ ा
नट पटि</w>
डा ल</w>
जि ए</w>
श्रे णी
दि स
कु मा
स् मरण</w>
4 0
मे न्
भो ट</w>
ग्र ू
अऱ िय
पट त्तिल्</w>
आ दर्श</w>
को ळे
य़ ा</w>
अत ऩाल्</w>
तै नात</w>
१ ४
ॆटु त्तु</w>
तला श</w>
ৱ ा</w>
वऱ्ऱ ै</w>
क्कुन्न िल्ल</w>
स ർ</w>
चरि त्र</w>
एस पी</w>
भ ै
वा ऩ्</w>
एला का</w>
मार् गा
पा क
ए ने</w>
2 50</w>
डॉ क्टर</w>
यूनि वर्
चु मार्</w>
पेर्कॊ न्नारु</w>
रा स्ता
ऒ ळ्ळ
भ व</w>
कৰ ा</w>
नि व
3 8</w>
आ क्रान्त</w>
मज़ बू
प्राथ मि
सर ळ</w>
ग ार्
पोक्कु वर
घा य
बि र
प्रति भट
ट्टु ळ्ळार्</w>
कंप नी
अटि स्थान
अल्ल ॆङ्किൽ</w>
रक्ष ण</w>
बा हेर</w>
विय ल्</w>
प ो</w>
क ण</w>
ऎन्नि व</w>
ही रो</w>
सिबि ऐ</w>
पि न्ना
ज़ े</w>
सर्बो च्च</w>
श ख्
चॆय ल
इन्त क्</w>
न ते</w>
सुरक्ष ा
या साठी</w>
प्र ार
उऱु प्पिऩ
शि क्ष</w>
टि उ
सू त्र</w>
ऎन्ना ण्</w>
व सा
त्व ंलो</w>
19 6
म द</w>
क् वि
प्रतियोगि ता</w>
प न
जे ट</w>
द वा
मऱ्ऱ ु
ञ्ञ ा
करा ई</w>
आ यिरुन्नु</w>
सि न्हा</w>
कर्म कर्ता</w>
गळि वॆ</w>
ह शे</w>
पर न्तु</w>
ही र</w>
प्रा इ
जा ती
लि वू
ट ्लो</w>
न ट</w>
पे रु</w>
स् मृति</w>
लगा ए</w>
ब ण</w>
अभि प्राय
३ ः
संहि ता</w>
मा ला</w>
शु भ</w>
क्षेत्र ीय</w>
आमि र</w>
प ट्
पर माणु</w>
अ डि
पयऩ्प टुत्त
मुयऱ्च ि
आ पूर्ति</w>
c o
मान ों</w>
पुस्त क
रे कर्
प्रदर्श न
मरुत्तुव मऩ
केळ् वि
ंट ू</w>
क थ</w>
का ना
ती श</w>
पॊरुळा तार</w>
सि द्ध</w>
तीरु मान
म ऩ्ऱ</w>
ब्यब सा
गुरु तर
ऩ्ऱ ु
सि क्कि
नवी ं</w>
न्याय मूर्ति</w>
चुनौ ती</w>
शता ंश</w>
सल ्प
स तर्क</w>
टु इट
आशुपत्र िय
प्प े
मुंद ॆ</w>
इ ते</w>
माडि द्दारॆ</w>
आ सा</w>
मा ऱि</w>
ऩा क</w>
इस्त ी
भ क्त</w>
i v
पार् क</w>
आण खी</w>
य त
बा देर</w>
उळ्ळि ट्ट</w>
यि ऩर्</w>
बार ्ता</w>
ओ मां</w>
एस एम
फ लं</w>
गानि स्तान</w>
विध ंगा</w>
अति न्ऱॆ</w>
मै ंबर</w>
पाർ ट्टि</w>
हो ऊ</w>
दे त</w>
ङ्ङ ा
स्वतंत्र ता</w>
त क्र
कु ट
ं साठी</w>
शेत कर
पोर ट</w>
कण्ट ि
i d
स कारात्मक</w>
कूटा तॆ</w>
जा वे</w>
सो ना
व्यक्त ं</w>
माडु व</w>
अनुभ वि
समझौ ते</w>
अनुभ व
राज्य े</w>
पा इ</w>
चॆ बु
य थे
रे ट</w>
काय म</w>
ल्लि रुव</w>
पर्य ्य़
जु लाई</w>
ब ड़
प ्ऱ्ऱ
नि न्न
मे म्प
एक ता</w>
ठ ारे</w>
म ग
ना एं</w>
वा ळ
प्र मुख
धि कारी</w>
साधारण त</w>
बा धा</w>
वा ने</w>
सला ह
चेसुकु ंदि</w>
ऎ ൽ</w>
प्र कल्प</w>
प्पत ऱ्कु</w>
ईश् वर
ळ्ळ ऩ</w>
स्ब रूप</w>
अभिन यि
द् दि</w>
आ गिदॆ</w>
चि न्न
io n
परि सर</w>
सर ा</w>
णी आं</w>
घ ा</w>
चार् ज</w>
वा ड
न न्न
क त्तिऩ्</w>
चर् च
दे ब</w>
परि बे
के ळि
अनुमो दन</w>
टी ं</w>
ർ थ
गिण ती</w>
क्कु मॆन्न्</w>
त्या च्या
्ट ि
लोके देर</w>
स बार</w>
म् ः</w>
प डे</w>
वरुकिऩ्ऱ ऩ</w>
द ळ
क्कॆ ति
अत्य ु
शु र</w>
वरु क्कुम्</w>
तिय न्नु</w>
प्रारं भ</w>
नॆ र
राख े</w>
वि ऴु
5 :
इ च्छ
ो ने</w>
न्तु म्</w>
मै न
३ ः</w>
4 :
ग ंगा</w>
कॊ टुत्त
कर्तृ क</w>
मी कु</w>
आतं की</w>
मुटि वु</w>
अक्क ड</w>
परमे श्
वार ्ता</w>
कॆल स
र ख</w>
ण ारे</w>
संबन्धि च्च्</w>
त्तो टॆ</w>
म ੱ
सा हित</w>
परि जनों</w>
चित्र ंलो</w>
जा हेर</w>
न ण्प
तस्वी र</w>
ी के</w>
तिरु मण
सभा र</w>
स्बा मी</w>
ड् डा
खुँ जे</w>
कार ओ</w>
वर ला
घ णी</w>
o n</w>
स्प ंदि
इळै ञ
तुर ंत</w>
ब िल्ल
ऱ्ऱि ऩ्</w>
कर ले</w>
संबंध ों</w>
परिशी लि
द्व ारे</w>
आ स्ट्रेलिया</w>
आपना देर</w>
िलि रु
हुੰ दी</w>
ए ंगे</w>
स्था नों</w>
लैंग िक</w>
उळ्ळ ऩर्</w>
प ळ्ळि
नൽ किय</w>
शि क</w>
ती सरे</w>
ऎ य
वि लै</w>
वेण्ट िय</w>
चो ट</w>
मुऱ ैयिल्</w>
पि ण
ऱ्ऱ ्
ला ल
तुम्ह ारी</w>
न्यायाधी श</w>
मुकाब ला</w>
चा ल</w>
भू म
त्र ा</w>
भाइरा ल</w>
व न्ततु</w>
भा गी</w>
आगे इ</w>
ग्रा मे</w>
म द्य
त्त क्क
ती विर
चित्र त्तिन्ऱॆ</w>
वॆळ्ळ ं</w>
थ ील</w>
ख रे
उ ँ
स्ट ्रा
क ऴु
१ ः</w>
बे रॆ</w>
व णि
ळ ॆ
व्य ति
मान व
बे कॆ
द ंड</w>
बि हार
क़ ा
करि बाकु</w>
फ ला
मੰ ग</w>
शू टिंग</w>
चि क्क
ंच लेदु</w>
पे रे
दा य़</w>
ज य़</w>
di a</w>
प ञ्च
प टे
अ ल्
ना टा
स्था यी</w>
निर्ण यि
i g
जेट ली</w>
शि वाय</w>
त मारी</w>
शक्य ता</w>
स र्</w>
च ੱ
निर ्यात</w>
ए ब</w>
म्प टि</w>
अव न्ऱॆ</w>
नी आ</w>
क णि
त क्कु
न ौ</w>
ू बर</w>
भू ति</w>
प्रस्ता ब</w>
व कै
ब दु
क्र ू
को णा
पबि त्र</w>
म ू</w>
वु दा
य की
सर ी</w>
च्चा ण्</w>
श क्
पह ल</w>
या वर</w>
5 2</w>
ज़ ी
रिली ज</w>
स् लो</w>
उल्लं घन</w>
ब ंदी</w>
च्च िल्ल</w>
क च्</w>
म णि</w>
प ट</w>
स न्त्रा
देश ी
हॆ च्चि
चे स्तुंदि</w>
के वळ</w>
आ रे</w>
म्या च</w>
बिश्बबिद्याल य़ेर</w>
ले ना</w>
लॉ न्च</w>
संख्य क</w>
बे ँ
द न्नु</w>
डि नि</w>
ो मां</w>
हा ल
चले छे</w>
वाटि नि</w>
2 7
मॆ न्ऱ्</w>
इंरे जि</w>
खरी द</w>
ऐ पि
ब स्तु
डि ग्र
या ग
धु री</w>
कोर ट</w>
प्रथ म
मो दि
बा तों</w>
श् र</w>
दा निकि</w>
पै गा</w>
बे ल</w>
चि ङ्</w>
मी डिय
कु न्नारु</w>
थ ियों</w>
नडु वॆ</w>
ंचु को
यहो व</w>
वा य्
प ड़ा
च तुर्
आ द्दरिंद</w>
को इ</w>
ण ाऱ्या</w>
अ दु
चा ई</w>
यहो वाह
तॊटर्पा ऩ</w>
डि गा</w>
आ य़
देशि क</w>
स जा</w>
र खि
परिण त</w>
त्ति ऩर्</w>
परिशी ल
ङ् गि</w>
च्च ुं</w>
पर्य ट
एहा कु</w>
ण र्
कॊ ंड</w>
विचार ण
ति ळ
त म्मि
क्ष ी</w>
इट ैये</w>
शर द</w>
सी ई
आ ते</w>
खु ले</w>
a r</w>
3 9</w>
श नाल</w>
चिद ंब
आश्च र्य
भ ंड
गो ष्ठ
ना श
दु र</w>
कर ॆ
प्प टै
मि ग
इन्त्य यिൽ</w>
ऎन्नि वർ</w>
र हो</w>
नि न्न</w>
मरुत्तुवमऩ ैयिल्</w>
प्र मो
चूंट णी</w>
बरो बर</w>
धन्य वाद</w>
ऎऩ्ऩ ै</w>
पढ़ ें</w>
ब ॊ
कळु क्काऩ</w>
मुश् किल</w>
सर् वे
ऩ्ऱ ाल्</w>
खु दा</w>
रह ती</w>
जी बने</w>
आ ंत
उद्ध व</w>
ना श</w>
कि ंग्</w>
हिसा ब</w>
मॊद लु</w>
ण् णि
मुल ज़
देख ो</w>
एक त्र</w>
जॆ ट्</w>
प्रेर णा</w>
सन् तान
पो त
सक ੱतर</w>
प णि</w>
पे रि
गिय़े छिल</w>
१९ ५
छबि ते</w>
तुटङ्ङ िय
जन संख्या</w>
ंब ी</w>
जो डा
कारो बार</w>
चि त्त
१ ६
श को</w>
कार्य कारी</w>
मा ऱ्ऱि</w>
अभिषे क</w>
कहा नी</w>
न स</w>
मान्य ता</w>
स ट
वർ क्कुं</w>
श ार
आर् टि
ली ला</w>
ल यं</w>
अधिना य़क</w>
स िलि
ए छाड़ा</w>
फ रा
कडा उन</w>
ख ंडि
u l
बॆंगळू रु</w>
चॆ ल्लि
तेर् वु</w>
बै बि
व नुं</w>
सथा न</w>
मुम्प ्</w>
नं बि
बढ़ कर</w>
गुप्त ा</w>
भू षण</w>
प्रशास निक</w>
अव ै
स्व स्थ</w>
ऎन् ता
अर् जु
ति आर</w>
दि क
को स़ि
काँग्रे स
पाल न
परिच य़</w>
विवर ं</w>
उ क्त</w>
दा द</w>
ञ् जि
का न्ति</w>
खा बार</w>
आ ख़
१ ः
वी ट्ट
अवर्कळु टैय</w>
ं शन</w>
मऴ ै</w>
या ंचे</w>
निल विൽ</w>
6 :
ला ए</w>
दा यक</w>
ज मि
प्र शिक्ष
चॆ प्पा
सी तारा
न्नु वॆ
मा ंड
क्र मे</w>
रिक्क लुं</w>
छो टी</w>
क क्ष
सौ दि</w>
दु निया
डा ं</w>
ही गॆ</w>
श्र ु
झार खंड</w>
अन्वेष ण
होइ थिला</w>
भे टि</w>
निर्बा चित</w>
फे ले</w>
ना ं
ज़ ख़
चो री</w>
अभि प्रा
चे से</w>
ट विल्लै</w>
निल यिൽ</w>
हा ँ
ल म</w>
न च</w>
क्कॆ ट्</w>
ल घु</w>
श्र मिक</w>
र् कळुक्कु</w>
कण्टु पिटि
कर्त ्त
ड ंतो</w>
वि नॆ</w>
दर्शक त्वं</w>
व ण</w>
कॆ प्टॆ
को टि
ल् ड्</w>
अव नॆ</w>
मार ्प
मार्ट म</w>
निवड ण
चे य़े
सार वार</w>
बि राट</w>
ੰ द</w>
कट्च ि
इंड िया
इ ङ्कु</w>
सर बरा
श्री मती</w>
मुख र्जी</w>
चिऱ प्पु</w>
तिरुवनन्तपुर ंः</w>
इ तोटॆ</w>
के ൾ
ब्यक्ति र</w>
प्रति रोध</w>
मै ंदि</w>
क्कुक या
आ भ्य
निर ्या
मि ऩ्</w>
ऎ स्प
सी ऎं</w>
य न्त्र
क्या ल</w>
ज ॆय
कल्ल ू
4 3</w>
वार ्त
काय मटै
पार बेन</w>
कार णा
वास्त विक</w>
भारती य़</w>
प टा
क द
सिब्ब ंदि</w>
श्र ृ
विस्त ृत</w>
पूर् वो
दिੱ ते</w>
वि मർ
लो के</w>
दा वी
य़ ो
हो ण</w>
वडा प्रधान</w>
गर् भ
अज़ा ब</w>
सं वाद</w>
मो ठा</w>
प्रधान मंत्रि</w>
इ जा
आर म्पि
सेरि दंतॆ</w>
ट्ट ो</w>
ई रान</w>
ल् ट</w>
भ क्त
टे क
कमि टि</w>
मु ंदिन</w>
त हित</w>
व हाँ</w>
ർ त्ता
सो स
क्षेत्र ा
गृह मंत्री</w>
ल ट</w>
ब्यक्ति गत</w>
जीवि त</w>
त ियु
त्तु ळ्ळ</w>
म थि</w>
ं ता</w>
फ री
ं खला</w>
लि खे</w>
आप का</w>
ज िय
कू टिय</w>
के म</w>
वै पु</w>
क्का ल
विषय ंलो</w>
ड ार
ड नी</w>
समृ द्ध</w>
डै रॆ
लु न</w>
गतिविध ियों</w>
ऎ ळि
री तिय
ई रा
न ब
अर्थ नैतिक</w>
इस ्र
आफ्रि का</w>
इ ब्रा
अत ः
जॊ तॆगॆ</w>
ड़ े
ना ट्टिऩ्</w>
प्रया सों</w>
आप ले</w>
रक्षि ता
बना ई</w>
घ ट्ट
ह द</w>
स्थि र
ळि त</w>
न्यू डൽ
वि ऩ
इ ता
साक ष्टु</w>
झ ड
कह ने</w>
तृ तीय़</w>
चा म
बर ण</w>
सूत्र ों</w>
साह चर्य
अतः पर</w>
प्रो जे
स में</w>
जे नार
हरा या</w>
मृत देह</w>
जा नी</w>
प्री मिय
ू रु</w>
पड़ ि
िय र्</w>
अ ऴ
नि स्
शि ष्य
का ठा
अनु प
मसी ह</w>
बि धान
आ वास</w>
ए यर</w>
पक्ष ी</w>
मेऱ् कॊळ्ळ
स्थाप क</w>
सं चालन</w>
सम् मेळ
युक्तराष्ट्र ेर</w>
भी तर</w>
ർ त्त
ट ैय
आ कॆ</w>
त्ब ेर</w>
२ ८</w>
ति ल</w>
कृ षि
u t
पश्चिम ब
प रो
यु ळ्ळ
ले क</w>
फा ई</w>
ठा कुर</w>
का वा
स्था य़ी</w>
साहि ब</w>
ु क</w>
नाय डू</w>
मुतल् वर्</w>
पर ा</w>
मि क्क</w>
प्रसार ण</w>
हा उस</w>
जणा व्युं</w>
न ॉ
वरु किऱार्</w>
अद्भु त</w>
इति हास
ब स्
उपा ध्यक्ष</w>
दे स़ां</w>
निय र्</w>
एक् ट्रेस</w>
सी पी
करि बे</w>
जिम्मे दारी</w>
डो क्ट
चित्रा निकि</w>
अऱ ियु
ऑ परे
सिੱ खिआ</w>
दादा पु</w>
जाग तिक</w>
पोस्ट मार्टम</w>
पॆऱ्ऱ तु</w>
कंप ्यू
माग णी</w>
आ णा</w>
हि म</w>
ब ु</w>
कल न्तु
ह लेओ</w>
त ल्लि
व नि
शह रे</w>
5 1</w>
ने टि</w>
आ गळ</w>
ये ईल</w>
स्थळ रे</w>
ऩ्प टि</w>
6 4</w>
शा ही</w>
ऱ ियि
ग ड़</w>
8 ,
पह िले</w>
त्तु ट
ा ई</w>
प्र सार</w>
गि द्दरु</w>
ए रि
घ रों</w>
व्य त्य
पे स़</w>
वि ऱ्कु</w>
सि ङ्</w>
प्रमा द
आस्पत्र ॆगॆ</w>
पाकिस्ता ऩ्</w>
उत्प त्ति</w>
बि द</w>
ग भीर</w>
ले खा
म स्</w>
नि धि</w>
टि न</w>
ंद्र ा</w>
पह िला</w>
प्पॆटु न्नु</w>
दौ र</w>
तैय ारी</w>
फ़ िल
स़र मा</w>
प छा
दि ने
वा इर
आ ध
वी ट्टु
श ः</w>
परि मा
बाध ्य</w>
अमॆरि क्का
स्था न्</w>
ळ ै
यथे ष्ट</w>
रख ी</w>
धर् मीय़</w>
चो पड़ा</w>
मि साल</w>
वे द
प ंच
का ला
सामू हिक</w>
इस रा
म दु
कि र्
टा ओ</w>
स्वा तंत्र
चम्प व
स्ट ्रि
आस छे</w>
यात्र ियों</w>
बणा उण</w>
आ लिया</w>
चेशा डु</w>
निः सन्देह</w>
सुत्ति द्दारॆ</w>
ड् डा</w>
र् स्</w>
आ रुं</w>
को र</w>
दे ती</w>
कू ट्टि
व ण्यात</w>
गु रू</w>
इब्ब रु</w>
म् बा</w>
प्रति ष्ठा</w>
नि ं
नो टिस</w>
5 6</w>
स ौ</w>
वे ट
टर् स</w>
ट्वी ट्</w>
त्ति रुव</w>
पार ्प्प
सम ർ
नो क्क
लिय म</w>
ई सु
गी आं</w>
स्बाभा बिक</w>
उ म
श काय</w>
मिश्र ा</w>
एथि रे</w>
ङ े</w>
कार्य ों</w>
किसा नां</w>
धि आन</w>
हिੱ सा</w>
बी मारी</w>
अ ऴु
नो क्कि</w>
सह योगी</w>
जर ग
चित्रा न्नि</w>
ओ ठे</w>
जर् मनी</w>
मा क्कि</w>
क हे</w>
प्ल े</w>
विरु म्पु
आम े</w>
एन आर
मे ट्रो</w>
बा द्
निय़ो ग</w>
क्ष णं</w>
इन के</w>
प्र ार्थी</w>
वा ऴ्त्त
रख ना</w>
काल त्तिल्</w>
उपा य</w>
स् कर</w>
शे ख
तिरि गि</w>
आ रु
ङ्कळ िलुम्</w>
म िल्लै</w>
आस पास</w>
रु त्तदॆ</w>
कॊण्ट ऩर्</w>
रास़ टर
नो य्</w>
पूർ त्तिया
माव ट्ट</w>
प्रय़ोज नीय़</w>
जा इ
पद ार्थ
ठा णॆयल्लि</w>
एला कार</w>
रि जर्
ग ्ल
य ंत्र
त ही</w>
प ठा
शं कर</w>
नागरि कता</w>
दाँ ड़ा
पो ष
लाई न</w>
को रु
ी ङ्क</w>
काल म्</w>
ार ॆ
ब स्</w>
एम ि</w>
ऩ ार्कळ्</w>
अते समयं</w>
ୱ ा
श्र द्ध
च ർच्च
लोक प्रिय</w>
रहि ੰ
माट्ला डु
स त्ता
ट्र ी</w>
आतंक वादी</w>
सिं ह
बल्ले बाज</w>
पारे नि</w>
सा ई</w>
ड ्या
प्रप ंच</w>
अ ॅ
दा स
राज ्य़</w>
बा जार
प्र तिय
रा ं
मान त</w>
भ्रष्टा चार</w>
ब ई</w>
काय म्</w>
त्ति नायि</w>
खर च</w>
अव का
सु ष
मार् ट</w>
मुख ो
प्रति बंध</w>
शु धु
ड ने</w>
का नि</w>
सर्वा धिक</w>
पक्ष ेर</w>
गण े
कडि मॆ</w>
कॊ नु
लि ं
कै मरा</w>
ब रे
प िल्</w>
बि र</w>
स् बर्
खु शि</w>
स़ ्री</w>
ं सर</w>
नि काल</w>
पे चु
त ल्या</w>
वर्त ्त
i c</w>
वे त</w>
साम्पत्ति क</w>
बॆ ंब
जिन के</w>
सभ ्य
प्पटि की</w>
देख ुन</w>
दिल् ही
िला यिरुन्नु</w>
शा सक</w>
फा ँ
टि ल</w>
मनो हर</w>
आ या
न यि
दो घा
टॊ प्पं</w>
डा ला</w>
शत मान
मा ऱु</w>
अथ च</w>
निश्च ित
करी त</w>
ओ के</w>
विवाह ं</w>
कावल ्तु
सर्व श्रेष्ठ</w>
बडि ंदि</w>
ट मि
पे शा
पि ंदि</w>
तय्या ऱा
आ मंत्र
l o
आ ति
ब ण
ट्र म्प</w>
4 9</w>
क वु
विस़ े
ंद ्</w>
कൾ क्कुं</w>
सम्भा बना</w>
मे क</w>
ने पथ
अ टुत्त
या मध्ये</w>
ध ता</w>
वर् कळै</w>
ऎ ञ्चि
शहर ों</w>
अधि कृत</w>
समर् पित</w>
का हि
टु कळ्</w>
सु हृ
मु ऩ्</w>
ध रे
या तु</w>
मि र
ज स्ऱ्ऱि
ऒप्प न्त
वास ियों</w>
क ड़ा</w>
ऎति राक</w>
मरुत्तुव मऩै
म य़</w>
तु व
रे खा</w>
रास़ टरी</w>
प्रत्य क्ष
ल्प ो
तम्मि ൽ</w>
हो सेन</w>
पे चि
लु क्कु</w>
क् टो
कर िय
ता ओ</w>
अ ती
व सू
इव् व
ऎन्निक ल्लो</w>
कोर् टे</w>
आ हमे
सो ष्यൽ</w>
ऎऩ तु</w>
प्रती क</w>
त दि
तिळि सिदरु</w>
ए हार</w>
करो ड़</w>
ठ ारु</w>
मी डीआ</w>
य् क्कु</w>
हे उछि</w>
कानू नी</w>
बढ़ ा</w>
ध रा
वरा क</w>
परि षे
के लेल्या</w>
पा ओय़ार</w>
ई गा
बैठ के</w>
कळ ो</w>
न ार्
से ल्
कि स्
इन् नि
मुद् दा</w>
वर वे
मॆ न्
ओ फी
बर्ण ना</w>
जाना य़</w>
मा ऱ्ऱु
व्य ो</w>
ही म</w>
भर पूर</w>
ज यि
पे ते</w>
ना द</w>
उ ण्टु</w>
से ने
दख ल</w>
ंद र
र ण्टु
जा व
ड य
इ प्पुडु</w>
छबि र</w>
के प्ट
च्चि रिक्कुन्नु</w>
राज पू
रा खार</w>
फ सल</w>
त्त िलु
क िय
पुऱ त्तिऱ
त िला</w>
द श</w>
कि रा
व्यक्त पडि
मुख्य़ मन्त्री</w>
बुनिया दी</w>
प न्
ता ऴ
अनु कूल</w>
इउ नि
घा ट</w>
लक्ष ्ये</w>
अव काश</w>
सुन् दर</w>
नि रु
त्तु प्</w>
मॊ त्त</w>
द् दॆ</w>
आ सार</w>
कोव डं</w>
कॊ ट्टि
इ त्ति
उ हनां</w>
पर त</w>
च ल्</w>
वरि ൽ</w>
तस वी
ट्र िक</w>
अੱ ज</w>
टे ली
बि एन
ला गि
नट न्न</w>
म्प ॆ
निल ु
स़ े
प्रा जॆ
नियम ों</w>
रो कने</w>
पुन ः
दे कर</w>
खुला सा</w>
फे ब्रु
को ळ
अव ळ्</w>
म ियों</w>
त न्न
आ भार</w>
न ज़
अ गा
वे णं</w>
ट्टा ल्</w>
राज ्य़
आइ नेर</w>
वत िल्</w>
स च</w>
फिर्या दु</w>
संद ी
खे ला
निश्च य़इ</w>
कळ ैत्</w>
ॊ क्कॆ</w>
भारत मां</w>
अरचि ऩ्</w>
प्रयु क्ति</w>
नी टि
ज़ ोर</w>
सके ं</w>
मुद्र ा</w>
इं जी
युव क</w>
सा फल
मे न</w>
इ ंदि
री तिय</w>
मु लु</w>
को टी</w>
डि मा
इ तर
स्ऱ्ऱ ा
ओ फ</w>
सर दार</w>
हो इ</w>
समा धान
पि आर</w>
घाय लों</w>
ब्या ख्या</w>
वत ऱ्काक</w>
ते मन</w>
अनु च्छेद</w>
रा द</w>
वुद न्नु</w>
व ल्</w>
केंद र</w>
ऎन्निक ल</w>
निर्बाच ने</w>
वे ण्टाम्</w>
लड़ा इ</w>
ग डॆ
ल् ड
म्प ु</w>
अञ्च ्</w>
ज़ा ं</w>
न् लु</w>
मੰ तरा
परबर्त ी
क हता</w>
लड़ा ई</w>
को भिड</w>
ॆय ्</w>
क्रै स्त
वच न
प्र बੰ
वा ं
तीरु मानि
२ ६</w>
प ट्टु
मुटिय विल्लै</w>
ता जा</w>
कॆ ट्टि
प्रकार े</w>
सा हम
वि खे</w>
पॆ ट्टि
प लु
संसदी य</w>
श तक</w>
म ण्ट
व च्चा
बर द
ञ्ञ ्</w>
सुन वाई</w>
को ऴि
ँ गे</w>
ना त्मक</w>
डि ट</w>
इ वर्कळ्</w>
किउ ंकि</w>
प डि</w>
शत मानं</w>
क्षे प
गौर व</w>
अस ॆ
को टिय
डी ल</w>
गो प
सू पर्</w>
वय न</w>
द या
णॆ न्नुं</w>
द स</w>
अन्वे षि
थ ित</w>
ळ ता</w>
निय़न्त्र ण</w>
आवे ला</w>
से टि</w>
ना गा
क्कु म्पोൾ</w>
तुम्ह ारा</w>
भाग ं</w>
ब्या पक</w>
गु ल</w>
महाराष्ट ्रा
स्ट िक</w>
चको तर
उट ल्</w>
तीरु मानं</w>
अ स्
मं च</w>
मूल ्या
इला कों</w>
क नु
ना मेर</w>
पुन रा
ल्ला ह</w>
विवर ङ्ङൾ</w>
ती नों</w>
बे ड
ह जु</w>
आस ते</w>
म वु
हौ ल</w>
प्रति टि</w>
प ड्डारु</w>
ज ्या</w>
कार ्त
पे च
पार् श्
े स</w>
अत्य धिक</w>
आ ओय़ा
मान ते</w>
पहो ंची</w>
सं कल्प</w>
बा ङ्क्</w>
पोलीसु लकु</w>
रचि कर्
क्कप्प ट्टिरु
आस बे</w>
खे ळा
ऒ ब्ब</w>
हास ल</w>
वा दा
निश्च य</w>
प्रवे श
सि तु</w>
मा ंस</w>
पा छ
दा य
अऩै वरुम्</w>
स ड़
वर् कळिऩ्</w>
हा गॆ</w>
बा णी</w>
ज ं
र सा
ർ क्कुं</w>
ब लार</w>
केंद ्रा
पृथि बीर</w>
ऎ त
समावे श
फ स
यु ण्टा
केसु लु</w>
व्यक्त ियों</w>
रै ली</w>
या न्नि</w>
मार ि</w>
जॊ तॆ</w>
मध्य म</w>
नों धा
पूर्वो त्तर</w>
रू पि
अ फ़
िय़ा ल</w>
स बहुदु</w>
सलाह कार</w>
उ द्या
बिमान बन्
वर ण
पुऱ त्तु
ह ल्ल
अ साधारण</w>
ध वन</w>
वऴ ङ्कु
चॆ ऱु
आंदो ळ
जा वेगी</w>
आ स</w>
प ड़्
नॆ गळु</w>
गि राव
ग ता
स का
बे ड़े</w>
य श</w>
प्रभा व
न लु</w>
रिकॉ र्ड</w>
बु री</w>
एस एस</w>
ने ल</w>
संदर्भ दल्लि</w>
च ढ़
बी आई</w>
अधि कृत
सौ र</w>
आ ळ
वॆ ऱ्ऱि
बि श
i r
ना ले</w>
क्का ൾ</w>
संगी त
मै च्च
बा क्य</w>
पो ट्टि
निर्देश न</w>
अद्देह त्तिन्ऱॆ</w>
मन्त्र ा
मि श्र</w>
दू जे</w>
एक ॆ</w>
राष्ट्री य
कि भाबे</w>
हो स्पिट
य ्च्च
ना ट्टु</w>
नि कल
स्टो रे
ने वाला</w>
चु क्ति</w>
मृत्य़ ु</w>
वर्त ी</w>
ना ओ</w>
आ यात</w>
संस् कृ
बो ल</w>
छत्तीस गढ़</w>
क्रि क्कऱ्ऱ्</w>
का य्
प्पट विल्लै</w>
चॆय्त िरु
कर ं</w>
इੱ थे</w>
मॆ न्न</w>
कु ळि
G B</w>
नि जा
ल् कळै</w>
आदि त्य</w>
टॆ ड्</w>
घ ्या
जबा ब</w>
म मां</w>
ती र
अव ൻऱॆ</w>
मज़बू त</w>
रं जन</w>
पु रि</w>
आ ख
साक्ष ी</w>
गिराव ट</w>
प्रदेश ेर</w>
क टा
च् छिल</w>
वि परी
तिरै प्पट
मीडिया लो</w>
सि कॊळ्ळु
म ंद
चॆय्यु क</w>
साध ्य</w>
यो जन</w>
संप त्ति</w>
को य
अ सं
न्ते ऩ्</w>
्रा स</w>
किं बा</w>
सह कारी</w>
ए बे</w>
ट्ट ुम्</w>
मऩि त
निवडण ूक</w>
हय़े छिलेन</w>
ऩै कळ्</w>
नॆ याण्</w>
अनु रूप</w>
केंद री</w>
अने के</w>
ले कपो
दर्श कुडु</w>
बि ष्
कॊ रो
वा पर</w>
व वा</w>
विषया न्नि</w>
हर् ष
इरु वरुम्</w>
ठ ार</w>
कुल दीप</w>
त मां</w>
गा या
भ ർत्ता
मै प्पु</w>
सरकार ों</w>
उद् देशि
तारी ख</w>
ल ॊ
दी पक</w>
पल् कलै
का ग
ट् विट्ट
मिल ता</w>
स्वच्छ ता</w>
बजा य़</w>
हे ठ
अ ल्लि</w>
प्पट्ट ऩ</w>
ब डि</w>
कि ऱ</w>
6 00</w>
वी टि
नौ सेना</w>
सभ ॆ</w>
न का</w>
कुटिय र
नम्पि क्कै</w>
नम क्कु</w>
राष्ट्र ंलो</w>
दिल्ल ि
ऎ ङ्कळ्</w>
लोके रा</w>
डा उन
दबा व</w>
दा ओ</w>
ज हाँ</w>
रा ळ
कर वुं</w>
विश्वा सि
दिल्ली ः</w>
बिश्ब का
अऱ िया
स् क्रि
ली र</w>
मृतदेह ं</w>
कु ंदि</w>
अ मे
वे स्ट
निർ म्मि
प नु
संघ टि
उपा सना</w>
मन् दिर</w>
बा न्
चॆ प्पि
च ंद्र</w>
रास़टर पती</w>
मौ लिक</w>
परिशो धि
सि री
आण्ट िल्</w>
सु व
सिनि म</w>
ए क्स</w>
पछ न्द</w>
मा ऩ्</w>
न् वयन</w>
ष नल्</w>
स़ ल</w>
दा खिल</w>
ता ङ्कर</w>
अंतरि क्ष</w>
प वर्</w>
श ों</w>
कु ल्</w>
अ न्न</w>
ൽ प्प
व्यव हार
प्रा ची
च न्ते
आ ज्ञा</w>
बिक्र ी</w>
मा हौल</w>
4 6</w>
मे ं
न त्तिൽ</w>
टिप्प णी</w>
तु लनु</w>
नू ऱ्ऱा
ब्या पार</w>
इति न्ऱॆ</w>
आकियो र्</w>
लक्ष लु</w>
डी ने</w>
जन प्रिय़</w>
ऩा ति
मिड िय़ाय़</w>
पा च
हु डु
हॆ च्चा
मेऱ् कॊण्टु</w>
त्ति ऱ्कु
मॉ डल</w>
पिर च्च
को ट्ट
ला ऩ</w>
द गी</w>
ह जार
मु ल</w>
न्या शनाल</w>
भ ट्ट</w>
ऒऴि वा
्ट ्</w>
नाराय ण</w>
गे ला</w>
च ं
धर पक
नो ट
ता जागा</w>
ल ंड
ੰद गी</w>
सु त्तारॆ</w>
चेय डानिकि</w>
वऴ क्कु
पयिऱ्च ि</w>
शक्त माय</w>
मा तु
पॆ द्द
अ रे
उत्पा दों</w>
पार ु
सरकार े</w>
स थि
ते नो</w>
9 5</w>
ओय़ा य़</w>
ते रे</w>
कर् ण
5 4</w>
ती ർ
वा क
च्चु ळ्ळ</w>
त्ति नु
गड ॆ</w>
स तर्
u m
विज यि
नटि कर्</w>
दो स्त</w>
ताव नी</w>
ओ देर</w>
खिला ड़ियों</w>
वे ट</w>
मि कु
विवर ण</w>
रि की</w>
् कळ्</w>
ये शू
आ ह
अ ङ्
सं बाद
म का
टा ൻ</w>
िया र</w>
संगठ नों</w>
सी ऱ्ऱु
मोदी ए</w>
टि क्</w>
स्व ल्प</w>
कर तात</w>
सा झे
कि मी</w>
पड़ ता</w>
लं बे</w>
हृद य</w>
तलै मै</w>
ज य़
अंत र्जा
प्रस्तु ति</w>
स्त रीय</w>
उ नि
धि कारि
न िय़ा</w>
दह शत
बा बा
ग ्ला
अग स्त</w>
ंचे ंदुकु</w>
िल्ल े</w>
सि नॆ</w>
वकु प्प्</w>
पो ऩ्ऱ
रै या
राष्ट्र वादी</w>
न िय़ेछे</w>
ङ्कि य</w>
सब ु</w>
ता कत</w>
तमि ळ
आ ओ
ए च</w>
असॆ ंब
पत्रि का</w>
पश्चि मी</w>
स ्र
म्म ॆ</w>
पङ्कॆ टु
प्र वास</w>
ंत्र िक</w>
4 1</w>
पं जी
स का</w>
अतिकारि कळ्</w>
तुट ङ्ङिय</w>
ओडि शा</w>
२ ९</w>
त ौ
ङ्ङळ ॆ
सा ग
व्यक् ती
ऐ क्य
ंद ो</w>
बना ना</w>
पर म
क्करु त्</w>
तो टु</w>
N ame</w>
कॊ ट्ट
ब ॅ
दर्शक त्वंलो</w>
ब्यक्ति देर</w>
अ म्म</w>
शो ना</w>
मि त
व्य त्या
मा ह
शा ंत
तवि र</w>
बिषय़ क</w>
त्त ी</w>
मु ति
ङ् गा</w>
अरु णा
स फ़
व ट्ट
उत वि
आदा लते</w>
पॆण् कळ्</w>
गि न
ष ्या
ऐ रो
इ वै</w>
स्थि री
पणि कळ्</w>
ता ने</w>
पऱञ्ञ त्</w>
अति थि</w>
च रि</w>
दि वा
आ जि</w>
खोँ ज</w>
बि काश</w>
आंत रिक</w>
या य</w>
माडि द</w>
को प
उ ज
ऎ ङ्ङ
प्रा धि
चॆय ला
सु बह</w>
फे ल</w>
का ंनी</w>
क ब
कै य</w>
वे रिय
शुभ काम
पाव सा
इ ए</w>
ता क
कॊनसा गु
घे ऊन</w>
ज ऩाति
इरु वरुं</w>
च ली</w>
माम लार</w>
का फ़ी</w>
सत्य ि</w>
ही गागि</w>
द रा</w>
निय ुं</w>
चा ली</w>
टि ए</w>
त्य ार
नेर म्</w>
युवा ओं</w>
इण ैय
त ल्ल</w>
ग मन
का ओं</w>
मा ऱ्ऱि
म हा</w>
महिळ ॆय
गा ं</w>
ऎऩ्ऱ ा
ईगा गले</w>
व्या या
द फ
गान् धी</w>
अऱ स्ऱ्ऱ
बद ला</w>
अञ्च ले</w>
सहा य़ता</w>
गड करी</w>
क्रि कॆ
ंड गा</w>
प्र दर
वागि त्तु</w>
ऩ् ऩ</w>
अर्था त</w>
बं धन
जा म
हि ः</w>
रमे श्</w>
द्वी प</w>
देख ें</w>
गम नि
ऎ वरि
सेव क</w>
या ल्</w>
ई डी</w>
रिय र</w>
एक त्र
क् लो
कु ति
तथ ्य
गी य</w>
म ङ्
कू र्
आम् हाला</w>
जेनार ेल</w>
आद्य ं</w>
वाद ं</w>
ध्य क्ष
ऐ दु</w>
रि गू</w>
था न</w>
स्ट र्</w>
व य</w>
यो हन</w>
जाय़ गा</w>
पकु तियिल्</w>
आ ता
स्बाधीन ता</w>
पत्र कार</w>
न लु
ण्ट ॆन्न्</w>
कि ंद</w>
उटऩ टियाक</w>
ता छ</w>
ग्र हा
करे ननि</w>
लै ण</w>
कर माय</w>
बिडु गडॆ
ट्रा म्प</w>
विद्या ർत्थि
8 5</w>
धन्य बाद</w>
आप ला</w>
मंत्रि मंडल</w>
सॆ ल्</w>
य म</w>
किटै यातु</w>
उन्न ति</w>
हो म</w>
ॉ क</w>
वा ढ</w>
ते लंगा
उभ य़</w>
इंड ियन्</w>
४ ०</w>
ौ ती</w>
कर दिआं</w>
अ व</w>
इंटर नेट</w>
आ शं
व लै
का लाव
गि वॆ</w>
हल वारु</w>
सं पा
मन्त्रणा ल
प ल्ल
घटनास्थ ल</w>
प डी</w>
अभ ्या
a p
उ ंदनि</w>
ता हा
ग्रा मेर</w>
न सी
पा णी
व च्चिन</w>
बैं कों</w>
आ ब्
द्ୱ ारा</w>
ए टले</w>
सह मति</w>
सर् वि
नौ करी</w>
ढ ि
न भे
पु कै
द्दी न</w>
ंद न्नारु</w>
लि स्ट</w>
ू त</w>
सम ੱ
या तॊरु</w>
क्क ऴ
स् मार्ट</w>
वरा ज</w>
ऴ् स्</w>
बा सि
तमिऴ क</w>
संश ्लि
ज त</w>
द ळ</w>
विस़ व</w>
पि ऩ्ऩ
यहोव युटॆ</w>
हो वेगी</w>
श कत</w>
बा दे</w>
जे ना</w>
ज्य िक</w>
का ना</w>
ർ न्न</w>
प्र ो</w>
चॆ ऩ्ऱु</w>
शि रो
रह ना</w>
मु ट्ट
उण वु</w>
टे ज</w>
तु णै</w>
स् वी</w>
व्य ू</w>
फो ൺ</w>
इरा णु
इ वरॆ</w>
अ डु
ब्र ो
या ं</w>
नु न्न</w>
ड ॊ
म्या च
मण्ड ल</w>
7 ,
वि ऴा
के ट्ट
रा हीं</w>
उल्लेख योग्य</w>
पक्ष द</w>
सं रचना</w>
नो डि
ऎ स्य
ये थील</w>
कला कार</w>
उप जेला</w>
स ्री
वैद्य कीय</w>
उठ ा</w>
क ना</w>
सत्यि इ</w>
गे ल्या</w>
वे द</w>
ऐ स
ऒ ऱ्ऱ
इ टै
प्रधा ना
स क्रिय
नि म्म
उൾ प्पॆ
से गुलो</w>
बन्ध प्पॆट्ट्</w>
पत िल्</w>
नी अर</w>
य ारि
कूऱ ियुळ्ळार्</w>
यि ब</w>
अहम द</w>
ळ ुं</w>
पक्ष ं</w>
गान् ध
वർ धि
कल काता</w>
ॆ न्नाण्</w>
गी र</w>
देश ना</w>
पा ंडे</w>
जे इ</w>
र्त्त ु
पय णि
भित्ति क</w>
ए ऩॆ
कोट तियिൽ</w>
या हा</w>
क़ ी
मा टे
वै त्तु</w>
सो ने</w>
य़ा ल</w>
सर् च</w>
दा ताओं</w>
स्मार्ट फोन</w>
सीसी टीवी</w>
स िया
ब ँ
तॊट ङ्क
ने पा
कव ऩ
अधिकारि गळु</w>
स्पर् धा</w>
बो झा
अभि षि
अतु कॊण्ट्</w>
u s
इट ङ्कळिल्</w>
हार् दिक</w>
मत दार
बार दु</w>
विट्ट ार्</w>
त ियुटॆ</w>
ण्ट ा</w>
व न्नि
न ल्
ऎटु त्तु</w>
कटवु ळ्</w>
अटिप्पट ैयिल्</w>
सार ्लु</w>
ए गुलो</w>
वि न्</w>
चाल िय़े</w>
पॆ ऱ्ऱ</w>
उ प्पु</w>
व्या ख्या
ग मन</w>
्य ंलो</w>
वर े
त मैन</w>
अ रो
फ ळ</w>
हाम लार</w>
पद ार्थ</w>
बे ंग
रि र</w>
कुऱि च्च्</w>
पूछ ताछ</w>
ट् स
अधिकार ीआं</w>
खे डू
वै रल्</w>
भि त्ति</w>
मी आं</w>
चिह् नित</w>
म द्द
आ चरण</w>
अ बा
आदित्य नाथ</w>
सु पर</w>
सुरक्ष ित
नट न्तु</w>
कोस़ि स़</w>
रह स्य
ॎ कार</w>
विद्यार् थी</w>
आप नारा</w>
वॆ लु
राजी नामा</w>
चे से
परिशो धन
म्प ्</w>
चेय़ार म्यान</w>
चॆय्ति रुन्नु</w>
कॊल पा
स टा
विधे य
मर णि
ि ंदि</w>
संघ ं</w>
सक दी</w>
भालो बा
पा बे</w>
सत्त् बेओ</w>
सा मान</w>
योजना ओं</w>
बद ारी</w>
कोऴि क्को
स ल्
वे तन</w>
तुहा डे</w>
उऱ्प त्ति</w>
स हे
या ह</w>
प्र ॆ
टॆ लि
क्किऱ ोम्</w>
कर ॆ</w>
ർ त्ति
वळर् च्चि</w>
स्टे डिय
ॆ गळन्नु</w>
का लो</w>
निर ंतर</w>
चाल ू</w>
न् सि
आ दरू</w>
िय िलॆ</w>
का ला</w>
पे रिൽ</w>
गि क</w>
कू टि
क दे</w>
२ ७</w>
वा चि
टी का</w>
यु ग</w>
प्रति रक्षा</w>
जॆ डि
र्त े</w>
लक्ष ण</w>
सू रत</w>
कॆप्टॆ न्</w>
क ण्टु</w>
ल्ला तॆ</w>
परि बेश</w>
कർ णा
आई आर</w>
प्ल ि
व ने
र हा
ट्ट ा</w>
कर ुं</w>
ली क</w>
मे धा
टि कट</w>
अया ൾ</w>
बा प</w>
४ ः
आ धी</w>
रख ता</w>
ल लि
ज वळ
मुख ि</w>
म के</w>
द्द रॆ</w>
दिल् ही</w>
कूटा तु</w>
खे लो
फ़ ि
चू ड़ा
शैक्ष णिक</w>
था ओ</w>
एक् टर</w>
शख् स</w>
स्बास्थ ्य
ला गा
भाग वहि
बे ड</w>
स िलॆ</w>
संबंधि ंचि</w>
मा फी</w>
तु रु
भ य</w>
संविधा य
म ऩु
जा कर</w>
ऎ क्स्</w>
आ सेन</w>
अपरा ध
हो नी</w>
ता इ
पौ ल</w>
सफ ल
ल् वे
स्ऱ्ऱि ൽ</w>
बੱ चे</w>
गण ना</w>
घटना टि</w>
शि ख
ते ल
चु रु
गा ह</w>
समी प
नि टॆ</w>
दी प
अचा नक</w>
यू पी</w>
अध्यक्ष ൻ</w>
ण् णा
इन्ड िय़ा</w>
इ तॆ
ज ंग
सला यितु</w>
पडि ंदि</w>
नि उ</w>
आर पी
स् क
खा ता</w>
क्क ैयै</w>
शा स्त
सू र
माइ क्रो
आम ॆ
रि कार्
री ना</w>
हो त्या</w>
वि आ
रु ल</w>
सा डी</w>
मी टिੰग</w>
अक् सर</w>
प्रकर णा
चा हती</w>
नि षि
भे ङे</w>
मॊऴ ि</w>
मरुत्तु व</w>
पू ं
सरा सरि</w>
मुत ली
क ली
ऎ न्नुं</w>
देश ि</w>
ती ही</w>
क्ष मता
श्रृ ंखला</w>
प्पु डू</w>
ख ेर</w>
अ ज्ञात</w>
अनिवार ्य</w>
श रि
उ ल</w>
ल स</w>
भो ग</w>
नि ൻऱॆ</w>
मिथ ्या</w>
तिय ै</w>
२ ः
ार ित</w>
बा तिल</w>
ब ली</w>
ज गत</w>
संस् कार</w>
२ ः</w>
मु ऱि
सरा हना</w>
मुह म्मद्</w>
आल्लाह ्र</w>
बर ॆ
स िले
य नि</w>
चे स्ता
ऎक्कु वगा</w>
इन् हें</w>
व्यति रे
पो षि
चै न
ऒ क
पो स्ऱ्ऱ
को ड</w>
सि फ
मह त्वा
द मा</w>
युद्ध ेर</w>
प्पॆट्ट त्</w>
सं देह</w>
व वामां</w>
से वि
ग्रा ं</w>
कऴ ियुं</w>
en t
मारु टॆ</w>
द ल्ले</w>
q u
ऎऴु त
उपलब् धि</w>
इ टु
र न्</w>
दा न्नि</w>
ण्या च्या</w>
चर् चि
बेशि र
उठा ए</w>
मे ൽ</w>
नागरि क
द गि
क ियों</w>
पे य़ेछे</w>
जल् दी</w>
कट ुम्</w>
दे बेन</w>
त ले</w>
नीडि द्दारॆ</w>
क धी
उपा य़</w>
बा यो
बीजे पी
सम्प द</w>
ऎन् त्</w>
गो यल</w>
अ्या न्ड</w>
च न्त
गे ं</w>
बक्त ब्य</w>
दक्ष ता</w>
करण्या चा</w>
ु ळ्ळ</w>
वु टऩ्</w>
मध ून</w>
न् लो</w>
तु क</w>
सी टें</w>
आ ग्रह
मार ो</w>
प ळ्ळि</w>
इ ते
न्ना गि</w>
धरपक ड</w>
o t
३ १</w>
वा सि
बो ळि
णॆ ङ्किൽ</w>
जु लाइ</w>
इम ्रा
अप ्
द लों</w>
े क</w>
ख बर
इंग्ल ी
च र्</w>
च ङ्क
ॊऴु तु</w>
I P
प्रोत्सा हित</w>
राम नाथ</w>
मक्क ळु</w>
5 7</w>
गोष्ट ी</w>
शा ख
आ चिरिय
ॊ ब्ब
च मी
पा च</w>
हो गु
य़ ि
मुन्न ो
वॆळ ्ल
बी जी</w>
चॆय्त ऩर्</w>
ट्रो ल</w>
अ ब्या
अं टू</w>
ऊ र्
देशा त</w>
जा य
हा जर</w>
पूछ ा</w>
हिंद ॆ</w>
यो चि
खो ला</w>
त्तक्क तु</w>
इ टि
वा य्</w>
न्यू नतम</w>
क् यु
वा ण्</w>
रहे गी</w>
ज र्</w>
वा मा</w>
बद्ध ता</w>
अ दा</w>
स रो
बाड़ छे</w>
ध्बं स</w>
परि चोत
हा मला</w>
ओ ँ
ंज लि</w>
जो ड
व्य ू
मान सि
न य़ा
ति ने</w>
आय् कॆ</w>
आ हत
न बी</w>
लो जी</w>
ियु टऩ्</w>
करे छिलाम</w>
ऐੱ स
न बीन</w>
परि श्रम</w>
उत् स
उ मर</w>
र य
कੰ प
स दा</w>
मा ऱा
मै चों</w>
भ क्ति</w>
अर् ध
स्ट ै
मध्य प्रदेश</w>
प्री ति</w>
पुरि न्तु
ज़ि ੰदगी</w>
चॆन्न ै</w>
ख त
प्रवा सी</w>
त त्व
भी षण</w>
ർ ट्ट्</w>
आ जे</w>
ग्र ं
चम य
कु र्
वै द्य</w>
ज़रू र</w>
क ंडु
भि डिओ
आरं भ</w>
वि च
के श
चिल र्</w>
ण िय
क च
सं घटन</w>
ट्र क</w>
निपट ने</w>
टा त</w>
रु क्कुम्</w>
प वु
मनो ज</w>
अ क्ट
साध्य त
रा त्र
कोण त्या
नाऩ् कु</w>
नट पट
खेलो य़ा
कथा पात्र
ए प्र
र् कळिऩ्</w>
कु नि</w>
ൽ क्क
आरा य्च्च
मे ल्
ट्टा ण्</w>
अ प्पुडु</w>
सम य़रे</w>
प त्त
पा दु
ऎ ंदु
महत्त् व
कारण ंगा</w>
नॆ ट्</w>
ए भाबे</w>
स ता
सुरे श</w>
डिसे म्बर</w>
ंब र्</w>
सा मेल</w>
ंग ि
नीतिमऩ्ऱ म्</w>
या ला</w>
मू वी</w>
अ क्रम
कु ळ
शा सन
क वागि</w>
5 8</w>
कमि शन</w>
चट्ट म्</w>
ओय़ े</w>
ओ स्ट्रे
अंदु बा
पॊ ंद
चिकित्स ॆ</w>
ऎण्णि क्कै</w>
जर् स</w>
अध्य य
कय़ेक जन</w>
भ जन</w>
पे ज</w>
भार तात</w>
पो स्ट्</w>
प्रधानमन्त्र ीर</w>
बा ई</w>
दू ध</w>
योग्य ता</w>
सा ला</w>
वे ळ
से प्टे
जान िय़े</w>
स्व तः</w>
की लक</w>
दारु ण</w>
हा सि
अन्य देर</w>
ने ओ</w>
ऒ क्क
र ष्टु</w>
पुनरु त्
माझ ्या
उंडा लि</w>
आप े</w>
पिन्तु ण
ता च</w>
आयि र
चे सि
मंड ळा
क धी</w>
अयि ना</w>
मूल त</w>
क स
कट्टु प्पा
कब् जे</w>
पी एम
ग्रह ण
कस़ मीर</w>
् ः</w>
ऎक् स्
5 9</w>
तृण मूल</w>
i m
ർ ड्</w>
रे ड</w>
विव कार
यॆहो वन</w>
8 00</w>
कि आ</w>
नीति र</w>
कल न</w>
अग ली</w>
20 00</w>
पी ड़ि
ु लकु</w>
व ना
चे र
स्ब प्
बि निम
जो लि</w>
पक्ष रु</w>
टि भि</w>
ए ना
शी ल
चित्र द</w>
ला ण्</w>
मन्त्र क</w>
करवा इआ</w>
o s
से इ
ऎ यि
अब ्रा
चा लै
ऎल्ला वरुं</w>
श की
ल ੱख</w>
प्रती क्षि
डा क</w>
वु कळै</w>
अस तो</w>
वि लिय
प्र देस़</w>
त्त िलिरुन्तु</w>
पॆय र्</w>
च नि
खा ं</w>
ट्टु क्</w>
बा सेर</w>
प्रमा णात</w>
बिक्षो भ</w>
निन क्क्</w>
पु ष्
म् बे</w>
बल छे</w>
मो ठी</w>
6 0
वै र
या प्रकरणी</w>
का ण</w>
तु न्न
उ ं</w>
प ता
उ र
अव ि</w>
सं योग</w>
बिद्यु ॎ</w>
दू रु</w>
गुलि के</w>
ह ठा
जु ड़ी</w>
सौकर ्य
रिय े</w>
करु त
देख भाल</w>
त्ता ण्</w>
शुधु मात्र</w>
लाइ ट</w>
सचि वा
ईश् वर</w>
आ बादी</w>
उ डा
पुर ेर</w>
ष् मी
देइ छन्ति</w>
चौ हान</w>
बि शिष्ट</w>
कि ना</w>
प्पा ऩ</w>
क्कार ु
अ जित</w>
विद्यार्थ ्या
त्वर लोने</w>
फ ळरे</w>
बੰ द</w>
जन र</w>
वाय्प्प ु</w>
घो षि
प्पि र
वन डे</w>
द ला
स्त ं
आप ने</w>
नि आ
ब ों</w>
तॊऴिल्नु ट्प
ड लु</w>
वे ऩ्</w>
तव ण</w>
नौ जवान</w>
पॊ ंदु
इ दरल्लि</w>
पत िल
ऐ प</w>
टुत्त त्</w>
सन् धान</w>
अञ्च लेर</w>
या ता
चि न्ता
इर ण्टा
पहिल ्या</w>
बि स्फो
टु त्ति</w>
इत्त रं</w>
यार ु
पट त्तिऩ्</w>
मृ ति
स्ट्रेल िया
दाख लागिदॆ</w>
ता ऩ
टे क</w>
नि जे</w>
दिल च
कंग्रे सेर</w>
अऱि वु
अवर् कळिऩ्</w>
प्रो फे
प्र वर्त
डिग्र ि</w>
मु ऴु</w>
न ता</w>
ग ्य
आमा देरके</w>
माड बेकु</w>
नडॆ द</w>
201 0</w>
प्प ुम्</w>
अक्ट ूबर</w>
ऒ रिक्कलुं</w>
अभिन न्
च ऩ्</w>
दिग् गज</w>
करि गॆ</w>
अध्या पक</w>
तॆ य</w>
इक्कार्य त्तिൽ</w>
बिचार पति</w>
य् क्कुं</w>
मुत लिल्</w>
डिजा इन</w>
स िल्ल</w>
ऒ कटि</w>
ख ड़े</w>
समस्या र</w>
सि स्टे
टी डीपी</w>
त्ति ऩ
रू म</w>
मर ्या
न्न ो</w>
द य</w>
कॉ र्
शक ते</w>
प्र िया
कल का
तिरु म्प
शा न्ति
ज ण
न्त ऩ</w>
नि य</w>
से ज</w>
छोड़ कर</w>
संवत् सरा
क्क ळा
मोह न्</w>
अन्त प्</w>
प ट्टा
िले क्कु</w>
थ न</w>
च न्द्र</w>
ऊ र
वी ट
बु रा</w>
वि पक्ष</w>
मक्क ळुक्कु</w>
रा लु</w>
मिल ते</w>
प्प ति
त्ते क्क्</w>
दर वा
वय तु</w>
इन्त त्</w>
N e
सू बे</w>
कव ऩि
पिण ऱायि</w>
ड नि</w>
वाद ियों</w>
हासपा ताल</w>
एक्स प्रेस</w>
सी तार
वु न्न</w>
इउन िय़न</w>
गो ली</w>
उऱु ति</w>
ऐੱ स</w>
विवरा लु</w>
छो टा</w>
कार्यक्रम ों</w>
ग व
जे थी</w>
मार्ग दर्शन</w>
म श
तॆर िया
शा लु</w>
कॊ ंद
1 25</w>
सं विधान
तर फ
हिन् दि</w>
विद्यु त्</w>
मात्र मल्ल</w>
ना चा</w>
बल ल</w>
वाय्प्प ु
आय् वु</w>
ग ला</w>
ऎण् णं</w>
व धी</w>
भित्ति ते</w>
केंद्र ित</w>
इन्त िय
च ङ्
न् ता</w>
त्रि कि</w>
्प ि
व न्तु
रि क
ब हे
मु कम्</w>
बहु मत</w>
फर वरी</w>
ब् र</w>
ळि ऩ्</w>
अत एब</w>
ज रा</w>
ऱा ण्</w>
सं वाद
पर्या य़े</w>
अधी ने</w>
स्थाप न
ता ण
चा लि
ई न</w>
u s</w>
इ रि
ज वळ</w>
नि त्य
R e
चा ट्चि
बौ द्ध</w>
अख िले
वा थी</w>
ण्टा यिरुन्नु</w>
ज ारि
नि न्नॆ</w>
ज़ख़ मी</w>
वी ट्टिൽ</w>
यूनी वर
भाग ्य</w>
सि द्दु</w>
ए खा
वर् मा</w>
यार ुम्</w>
चे वै</w>
व्या वसा
दा तर</w>
सेवा एं</w>
ऎ वरु</w>
श कता</w>
दा ऊ
लड़ की</w>
कार्य त्तिൽ</w>
क्कुन्नति न्</w>
देवु नि</w>
सर्कार द</w>
गु ला
उम् र</w>
इंत ह</w>
चेया लनि</w>
इला ंटि</w>
प्र कट</w>
आ ट्च
न ॆयुं</w>
आय़ो जन</w>
नो डि</w>
चेया लि</w>
पव न्</w>
सत्य ं</w>
विष ा
वरु क्कु</w>
अति कम्</w>
निर्ण यं</w>
स्व कार्य</w>
ॆय ो</w>
सी धे</w>
बडि न</w>
सु शांत</w>
वै त्तिरु
बिल कुल</w>
दृष्टि कोण</w>
अदु पु
सुरु वात</w>
त नाव</w>
कि ती</w>
हिस् से</w>
सा फ़</w>
पड़ ते</w>
चिह् न</w>
आ स्ति
आ लं</w>
बि धान</w>
स ख्त</w>
मा स्क</w>
पो टी</w>
इका ई</w>
कम् मी
कर्म ियों</w>
देइ थिले</w>
अप ना
मीडिया वर</w>
ब िला
झ ी</w>
लोक तंत्र</w>
बु द्धि</w>
ऎंबु दु</w>
४ ः</w>
पोरे शन</w>
पिळ्ळ ै
चि ऩि
ंच ु</w>
गा व
आईपी एल</w>
कुऴ ु</w>
हो वे</w>
ङ्कळ ैप्</w>
ह ंत
सिनिमा कु</w>
यात्र ा
हस्त क्षेप</w>
इस्ती फा</w>
अ मी
शा न्त</w>
स िया</w>
चल न</w>
क म्मि
उप स्थिति</w>
स्ना तक</w>
रा ल</w>
ता ल
दिव सीय</w>
राज्य त्तॆ</w>
घटणा स्थळरे</w>
िला यि</w>
सा य़</w>
त्त िलेक्क्</w>
प चार
शा खा
किटै क्कुम्</w>
चुना वों</w>
फुट बल</w>
ग िल्ल</w>
मे य
कि ੰ
पुन ः</w>
वड ंतो</w>
भी कर
प्रा पत</w>
स़ हिर</w>
आत् मी
मन् दि
अजि हे</w>
n e
पाठ ्य
करा य
एक दम</w>
सी पी</w>
बा ढ़</w>
कुऴन्तै कळ्</w>
भाल बा
चे तावनी</w>
न न्नायि</w>
च ർच्च</w>
ग ला
दै निक</w>
अ टिय
पुढ ील</w>
मे ला</w>
पेट्रो लियम</w>
निरी क्ष
स ळ
क से</w>
वाग् दा
पा उ
मा याण्</w>
ंचा यि</w>
मो काब
वि डियो</w>
त प्पु</w>
ए रा</w>
श ർ
बु ध
म ला
अभ्यर्थ ि
त्तु ळ्ळऩर्</w>
ए वी</w>
्त ो</w>
विट ुम्</w>
अंदु लो</w>
अ न्न्</w>
परे शा
प्पट्टुळ्ळ ऩ</w>
ज टिल</w>
चू पि
क्कॊण्ट िरु
फ्रा ंस</w>
मुग् गुरु</w>
मक्कळि ऩ्</w>
सुप्रि म</w>
ते लु
मिल ित</w>
जा ईल</w>
चु त
चम्प न्त
कु ट्टि</w>
ग ारि
संस् कृत</w>
गु प्त</w>
मह ੱ
आ यि</w>
पॆऱ्ऱ ो
आ छि</w>
म ्रि
बा हित</w>
ने रॆ</w>
न्नति न्</w>
कू न</w>
यूनिवर् सिटी</w>
अ ंड्</w>
ते वै</w>
अक स्
पू र्</w>
संतो ष</w>
ग ल्प</w>
डो र</w>
ऎ ंत</w>
पडॆ दु
अजि हा</w>
राजी व्</w>
भु वने
करु त्तु
पे क्ष</w>
ये हेतु</w>
पाल िय़े</w>
ग्राह क</w>
मानुष के</w>
संश्लि ष्ट</w>
मु ळ
कोणत्या ही</w>
कैगॊ ळ्ळ
फॉर् म</w>
ऎ त्र</w>
र ंगा
ट क्के</w>
ति नॆ</w>
अने केइ</w>
शिक्ष ार्थ
पिक्स ल</w>
कॊ र
गण ित</w>
एऱ्प ा
था ं</w>
माർ ग
ता लु
एऱ्प ट्टतु</w>
स त्या
क मायि</w>
ऱु कൾ</w>
्त ्</w>
का ष्मी
इट म्पॆ
शा र</w>
सम्भ बत</w>
प्रो ग
ट ै</w>
ज री</w>
गे ट</w>
वि शाल</w>
नो ंद
ंद र्</w>
परि चर
आ क्रा
इ य़
अट ल</w>
र हें</w>
घे त</w>
चि न्त
त ळ्ळि
ज़िल् हा</w>
श्र द्धि
प्रदू षण</w>
शै ली</w>
ंचि न
श हरा
प्राथमि कता</w>
तेलंगा ना</w>
इस्रा ये
म ञ्च
वाऴ् क्कै</w>
माण वर्कळ्</w>
स्तु न्नायि</w>
ट के</w>
आहमे द</w>
चे वै
पृथि बीते</w>
म री</w>
सद न</w>
वि लॆ</w>
ऩा ऩ्</w>
निशा ना</w>
लै न्</w>
परिष् कार</w>
ार् ः</w>
सी ल</w>
आ शि
वर न्नु</w>
पि ੰड</w>
आ ऱु</w>
सिनिमा नु</w>
इट म्</w>
आण ैय
तरु ण</w>
विस़े स़</w>
पल्कलै क्कऴ
निम् न</w>
न ऩ्ऱ
तॊटर् पिल्</w>
ढ े
ओ टि
आप ली</w>
अंग्रे जी</w>
पै न</w>
ऒ ट्टु</w>
त था
अध्य य़न</w>
अ तॆ
आ ग्र
पूർ ण
च क्र</w>
र वि</w>
इ प्पोऴुं</w>
परिशो धन</w>
ता ंत्रिक</w>
ॆय लु</w>
विश्वा सं</w>
बले ओ</w>
लख न
गे छेन</w>
िय़े छिलेन</w>
िल्ल ॆन्नुं</w>
टा निकि</w>
नॆ ति
न् डे</w>
माट्ला ड
बु क</w>
समस्या ओं</w>
छू ट</w>
मिल ती</w>
माडि दॆ</w>
सु जु
साह स</w>
पशु पालन</w>
वि क्क
आत् मा
त लॆ
ए वुं</w>
्त ु</w>
स्था य
फर ियाद</w>
िल ॊ
वि माना
मा कुन्नु</w>
5 3</w>
पो तुम्</w>
बाइबे लेर</w>
तै क्</w>
क ऱ्प
सि रुव</w>
वि विध
गि द्द</w>
धम की</w>
त्या साठी</w>
क्कु रिय</w>
डൽ हि</w>
आ तन</w>
जरु रि</w>
नि रो
मॆ रु
नि पु
पा वर</w>
तुट ऩ्</w>
कु न्न
ऒ दगि
बर् ग</w>
पॆ ऱ्ऱु</w>
क्कळ ै</w>
तॆरकॆ क्कि
को ल्
वरु ट
पॆ ऱ
द वरु</w>
ग लि
त णा
क् ले
ना ट्ट
वॆळ िये
सहयोगि ता</w>
क्षि प्त</w>
मुख ्य़</w>
आश् वा
हा लमां</w>
प्र कृत</w>
आए ंगे</w>
शेतकर ़्या
गो ष्
कॊ ह
पि ट
ंड र्</w>
सं के
वाप सी</w>
ब्या ट
ध व</w>
काय दा</w>
ण ्य</w>
इ ता</w>
श त्र
करु णा
ऎ दुर्
ला गुत्तदॆ</w>
उठा या</w>
जा हीर</w>
या न
कै द</w>
ह ्या</w>
रहि ण</w>
पो यारु</w>
कार िय
i s</w>
िला य
ल म्</w>
मय़ ना
म लि
हे ँ</w>
सभ ॆयल्लि</w>
दिखा या</w>
ॆय ॆ
म ल्ल
एक ी
मे घा
बांला देशे</w>
ह ू</w>
माम ला
मरा ह</w>
कू टॆ</w>
कुऱिप्पिट त्तक्कतु</w>
तीव्र ंगा</w>
क ऩ्</w>
ली य़</w>
बि सिसि
ख ण</w>
वी रि
ली ल</w>
मि श
हिन् दी</w>
इ च
मु सलमान</w>
विरो ध
तु णै
इति मध्येइ</w>
ऎतिर् पार्
ऱ ू
ळि त
ंक न</w>
नियु क्ति</w>
नि ट
क नी</w>
कर्तृ पक्ष</w>
पु कार्</w>
सश स्त्र</w>
निർ म्
मा यिरु
आप ्यो</w>
ओ र
बि शाल</w>
द ले</w>
ज ौ
o d
बि न्
घेत ले</w>
स्रो त</w>
तै प्</w>
चूड़ा न्त</w>
अने दि</w>
दि शा
पे रुं</w>
ता ब्या
कळ ैच्</w>
जि स्ट्रे
कॊलपा तक
न ऩ्ऱि</w>
बे डि</w>
जिल् ह्या
अनुष्ठा न</w>
1 /
१ ००</w>
द् बन्
लु ः</w>
वि ൻऱॆ</w>
पी ड़ित</w>
निर्वा चन</w>
सं सार</w>
उत्त रा
नी नु</w>
इरु क्क
बंदि दॆ</w>
रह ्यां</w>
ब ंग्ला
क्ट ർ</w>
अ नू
अका ली</w>
सुझा व</w>
उ तर
िल ी</w>
महा सचिव</w>
वरु न्न</w>
ब्या पार
उ नि</w>
म ॅ
वा ल
ला ल्</w>
पड शे</w>
अत ऩै</w>
गु र्त
अ पर</w>
वरॆ गू</w>
पि रे
ऩ्प ो
उत्त म
वच्च े
पा यि
प्ले ट
रे न</w>
प णं</w>
तत् काल</w>
का ल्
समाधा नं</w>
वर ों</w>
बि द्
देख ि</w>
ए राळ
को ल्पो
प्रति करि
का कुंडा</w>
कर मैन</w>
सू क्षि
उ ंट</w>
भ ू</w>
समर् थ</w>
चार ी</w>
देश मां</w>
चौक शी</w>
वा कऩ
वर्ष ीय</w>
त्स व</w>
स् को</w>
यि ट
रे ल्वे</w>
उतार ण
स्व यं
जि ज्ञ
इंड ी
क्कॊ ळ्ळ</w>
त ङ्क
सिफ ारि
वि ंड
प्पि च्च</w>
ओ य्
न जर
इलेक्ट्र ॉ
दक्षि णा
वर ैयुम्</w>
प ब्लि
कोर िया</w>
अ से
रा णु
ज द</w>
सि आ
क् वार
पोक्कुवर त्तु</w>
नो टि
स्त ू
काल ंलो</w>
किऩ्ऱ तु</w>
इं स्टाग्राम</w>
सम ये</w>
जरि गि
सम्पर् कित</w>
बा ज़ी</w>
सां के
ज्यो ति
20 22</w>
कळा य</w>
सूक्ष् म</w>
त्ति ൽ
प ट्ट</w>
रॆंड ो</w>
उऱु ति
उद् दिन</w>
नट प्पा
पंत प्रधाना
मो र</w>
अञ्च ल</w>
तम् मिल
बन्ध ं</w>
ज्या ं</w>
वधार ो</w>
ऎऩ्प त
बल छेन</w>
ु त
मुत ल
पूर न</w>
तु ताऩ्</w>
o p
ऎ स्ट
व न्नू</w>
वर तों</w>
अफ गानिस्तान</w>
व स्त्र
श य़
करु तु
बीसीसी आई</w>
कु ऱु
क ब</w>
मऱु पटि</w>
आह् बान</w>
र् कळै</w>
गो टिए</w>
चॆय्यु न्न
आ क्
नरे न्द्र
ख तर
अर्जु न्</w>
त ियां</w>
सा हेब</w>
बि ता
जा या</w>
क तॆ</w>
देर ओ</w>
वास्त व
पोरे ट</w>
नि ंदा</w>
नम्मु टैय</w>
सि त्तु</w>
अ पाय
वा दी
उ ळ्
हैक्कोट ति</w>
विधा य
क्कण मॆन्न्</w>
ध्र ु
अति शय</w>
गौर व
ग ईआं</w>
तॆरिय विल्लै</w>
दूसर ों</w>
द म्प
स् स
रा ई</w>
मी द
तुम च्या</w>
स़ क
ऐ न</w>
बिषय़ टा</w>
सम् मति
लू क</w>
किछु टा</w>
th e</w>
गळ ू</w>
बछ रे</w>
पकुति कळिल्</w>
अ शो
बॆ लॆ</w>
बल ै</w>
तेओ ँ
से ंटर</w>
मॆ ं
विद्य ुत</w>
पाल ्ट
पड़ ो
ना च्या</w>
पो या
गि रि</w>
राजपू त</w>
गा ल</w>
कै बिनेट</w>
आ लि
ऱ ॆयि
टू र्ना
फ य
निम्न लिखित</w>
सला गुत्तदॆ</w>
द ंड्र
मरा ठी</w>
विरु ੱध</w>
रा उ
टी सी</w>
तो न्नु
संबन्धि च्च</w>
बृ द्धि
ध मा
वार ं</w>
सुष मा</w>
मोहा म्मद</w>
नि ति
उ पे
अ ल्प</w>
टा ल
क म्पि
ल् ह</w>
दा ंतो</w>
जस्ऱ्ऱि स्</w>
इ कੱ
ताब्या त</w>
गि री</w>
मुऴु वൻ</w>
रेकर् ड</w>
बृष्ट ि</w>
जो शी</w>
बिद्याल य़</w>
दू त
व ळि
मु ੰ
तक्र ार</w>
मे घ
दिल ेन</w>
चे क</w>
ध ारी</w>
आर ब</w>
ऎल्ला म्</w>
प्रा देशिक</w>
क्रिके टर</w>
कै ंसर</w>
दिय़े छिल</w>
ो नी</w>
कार ी
सू र्य</w>
शु भार
गੰ भीर</w>
प्र कृ
तस वीर</w>
घटनास्थ ळी</w>
अभि ज्ञता</w>
प्री ति
द्र ॆ</w>
जिज्ञ ेस</w>
करा याइथिला</w>
शि व</w>
के लं</w>
सं ग</w>
रजि स्ऱ्ऱർ</w>
पल र्</w>
ङ्ङि ൽ</w>
ं ब</w>
भ रे</w>
्ल ी
न् टि
त्या वर</w>
िल ैयिल्</w>
क इ</w>
रा ना</w>
स्थ ला
व न्</w>
ऩ्प ि
ली गेर</w>
बा ही</w>
उ ंदा</w>
मण्ड ल
स की</w>
को थाओ</w>
माता पिता
चॆ ऱिय</w>
बो ले</w>
ऎं जि
विद्या ർथि
ब्यब स्था
ढा ंचे</w>
कर तां</w>
शौ चाल
मत् सरि
सह भागी</w>
ति आ</w>
पु र्
अत डु</w>
खु श
पराज य
सक र्
ल्लि न</w>
रमे श</w>
मऩ ित</w>
डै न</w>
ए ने
आ टो
मु टैय</w>
िय़ ेर</w>
बी ज</w>
ङ्ङൾ क्कुं</w>
ै य</w>
वർष ं</w>
तव ऱा
हर ण</w>
नालु गु</w>
ओ वर</w>
विप त्तु</w>
बाइ के</w>
ण् णु
टेलि भि
ल्या न्डेर</w>
चॆ ंद
क ॆयन्नु</w>
ह वाले</w>
तस्वी रें</w>
करु छि</w>
ऎन्न ो</w>
डाउन लोड</w>
भ क्
कन् या</w>
सम क्ष</w>
भारत दल्लि</w>
दश क</w>
आ चर
6 2</w>
न्यू जी
चार ों</w>
उत्तराख ंड</w>
वा हत
लो कोनो</w>
गु ल
चॆय्त ्</w>
चार ्य</w>
एइ च
मिश्र ण</w>
बर् ष
निऱै य</w>
कॆ गॆ</w>
र ॆय
पात्र लो</w>
शा हिद</w>
प्रभु र</w>
ज ियो</w>
टा तु</w>
वि स्फो
व धान</w>
बि बृ
डी जल</w>
हाज रा
च ऩ
अत ः</w>
य िलुं</w>
पर माय</w>
अत्या चार</w>
न्ता ल्</w>
कोवा लनि</w>
पार ्ल
प ट्टु</w>
हो णा</w>
जे म</w>
साक्ष ि</w>
पार म्प
करवा नो</w>
ൽ पि
सम ज
मो ट
ना ई
यु टऩ्</w>
मा गे</w>
कार ्ट
स्त ी
सर् बा
मेह नत</w>
ढ़ ी</w>
डा टा</w>
ऩ् मै
दा यर</w>
फ ंड</w>
गुरु त्ब</w>
क्कळ ुं</w>
दा नेर</w>
चू ऴ्
आ द</w>
वर ॆयुं</w>
ग तं</w>
आग ेर</w>
वटि व
कर्ना टक
अनु कूल
दा त</w>
गे ंद</w>
क़ ु
उण् मै
मा था</w>
पि ंग</w>
क ऱ्ऱु
बा ज़</w>
अनु मति
रे ड्डी</w>
वाह नों</w>
I C
है ंः</w>
बाइ क</w>
ऒरु ङ्कि
इटी वल</w>
ती ब्र</w>
अंदु के</w>
ब्य ु
ळ य़</w>
पौँ छे</w>
टॆ ल्लि</w>
स फे
स ज़ा</w>
ट्टुळ्ळ त्</w>
हा कि</w>
ष्ट े</w>
काळ जी</w>
विधाय कों</w>
नि रोध
वे य
अपे क्षा
स्तु न्न
सि विल</w>
राज मार्ग</w>
क द</w>
कर म
के ं</w>
हा ग
मा सेर</w>
प्रे मि
घ ू
टा न</w>
अर्था ॎ</w>
1 20</w>
ॆ ल्लाम्</w>
न द</w>
एक दिन</w>
बाद् ः</w>
ए ർ
चे त</w>
आ दर</w>
ियो ग</w>
मा ति
के टे</w>
ैय िलाऩ</w>
इरु क्किऩ्ऱ
श य
ञ्च ु
साध्य विल्ल</w>
ब् बर</w>
क्क प्</w>
को नो
पत नी</w>
भी ड़</w>
क च्चे</w>
माध्य मिक</w>
इरु न्तार्</w>
ह ारा</w>
कोवि ंद</w>
क्क टि</w>
स ख
तो ड़</w>
नृ त्य</w>
ची ना</w>
तु लकु</w>
शि वा
ർ ष
न्ड ार</w>
आ कां
टमि रुन्तु</w>
इ ड</w>
होस्पिट लमां</w>
8 0
सा स</w>
बि ग</w>
नती जे</w>
तरी न</w>
माण ॆन्न्</w>
हु ण</w>
ये ल</w>
राष्ट्र पति
ग् ग
गु न्
ख़ा स</w>
स्थान ंलो</w>
क़ ौ
कर्णा टक</w>
जॆडि ऎस्</w>
पु रे</w>
छबि टि</w>
ओय़ ार
काळा त</w>
चै ना</w>
च्चा ൽ</w>
अमेरि क्कൻ</w>
प ू</w>
नव् हते</w>
गिर फ</w>
मार ॆ</w>
प्रसि द्ध
ए ता
विश दी
बे न्
एक बार</w>
पट ्च
त िल्लै</w>
आपण ने</w>
मुखो मुखि</w>
ंच ्</w>
ऎव् वाऱु</w>
रो मा
नड ॆय
कि री
स्पी ड्</w>
यु नि
दि आ
पहु ंचा</w>
6 7</w>
रੱख ण</w>
लो नू</w>
पोली सा
नटैपॆ ऱ्ऱु</w>
ख तरा</w>
ल्या ने</w>
सू चि</w>
ल ्य</w>
रु त्</w>
उद्घा ट
e n</w>
जता ई</w>
काल ज</w>
अंश ग्रहण</w>
िय ार्</w>
स़ ण</w>
का लेर</w>
ओय़े ब
संदर्भा त</w>
शुभकाम नाएं</w>
वा ळि
ति च्या</w>
ता कुम्</w>
ऒरुङ्कि णै
क्षति ग्रस्त</w>
उत्त री</w>
अं ते
त पास
टि व्</w>
ज द
विष े</w>
सो सिए
क्ष ी
बॉ क्स</w>
तो ने</w>
वी ऴ्त्त
प्रतिनिधि त्व</w>
अ ली
शृ ङ्
मारु कट्ट
बो न</w>
m ent</w>
नी ण्ट</w>
तल्लि दंड्र
टिय ो</w>
ज़ि ੰ
प शु</w>
क्कु ळ्ळ
शताब् दी
पोट्ट ियिल्</w>
पा ंड
गोष् ठी</w>
दि द्दारॆ</w>
द रु
कार्य कर</w>
अ ंदुकु</w>
विजे ता</w>
चल ता</w>
प्रा प्त
दै वं</w>
राज्य द</w>
जा णी
ड िया</w>
अक्टो बर</w>
क्कॊ ण्टु</w>
अ न्ना
ർ त्तु</w>
गुजरा त्</w>
रा वु</w>
ण् मै</w>
िय ्
वर कू</w>
अमैच्च कम्</w>
कु दर
ए न्ड</w>
200 9</w>
सर ल</w>
शां ति
व् ही
छा ड़
छ य़</w>
ल गे
तकनी क</w>
अमॆरि क्का</w>
तॆरञ्ञॆटु प्प्</w>
घ ृ
कर च</w>
वी स्</w>
इ त्ती
षू टिंग्</w>
ण गे</w>
आ पात
ना ह</w>
जी ता</w>
म ऩ्ऩि
अटै याळ
मू र्
दू रे</w>
अ ध्य़
कलि गि
तॆ न्नुं</w>
बजा य</w>
न िल्ल
नि को
का ৰ
कमि टिर</w>
दू ता
दि सं
g o
वस्तु ओं</w>
उठा ने</w>
र् लु</w>
स् की
व च्चि
प्रमा दं</w>
प ट्ल</w>
क त्ति
जे लाय़</w>
ु र</w>
पाർ ट्ट
वर ै
बढ़ ती</w>
पॆൺ कुट्ट
C h
वि ऴि
चौ धुरी</w>
वी य</w>
म सू
खे ले</w>
कहि ੰ
राज्या त</w>
बै शिष्ट
ताव तुः</w>
ग री</w>
ली य</w>
ता ब</w>
प्पि रि
अंतर्जा तीय</w>
र लिल्ल</w>
क् तिक</w>
चै न</w>
रूप ये</w>
पऱञ्ञ ि
इत नी</w>
समस्य ॆ</w>
वा क्य
ध्या य़</w>
ब स्तु</w>
पे च्चु
या उछि</w>
पूर्ति गा</w>
करु त्तु</w>
ऒ त्ति
स्वा धी
ൻ सि
वास्त े</w>
अग्नि श
या त्र</w>
पार ब</w>
आ ज्ञा
6 3</w>
रज नी
लॉ कडाउन</w>
तो ल्
डिमा ंड्</w>
प्राजॆ क्
न्यूडൽ हिः</w>
पुऱ त्ता
सब ूत</w>
ऎन्नि वराण्</w>
उॎ पादन</w>
पा हा
नी रि
गोष्ट ी
पिर तेच
अभिषि क्त</w>
खे ल
आस्प त्रिकि</w>
दिसं बर</w>
तुम से</w>
लव करच</w>
एके बारे</w>
ष ्या</w>
च ंडी
मेऱ्प ट्ट</w>
ला ही</w>
मै ने
साइ ड</w>
नेर त्तिल्</w>
ऱ ियु
रखे ं</w>
वੱ ल</w>
वा डु</w>
सा धन
अ मर
संबं धा
अमेरि क्क
तॊ न्नुं</w>
को ष</w>
संबो धन</w>
ब्य र्थ</w>
ते क</w>
मा णित्</w>
का मा
वि ज्ञा
छ तां</w>
स्तु न्नाडु</w>
प्पि क्काൻ</w>
चि व
ज म्
कार्य कर्ताओं</w>
इणै न्तु</w>
स्मि थ</w>
सं त
चे पट्ट
सरबरा ह</w>
बिल् कुल</w>
बा ग</w>
नि जवा
टे स्ट
फु ल</w>
प्रच लित</w>
पिन्ना लॆ</w>
रवा ना</w>
स्थगि त</w>
न् माർ</w>
के ज</w>
l e
च लि
आई ए
नि काल
सै फ</w>
इंजी निय
अंदा ज</w>
हि रिय</w>
दर् शि
श नि
क क्ष</w>
अन् य़</w>
टी आर्</w>
का पा
रा लेदु</w>
प्र ा</w>
वੱ डा</w>
घ नि
i st
ॆ गळ</w>
ह ल्
न् या</w>
भ िय़े
मो श
ते ति</w>
गो ष्ट</w>
िल ै</w>
किशो र</w>
कि ं</w>
समा गम</w>
अधिकृत ർ</w>
ऒत्तु ऴै
बढ़ ो
दे इ</w>
बा बे</w>
का लु
लक्ष ्यं</w>
किरि क्कॆट्</w>
पोलि स्</w>
जा णार</w>
कारण ों</w>
सि वा</w>
च्या ले
चरित्र े</w>
आय नकु</w>
t er
पो र्</w>
ृ ति</w>
ळ ो</w>
मेगा पिक्सल</w>
प्पटु किऩ्ऱऩ</w>
नൽक ियि
ले न
इ ब
शि प</w>
ऎं ऎൽ
ग्रन् थ
उमेद वार</w>
ले द
ना वा
पण म्</w>
ं कर</w>
भ री</w>
दृ ढ़
ह बेन</w>
फ़ै सला</w>
त ण्ट
गंभी र
वं श
यार ू</w>
भे जे</w>
जि बि</w>
सीई ओ</w>
तॆलि पिंदि</w>
इ ताण्</w>
सु त्तेनॆ</w>
त ली</w>
अव ार्
मॊबै ल्</w>
कॊंडि द्दारॆ</w>
या कॆ</w>
आकिय व
५ ः
मुत ला
दु जन</w>
आरोप ों</w>
अभि मानु
वित्त िया
प्रति बाद</w>
त् ৰ
ऎ त्र
उप यो
पे छ
टी आं</w>
या को
पॊरुळा तार
a y
उठ ेछे</w>
तिया ऩ</w>
२०१ १</w>
क्कू टिय</w>
फ़ तार</w>
मऱ्ऱु ळ्ळ
जी त
ऩ्ऱ ुम्</w>
हिस् सों</w>
बी एस
मान ो</w>
फी चर्
द ल्ल
ढ ी</w>
ने इ
ती र्कळ्</w>
उ म्म
ड़ा य़</w>
it y</w>
नभे म्बर</w>
खत िय़े</w>
म् बर
भा ङ
दो वें</w>
तॆलु ङ्कु</w>
इ थे</w>
री त</w>
2 9
1. 5</w>
स्वन्त ं</w>
कोव डानिकि</w>
ऒ ंद
पृथ् वी
चो णां</w>
यूनीवर सिटी</w>
मुता बक</w>
ङ्कळ ा
भौ तिक</w>
उप योगी</w>
ं लोने</w>
मरि च्च
हेठ ळ</w>
व न्न</w>
प्रवेशि प्पिच्चु</w>
मक ൻ</w>
ऒऩ्ऱ ु
वा गुत्तदॆ</w>
न्यूजी लैंड</w>
ज प्पा
गो पाल</w>
कार ीरा</w>
ऎ ष्टु</w>
स पा</w>
निमि त्तं</w>
त्वर लो</w>
जन ं</w>
क मे</w>
हाई कोर्ट</w>
समा जवा
ओ बा
नेपथ ्यंलो</w>
कॊण्टा ण्</w>
ec t
शू न्य</w>
नटपटि कൾ</w>
a k
शु रूआत</w>
परु क्के
ार ण</w>
तिरुवनन्तपुर ं</w>
ऱ ർ
निय़ मित</w>
वधी आ</w>
तण्णी र्</w>
च ्यु
ता नेर</w>
प ळ्ळ
इ ऩ
विमर् श</w>
व ंत</w>
वि कॆ
कि ह
अन् ध
बेँ चे</w>
गि रि
कन त्त</w>
विद्यार्थ ियों</w>
माऱ्ऱ म्</w>
ऱ्च ा
भ रि
तेर्त लिल्</w>
अ ऩ्ऱु</w>
हिं सा
ना यु
स द्य</w>
फ ्लि
ति ंग
खे ळ
र नी</w>
वर् ण
चेसु को
आ राम</w>
बा बु
ए प</w>
7 2</w>
इ ऱा
दु ख</w>
बि स्
च ारे</w>
चो टु</w>
चि ऱु</w>
आमेरि का</w>
कर दी</w>
c e</w>
अनु दान</w>
कॊ त्त
मैच्च र्</w>
लि ह
परि वारों</w>
त िल्ल
सी नियर्</w>
चल ने</w>
म ऴ</w>
च्या म्प
ऎदु रि
पुऱ त्त्</w>
लु क</w>
सि दनु</w>
मंत्र ियों</w>
ओ ड़ि
सह मत</w>
वर् ग
चॆ प्पु
क्का तु</w>
३ ५</w>
ग ईं</w>
की तीआं</w>
ऎऩ्ऱ ाल्</w>
शे य़ार</w>
स बाइके</w>
कुटुंब ं</w>
या चे</w>
नियंत्र ित</w>
तु ले
वि फल
बो ली</w>
प्राधि करण</w>
औ सत</w>
इ नियुं</w>
ङ्कळ तु</w>
जि ंग</w>
वऴ िय
ै या</w>
कू ऱिय
आ गू</w>
श रण
न यी</w>
है या</w>
त्त ल</w>
खे लते</w>
शा म</w>
माड लागिदॆ</w>
सब समय़</w>
प्रकट न</w>
फ ं
ना ला</w>
जू री</w>
चम्प व</w>
आळु कൾ</w>
उपभो क्ता</w>
व्य स्त</w>
साम न्या
िल ि</w>
तर ण</w>
सङ् गे
रख े</w>
जल वायु</w>
इ द</w>
पृथ क</w>
स्ट ू
प लि</w>
गु ना</w>
्पा त</w>
ह ारि
ले स</w>
अति नॆ</w>
शब् दों</w>
पिल्ल लु</w>
कर्मी देर</w>
ार ों</w>
भाजप ना</w>
चमी प
बिडु गडॆ</w>
चॆय्त ार्</w>
हा नी</w>
स च्चा
मु म्ब
अभि वृद्धि
मिक प्पॆ
मति प्पी
त ॆयन्नु</w>
6 8</w>
क स्ट
इरु क्किऩ्ऱऩ</w>
चूंट णी
पी य</w>
परिस्थि ति
दो वां</w>
भारत ना</w>
पा ंच
त्त ॆयुं</w>
ति थि</w>
P M</w>
हे बा</w>
ब्या ंक</w>
न् यु
नि वास</w>
घटना ओं</w>
मि र</w>
जि त
ने तलु</w>
कं प</w>
णि आ</w>
दि बस</w>
त रु</w>
अवसा नि
राज्य मंत्री</w>
चॆय्त तु</w>
ख ून</w>
कॉ ंग
आत्मह त्य</w>
र् क</w>
आस मान</w>
शिक्ष ि
ग ंट
क्क ट
इ च्छा
मु ऱ्ऱ
क्ष मा
बे ड़
उण् मै</w>
I I</w>
मेडि केल</w>
ष ऩ्</w>
इये चु
त्तो ळं</w>
कू टिया
यॆहो वा
ठो स</w>
उल्लेख नीय</w>
हार िय़े</w>
न कार</w>
अस लु</w>
10 .
समी पि
एजे ंस
काव ल्</w>
युक्त राष्ट्र</w>
क्रे डिट</w>
नाटा ळु
प्रा वधान</w>
तो ला</w>
जऩाति पति</w>
प्पटु त्त</w>
जा ंदी</w>
ङ्ङळ िलॆ</w>
ै क</w>
लू म</w>
सि ऎं</w>
परि हार</w>
तरी का</w>
बना म</w>
तेर् न्त
च न्तोष
इ उ</w>
स्मार क</w>
स्थ ळ</w>
ज मी
वुदा गि</w>
निवडणु की
कण् णु
ऱा ं</w>
परिस्थि ती</w>
लो न</w>
परे शान</w>
पय ङ्
व्यव स्थ</w>
क्र मित</w>
कथा य़</w>
ओय़ा न</w>
उपभो ग</w>
गुज ऱा
अब सर
श्री नगर</w>
पूर् बा
तॊटर् पु
सु लु</w>
मद द
त ऱ्
च क्ति</w>
हु क्
वृ त्त
प्रश् नं</w>
ना ट्टिल्</w>
व्यावसा यिक</w>
वि निम
ऎ प्पटि
अब्या हत</w>
सभ यिൽ</w>
न री</w>
उळ्ळ ार्</w>
पालि का</w>
न्यू य
चॆय्त ि</w>
दे वि</w>
म ञ्
अ ता
कॉ ल</w>
वा ळ्ल
लाइ से
आव ड
अप्प टिय
शताब् दी</w>
बि ता</w>
तॆळि वु
कार्यक्र मंलो</w>
नट त्तिय
इया ൾ</w>
फ़ िल्
क टा</w>
ल ियो
जे वा</w>
टी न</w>
कर् ज</w>
वल न</w>
बे स्ट</w>
धी र</w>
वॆ च्चु</w>
कु ण
बू ल</w>
केळ् वि</w>
सेप्टे म्बर</w>
न क्की</w>
ट क्कर</w>
1 000</w>
उइ केट</w>
े य
न गे</w>
आइ ए</w>
५ ः</w>
प्र योज
सथि ती</w>
रा ने</w>
तिर स्
ॆ ऴु
द ण्ड</w>
कु णा
प् स</w>
ग ञ्ज</w>
इप्पो तु</w>
ढ ी
बैबि ൾ</w>
गੱ ल
त्त िल
ू र</w>
निया य
हॆ च्चु
पा ला
जि वें</w>
कु ठ
री आं</w>
बि बाह</w>
ट्टु कൾ</w>
S t
ई द</w>
ने वालों</w>
कऴि ञ्ञु</w>
अऱि वियल्</w>
अ ण्
या के</w>
बाळ को</w>
इंदि रा</w>
ऎऩ्ऩ ुटैय</w>
ियु ऱु
सु वंतॆ</w>
यू णि
जि ं
बढ़ ने</w>
हे ठ</w>
प्रे रि
अधिक तर</w>
श्रद्धा ंजलि</w>
सं धी</w>
चा ँ
प त्तिरि
औ रत</w>
परिषे बा</w>
वित्तिया च
ब्यब स्थार</w>
मो टर</w>
फे ल
मु र्
करि ब</w>
ली ड</w>
हू र</w>
माम लाय़</w>
द िये</w>
शु भा
टा ई
क शा
आ रु</w>
परिबर्त े</w>
नव ंबर</w>
सी जन</w>
शिव सेने
पो शा
जे डी
मि ट</w>
मु हा
आसा नी</w>
स्ट ्री</w>
मुक्किय माऩ</w>
डि रे
व जन</w>
पो ते</w>
नष्ट ं</w>
सर् ग</w>
क्ष णि
निषे ध</w>
re s
रा धा
वृ द्ध
अयि न</w>
चो ख</w>
पॆ ऱ</w>
अति नु</w>
अळ वु</w>
दाऊ द</w>
कहि थिले</w>
शे खर</w>
म र्</w>
पेरा ण्</w>
लु ळ्ळ</w>
्ल े</w>
प्रोग राम</w>
जु र्
स्थिरी करि
विय ै</w>
पि आ</w>
त ारे</w>
चर् च</w>
रिय ल</w>
त् वरि
तक्कु व</w>
प्रतिक्र िय़ा</w>
इं जन</w>
स्प द</w>
ऒप्प ंद
ु गा</w>
ज़ ो
घट े
आप ्
चे र्त्तु</w>
चार टि</w>
जा ऊ</w>
ष् क</w>
प्रक्र िय
तीसु को
फा ई
हा जर
त ർ
क्कि र
भ ्यास</w>
गा यि</w>
ला द</w>
युद्ध ं</w>
रूपॊ ंदि
िया ना</w>
सित ंबर</w>
धै र्य
प्र वाह</w>
त प्पु
व य्
व ऩ्
म य</w>
ल ंबी</w>
परि कल्प
ज़ ख
क्य ारे
a d</w>
सभ्यु लु</w>
जे ं</w>
कृष् णा</w>
सं पूर्ण
बु ल्</w>
त्र ॆ</w>
आवा ज</w>
ह ु</w>
प्रश स्ति</w>
बॉ ल</w>
मी त</w>
नट न्त</w>
टाइ म</w>
निऱुवऩ ङ्कळ्</w>
प्रच ंड</w>
ग ड़्ह</w>
बेठ क</w>
प्र सङ्
लॉ जी</w>
लगा ई</w>
ल ईने</w>
देश र</w>
इरु प्पि
वि गि
जु ट</w>
मोटर साइ
गੱल बात</w>
दे वरु</w>
य क़ी
बय़ स</w>
पा ट</w>
क्क ारा
आओय़ा मी</w>
पर ओ</w>
न िल्
सक ल
मा याव
दिल्ल िर</w>
ख ड़ा</w>
द ंप
नट ൻ</w>
कळ िलॆ</w>
भ ले</w>
त ट्टि
ओ प
साउ थ</w>
बाणि ज्य</w>
तक ली
सी नीअर</w>
पराम ർ
पड़ ु
न्त्र िक</w>
वॆ ल्लु
अति पर्</w>
क हां</w>
आब श्
टु किऱतु</w>
चाही दी</w>
वा हि
दु ष्ट
क्क प्पॆ
खू ब
ड़ ि
बिक्षो भ
आर् ऎस्</w>
वर् कळा
र मैन</w>
या पन</w>
N W</w>
ये शु</w>
गौ तम</w>
ता ऴ्
कण् काणि
सिर फ़</w>
संख्य ॆ</w>
an d
स ले</w>
फे ड
ऎ ळु
अव स्थ
बैठ े</w>
अधिक तम</w>
सम् मुख
प्रा य़इ</w>
ज पा
शे अर</w>
व्यव हरि
सफे द</w>
तो ड
तथा पि</w>
त ॎ
आदा ल
रे खा
कॊण्ट ार्</w>
ला स़</w>
सांबा दिक</w>
T h
निश्च य़</w>
बि पक्षे</w>
ब जे</w>
पी पी
था ने</w>
ढ ो
ੱ ट
सामर्थ ्य</w>
निय़न्त्र णे</w>
जी तने</w>
नम् बर</w>
क्षेत्र रे</w>
क्कि ൽ</w>
की र्त
य़ देर</w>
वि चु
वा टि</w>
आन्दो लन</w>
अम ल</w>
200 8</w>
गॊंडि दॆ</w>
लि द्दारॆ</w>
पह ञ्चि</w>
इ वि</w>
बि परी
तय ारा
त ड
छे नः</w>
विवचायि कळ्</w>
आकिय वै</w>
ज ब्
वाह ना
ल ार
पड ॆयु
तमि ळ</w>
खे लार</w>
इया ळॆ</w>
इ ङ्ङ
बता ते</w>
चे त
कूड दु</w>
ग् न</w>
वाहत ूक</w>
ऩ्पो तु</w>
म्या चे</w>
त् मक
आ ऩालुम्</w>
जु र</w>
म नि
ऎंबु दन्नु</w>
२०१ ४</w>
कॊह ्लि</w>
बाड़ि र</w>
6 6</w>
स था</w>
विचारणै कळै</w>
ग ंग
पारे ननि</w>
गि र</w>
विश्ले षण</w>
बा प्ति
टर् लु</w>
अ छि</w>
महा निदेशक</w>
न ੰ
सर्वे क्षण</w>
वा ट</w>
ർ न्न्</w>
ज रिये</w>
अभिन य</w>
सूत्र े</w>
क्या प्ऱ्ऱ
पंजा ब्</w>
जि ंदगी</w>
सफ ळता</w>
जे व्हा</w>
बस पा</w>
पहुੰ च</w>
से टाइ</w>
सि ंगा
ग ढ
वॆल्लडि ंचारु</w>
ला भा
निर् देशि
बल्ले बाजी</w>
टि इ</w>
यु मायि</w>
धो नि</w>
मे ले</w>
स़ ो
ऒ क्क</w>
मु सा
होइ थिबा</w>
ए ट
प्रो ड
गेंद बाज</w>
त्त र
कानू ੰन</w>
प िय
किऱ ाऩ्</w>
आ क्रमि
पादु कोण</w>
ना ते</w>
घे ण्यात</w>
असॆंब ्ली</w>
ऎनि क्कु</w>
ऎ ंत
प्रक्र िय़ा</w>
0 1</w>
डु व</w>
भू रि
शं कर्</w>
ऒ टु
एफ सी</w>
धु लु</w>
ज िला
ंद लू</w>
पट न</w>
तवि र्
पुन राय़</w>
डि त</w>
स्ऱ्ऱ ो
ऎ ङ्कळुक्कु</w>
अवै ध</w>
के टा
संस्थान त्त्</w>
आश्च र्य</w>
लाग ले</w>
मात म्</w>
पङ्कॆ टुत्तु</w>
किऴ क्कु</w>
प न्न</w>
३ २</w>
ने टिय
निर् भर
फ़िल म</w>
क ङ्कळ्</w>
वॆ च्च
के उ
जनगण ेर</w>
हो ंगी</w>
मु ं</w>
एक सङ्गे</w>
स्कू लों</w>
माडु त्तदॆ</w>
पि क
एन एस
इं सान</w>
वि ण्ण
निय़ म</w>
कॊटु त्तु</w>
घो ष</w>
व ारे</w>
मक्क ळ</w>
टी स्पू
कोण तीही</w>
ल ज्
बे ग</w>
बि न
दु ष्ट</w>
न मा
टूर्ना मेंट</w>
ट ैये</w>
चू ऴ
c on
व ळा
ऩि य</w>
कार्य ्य़</w>
इल ट्च
अरचाङ्क म्</w>
राष्ट्र मन्त्री</w>
शी लता</w>
उपस्थि तरि
भारता च्या</w>
वि रू
अस ली</w>
परि पूर्ण</w>
क्के ण्ट</w>
या ज
ंगा ने</w>
बिस्त ारित</w>
चि ंदि</w>
म म्
ज डे
स्टा फ</w>
नियम ं</w>
t o</w>
यु लु</w>
आ स्था</w>
स्पि टल</w>
निवार ण</w>
व क्त
ब ारु</w>
अ खिल</w>
्र े</w>
स्थळ क्कॆ</w>
ञ ङ्ङൾक्क्</w>
वुद रिंद</w>
मा सिक</w>
भार तर</w>
ऎ डि
अका द
इन्त्य यिलॆ</w>
नൽक ियत्</w>
धर लु</w>
तॊऴ िल
स टे
ना ही
अल्ल दॆ</w>
नि आ</w>
तदि तरु
हा इ</w>
बु द्ध
ऎतिर् प्पु</w>
निर्बाच नेर</w>
बर्त ्त
उद्देश ्ये</w>
ल न्ड
आ फ</w>
s h
फिर िय़े</w>
विमर् श
ॆ न्नु</w>
ि न</w>
मर ्यादा</w>
अरॆ स्टु</w>
ह फ्त
मा ऱ
नीतिमऩ्ऱ त्तिल्</w>
चॆय्ति ट्टुण्ट्</w>
आ सन</w>
ह ारे</w>
हे ल्
ऎति राऩ</w>
उद्देश ्य
र घु
लाग ु</w>
ड ः</w>
गा ंगु
कम जोर</w>
ऎ ङ्किलुं</w>
क िल्ल</w>
ब्या ज</w>
सै न</w>
पकु ति</w>
इ ङ्क
तल ब</w>
द्द रू</w>
मातना डि
अदुपु लोकि</w>
आय् कॆ
से माने</w>
वल ियुऱु
रा कुल्</w>
कव लै
ष नु
ङ्कळ ैक्</w>
गੱ लां</w>
रिश्त े</w>
केन्द ्री
बे ला</w>
आम च्या</w>
पੱ धर</w>
युव ति</w>
र् ट</w>
मुस्लि ं</w>
यं त्र</w>
उ णा</w>
मु ना
प्रश् नेर</w>
वे क
जि नि
ऎन् ति
आ देशि
न् सेर</w>
जिੱ थे</w>
वे ऱु
सक ों</w>
अमै प्पु</w>
ह ं</w>
न्तु ळ्ळऩर्</w>
हुक् म</w>
पৰ ि
प्प ॊ
चॆयल ्पा
कर वो</w>
श्र द्ध</w>
लੱ ग
ते नुं</w>
मूल ं</w>
क्र िया</w>
जो खि
ल ंदन</w>
चि ऱि
करण्या स</w>
ऒ न्नि
व ट</w>
कृ प
कट ऩ्</w>
ली धी</w>
अं ग</w>
डि पि</w>
वि कॆट्</w>
ये टा</w>
यु ण्ट्</w>
वर सा
टि म</w>
म ्च
ट् विट
३ ३</w>
स्ट ्रो
सु न</w>
यु व</w>
ख़ त</w>
दी न्नि</w>
ट् स्
ला य</w>
जि ह
भद्र ता</w>
म ्ताऩ्</w>
परी क्ष</w>
खर् चु</w>
जा ंदे</w>
टा ने</w>
कोह ्ली</w>
२०१ ८</w>
स्कु ले</w>
जागरू कता</w>
घ ंटे</w>
साझे दारी</w>
न् वित</w>
विस्त रि
च्चि ൽ</w>
करो ना
नट त्ति
सुविधा ओं</w>
स़ ट</w>
बा क्
उय र्</w>
बे सरकारि</w>
तुम को</w>
अर्थ ं</w>
भ लाई</w>
पौँ छा
ड ियु
जे ने</w>
एऱ्प टुम्</w>
प्रभा बित</w>
वੱ डे</w>
ढ ा</w>
नि तिन</w>
रो ड्
प्रति रोध
स्वर ू
यु क्ति
तु ला</w>
इव् वा
स्वी कार
बालि वुड्</w>
घट क</w>
प्प ू
इ वर्
त्यार बाद</w>
टु कु</w>
छिल े</w>
वे ण
वार्त्त ै
वा यितु</w>
आ रि
धार णा
उत्तर ं</w>
पॊरु त्त
्प ि</w>
अ ताण्</w>
टर् ल</w>
पूर् ण्ण</w>
तय ारी</w>
आओ ताय़</w>
यॆहो वनु</w>
उ चि
प्रभा र</w>
a t</w>
पड़ ेन</w>
स्ୱा स्थ
इरण्टा वतु</w>
ते ओने</w>
झ ग
माझ ा</w>
ब स्त</w>
फ ्लो
ट्रा न्
ले म</w>
प्प ർ</w>
रा ई
गा मना</w>
ग ौर</w>
ब्या पी</w>
मा थाय़</w>
च मु
ऎ च्</w>
नव् हती</w>
मा सं</w>
पडु तुंदि</w>
दृष्टा न्त
बा हु
पै कि</w>
केरळ त्तिൽ</w>
प्रक्र िया
नी र्
मा युळ्ळ</w>
तॊ ल
आ उट
अ संख्य</w>
श स्त्र
वऴ क्क
चु र
वे गं</w>
नि ध
तु मने</w>
B I</w>
समय त्त्</w>
ो ने
वे ं
आप दा</w>
पू म
द ंड
ज ळ
हे ला</w>
सार ीआं</w>
तऩ ियार्</w>
कुटियर चु
अ ऱु
चित्रपटा त</w>
वे ण्ट</w>
वि द्
मै ंट</w>
माडि कॊळ्ळ
नी तीश</w>
त त
सु र</w>
परि चु
ंप ा</w>
कै पटन</w>
कळ् ळ
ऎर डू</w>
प ड़ी</w>
10 0
ए लि
व खत</w>
ल िया
प्र को
चु ना</w>
क़ौ म</w>
आम दार</w>
बेंग लु
टी आई</w>
कूट्टि च्चे
२०१ ९</w>
पु रोग
नु क</w>
ए दिके</w>
सि पि</w>
बन र्जी</w>
कि म</w>
अवचिय म्</w>
आप स</w>
णी य़</w>
माव ट्टम्</w>
बिक्र ि</w>
प्पॆटु न्न</w>
हे उ
य ल्</w>
मि क्क
परि हरि
दर् शी</w>
एकत्र ित</w>
मक ऩ्</w>
कम ल</w>
रो जग
पि ੱ
तंत्र ज्ञान</w>
मा कु</w>
मे ऱ्कु</w>
पय ऩ
सा ली</w>
मो टा
नी ती</w>
बहि ष्
ियु ङ्कळ्</w>
वरि ऩ्</w>
कर वी</w>
मु जब</w>
नव् हता</w>
सार् भि
ल ियों</w>
ट्रा ं
मू र्त
विडु द
बेह तरीन</w>
त्ति त्तु</w>
कानू नु</w>
सा थे
चे रि
वर् कळाक</w>
रा स्ते</w>
बाप्ति स्
परमेश् वरा
आ ढ
स्पर् ध
ण्ड ेर</w>
बाह री</w>
अੱ त
य थ
मऩै वि</w>
ति नाൽ</w>
जि ते</w>
बिजे पि
त ंड</w>
अं ता</w>
रि पोरट</w>
ङ् कार</w>
ए दिन</w>
सो स़ल</w>
मोदी र</w>
पुकै प्पट
तिय ुं</w>
दप्त र</w>
नदी र</w>
स़ ब
अयो ध्या</w>
वर्त ि
पुरा ने</w>
12 .
बला त्कार</w>
तुल नाय़</w>
ङ्कळु टैय</w>
मा ट</w>
आ ज़ा
पोत िलुम्</w>
ता युं</w>
सक लेर</w>
ऎंदि द्दारॆ</w>
न डि
कळॆ द</w>
रु चि</w>
गॆ लि
कळ ॆयुं</w>
निज स्ब</w>
फे ले
कॊरो ऩा</w>
मुयऱ्च ि</w>
प्र बंध</w>
न्नु मिल्ल</w>
कल म</w>
दॆह लि</w>
कं ई</w>
न्यायालया ने</w>
ु लनु</w>
रो गि
अन्य दिके</w>
संस्थ ार</w>
उण्टा यिरुन्नु</w>
om e</w>
गा न
सो ना</w>
वि ൻ</w>
फ़ ो
कार ियों</w>
हरि आणा</w>
बेकॆ ंदु</w>
किं मत</w>
बा चक</w>
स्थाय िलो</w>
मान ब</w>
मा य़ेर</w>
गु ड़ि
म न्नारु</w>
जो ड़ा</w>
त्त ैच्</w>
ा ൽ</w>
संवे दन
वै न</w>
वि भ
प्र बल</w>
दिव सा
ल ॆयल्लि</w>
प्पटुत्त ुम्</w>
आम न्त्र
न रिੰदर</w>
त्ति ऱ्कुम्</w>
गू गल</w>
गा मी</w>
ंच ड
दीनि नि</w>
प्रा णी</w>
तिऱ ऩ्</w>
कॆ मॆ
उप चारा
निय़ ार</w>
न ियां</w>
देख ी</w>
अभियो गे</w>
ियु ळ्ळऩर्</w>
प्रमाण ित</w>
त बु
ंड िया</w>
समालो चना</w>
इस्रा एल</w>
अला ंटि</w>
ह ्रास</w>
पा ते</w>
देवा च्या</w>
ए गी</w>
आप वा</w>
सड़ क</w>
चि रि
षण ൽ</w>
त्ति र</w>
तु रु</w>
ऱ द्दा
क्क ർ</w>
रोग ं</w>
मु स़
उ ष्ण
चाल ै</w>
व ङ्कि</w>
मळ ्ली</w>
े त</w>
ऒतु क्की
तिरुमण म्</w>
जा पा
ये ली</w>
तेवै याऩ</w>
सि खा
मंदि कि</w>
ऱि न्</w>
डि ं</w>
करा यिब</w>
ल नी</w>
वारा ण
र् कळुम्</w>
मु झ
a m</w>
कम ्यू
मन कु</w>
रै लु</w>
छ ु</w>
ए भळि</w>
प्रदेश ों</w>
बर् ष</w>
ग् ने
खास दार</w>
निरा श</w>
से खान</w>
धू म
तिरञ्ञॆटु प्प्</w>
ताम सि
राज कुमार</w>
पट त्तै</w>
सम स्य</w>
वी डीओ</w>
वि द्या</w>
रक्ष क</w>
आई एस
अंग ी
नटैपॆ ऱ्ऱ</w>
हो टल</w>
श् त</w>
व ङ्क
ख ने</w>
तम्मिल ुळ्ळ</w>
का ट</w>
दि रि
घटन लो</w>
पार ं
व्हाय रल</w>
अ दर
रास्ता य़</w>
निषे धा
पी सी</w>
पत्रि कि</w>
च िया
सो नम</w>
र हीआं</w>
ङ्ङൾ क्कु</w>
गर् व</w>
उੱ थे</w>
पचार िक</w>
चॆय्य प्पट्ट
वर े</w>
ൻ ऱ
जय ंती</w>
सां भ
दु का
केसु लो</w>
ध ुं</w>
आश्वा सन</w>
तिनि इ</w>
ड़ ेर</w>
जो डि
फ ॊ
ए व
यु द्धे</w>
मा लूम</w>
ग ह
आर्थ ि
ं ति
कुऴ प्प
सർ व
तर ं</w>
सॆ स्</w>
उत्तर वादि
प्प र्</w>
वर् ड</w>
स्थ लं</w>
धिप त्य
आ दर
अ मुक</w>
महे ष्</w>
ए ना</w>
अ लि</w>
ब्यबहार ेर</w>
प्रभु त्व
अत्यु त्तम</w>
्या नि
चुका तार</w>
ङ्ङ ्</w>
श िला
वाज पे
ए पी</w>
चुनावण ॆ</w>
का ंच्या</w>
प्रका श्</w>
पार्ट ि</w>
टु क
भ र्त्ति</w>
निरी क्षक</w>
ण्ट ॆन्नुं</w>
कोऴिक्को ट्</w>
ग्रह णेर</w>
कार् मि
प्रोजे क्ट</w>
बे स</w>
हं मे
व न्तिरु
आർ क्कुं</w>
अ पर
अ ङ्क
पट्ट िय
कि ऩ्</w>
शा श्
व खते</w>
पडि न</w>
ग्र ो
प्रमाद ंलो</w>
दो बारा</w>
तॊ टर
स ना
प्पो म्</w>
चा हुੰदे</w>
कंग ना</w>
अ ङ्कि
या ँ
से मानङ्क</w>
चੰ गी</w>
शरी फ</w>
तॊ क्कॆ</w>
श इ</w>
जिल् हा</w>
काल ्प
बन् द</w>
बना कर</w>
सि वाय</w>
प्रकल्प ेर</w>
सक ले</w>
माट्लाडु तू</w>
सिद्धा ंत</w>
पूर्ब रु</w>
स् र</w>
२०१ २</w>
लिखे छेन</w>
जाए ं</w>
रा णा</w>
व ैयुम्</w>
ण ुं</w>
अग त्य</w>
वळ ि</w>
हथ ियार</w>
शै तान</w>
क्ष िक</w>
यि शुर</w>
वे रि
विचार ों</w>
क हती</w>
अधिकार ी
ർ न्नु</w>
के ल्या</w>
जन्य इ</w>
मृत देहा
आवश्य ं</w>
व कै</w>
पा टि</w>
दुइ टि</w>
हा सान</w>
तारि खे</w>
राज स्व</w>
तबु ओ</w>
चल बे</w>
प ङ्कु</w>
डी आं</w>
निवे श
गु ड़
अनु सूचित</w>
देशा तील</w>
कर न्तु</w>
व चि
ॆ या
चोदि च्चु</w>
तंड ्रि</w>
हा ं
जे रे</w>
ऎन्तु कॊण्ट्</w>
वै से</w>
वि क्कऱ्ऱ्</w>
आईसी सी</w>
निरी क्षण</w>
बे शी</w>
w s</w>
चॆय्य प्पट्ट</w>
उत्त रे</w>
बेशिर भाग</w>
पार छि</w>
से तु
सच्चा ई</w>
विरु म्प
्यु नि
सह ियोग</w>
कावल्तु ऱै
7 00</w>
मो टो</w>
ज़ न</w>
व ੰ
ै र</w>
माऱ्ऱ ं</w>
डय ऱ
इ तो
्या ं
पातुका प्पु
की र्
चे स्तुन्न</w>
इੰ डीआ</w>
ने य़ा</w>
जानु य़ारि</w>
ज़िੰ मे
स्को र</w>
स ॎ
म ल्लि
ग वाह</w>
यु क्ति</w>
ऩ ैयुम्</w>
क विल्लै</w>
त्तुव म्</w>
अनु ग्रह
ल क
पुर व
मुन्न ऱियि
हीरोयि न्</w>
ह की
करा वी</w>
अ स्त्र</w>
६ ०</w>
मु केश</w>
णी त</w>
इट त्तिल्</w>
भ या
अम दा
उड़ा न</w>
चॆय्य प्पट्टुळ्ळतु</w>
करा वा</w>
ब म</w>
पे ंशन</w>
ज़ि ल</w>
इस ्पात</w>
स फाई</w>
उपस्थितरि द्दरु</w>
प्रॊ ड
ऩ े
इ द्देह
संवत् सर
वा क्क
परबर्ती ते</w>
दी धी</w>
साध नों</w>
जा तो</w>
सम झा
या ओ</w>
ब्यब सा</w>
जो ड़
ऒ ंदे</w>
एर कम</w>
ले वु</w>
दुसर ़्या</w>
थो डा</w>
आभ्य न्तर</w>
सैनि कों</w>
विरु प्प
स़ा ह</w>
इल ङ्कै</w>
मुऩ्प ु</w>
दुर् ग</w>
रॉ य</w>
ते रा</w>
ड मि
सन्दർ शि
ऩै क्कु</w>
डेवि ड</w>
यू निय
ंच ं</w>
6 9</w>
शे ल</w>
लि गॆ</w>
इंत जार</w>
e t</w>
का लेदु</w>
चतवी तम्</w>
िल ु</w>
शिल्प ी</w>
अरॆ स्ट्</w>
संश य
राज्य त्त्</w>
परीक्ष ार</w>
त ळ्ळ
सिबि आइ</w>
वी र्कळ्</w>
तऩ्ऩ ुटैय</w>
जा नि
वर् ध
मै ंब
प्रो ग्राम</w>
पिर च्
शिक्ष ार</w>
मिळ ेल</w>
क्कॊ ळ्ळु
शा ळा</w>
ह ्य</w>
पहुंच ने</w>
ट्टा ऩ्</w>
ं थी</w>
सी आं</w>
म जा</w>
हि ल</w>
ज ं</w>
हा त
वि कि
जा ल</w>
ए टी
इ ंदुकु</w>
कार्य कला
राज्य ं</w>
स्पर् धे
वा ड</w>
मुति ർन्न</w>
ऒप्पु तल्</w>
पा ला</w>
ग युं</w>
सिपि ऎं</w>
आवश्य प्पॆट्टु</w>
ऱ्ऱ ुं</w>
जो ई</w>
स्त ल
ल प
यू सु
सुल भ</w>
च तु
मंत्र ी
बार ओ</w>
चॊ ल्ल</w>
स्टोरे ज</w>
गॊ प्प</w>
सु त्तिदॆ</w>
इ वॆ</w>
आग स्ट</w>
च त्तिय
निർ द्
जवा नों</w>
कार्या न्वयन</w>
रै ल्वे</w>
श हेर
पहे लां</w>
बरद स्त</w>
त्तु ळ्ळ
विआ ह</w>
मस जिद</w>
जे एन
व्या ख्य
भि तरे</w>
जा तिर</w>
आन्दो ल
ियु मायि</w>
हा गागि</w>
नटि कै</w>
तदितरु लु</w>
पार ित</w>
ना न</w>
इय ऱ्
चर म</w>
क्कि न्</w>
पुलि सकर्
आ दान</w>
ने मे</w>
अमै प्पु
अ प्पट
से खानेइ</w>
स़ि काइ
मं जु
आ से
सु पार</w>
कि आं</w>
क शी</w>
इ नि
स् वे
बं धित</w>
प न्त
य़ रा</w>
मा ँ
बिधान सभा</w>
ग न्
२० २०</w>
संशो धित</w>
मे य़ा
सौ ंप</w>
शिक्ष ण
ॆ गळल्लि</w>
प्रसार ित</w>
ॉर् क</w>
उल क
अ म</w>
लग ने</w>
ली धो</w>
ऒ क्
फ त</w>
नाल् कु</w>
ह ट
लि खी</w>
पुरा तन</w>
अमैच्च र
ची नेर</w>
उल कम्</w>
अ तावतु</w>
जिम्मे दार</w>
वाग िल्ल</w>
न रा</w>
व ता</w>
आव ुं</w>
ंच नुन्नारु</w>
समय दल्लि</w>
री ति
इ ने</w>
वർ ण
च मा
कि ੱ
सिद्ध ार्थ</w>
गिरफ्त ारी</w>
पी य़</w>
अभियो ग
शकी ए</w>
मॆ गा
भू ल</w>
उण् मैयिल्</w>
मुख्या लय</w>
बि भागे</w>
पं पि
आधार ंगा</w>
अटु त्तु</w>
जम कर</w>
विपरी त</w>
ऐ क्किय</w>
चल न
च ो</w>
वार िलो</w>
पत् नी
सा गु
ले ता</w>
दा गिदॆ</w>
२०१ ३</w>
विनो द</w>
भू मिय
वु माय</w>
चित्र दल्लि</w>
विद्या भ्या
वि देशा
ंप िय
वि पक्षी</w>
ली म</w>
चर् चा
टी मों</w>
अद्देह त्तॆ</w>
सं चालित</w>
प्रधानमंत्र ीए</w>
पी सी
स्तु न्ना
क् सी</w>
वर ू</w>
ब चा</w>
र ना</w>
कि ळ
वा लिआं</w>
ब लो</w>
कॊ वि
ए मी</w>
वॆळियि ट
6 1</w>
उल ्ट
इ न्</w>
वा षि
न्न त</w>
तुटർ न्नाण्</w>
पुल वामा</w>
दे शित</w>
नु हेँ</w>
पाർ ल
युब क</w>
मू ऩ्ऱा
पत् नि</w>
ग रु
समृ द्धि</w>
र ੰ
डि ൽ</w>
वु रु</w>
पिछ ने</w>
क्कु मॆन्नुं</w>
इङ्क िला
तद न्ते</w>
आस क्ति
भे ड़</w>
मान क</w>
किर ण</w>
७ ०</w>
का मां</w>
बे टा</w>
आरंभि च्चु</w>
न म्पु
आ परे
ट्रे लर</w>
आ ट</w>
कीम तों</w>
म लिक</w>
श्रु ति</w>
पू र्त
ये ं</w>
अधि वे
प ऱि
घ री</w>
बॉ लिवू
सा थी
ार ं</w>
आतर वु</w>
पण ्य</w>
स्बा धीन</w>
नडॆ दिदॆ</w>
कि तना</w>
निंदि तु
इन्न िलैयिल्</w>
इस ङ्गे</w>
आ ्य
ब र्</w>
आर म्प
आप सी</w>
फै न
तीर् माऩ
त्रि पुरा</w>
२०१ ५</w>
स द्
हत्या का
के सी
खे तम
9 1</w>
स न्तु
ज मि</w>
ता य्</w>
जन रिगॆ</w>
अनु ग्रह</w>
7 7</w>
आइ पि
वा ऴ
यि ट्टिल्ल</w>
इ श्रा
अ पारे
बि आन</w>
नि चे</w>
ड ्रे
महे ंद्र</w>
सा ङ्के
उ ऩ्</w>
उ पर
मा नि</w>
चंद्र बाबु</w>
स ः</w>
न रे</w>
कम्पि उट
अधिकार ि</w>
क्क त्</w>
लि न्</w>
न क्ष
ओळ ख
रु जु</w>
मं द</w>
सड़ कों</w>
ऎर डने</w>
अव ळुटॆ</w>
स्ट ्या
विश्व स
मान ता</w>
त ळ्ळि</w>
इत्त र
w w
था नार</w>
ओ पन</w>
तॆलिय जे
अत्या र</w>
द वा</w>
ए कू
ळा ण्</w>
च्च ू
क् य़ा
वा ंच
पा लु</w>
पद ों</w>
स़ा इद</w>
प ार्थ
टि ओ</w>
कर्ण धार</w>
स्वर् ण</w>
वि श्रा
ऱॆयि ൽ
महि न्या
लो कां
पर्य्य़ न्त</w>
वा ळ</w>
मना या</w>
भ विੱ
दॆ ः</w>
मा ऱि
चा ळ
घो टा
मुक दमा</w>
ते टि</w>
आखि री</w>
वाർ त्त</w>
ट्विट्ट र्</w>
प्रण ब</w>
सं तु
रु वुदु</w>
न्ऱ े
क्रि स</w>
ले वा</w>
दल्लि रुव</w>
न ंब
व कि
अनु कू
ए ह
ए सोसिए
ली टर</w>
फ ट
अमेरि के
तिट्ट त्तिऩ्</w>
चा त
वा दि</w>
हि डि
ज़ िले</w>
सार् व
रु ः</w>
ब ৰ
तारि ख</w>
ङ्ङ ळि
किलो मिटार</w>
डी पी
उ ङ्कळै</w>
बन् या</w>
न्नु ः</w>
दिय़े छि</w>
घ ्
खान कार</w>
कुमार स्वामि</w>
हो ग
इ बा</w>
देख कर</w>
विद्या लय</w>
फा यर</w>
पे य़ेछेन</w>
ww w</w>
दा ने</w>
पॆ ळ्ल
स बेका
गृ हीत</w>
सी एस
न ंतर
ट्र ी
ल्या नंतर</w>
तरफ थी</w>
तालि काय़</w>
गु ंत
ला गित्तु</w>
ऎ लॆ
ना न्नि</w>
जन्म दिन</w>
उभ य़</w>
बो र
आ ऱु
ट्र ॆयि
इरुप्पि ऩुम्</w>
तुर ੰत</w>
कस्ऱ्ऱ डिय
उॎ स</w>
h t
ष ी</w>
जिੱ त</w>
कि र</w>
अहम दाबाद</w>
मिकु न्त</w>
ना मां
आह् वान</w>
य़ र</w>
मि न्</w>
मू ळ
ः प्</w>
सा वु</w>
र द्दु</w>
सम स्त
ब ल्ल
माझ ी</w>
अऱि क्कै</w>
बी मार
चार् न्त</w>
को ई
आ तार
सि द
विऱ्प ऩै</w>
फ ्री</w>
कूटुत ल्</w>
प ना</w>
आमेरि कार</w>
विभाग ं</w>
वाർ त्त
ർ त्ति</w>
बॆ ंगा
जन ङ्ङൾ</w>
उज् ज्
हा नि
मौ सु
जा हे
अ पि
साम्रा ज्य
प्प ऱ्ऱ
पी ठा
तो लार</w>
तिर क्क
पो तु
दि च्छे</w>
नट न्ततु</w>
ख़ बर</w>
मोह ൻ
र् लो</w>
ता म्</w>
गु ंड
रय िल्
ऱ ी
भ क्षण
बॆळ ॆ
वि माऩ</w>
डा क्टर्</w>
ब ण्ण
मानिल त्तिल्</w>
ञा न
य़ा न</w>
गॊ ंड</w>
६ ः
क् टे
ৰ ि
ड़ ो</w>
बन्ध प्पॆट्ट</w>
ज़ त</w>
रिजर् व</w>
म ऩ्</w>
सफ ळ</w>
स्क्री न</w>
मु लगा</w>
ज्य े
स ॆ</w>
रा स्त
दृ ढ
इ ळि
पो हो
भ ल</w>
न्याया लय
मक सद</w>
वि य</w>
नशि प</w>
इ डी</w>
रे ख</w>
त् ୱ
हॆ च्
सा ड़ा</w>
नटु डु</w>
ति वारी</w>
क्कण क्काऩ</w>
कंपॆ नी</w>
उच्च तम</w>
पय ण
आढ ळ
टु इट</w>
शीघ्र इ</w>
ना च</w>
ग िय
आयु र्
साहम णे</w>
से क्टर</w>
श ना
टे न
लि न्ऱॆ</w>
ियु मा</w>
सम्प्रदा य़ेर</w>
म न्द</w>
म नेर</w>
च ारु</w>
त्त िलॆ
वर् णन</w>
चॆ न्नि
खेतम जूरी</w>
मुऩ्ऩ ेऱ्ऱ
पश्च ात</w>
आमंत्र ित</w>
टेक् नो
उय र
क्कि ऱ</w>
रा गि</w>
रु प</w>
ब्य य़</w>
गौ ड</w>
आ इस
सक्रिय ़</w>
कॆ ट्ट
मै कळ्</w>
म ल्
पि ऱ</w>
निल ॆ</w>
तॊल गि
इ वरुटॆ</w>
दिव शी</w>
अ न्ति
प्रति भा
इंग्ली ष्</w>
या कुम्</w>
ऎ लक्
स्वा भा
ता ही</w>
घ े</w>
मा य्</w>
ट का
आ ण्
अग दी</w>
प्रा प्ति</w>
त्तो टु</w>
ं त्रि
सं क्रमित</w>
णॆ य</w>
पद वि</w>
घा टी</w>
अन्वे षण</w>
ढ ंग</w>
मा ह</w>
हैदरा बाद्ः</w>
पि ऴ
्तु ऱै</w>
ॆ ंदरॆ</w>
मंजू र</w>
मा कवुम्</w>
ङ् गेर</w>
वा नि
in d
मो बा
ऱ्ऱि रु
उप जेलार</w>
क्र ॆ
कट्च ियिऩ्</w>
साक्ष ी
यो गि</w>
चॊ ल्लु
लि ंक</w>
इ विट
ओ र्
ऎव् वळवु</w>
माडि दरु</w>
सि द्द</w>
ज्या दातर</w>
ख ि</w>
नन्न न्नु</w>
डाइ रै
झू ठ</w>
1 30</w>
त मिल</w>
आइ आ</w>
न् टा
ज नि
चा म्प
भाग ंगा</w>
गे ली</w>
से लि
त्या वेळी</w>
ऎ च्च
ग ियू</w>
लखन ऊ</w>
ली टर्</w>
२०१ ०</w>
शि र
वा यि</w>
िया गिदॆ</w>
जे कर</w>
ह क्कु
सु त्त
वाग्दा नं</w>
मं चि
दि सत</w>
चला चल</w>
ऐ न्तु</w>
ं बु
पुरस् कार
इ य़े</w>
ने वाली</w>
टु ळ्ळ</w>
वे यर</w>
ले गा</w>
और तां</w>
करा यला</w>
महिला एं</w>
भ्र मण</w>
सभ ्य</w>
प्पि च्चत्</w>
उ मीद
लक्ष् मी</w>
ट्यू ट</w>
प ड्डा
शक तात</w>
बेर िय़े</w>
सु वुदिल्ल</w>
स ञ्ज
कऩ वे</w>
बै ध</w>
पी यू
प्रोफे सर</w>
मु ली
कळ ो
आंदो ल
घा ल
तॆरिवि त्तऩर्</w>
ऎ ल्लि
वॆ च्च्</w>
प्र स़ा
सी आरपी
म्ह ट
ऎण्ण ॆय्</w>
अतिक माक</w>
थो ड़ा</w>
स्पी ड</w>
ड़ न</w>
दिव से</w>
ार ्प
वॆ ंक
ना नक</w>
जोखि म</w>
हमे स़ा</w>
धै र्य</w>
o c
उप दे
सह कार</w>
तिळि दु
मू त्त</w>
निजे इ</w>
आ ओ</w>
कोरो ना
ऒरा ൾ</w>
जाये गा</w>
ऒ लि
उत्ते जना</w>
ठा ण्यात</w>
कूट्ट त्तिल्</w>
इरुन्ता लुम्</w>
नन् दि</w>
वाऴ्त्त ु
मिळा ली</w>
भर ती</w>
कू ट्टा
क्कि ंत</w>
वी टु</w>
मय़ना तदन्तेर</w>
वर द
पा ता</w>
वॆ ऱ्ऱ
पक्ष ों</w>
त्तॆ त्ति</w>
ची ज</w>
कर्मी रा</w>
अ पार</w>
मुसल मानों</w>
निषि द्ध</w>
चु मत
आंध्र प्रदेश्</w>
सु भाष</w>
री र</w>
स क्
श् वास</w>
मुऱै याक</w>
स दु
नो ड
िल्ल ा</w>
गा नु</w>
से ल
समू हों</w>
रे इ</w>
पर पर
प वन</w>
भाष ार</w>
कांग्रॆ स्
गेंद बाजी</w>
को ർ
वेण्ट िय
शॆ ट्टि</w>
तॆरिय ुम्</w>
क्क प्पॆट्ट</w>
वै स्</w>
तुल ते</w>
रो गी</w>
चा प्पि
आजा द</w>
पोली सार्</w>
एका डे
िलू टॆयाण्</w>
देश टिर</w>
णि ൽ</w>
सुहृ त्तु
सं ग्रह
समावेश ंलो</w>
पंचाय त</w>
जु ओ</w>
परिस्थि तिर</w>
कॊंद रु</w>
अग वाई</w>
य न्
एऱ् कऩवे</w>
ट िल
चॆ ल्ल</w>
ह टा</w>
चि ऱिय</w>
विद्यार्थि गळु</w>
ऩ ेऩ्</w>
अनु वाद</w>
रो ड
o g
समर् पण</w>
अ ंड
व न्
मे जर</w>
जिल्ला लो</w>
चो टु
आव ृ
हा थों</w>
शी ख
मिल िय़न</w>
वॆ ब्
क सा</w>
फो र्स</w>
फि क्</w>
आखि र</w>
वि ट्टि
मो ർ
C om
ए नी</w>
स िल्
निमि त्त</w>
ये शु
रूप िया</w>
कर नगे</w>
म् मा</w>
7 4</w>
ट त्तिल्</w>
अन ंत
महੱ तव
अक सर</w>
लाग ला</w>
व ैयिल्</w>
घ ्या</w>
सि कॊंडु</w>
रा ब
करा वे</w>
ए ंट
स्वा मि
वा चा</w>
केंद्र ं</w>
अव ळ
ऒ ब्ब
दो स़ी</w>
मुंदु वरि
ंटु ंदि</w>
ओळ ख</w>
स्त रे</w>
सॆ ൻ
व डं</w>
नेह रू</w>
जवा ब
क्र ो</w>
चेय रमैन</w>
आर् मी</w>
अ र्त्त
प न्नु</w>
आ ऴ
क दा</w>
सुरे ष्</w>
फ्र ंट</w>
ऩ् ऩा
ख तरे</w>
कल ै</w>
अत ऱ्काऩ</w>
व् ही</w>
छ ी</w>
कटु त्त</w>
i a</w>
पा बेन</w>
उठ े
ह ून</w>
सर िय़े</w>
चुੱ के</w>
कृत ज्ञ
3 50</w>
ह ्र
सा ण्</w>
ला च</w>
य़ा त</w>
अ गु
होइ छन्ति</w>
सि टी
ह ्यु
प ळ
परी क्षि
न दि
पाർ ट्टि
ती ला</w>
तॊ ड
करिय र</w>
ह क़</w>
जल दी</w>
े ण्ट
पङ् का
10 ,000</w>
प्प ताक</w>
करि नि</w>
इन्टार नेट</w>
देश ्</w>
हा जिर</w>
लोको ना</w>
पऱ य
खे लों</w>
अनुभ ब</w>
मੰतरा ले</w>
ऎल्ल रू</w>
उऱ प्पा
योग ं</w>
निवा सी</w>
मा ँ</w>
परि बहन</w>
को ले
ऎन् टीआर्</w>
जिन का</w>
चॆय् वतु</w>
सीतार मण</w>
पौर त्व</w>
व्यत्य स्त
बिश् ୱ
बि तर्
से मि
कोंग्रे सना</w>
मोबा ईल</w>
क वर</w>
मन वि</w>
वी ने</w>
प्रति भा</w>
दा दा</w>
एनसी पी</w>
पी ए</w>
आप ्युं</w>
हौ दु</w>
हा य़
औष ध</w>
इऱै व
होण गे</w>
नाटु कळिल्</w>
जिज्ञा सा
च ंद
अस ताना</w>
मु द्रा
नॆ टु
छ ੱ
किऱ ा
सम ारं
क ट्टा
आयु ष्
पल िया
ड् स्</w>
ग िल
सि वल</w>
लागु वुदु</w>
चट ङ्ङिൽ</w>
भारत नी</w>
ऎ म
ऑफि स</w>
वेट ्पा
तु झ
आकर् षण</w>
इरु व</w>
दे ब
ऎप्पो तुम्</w>
अ प्पा
कार्य कर्ता</w>
संख्या र</w>
थ ु
ह नु
न कर्</w>
त्त ैत्</w>
कू टिय
कु क</w>
ह सि
ओस्ट्रे लिय
ऎळु प्प
दिली प</w>
र खा
ङ्कळ ाक</w>
के ळ
इमार त</w>
ड़ ां</w>
सो साइ
नट न्नत्</w>
द िल्ल</w>
ती च्या</w>
बि ख्यात</w>
आश य
हो ंडा</w>
स पै
बे डि
ळ म्</w>
गळा द</w>
कुऴ न्तै</w>
धिकार ि</w>
अंदुबा टुलो</w>
अभिन ंदन</w>
चै नल</w>
से क्स</w>
समुद्र ी</w>
चि ठि</w>
8 4</w>
ई ं
प्र भारी</w>
त्ति द्द
्या र</w>
करण ेर</w>
ग ्यू</w>
इट पॆ
नी स्</w>
डी जी
ह रि</w>
च य
लि ंग
ण् डे</w>
ग्रा मा
खा ता
प्रा ंत</w>
दु टो</w>
हि न्नॆ
मि ऩ्च
कर्त ार</w>
जिल ्या
ङ ा
नी डि</w>
च दु
वर् कळुम्</w>
पुरो पुरि</w>
दि श
ऎ ण्</w>
8 6</w>
अ छन्ति</w>
रा फेल</w>
अधि कं</w>
अं शा
प्रो टो
मेल तिक</w>
इन की</w>
ब ट
२०१ ६</w>
अजि त्</w>
िय ़</w>
200 7</w>
ऱ वु</w>
अभ्यर्थ ि</w>
सांके तिक</w>
भाजप चे</w>
कर ताना</w>
व क
5 ,000</w>
र िलाय
नप िये</w>
क ंड
तॆलु सु
अ श
आसु पत्रिकि</w>
त्यांच्या वर</w>
का पुर</w>
आ लय
फला फल</w>
वे स्ट</w>
साक्ष ्य</w>
वर्ष ा</w>
आ विष्
ൾ ड्</w>
करि थिला</w>
ऊ ർ
प्र क्रिय</w>
य़ ी</w>
स्थ ळे</w>
शर् त</w>
मन्त्र केर</w>
तॊ कै</w>
यकी न</w>
इ वरु</w>
कॊ ंत
उ ंदे</w>
ർ त्तु
मो ठे</w>
वा दा</w>
ले वामां</w>
इ ञ्जि
हाला ँकि</w>
योजन ॆ</w>
नि क्</w>
चा करि</w>
सूच का
झ टका</w>
क सो
रा ल्</w>
इन स्टि
लि हा
परिचाल न</w>
ता मिल
ൻ ड
द नी</w>
जा धव</w>
६ ः</w>
ज ट्टु</w>
ारा ष्ट
त्य़ ा</w>
नाटु कळ्</w>
स्व राज</w>
विषय त्तिൽ</w>
विप त्तिल्</w>
आशीर् वाद</w>
प्रकटि ंचारु</w>
ङ्कळ ाल्</w>
मरी जों</w>
संरक्ष ित</w>
प्रतिबे दन</w>
टा कार</w>
00 0
सदस्य देर</w>
सला गित्तु</w>
नॆ न
प ंड
धा ने</w>
चुनावण ॆयल्लि</w>
ी गा</w>
निष्प त्ति</w>
अ ट्ट
हॆ सरु</w>
परि क</w>
जा नो</w>
क्षु द्र</w>
रि टी</w>
स्था नि
ए ज
अ धीन
पे ർ
गि ल</w>
एन एस</w>
ए वा</w>
प्रदर स़न</w>
ट्टि य</w>
इतु ताऩ्</w>
स ंदि
प्रारंभि क</w>
एकू ण</w>
अग् नि</w>
भूत पूर्व</w>
ब्य स्त</w>
प्रश् ना
ष्ट ा</w>
आप त्ति</w>
शि ंग
अं बा
तु ंदनि</w>
राख ी</w>
राजे श</w>
बिह ारी</w>
खा नेर</w>
इरु क्किऱार्</w>
अऩु प्पि</w>
गळ न्नू</w>
कॊ च्चि
कु श
मु ठ
7 8</w>
क ळ</w>
सा मिल</w>
गत काल</w>
स् का
सम ्रा
जे वी</w>
सർक्कारि न्ऱॆ</w>
ख से
ं लोकि</w>
देखा र</w>
इच्छ ुक</w>
प्र ताप</w>
नाराय ण
नग रा
मे ट</w>
इर कम</w>
परा जित</w>
ने षनल्</w>
न कारी</w>
हैदरा बाद
जग तेर</w>
करण्या चे</w>
डൽ ह
कृ त्रि
7 6</w>
प्राथ मिक
2 1
म स्ति
प क्त
सम बे
दर जा</w>
काणा ൻ</w>
था णा</w>
त त्व</w>
खे लने</w>
न्त रित</w>
सके गा</w>
फेब्रु य़ारि</w>
रा यि</w>
साफल ्य</w>
टेक नो
क ते</w>
सं क्षिप्त</w>
ना त्</w>
ओ नो</w>
इन्त च्</w>
स्ता ऩ्</w>
ल्ट ्</w>
मणि पुर</w>
म ॆय
नि वास
द्रो ह</w>
पुलि शके</w>
कट्ट ॆ</w>
प्पति वु</w>
8 1</w>
लो र</w>
गु स्
मनो योग</w>
ऎस्प ि</w>
इ ंद
पो ट्टि</w>
आनु ष्ठा
ल ः</w>
नीडि दरु</w>
ऐ म</w>
सी म</w>
ए नेइ</w>
इच ैय
आ टो</w>
सु त्तेवॆ</w>
त्ति ऱ्काऩ</w>
वि ऴ
धर णेर</w>
उठ ते</w>
फो र्ड</w>
् स्</w>
ऎन्नि विट
शुभार ं
श्र ो
गो वि
वे ले</w>
त ट</w>
क्कुन्नति ൽ</w>
ट्ट ർ</w>
दि खा</w>
ह ब</w>
द ार्
ंच वच्चु</w>
विरा सत</w>
मु गा</w>
सम्मेल ने</w>
ऒरु मि
समाजवा दी</w>
महत्त्व पूर्ण</w>
ग् ध</w>
मॆ च्च
बले छे</w>
ध ृ
त्या र</w>
ऱु ण्ट्</w>
ऱ्ऱु कൾ</w>
द्य ंत</w>
गि री
अका उंट</w>
बै बल्</w>
नी टि</w>
क्कुन्न ताण्</w>
अभिनन् दन</w>
चे स्तारु</w>
भागा त</w>
अ फ्
ध ेर</w>
अम रिੰदर</w>
प्पि य</w>
जै न</w>
कर लाम</w>
आदाल तेर</w>
मारा य</w>
उद्य म</w>
बढ़ो तरी</w>
ब हाल</w>
चित्र त्तिलॆ</w>
घटन पै</w>
्या वर</w>
डी सी</w>
ऒ न्नां</w>
श र्त
टा क्टर्</w>
इ ंग
से वन</w>
पर वान
एथि पाइँ</w>
अवर् कळ
प्रस्ता वित</w>
सम े</w>
मे क्सि
मिड िय़ा</w>
नॆ या
ड म</w>
S h
निर् देशित</w>
ऒरु पाट्</w>
मि ता</w>
प्रै वे
तुं ब</w>
वे ऱ
मु हैया</w>
केटा यि
ओ प्प
वे नु</w>
समय मां</w>
चिदंब रम</w>
वृ त्ति</w>
चे अर
7 1</w>
त देर</w>
तेर्न्त ॆटु
तकव ल्कळ्</w>
मान ङ्कर</w>
क्कप्प ट</w>
नी रिन</w>
पै माने</w>
क्कु कൾ</w>
मा ंगी</w>
अद न
मुलज़ म</w>
सर त</w>
भ क्षणं</w>
संरक्ष ि
मा ർक्क्</w>
बलिउ ड</w>
आ ऱ्</w>
खा ൻ</w>
खरे खर</w>
सू चन</w>
ळ ळ</w>
व ङ्कि
ब्रि गे
हो रा
प्र चेष्टा</w>
दा य़ी</w>
काठा मो</w>
व न्न
प ॅ
रि स</w>
इ ङ्के</w>
सु कൾ</w>
धर् मे
हो तं</w>
त ळ्ळु
ए डि
है छे</w>
ी य़</w>
मॊत्त म्</w>
मही नों</w>
पारं परिक</w>
का ठ
कळु हि
ली आ</w>
असे ही</w>
पराम रि
त् म
ट्ट त्तिल्</w>
ियि ट्टिल्ल</w>
ला ते</w>
घट क
अरुणा चल</w>
पोलीसा ा्</w>
दर ि</w>
सु ना</w>
उत् साह</w>
नम ्र
मर ने</w>
बाहि नी
चुनौ तियों</w>
कि तनी</w>
आ ऩ
ताक्कु तल्</w>
अम र्
प ल्</w>
तर फे</w>
ज्ञ प्ति</w>
प स</w>
ो ना</w>
भाजप ने</w>
ते णु</w>
सं स्थापक</w>
चो खे</w>
जॉ न</w>
आत् म</w>
वि जन</w>
गि ंत</w>
ऩ ो</w>
इ श
ये भाबे</w>
इ म्
ल ड
म्हणा ला</w>
डॉक्ट रों</w>
क डॆ
ह ंचि
a y</w>
सं क्षे
तू ने</w>
ज ੱ
अ बि
वർ द्धि
भावना ओं</w>
िय त</w>
स ൽ
स टी
7 3</w>
भार ि</w>
ए डा
बै क्</w>
इ ऩ्ऱ
200 6</w>
जख म</w>
वेण्टु मॆ
सूचका ंक</w>
मिकप्पॆ रिय</w>
की जिए</w>
न्ना यिरुन्नु</w>
चॆय्य प्पट्टतु</w>
सं ग्रहा
कुमार ्त
पो वु
प य़
go v</w>
सह करि
एजेंस ियों</w>
डायरे क्टर</w>
o v
8 2</w>
डि फे
वै प्</w>
नि हत
एम सी</w>
सल् मान्</w>
तॊटर् पु</w>
चि ंत
च ारा</w>
पूर् वी
मुऱ ैय
ऐ श्वर
मं त</w>
प्रय़ो ग</w>
गीत संहिता</w>
ना स</w>
च ट्टा
म जु
कुऱिप्पि ट्ट</w>
अन्त ाराष्ट
चार ्प
क ऩ्ऩ
मक्क ळु
चुका तार
क्केण्ट त्</w>
मरुत्तुवमऩै क्कु</w>
पा त्तिर
सं क्रा
त िल
निरा पद</w>
नटि त्तु</w>
क्क ैय
ऎऴु त्तु
दानि नि</w>
तन्नॆ या
मुख्य मैन</w>
कूटि क्का
शा लॆ
लक्ष ात</w>
त भी</w>
री ब</w>
चा ले</w>
1 1.
ता त
हत्या र</w>
बंगा ळ
ब िलि
महे श</w>
शे ट्टी</w>
ल्या चे</w>
डैरॆ क्टर्</w>
नॆल कॊ
पट ना</w>
चित्र ङ्ङൾ</w>
ब्यक्ति के</w>
बा बार</w>
ने म
य़ ि
सੰ बੰ
रि स़
भ वि
ट्र ल</w>
व ൽ</w>
लं टे</w>
वा इ
कल ्पा
ना ज़िल</w>
ख्रि स्ती</w>
इस्रा य़े
ष णेर</w>
प िलु
तट ै</w>
ग ारे</w>
कৰि ब</w>
तंड द</w>
त म्म
दु ः</w>
मूल्या ंकन</w>
ये टि</w>
कर्म सूचि
्च ि
नि य़
तर स</w>
गो ला
आ बिष्
से वन
प्रयत् न
डी ए</w>
जन रल्</w>
घि रे</w>
राज स्थान
विवा दा
थाक ले</w>
रि मा
चु म
धा निक</w>
च ੱल</w>
ला ൽ</w>
ड़ ीआं</w>
धी र
आ वि
ऐ सि
पार् क्क</w>
पा क्षिक</w>
8 8</w>
सा गर
मु न्निൽ</w>
त पा
मद ्</w>
रह ि</w>
बद लने</w>
दाँ ड़िय़े</w>
म् ब</w>
प क्
तिरि च्चु
णी ही</w>
सांबा दि
क ॆय
सो ब
आरो क्किय
डे मो
मा ला
आर एसएस</w>
राज स्था
एराळ माऩ</w>
7 0
विचार णॆ</w>
तॆलंगा ण
l in
9 6</w>
मि स</w>
ऩै त्</w>
फ्रे ंस</w>
प्रस्तु तं</w>
च ्पि</w>
अऩु प्प
9 99</w>
स ारु</w>
आ दम</w>
8 3</w>
जा णा</w>
हवा मान</w>
सं युक्त
विभा गों</w>
योग त्तिൽ</w>
अऩु मति</w>
धारा ळं</w>
धारा बाहि
त ियि
ष ेर</w>
एक मे
ज़ि ंदगी</w>
चांग ले</w>
कव न्नु</w>
हा ना</w>
मा ध
ती य़</w>
ग वർण
पय णम्</w>
प क्कम्</w>
स्थानी य़</w>
विश द
वाता वर
पॊरु ळ्</w>
सम् मान
प्प ूर्
के रा</w>
स कू
द ियों</w>
एक दा</w>
हि ट</w>
कॊंड रु</w>
चि ੰ
9 7</w>
बे छे</w>
दु नीआ</w>
ता क्कल्</w>
क्कू टातु</w>
अप मान</w>
शु ने</w>
ऩै क्</w>
राष्ट्र वादी
का उं
आट के</w>
अव रिൽ</w>
रस्त ॆ</w>
कै मरे</w>
इत ने</w>
अम ्च
पॊलि चार्</w>
20 21</w>
ऑपरे शन</w>
उत वु
द् वार</w>
शत्र ु</w>
य़ ित</w>
फ ्रॆ
ला भार्
ने श
प िलि
नीडि दॆ</w>
कां त्</w>
In dia</w>
पोर् टल</w>
मो ड</w>
बा जू
फि ट</w>
ला यितु</w>
निർ मि
सु खी</w>
मु रु
न य़
मै नदि</w>
अस्ट्रेल िय़ा</w>
हम ला
म कൾ</w>
नि रूपि
वर् गी
ह रेक</w>
ने टिय</w>
तु ण्ट्</w>
गो ल्ड</w>
बला त्
त्ति द्दरु</w>
वनि ता</w>
क बे</w>
ए सी</w>
वा ल्
वच ति</w>
दु श्
ड़ ार</w>
अधि आप
क्कॊ प्पं</w>
फर् म</w>
परेशा नी</w>
तीसुकु न्नारु</w>
यूरो पीय</w>
ल ङ्
भ ला</w>
ंद ले</w>
वा ळ्लु</w>
डी कल</w>
नी ही</w>
न िय़ेछेन</w>
रे प</w>
a v
प्रति क</w>
संगठ ित</w>
नि क्स</w>
दे हे</w>
गानि स्ता
देखा नो</w>
कम्प ्यू
इद ॊंदु</w>
टर् न</w>
ऎटु क्क</w>
सि वॆ</w>
लभ्य मा
पु ति
ळ्ळि ൽ</w>
बासी देर</w>
परि सर
दर असल</w>
वॆ ळु
कमा ई</w>
श्रम ं</w>
ति त</w>
प्रति पा
क्षेत्र ात</w>
रण नीति</w>
मै सू
e d
हा बाद</w>
आ लो</w>
लक्ष े</w>
रै ं
पाल ्प
प करं</w>
त ना
उ रिय</w>
अं बानी</w>
स्या र</w>
ले कुंडा</w>
सिर फ</w>
गो ली
वी टियो</w>
दु रु
टु न्न</w>
पो टी
आत नु</w>
व यि
टीमि ंडिया</w>
अंत र्
पुलि श
नो डु
दि व्या
अत ऱ्कु
ൽ निन्नु</w>
फु टेज</w>
गा ड़ी</w>
टे बल</w>
नटि स्तुन्नारु</w>
अंद रू</w>
सोस िये
मृ तक</w>
मि शन
तु प्पा
त ल्ला
इ व</w>
न्तु ळ्ळ</w>
ण्टि क्का
आ क्रो
हा द</w>
सुजु कि</w>
गिय़े छिलेन</w>
हठा ॎ</w>
म्या च्</w>
वीर र्कळ्</w>
ब लिक</w>
ता हार</w>
आमि ओ</w>
ते थे</w>
का त्तिरु
समा जेर</w>
मा ग</w>
ख़ु द</w>
क ली</w>
म न्ड
पड़े गा</w>
वा या</w>
ज ता</w>
म गु
जा हिर</w>
बाय़ ु</w>
पोट्ट ियि
स्टेडिय म</w>
प देर</w>
प्र जल</w>
तात् कालिक</w>
श ॉ
चंडी गढ़</w>
मू न्नां</w>
पॊलि स्</w>
आदा ग्यू</w>
के मि
या तना</w>
वऱ्ऱ िल्</w>
पा य</w>
ज व
कमि स़
आ ट्चि</w>
भाष ण
त्त न्नॆ</w>
डि ंग्</w>
ह ्</w>
मुहू र्ते</w>
आ गि
स्वा तन्त्र
मत् स्य
नि न्दा</w>
आ चरि
अयि ंदि</w>
िला क</w>
मध्य े
दिव सां
स़ ीआं</w>
मु ंदुकु</w>
टिउ ट</w>
वाइर स</w>
प्रश्न ङ्ङൾ</w>
कु शल</w>
सै तं</w>
रह स्य</w>
इर लिल्ल</w>
व्हि डिओ</w>
ब् ध</w>
दर खा
जाहा ज</w>
अबा क</w>
अन्त क्</w>
मे ने
निऱुवऩ त्तिऩ्</w>
प्पु कൾ</w>
गु नो</w>
मर िया
डा न</w>
ना मा
काँग्रेस चे</w>
वि डि
यो टॆ</w>
मु खा
प्र बे
तॆलु सु</w>
व धि
निकऴ्च्च ियिल्</w>
गळ ॊंदिगॆ</w>
पुऱ मॆ</w>
क्कप्प टविल्लै</w>
वैज्ञा नि
नेट ओय़ार्
एस एस
अवऱ्ऱ ै</w>
मि र्
दर्श कों</w>
को णी</w>
वैय क्तिक</w>
बि तर्क</w>
अधिकार िक</w>
ऩ ैय
धार कों</w>
णा त्मक</w>
कॉ म</w>
ल ण्ट
म् कूट</w>
बा ब</w>
प्रदर् शि
उट्प ट</w>
स्थि रता</w>
सा ठी
मारि ंदि</w>
बा म</w>
ं स्</w>
् स</w>
मी ल</w>
बिएन पिर</w>
चे यु
पोली सु</w>
कॊनु गो
कु न्नत्</w>
त्त िले
अ जू
स ण्ण</w>
उळ्ळ ट
प्रतिभट नॆ</w>
निरी क्षि
सां सद
बा के</w>
ऩै प्</w>
निल ो</w>
कॊ लै
आ ञ्च
at ion
राष्ट्र पती</w>
नॆ गळन्नु</w>
ललि ता</w>
पर थी</w>
चॆल्ल ुम्</w>
च मुता
अऩै वरुक्कुम्</w>
अंद रॆ</w>
1 1
प्र चरि
पि तर</w>
ੰ प</w>
ह ड़
स्व स्थ
विअक तीआं</w>
काही च</w>
विषय ों</w>
ऱु त्त
ऎवर ू</w>
बो झा</w>
बढ़ े
पु रू
त्त ार
इ य़े
पयऩ्प टुत्तु
ध नी</w>
ए ऴु</w>
राज्य दल्लि</w>
नारा ज</w>
कोर् टेर</w>
कृप या</w>
अड च
ं शी</w>
बी ज
पूं जी</w>
त मारे</w>
छा या
8 7</w>
दक्षि ण
चर ियाऩ</w>
क़ ि
9 2</w>
पै ग़
प्रज लकु</w>
गे म</w>
स्फो ट
व ॆय
तन कु</w>
करे इ</w>
य ंगा</w>
कुमार ी</w>
आ ऱ्ऱ
श्री निवा
का ऴ्च
एश ियाई</w>
ला गेल</w>
ची ऩा
सं त</w>
विजय ൻ</w>
इले क्
इयक्कु नर्</w>
बाज ारे</w>
नൽ कुन्न</w>
ए ँ
मात्र ा
ग वा
रा घ
ंट ों</w>
ह ंगा
रि सर्च</w>
नि भा</w>
तॆगॆदु कॊळ्ळ
सिल स
नि न्नाण्</w>
दा यि
वु ल</w>
की पर</w>
ऴ ुं</w>
ज मानत</w>
c t
फ्ट ्</w>
चॊऩ्ऩ ार्</w>
रीतिय ल्लि</w>
ह स
जा ँ
ऎम्मॆ ल्य
वरु ण</w>
अख ्त
चु कु
सलागु वुदु</w>
ओ ल</w>
समालो च
ग्राह कों</w>
पि न्निൽ</w>
मर ॊ
पार स्प
प ने</w>
सै निक
पऱया ൻ</w>
आप ्</w>
प्पि क्कुन्नु</w>
आतंक वादियों</w>
मुख ं</w>
ना ऩुम्</w>
उन्नय़ नेर</w>
उੱ तर</w>
अप ्</w>
दि नं</w>
कट ौती</w>
यि ऩ
बेकि दॆ</w>
द या</w>
अ ल्लि
लि टी</w>
एहा परे</w>
स च्चे</w>
वे र्
विका स
मू र्ति
का त्तिरि
ൻ ऱ्</w>
आ लेल्या</w>
परि ध
खो ल</w>
वरु न</w>
वर ैय
गी ता</w>
क्कप्पट्टुळ्ळ ऩ</w>
200 5</w>
वॆळ ि</w>
मऱु पट
टि भ</w>
मा क
पौ र</w>
परम्प र
कवि ता</w>
र ्र
थ ता</w>
प्रति बद्धता</w>
ओ षु
इंड िय
9 8</w>
सिं धु</w>
कै फ</w>
बर् षा</w>
पा ञ्
ज ह
कार् बन</w>
लु कൾ</w>
भू कंप</w>
का टा
फ़ ौ
पत्र ा
अधी क्षक</w>
करवा नुं</w>
मु लो</w>
नौ कर
मि साइ
काही ही</w>
मा ळ
णर् वु</w>
क्ष मि
इंड ोने
वे डु
वाह क</w>
दर् द</w>
च्च िय
IP L</w>
ब िय़ेर</w>
आ गो
प िला
टॆ स्ऱ्ऱ्</w>
रु टॆ</w>
बोळि वुड्</w>
ब ट्ट
परु गुलु</w>
ति ट्ट</w>
इचैय मै
वॆ ङ्
मीडिय यिൽ</w>
at e</w>
सि ੱख</w>
खतर नाक</w>
वि स्
पड़ ार</w>
ब्रा ह्
त कु
तिन जन</w>
तलै मैय
भ य़
इंडी ज</w>
वु ंदि</w>
च ट्ट</w>
ला स</w>
नटवटिक्कै कळ्</w>
ध त</w>
र द</w>
बु झा
पाय लट</w>
करे ल</w>
क़ या
नाइ टेड</w>
ते नाथी</w>
बले छिलेनः</w>
पा या
अब शेषे</w>
वळर् च्चि
इवर तु</w>
बार िक</w>
अन िल्</w>
सा दा</w>
रचिकर् कळ्</w>
I S
स़िकाइ त</w>
निशा न</w>
कार्य रत</w>
आश ङ्का</w>
बंद र
इस को</w>
निर् द्
त्त ेऩ्</w>
श ू</w>
पलु वुरु</w>
नि ष्ठ
क न्</w>
य िलेक्क्</w>
पा शेर</w>
प्पटु त्ति
नऩ् कु</w>
निർ वहि
व ती</w>
तॆलु सुकु
पहे ली</w>
चू ण्टिक्का
इ न्न्</w>
स न्तो
कारा ं</w>
इला खॆ</w>
ह ओ</w>
रिय ल्</w>
ब्ल े
अभ्य न्त
बे ल
क वि</w>
२०० ९</w>
फ़िल् म</w>
ड लार</w>
इरुक्किऱ ार्कळ्</w>
वर साद</w>
बि धि
ज शे</w>
बणा इआ</w>
डिजि टाल</w>
च्चु वॆ
बृद्धि र</w>
कळ ्या
ला लू</w>
द रे</w>
ज िल्</w>
नव ्या</w>
ख्री ष्ट
या नंतर</w>
कർ ष
म नॆ</w>
था कि</w>
बि सि</w>
पॊतु मक्कळ्</w>
सम य़</w>
ती विर</w>
अ भाब</w>
इ य़ेर</w>
आ ल्
इट ली</w>
मऱ्ऱ ॊ
क ऱि
रा ण्</w>
भारत देशं</w>
पूर्ब तन</w>
कमि श
पा से
एम एस</w>
अर्थ नीति</w>
धर् मा
ग णा
माण स</w>
अं त्य
क्कू टुम्</w>
ण्टा य</w>
वुद क्कॆ</w>
मा यिरि
ड न
ब्य तीत</w>
ते वैय
ट्टो र्</w>
अधिकार ों</w>
प्रेर ण</w>
ऩ िया</w>
ने बे</w>
वॆब् सै
न्याया लयात</w>
छात्र छात्र
प्रति बद्ध</w>
छो ट
दस्तावे ज</w>
ते ज़</w>
च ने</w>
वण ॆ</w>
चेय ंडि</w>
विद्या भ्यास</w>
मो ता
ट् प</w>
ता लों</w>
अक्क ौ
प्रा णी
वरवे ऱ्प
देख ना</w>
जो लि
रा गत</w>
रच ना
ओ फि
डो ळ
गुरु ति
३ ४</w>
अग्र णी</w>
फेस्बु क्क्</w>
कार्त िक</w>
अति थि
प्पत िल्</w>
पक ड़</w>
पीड़ि ता</w>
ीर् कळा</w>
संख ्य़
वर दि</w>
ल ती</w>
अम लु</w>
अ वाർ
क न्या
ंत रित</w>
भाषा ओं</w>
प्रश् नॆ</w>
कोण त्या</w>
ह इ</w>
नीडि द</w>
उ रैया
आसु पत्र
सङ् गीत</w>
व डि
बस बास</w>
चेर् न्तु</w>
सॆ ल
मा मू
श र</w>
टर ੰप</w>
जो इए</w>
प् शन</w>
िलु ळ्ळ
ता मु</w>
च ंद</w>
जाना इ</w>
स पे
बृह त्तम</w>
परस्प रं</w>
था ंब
को यला</w>
सु इ
स द्य
दि सून</w>
ढ ू
ऎ न्नत्</w>
वे ळै</w>
प्रभा वं</w>
परे ओ</w>
दु ർ
ड ्यु
कॊण्टु ळ्ळतु</w>
बाब ू</w>
इंजीनिय रिंग</w>
अन्ताराष्ट ्र</w>
ऒ रि
आप न</w>
अऱि मुकम्</w>
समू हेर</w>
वर क</w>
जा ळ
वै त्</w>
ने ंदुकु</w>
ज ते</w>
मळ ्यो</w>
बा धित</w>
ऒ त्ता
ती चे</w>
त्रु टि</w>
च पै
म ൻ</w>
तो ൽ
सर ो</w>
मंड ळ
जाग्र त्त
यि ंदि</w>
पॆ ऱुम्</w>
ज नु
र यिल्</w>
इ वु
सु समाचार</w>
प ड़
गु ं
ऎं पिक</w>
इ च्चिन</w>
वॆळ ्लि
मॊ रु</w>
ता न्त्रिक</w>
क िय़े</w>
स्वाधी नं</w>
भाइरा स</w>
जाना ते</w>
इस ने</w>
ह ज
राज्य ना</w>
ंग त</w>
ऎनि क्क
ग ल्प
बच त</w>
च लो</w>
अब्दु ल्ला</w>
मु न</w>
द शा</w>
कह िले</w>
भारता ने</w>
आल म</w>
राव त</w>
जीव ൻ</w>
उंड दु</w>
ऎन् ता</w>
हि ट्</w>
वै धानिक</w>
नेतृ त्ब</w>
ड ार्
खा द्य
अ जी
संविधाय कൻ</w>
बि च्छि
चुना वी</w>
चिल ർ</w>
गल ती</w>
च्चि ट्टु
सा इट
नेतृ त्बे</w>
बा दी
सप्ता हे</w>
वु माण्</w>
लु ओं</w>
ती सरा</w>
ण् णं</w>
वि केट
ऎन्नि ट्ट्</w>
मा फ</w>
बिरो धि
हफ्त े</w>
आशं का</w>
ता पूर्वक</w>
ऎदु रु
ऎं पी</w>
सर्बा धिक</w>
शुभारं भ</w>
बि ൽ</w>
बा जों</w>
काल त्त्</w>
लाग ली</w>
धर म</w>
अंदि ंचारु</w>
वत ऩ्</w>
आरोग ्यं</w>
कल ॆ
अनु भूति</w>
न् द्</w>
कॊ ंत</w>
व्य य</w>
सा लां</w>
ब्ब ु</w>
नि भाई</w>
प्प तै</w>
छात्र ा
कर णा
२०० ८</w>
प ों</w>
ग ड</w>
e l</w>
ना यिरुन्नु</w>
रा य्</w>
छ ेर</w>
कारो बारी</w>
समन् वय</w>
मंत्रा लया
कु ੱ
बेड कर</w>
पारि ब</w>
से वॆ
ख नन</w>
बां लार</w>
प्राधा न्य
पो स्ऱ्ऱ्</w>
्लो नि</w>
या ब
प्र िय़
त्वरि त</w>
त्त िलेये</w>
जा ई</w>
ऒ त्त
आकर् ष
इंग्ल ि
चॆयल्प टुत्त
आन् ध्र
चेर् न्त
ए आई</w>
ला खों</w>
टि र
लोक जन</w>
न कारात्मक</w>
ट्वि ऱ्ऱ
ऎदुर् कॊ
ई सु</w>
पटे ल्</w>
कौ ं
कली सिया</w>
ह बार</w>
लो ड्</w>
ऎति ർ
रा व्</w>
चॆ ंदि
बि प्ल
मात ून</w>
चेसुकु न्न</w>
क्र ु
े ला</w>
सि दंतॆ</w>
ला त</w>
प्र वि
्या ंनी</w>
उप हार</w>
श नं</w>
आकर् षित</w>
राख ो</w>
म्म त</w>
बचा ने</w>
चिकिॎ सा
ऎ तु</w>
10 ,
दिले ल्या</w>
8 9</w>
लड़ ने</w>
v s</w>
र हीं</w>
आ वा</w>
ग ्यास</w>
सद स्
लि ं</w>
आध ारे</w>
माट्ट ार्कळ्</w>
भ य़ा
पनु लु</w>
निय ू
कळ ै
करु छन्ति</w>
लੱ ग</w>
ये सब</w>
पऱयु कः</w>
उत व
ना टक
मे इ</w>
यहू दी</w>
पारि नि</w>
अर् जि</w>
पड़ ुन</w>
का क</w>
मळ ॆ</w>
ऎऩ क्</w>
चॊ ल्लि
आरा ण्</w>
नटै मुऱै
कूट्टिच्चे ർत्तु</w>
व्यवस्थ ॆ</w>
व्यव स्था
वे णु
प्रतिषेध ं</w>
ऊ ँ
प्रा मा
दक्षि णी</w>
त लै</w>
ऎल्ला वർक्कुं</w>
पॆळ्ल ि</w>
50 ,000</w>
चतुर् थ</w>
गो दा
लौ ट</w>
लोक ेर</w>
दर्श न
अल्लाह् विऩ्</w>
इच्च ारु</w>
अ प्पु
ः पि
डि स्प
चੱ ल
व न्तार्</w>
या च्या</w>
जो ड़ी</w>
काम गी
अ स्त्र
र हित</w>
गत ंलो</w>
शेत करी</w>
अव श्य</w>
रे श
पो यायि</w>
वऴ ङ्कुम्</w>
गत भाबे</w>
लोक ं</w>
डी आर
राज्य मां</w>
सचे तन</w>
मनो भाब</w>
तु इ</w>
विरू द्ध</w>
प्ला न</w>
प्रदर्श नी</w>
चेർ न्न्</w>
कमि टी</w>
आ चार</w>
i t</w>
इ रान</w>
पट्टि क
निवडणु कीत</w>
तीर् पु</w>
सं प्रदा
इन् दो
हण का
मुख्य मंत्रि
आ ङ्क
तॊकु ति
गु ज़
जि ൽ</w>
कॊ ञ्च
कि तने</w>
आई सी</w>
क मान</w>
अस्प तालों</w>
अव निगॆ</w>
या च्छि</w>
लं पिक</w>
प सੰ
समझ ने</w>
क तै</w>
सरकार ङ्क</w>
i l</w>
क्क ळॆ</w>
कल्या ण
यु रो
भा बना</w>
पश्चिमब ङ्ग</w>
यत् न</w>
चर ण्</w>
आश्र यि
मिग िलि
आन ते</w>
कुट्टि कൾ</w>
टेलिभि शन</w>
रू पी
भ रात</w>
बा गु
पू छे</w>
परिक्के ऱ्ऱु</w>
२०१ ७</w>
अप हरण</w>
मान वा
क़या मत</w>
मु ड़</w>
आ धिकारि
मलया ळ
पिर च
रॊ म्प</w>
पिरि वु</w>
उद घा
पोलिसा ंना</w>
दा इ
जिन की</w>
स काले</w>
ब गॆ
न कर्
ल नु
पॆय र्
उत्त ർ
उ ऩ्ऩ
अ च्चु
वि नं
ग ढ</w>
सी ए</w>
सू क्त</w>
पी ठ
ड़ा ते</w>
टै क्स</w>
या ने</w>
ज्ये ष्ठ</w>
कॊ रि
बो ला</w>
मॆ न्नु</w>
निर्मि स्तुन्नारु</w>
p h
2. 0</w>
निर्बा ही</w>
र मां</w>
मि ऩ्ऩ
निऱु त्त
वे ळा</w>
धर् मेर</w>
क् ताओं</w>
कूड ले</w>
लाग बे</w>
अज य्</w>
ख्या न</w>
क्याप्ऱ्ऱ ൻ</w>
पुरस् कारं</w>
तनि ख
चि पि
वॆ ंदु</w>
ना इट</w>
छ ी
ंट ो
पੰ ज</w>
म त्ते
पञ्चा य
ती र</w>
कृ षक</w>
पङ्के ऱ्ऱ
जि निस</w>
िया ल्</w>
मे क्</w>
मा कवे</w>
पार्त्त ु</w>
ला य
न िय़ा
टि क्स</w>
शि क
ना ची</w>
जੰ मू</w>
कूट्ट णि</w>
कु तियिल्</w>
शिशु देर</w>
चाम च</w>
शा ळा
प्पु कळै</w>
व चू
ब्ल ू</w>
प्पि च्च
टा स्</w>
कुटियरचु त्</w>
उ ऴै
८ ०</w>
व्या पक
बा थ
दॊ ंदिगॆ</w>
दु नीआं</w>
सिनिमा लु</w>
जहा ज</w>
अग्र ि
पर्य बे
न ड्डा</w>
आर थी</w>
वि ंग</w>
ल हान</w>
घट णार</w>
स त्
मा ई
ब री
एक क</w>
सो ं
मुटिया त</w>
पुस्त कं</w>
पारि बारिक</w>
चॆय ർ
रूप याण्</w>
बंद िल्ल</w>
डौ न्</w>
ख रा</w>
म ൽ
बना वी</w>
कर्म सूचि</w>
सब इ</w>
प्रशा ंत</w>
जद कि</w>
इ मा
सर ी
या ൽ</w>
त्त ल
राज्या तील</w>
फि ट
चॊ न्त</w>
देश भर</w>
चेसुकु न्नारु</w>
क्य ो</w>
बि ड
एऱ्प ट्टुळ्ळतु</w>
ब ंदो
कु जरा
आब दुल</w>
ੰ नी</w>
ञा ऩ
कार्या ल
उण्टा यिरु
आत ङ्क
मिक प्</w>
ब ळि</w>
तुटरु कयाण्</w>
उत वुम्</w>
प्र जा</w>
पाकिस्ता ने</w>
तु झे</w>
अ ऩ्ऱ
लो क्स
निर् धार</w>
गे लेन</w>
अ त्र
चमीप त्तिल्</w>
अ शा
विचु वाच
दिੰ दा</w>
व ंचि
मिळ त</w>
पद ार्
पृथि बी</w>
अज ून</w>
इ ल्</w>
आम ॆनु</w>
परमे श्वर
काय द्या
तै य</w>
का ल्</w>
ओबा मा</w>
म णी</w>
निर् देशों</w>
चॆ गॆ</w>
स्थि ती</w>
लोको नी</w>
जाहे रात</w>
ऎऩ वुम्</w>
प टुत्त
वच्च ि</w>
उ धर</w>
पो य
णि य</w>
स्पे स</w>
याता यात</w>
माडु वुदु</w>
कारण ेइ</w>
सामर्थ ्य
जा गृ
मंत्रि त्व</w>
प ट्टि</w>
न्या यिक</w>
े य</w>
त् ୱ</w>
वायु सेना</w>
भ ड़
इल्लि दॆ</w>
न ंद
गर ों</w>
बल छि</w>
दु ख
प्रति द्बन्
स् क्</w>
लि र</w>
लि क
मिलि आ</w>
त ल्लि</w>
जु ड़ा</w>
ए मां</w>
जरू र
स़ नल</w>
व्या धि</w>
आ ल्या</w>
एक् शन</w>
म् मा
बले इ</w>
अ दरल्लि</w>
दु लु</w>
हർ जि</w>
मि ने
आराय्च्च ि</w>
अ ൽ
ष् मा</w>
ऎ टुत्त
लोक्स भ</w>
p l
वरु किऱार्कळ्</w>
मनो नीत</w>
दक्षिणा फ्रि
जवा नां</w>
आप णीआं</w>
सिद्धा ंत
गोली बारी</w>
किलोमी ऱ्ऱർ</w>
च प
कार् मिक</w>
200 4</w>
व डील</w>
बी सी</w>
द्वि तीय</w>
श राब</w>
ळि गॆ</w>
माड बहुदु</w>
आए गा</w>
राख ेन</w>
करण ाऱ्या</w>
टे युं</w>
सलि दॆ</w>
टा प्</w>
इन्नि ंग्
क् ली
अ ह्
चौ थे</w>
अवर ॆ
अक्ष य्</w>
त ्पा
लागु त्तिदॆ</w>
रे डियो</w>
नय़ा दिल्लि</w>
ऎल्ल ो
म कान</w>
निर्ण य
दे वर
यु ऎस्</w>
देवा लय
ये उँ
चला ने</w>
उल किऩ्</w>
आ हु
मा क्क
तिट्ट मि
खे ले
वि लुम्</w>
त्तॆ क्कुऱिच्च्</w>
इरु क्कलाम्</w>
स्बप् न</w>
इ मे
पर ंप
अपकट त्तिൽ</w>
व्य ो
य़ िक</w>
अं शी
हा ट</w>
ऒतुक्की टु</w>
त्ति नुळ्ळ</w>
सहा इता</w>
मत्त ियिल्</w>
ऊ दी</w>
न ल्लि
कॊण्ट तु</w>
शीर् षक</w>
कम्प नि</w>
ऎंजि न्</w>
दर् जा</w>
तॊ लि
ऎं पि</w>
ले खन</w>
अद्देह त्तिन्</w>
आ कर</w>
समुदा य
यूरो प</w>
ने ർ
तो पाटु</w>
कि रि</w>
ना वि
बा जु
ता ः</w>
त ऱ्कु</w>
कळॆ दु
व टै
ता ड़ा
ईश् बर
ढ े</w>
ज़ ू
चु प</w>
दुर् घटनाय़</w>
क्कुन्न तुं</w>
पॆ ट्टा
आर ्य
वरु न्नु</w>
त स्
ओ वर
सब ेर</w>
ती सरी</w>
क्क क्</w>
मो र
प म्</w>
व ध</w>
कुऱि प्पाक</w>
उत् कृष्ट</w>
आय न
अतिक माऩ</w>
न प्पुडु</w>
ते ंदु
ह स्पि
कुऱिप्पि ट्टार्</w>
एकी कृत</w>
क्षो भ
सं गत</w>
ंट र्</w>
थ ार</w>
घोष णा
का ट्चि
सदस्य रा</w>
बा ता
वु क</w>
ज् बाला
आहत देर</w>
स ती
बि बरण</w>
परं परा</w>
देश दल्लि</w>
ण्ण ु</w>
उप ग्रह</w>
सं भाव
बलि दान</w>
पेछ ने</w>
राम य्य</w>
मै डीकल</w>
ल ए</w>
मानिल म्</w>
च िल्</w>
िया यिरुन्नु</w>
बा धा
पॊरुट् कळ्</w>
क नी
न्ना ൽ</w>
ं ध
समझ ा</w>
मस जि
ट ्यु
चाला नो</w>
अर् पण</w>
य़ नेर</w>
पुर ं</w>
तो प
स्वी कृति</w>
पारस्प रिक</w>
य ्या
पी एस</w>
एम एसएम
माहि ती
म ऴै
कि क</w>
इष्ट ं</w>
प्रत्ये कि
त वागि</w>
से मानङ्कु</w>
निङ्ङൾ क्कु</w>
पोशा क</w>
देखा य़</w>
ट मां</w>
कॊ ऱो
अमेरि कन</w>
ॆयि तु</w>
नी ल
चा त्तिय
१ ३
से ठारे</w>
ना णा
स्था यि</w>
लॆ याण्</w>
बੰ दी</w>
एफ आईआर</w>
तॆलु स्तोंदि</w>
प्प ऱ
ंच गा</w>
विला ऩ</w>
कटु मैयाऩ</w>
आसु न</w>
मत्सर ं</w>
पाल क</w>
इन् ऱർ
ञ्ञ त्</w>
ऎटु वंटि</w>
ने क</w>
वार्त्त ै</w>
प्ल ्या
इस् लाम</w>
ज ट्टु
अवर ो
हा गा
गां वों</w>
क्रम शः</w>
कम ल
विमान त्ता
ओ लंपिक</w>
सर्वि स</w>
प्रांता ल्लो</w>
कळु ण्ट्</w>
प्रका स़</w>
आता पर्यंत</w>
वैऱ स्</w>
मह ल</w>
उत् सु
ओय़ ार्ड</w>
ओय़ा ल</w>
ह ओय़ाय़</w>
मृत्य ू
अन्त त</w>
ते वी</w>
देशा ल</w>
व डा</w>
वि ण्यात</w>
ब्य़ब स्था</w>
चॆलु त्तु
झ ड़</w>
आस क्ति</w>
मुंबै ः</w>
निव ड</w>
पासे थी</w>
पि टिय
नग र्</w>
चिऩि मा
चॆन्न ै
उप लक्षे</w>
ती य़
सा डा</w>
इरा नेर</w>
नु ष्ठा
अरु ण्</w>
त्त ार</w>
चੰ डी
का टा</w>
ही न
वऴङ्क प्पटुम्</w>
ना नि</w>
कल्लू रि</w>
क मी
बल लाम</w>
र ्यं</w>
ർ ण
मो टे
य ारा
जि त्</w>
च रा
मिल ी
ब ध</w>
पिछ ली</w>
जी ल</w>
इ जरा
रा केश</w>
गव ൺ
डब्ल ्यू</w>
ल् म</w>
तुम् भ
ई आ</w>
रो स</w>
जन ते
उ जा
नती जा</w>
छ य़
क्का तॆ</w>
फु ट्
कर बो</w>
इब ्रीय़</w>
वि ले</w>
ल ष्
मद्द तु</w>
बार ेइ</w>
एसोसिए शन</w>
री आ</w>
भाज पा
अधि बे
क्क ारॆ</w>
हा लु</w>
निकऴ्च्च ि
राज े</w>
मिल ण</w>
दि नां</w>
प्पॆट्टि रुन्नु</w>
विटा मिन</w>
रे शन</w>
र नों</w>
बिल ु</w>
अन ै
अधि नेत</w>
सो नी</w>
वो र्</w>
वृ क्ष
स़ु रूआत</w>
वच ति
यो जित</w>
उप देश</w>
त्या च
एक् ट</w>
ब लुन</w>
तैय ार
इति नु</w>
अ त्
समझ ते</w>
लभि क्कुं</w>
पৰ ा</w>
कू टु
स्मार्ट ्
दृष्टि भ
छे इ</w>
श व
र मा
भर वस
बढ़ ते</w>
तॆरिवित्तु ळ्ळऩर्</w>
सम्प त्ति</w>
प्री त्</w>
क यिल्ल</w>
आनन् दित</w>
अशो क्</w>
संघ ർष
पढ़ ाई</w>
क्ष लु</w>
अ ੰदर</w>
पर्य वे
अ सोसिये
शु नते</w>
वु त्</w>
अभि मानि
ए नि
शा ला
ध राव
चेपट्ट ारु</w>
ची र
उ ंटारु</w>
स्वातंत्र ्य</w>
सत्य निषेधि
पार्ट िर</w>
क प्प्</w>
न्स र्</w>
इति मध्ये</w>
भारती यों</w>
नमु ना</w>
बु द्ध</w>
सके ंगे</w>
रहे ला</w>
प गले</w>
डाक् तर
इति नॆ</w>
यु द्धा
के ळु
नगर ं</w>
त लाक</w>
क्या ं</w>
साध्य त</w>
कॊ ऴु
का जेइ</w>
बह स</w>
ऩा ऩ</w>
छा ड़</w>
कठि न
ए म्
हासपाता लेर</w>
ष न्स्</w>
र प्ता
पर म</w>
सुविधा एं</w>
वॆळ िये</w>
अबसर रे</w>
12 :
वॆ प्प
मलया ळं</w>
फ़ ी
ज िया
केंद्र ों</w>
भा वं</w>
बि पर्य
ह ੱल</w>
पो ट
क्यारे य</w>
क ൺ
ज ङ्गि</w>
कव ऩम्</w>
उ ड़
बहु तेक</w>
कृत्रि म</w>
च माता
मा ऩि
मिळा ले</w>
ने ट्ट
अ ड्ड
रो मीय़</w>
नॊ प्पं</w>
ऑ र्
मी रा</w>
नू आ</w>
सॆ ल्
बि ऎस्</w>
चे स्तू</w>
घ रेर</w>
्ल ै
सं साधनों</w>
घ र्
ऎ प्पुडू</w>
अ न्नाडु</w>
जे ने
कॊ ळ
आ पे
अग्र वाल</w>
निऱु व
व ल्लि</w>
लाइ फ</w>
मॆ ट्रो</w>
चट्ट ं</w>
ची र्
सक लेइ</w>
दे वामां</w>
ग ർ
िय़े छिल</w>
फ िया</w>
दो स्त
त या
का ते</w>
हटा ने</w>
निवृ त्त</w>
मू डि
प्रकट न
वय ॆ</w>
ड मां</w>
का के</w>
कहा ः</w>
मिळि छि</w>
कु ळं</w>
म्या ने
मऩि तर्
खूब सूरत</w>
एन ू</w>
मशी न</w>
त टै
त के</w>
ट्टि गॆ</w>
च्चिरु न्नत्</w>
कऴ ियिल्ल</w>
सिकॊंडि द्दारॆ</w>
गोष्ठ ीर</w>
मुठ भेड़</w>
त्ति वॆ</w>
उल ट</w>
मिळा ला</w>
प्रवർत्त नं</w>
आरे कटि</w>
चर् च्च
व्यक् ती</w>
म िया</w>
ईसु ए</w>
ना ण
अत्त रं</w>
अटि क्कटि</w>
शु क्
आ मोद
शु भ्र
साव धा
अव सान</w>
ी य
मैंब रां</w>
न्ना लुं</w>
छा त्री</w>
कार्य्य़ ा
प किर्
निऱैवे ऱ्ऱ
नि ती
ध्य े</w>
उपे क्षि
इ ंदु</w>
आ च्च
विऴा विल्</w>
प्ला स्टिक</w>
ढा कार</w>
जन म</w>
ओ ल
C O
संभा वित</w>
से फ</w>
लोक् सभा</w>
म कारा
प्रतिनि धियों</w>
ड ना</w>
मौ ल्य
ञ ॆ
हा मि
रूपा य
बल बे</w>
ो ए</w>
फ ्ऱ्ऱ
ली ग्</w>
पं चा
जो त</w>
वे ब</w>
ऎति रा
ंच बडिंदि</w>
शे खर
बन् धन</w>
चॆय्य प्पट्टु</w>
9 4</w>
ड स</w>
टी मु
मुतल मैच्चर्</w>
कार णालु</w>
वै क्</w>
2 3
स् के
द कु
चे न्ना
सुन् दर
पछा ण</w>
नम्पि क्कै
बर करार</w>
परि बह
स् लो
सम्मुख ीन</w>
सब किछु</w>
वे सि</w>
जता या</w>
अं टु
वऴ ङ्क</w>
कमिस़ नर</w>
मह िल
म द्दे
दिੰ दे</w>
क्या न्
उट ऩ्प
मे र
परिक्के ऱ्ऱ
जी वि</w>
कੰप नी</w>
मान ब
बै बिलु</w>
मॆ ंट
नि ट्टि
ला गी</w>
ट्ट ॆ
जार् मान</w>
वे ग</w>
माम लिआं</w>
अऱि मुक
निउ जिल्या
ल ड़</w>
वाराण सी</w>
नम स्
वाग लिदॆ</w>
बो धि
जै व</w>
एम ओ
विक्र म्</w>
नार ीदेर</w>
मी ताऩ</w>
अम् मा</w>
द लित</w>
ज य्</w>
ना ना
तिरस् करि
ऎ प्प
२०० १</w>
कमि शनेर</w>
ऑ क्
संप न्न</w>
ब ർ</w>
स़ हि
ले क
B J
प्रणा ळि
पॊली सरि
पड ॆय
व ण्ण
ङ्ङळा यि</w>
अ्या ल
प्ल ो
ह च्छेन</w>
स़ क</w>
तार ण</w>
बिज नेस</w>
क्क ळु
आस ल</w>
ध् ब
मि ൽ</w>
क्का नाण्</w>
उयർ न्न</w>
वरु त्त
उङ्कळु टैय</w>
बक्त ृ
गु रि</w>
बै ज्ञा
कुमार ुडु</w>
अखिले श</w>
ज ज</w>
इत ऱ्काऩ</w>
ना हा
हर्ष वर्धन</w>
वच्चा यि</w>
च्चि रिक्कुकयाण्</w>
बं धु
च म्म
हीरो गा</w>
स स्पॆ
खा ण</w>
कश्मी र
स् ः</w>
सर ळ
मा हीत</w>
खे ड</w>
आमेरि कान</w>
हॆ च्च
वि ले
य रू
ब्य ৱ
उൾप्पॆ टॆ</w>
घा त
दा स्</w>
क् लब</w>
इं स्टी
मु फ्त
मध्य प्रदेश्</w>
धा ं</w>
चिकिॎ सक</w>
ध ं</w>
अप घात</w>
सं ग्रहण</w>
नि ੱ
क्क त्तै</w>
हइ ते</w>
कुऱै न्त</w>
हा स</w>
सा इन</w>
नम्म ॆ</w>
टे निस</w>
पा ं
ऎ त्ति</w>
बै रल</w>
मेडि क्याल</w>
तलै वर्कळ्</w>
अऱ स्ऱ्ऱिൽ</w>
सर् जन</w>
सब को</w>
अब दान</w>
नियम सभा</w>
ड ुं</w>
चतवी त
ऱि नॆ</w>
क्वार ्ट
कळु मायि</w>
्ल नु</w>
वैद्य ु
ल ्ये</w>
मुੰ बई</w>
कोह ्लि</w>
कोण ताही</w>
द्द वु</w>
बो झ</w>
प ब्ल
न च्या</w>
कॊनसा गि
नडॆ दि
तेओ ए</w>
पाकिस्ता न्</w>
नु सरि
अ प्र
स्बी कृति</w>
चिं ता
अनि पि
फ्रा न्स</w>
ज़ ों</w>
च्चि रि
ए थ
च पै</w>
ए नो</w>
र िय़ा</w>
कोळे ज्</w>
आरोग ्या
तंद ॆ</w>
प्पॆटु न्नत्</w>
चॆ न्नागि</w>
कॆ ट्ट</w>
करु टॆ</w>
ंट र्
0 5</w>
सृ जन</w>
समस्य लु</w>
पे क्ष
दाय़ि त्ब
उपा यों</w>
I D</w>
बुद्धि मु
पट प्पिटि
ब य़े</w>
क्कुन्नु वॆ
पुੱ तर</w>
दा बि
उरुवा क्कु
विवे क</w>
काम याब</w>
अल्लाहुवि न्ऱॆ</w>
ग्र हि</w>
का ऩ्</w>
पट ङ्कळिल्</w>
विशेष ज्ञ</w>
त्त क्क</w>
क ैयै</w>
स्टे श
मनी ष</w>
फाइ नाले</w>
जा मिन</w>
ड ब्
गणे श</w>
ंग ल</w>
हा ले</w>
प सार</w>
नि जर</w>
बंध क</w>
च ळ
जी वा
ं बित</w>
सु लो</w>
बिश्ब स्त</w>
बि ग्</w>
न्नति ൽ</w>
मे ൽ
प्पि क्कुकयुं</w>
धरा वे</w>
सरकार के</w>
बढ़ा या</w>
ऊ ंचा
इत्त कैय</w>
ह ार्</w>
कि ब</w>
परि श्रम
नो य्
स्पष्ट ं</w>
साम् प्रतिक</w>
चम ची</w>
काण ्पि
ख ण्ड</w>
कुऱ्ऱ वाळि
विदि आरथी</w>
पक ड
पंजी करण</w>
सർव कला
वाई ट</w>
फ़ा इल</w>
झु ठ
रा धिक</w>
भो पाल</w>
फॉ र</w>
वा धा</w>
पूർ ण्ण
इरुन्ता ल्</w>
अनु राग</w>
प्पा टु</w>
इ दु
पार्त्त ु
आफ्रि कार</w>
सू ची
इतु वे</w>
वा ंग</w>
आब हा
चेय लेदु</w>
है कोर्टु</w>
स्ट न</w>
भा इयों</w>
वृ त्ता
्त ी</w>
ले रु</w>
मध्य प्रदेश
तरी ही</w>
ख्रिस्टा न</w>
व स्तुंदि</w>
ग़ ा
गबेष णा
अधिकार ़्या
स्थल त्त्</w>
मल ्ट
आग मन</w>
आ ंग
मेळ वी</w>
अण ियिऩ्</w>
सा न्
वि देस़</w>
देशा लु</w>
गो पन</w>
ऱൺ स्</w>
बडु तुंदि</w>
प्रवृ त्ति
अ दे
उपा धि</w>
लाग छे</w>
ब धी</w>
जा न्</w>
चू डा
ऒऩ्ऱ ुम्</w>
मुऩ्ऩ णि</w>
पोयि न</w>
दे री</w>
चो प्रा</w>
क्कार ुं</w>
अधि सूचना</w>
मि क्</w>
न्न ता</w>
रि श
निർ देशं</w>
कंप्यू टर</w>
हुम कि</w>
सा मु
सबੰ ध</w>
हॆ च्</w>
पिर पल
जा णे</w>
करा याइ
ये गुलो</w>
कमिश नार</w>
9 3</w>
जबा बदारी</w>
मा यिरिक्कुं</w>
प्ट र</w>
7 :
ऒ करु</w>
ॆ न्न</w>
वेग ंगा</w>
ख्रि स्ट
चलच्चित्र े</w>
मा कक्</w>
कॊळ्ळु ङ्कळ्</w>
अटिप्पट ै</w>
पर लोक
के ट्टु
हो र
कार्या चर
कु नु</w>
ष ्पा
त को
मू ळ</w>
ता यिरुन्नु</w>
वी ट्टिल्</w>
देवु डु</w>
अम र</w>
ऩ ्त
पिर का
ष्य ൻ</w>
दिन इ</w>
इत्ति ट्ट
शु न
निवे दन</w>
उ स्
रा य़
तब ु</w>
मु ले</w>
क त्तै</w>
इस ब</w>
दा डि</w>
चुनाव णा</w>
उ ल्लि
मावट्ट त्तिल्</w>
ट्च िय
घनि ष्ठ</w>
अव स्था</w>
२०० ७</w>
इल्ला मल्</w>
a s</w>
यक़ी नन</w>
नो ने</w>
प टे</w>
केउ इ</w>
f or
वैऱ ला
कहि णा</w>
कल् वि
ऎम्मॆल्य े
अव् वाऱु</w>
सिरि ज</w>
वऴ क्कुप्</w>
री ण</w>
विमानत्ता वळ
बो लत</w>
केट लीक</w>
इलट्च म्</w>
ते ही</w>
इ नाम</w>
वाऴ् क्कै
व ऱु
लोको ए</w>
फ्ल ै
मुला ज़
फ्ट ि
पारि बे</w>
दा डु
जी ती</w>
अभि भाब
रिली ज्</w>
पॆऱ्ऱ ोर्</w>
न क्
उ इल
जो ड़</w>
्या ने</w>
इक ट्
वि निर्माण</w>
अ्या काउन्
एन ए</w>
राज दूत</w>
त्तो ट्</w>
ंत ह</w>
भी ष
श्च ि
परवान गी</w>
कॉ र
सा यि</w>
स्ऱ्ऱ ु
मो चन</w>
मुऱ्ऱ िलुम्</w>
मुख पात्र</w>
उ मीद</w>
अवु गळन्नु</w>
तै त्</w>
कण्टॆ त्ति</w>
सां प्रदा
र य़े
व् ह</w>
शक्ति र</w>
तृ प्ति
विमान ं</w>
मो टार्
आद्य त्तॆ</w>
सम स्
ब्यू रो</w>
अड् डे</w>
निल निൽ
आ धी
पहो ंच
ियि रिक्कुन्नु</w>
या दी
अजू नही</w>
1 1,
प्रांत ंलो</w>
ज् जा
गरी बी</w>
ऎं पि
के नना</w>
पब्ल िक</w>
ऊ रा
उद् देश</w>
इ ऩ्
8 :
सं कट
रो ह</w>
अं ते</w>
संवेदन शील</w>
प्पत ऱ्काक</w>
इ बरा
ंतर ण</w>
मर णा
ची जें</w>
क्री डा</w>
ऒ न्न्</w>
अर् थे</w>
ब ंड
ज बरदस्त</w>
गळ ुः</w>
ऎऴु ति
रा शि
फू ड</w>
आ शी
ह नः</w>
थाक बेन</w>
खा लि</w>
शिव सेन</w>
रहि ब</w>
र ज़</w>
घ ट</w>
महिला देर</w>
ना के</w>
कै सा</w>
आइ नि</w>
सु श्री</w>
दिल्लि ते</w>
उत् साह
योग ेर</w>
त्ति द्द</w>
ऎस्ट ि</w>
ं बि
सन् नि
प्पु क्</w>
ते ज़ी</w>
सार ख्या</w>
दाय़ क</w>
परिष देर</w>
संख्या मां</w>
तर बे
गा नेर</w>
आ लि</w>
रज ू</w>
त्तु क्कुम्</w>
आ ण्टि
सह ज
बैं किंग</w>
शी त
मोद ियुटॆ</w>
मूल भूत</w>
े रि</w>
मनु ੱ
क्कॊ ण्टि
धो र
क्क ळुटॆ</w>
मिल्ल ियऩ्</w>
विट्ट ऩर्</w>
अल ं
म नु</w>
भौ गो
स हन</w>
आ नी</w>
रि चर्
मुलज़ मां</w>
क यु
आसे नि</w>
विरु तु
दाख लु</w>
मेय़े देर</w>
इ वि
पुर म्</w>
संदी प</w>
बिरो धरे</w>
पॆट्ट ारु</w>
ह र्</w>
परि मि
त प
ज य़ी</w>
गाय गॊंडि
अ हे
चु ने</w>
ॆटु त्ति
हु कम</w>
ह ੰ
की आं</w>
नु ऴै
उण् मैयाऩ</w>
ৱा ৰ</w>
एऱ्प ट्ट</w>
ऊ ट</w>
वे ंद्र</w>
प्प ुं</w>
स ख्य
मा द
दुष् कर्म</w>
ऒ ट्टु
त से</w>
ङ् ङ</w>
तॆ ऱ्ऱा
गांगु ली</w>
मी तुम्</w>
ना नो</w>
त्तु च्</w>
उत्स व</w>
प्पु त्</w>
पर ी</w>
त ੰ
कं ट्रोल</w>
क तार</w>
आई ए</w>
सी धा</w>
जय पुर</w>
ं बा</w>
फु ट</w>
निर पेक्ष</w>
घा ती</w>
गा म</w>
३ ७</w>
कुऱ्ऱ च्चा
मरो सारि</w>
तू र्
अपरा धी</w>
विद्यार्थ ुलु</w>
नी तियों</w>
ना टि</w>
दु रि
ब्यां कु</w>
द् दे</w>
स्टे शन
नलु गुरु</w>
लि रुन्तु</w>
सु त्तवॆ</w>
सिनिमा कि</w>
सचिवा लय</w>
तॆरिया तु</w>
स्ट ॆ
अ मारी</w>
िल्ला त्त</w>
सलि द्दारॆ</w>
ऎन्निक लु</w>
उण् मैय
अवु तुंदि</w>
पृ ष्ठ</w>
स्टे ट्</w>
चੰ गा</w>
इन् डि
तब दी
कार्प ॊ
डि य</w>
इं ल्यान्ड</w>
प्रो से
स्त ्रा
बाय बल
न् ल</w>
इੰ टर
मु टि</w>
ज़ा हिर</w>
हा ती</w>
मुझ से</w>
इं स</w>
सन् मान</w>
कार ड</w>
नाय िल्ल</w>
ण ार
प्रशास नेर</w>
अ म्प
ष िय
वैज्ञानि कों</w>
छ त्र
बिश ्ले
ऒ न्ना
रा म्
पार् वै
न वां</w>
ता य</w>
भा गि
व ऩा
जला श
ई ग</w>
मि डि
पा ൽ</w>
चेष्ट ा
प्रति सन्
मुम्प ै</w>
पंतप्रधाना ंनी</w>
उपकरण ों</w>
प्रति फल
पत्र ं</w>
नटि ंचारु</w>
च न
स काल</w>
वाट ते</w>
गा डु</w>
े ने</w>
व्यव साय
मार टम</w>
हाजर य्यारु</w>
य़ ेन</w>
महा मार
कि नारे</w>
बह नों</w>
उ ऩ
ब च</w>
क ट्ट</w>
अन लाइन</w>
अ ता</w>
पर्या य</w>
दे गी</w>
चाह िये</w>
क यो</w>
अवरि टम्</w>
से तु</w>
सह कार
पिऩ्प ु</w>
ग्री न</w>
आ य़</w>
वड िला
ळ िल्</w>
मि ऩ्
इन का</w>
बिरो धी
क क्षा</w>
नॆरु क्क
कोट्ल कु</w>
ऐੱ म</w>
इंटर नेशनल</w>
सम य़इ</w>
वि टी</w>
नम् र</w>
स ण</w>
ट ङ्का</w>
सिनिम युटॆ</w>
दिल ों</w>
ट्ट ्
था क</w>
इला ख
या लुं</w>
तो मस्</w>
कोम्पा नि</w>
सै ना</w>
लोका ंनी</w>
कु न</w>
p ro
बल म्
कळा ऩ</w>
ंच ॆ
b h
बार ्ता
फ् त</w>
त्तुट ർन्न्</w>
क्कुक यिल्ल</w>
क्क ैयुम्</w>
च्याम्प िय़
ल इ</w>
ऱ िली
के ट्टु</w>
टा ई</w>
च्याले ञ्ज</w>
पੰ च</w>
लां बा</w>
ार म्</w>
दा यी</w>
कै कळ्</w>
मि ंग</w>
निल पाट्</w>
परिहार ं</w>
झा लेली</w>
प ऱ्ऱि
माह मु
जब त</w>
ब्रि क्स</w>
पोस्ट र</w>
आ री</w>
अग्निश मन</w>
३ ६</w>
चेअर मैन</w>
वऴ क्किल्</w>
नॆ ंदु</w>
करवा या</w>
सै न्यं</w>
क्कॊ ण्ट्</w>
उद्यो गा
ळु कൾ</w>
उद्घाट नं</w>
वि चों</w>
प त्ति</w>
प्रत्या ख्यान</w>
दा ख़
लोक देर</w>
सु नी
श रूआत</w>
स ൺ</w>
प्र योजना
ग इ</w>
स्थळ ीय</w>
सा ँ
व लिय
ल डा
ब्यापार टा</w>
हि तों</w>
सि ड</w>
को लु
पिरच्चि ऩै
इन्ड िय़ान</w>
प्रे क्षि
क्ला स</w>
अवर् कळिटम्</w>
सौ ं
पल त्त</w>
नट त्तियत्</w>
बाणि ज्यिक</w>
इउरो पीय़</w>
गुड़ िक</w>
क य्य
न प्पटिकी</w>
द लि
ओ वर्
लि खिआ</w>
मर त</w>
पॆ ङ्कळ
अ मृ
ट्ट िय
क् टी
ता लू
गवर् नर्</w>
केसी आर्</w>
वरि कयाण्</w>
राज न</w>
बेड़ ेछे</w>
पीयू ष</w>
चट्ट ग्राम</w>
गुर्त ु
स् बे
वा क्कु</w>
जि क्र</w>
ले शन</w>
पी ने</w>
बिस्त ृत</w>
गु डि
ओ टा</w>
ऐ टि</w>
अगत्य विदॆ</w>
तिय ल्लि</w>
टार् क्</w>
ऎन्त ॆङ्किलुं</w>
्या ंना</w>
हा कु
लिमि टॆड्</w>
प्पि क्कुन्न</w>
ं की</w>
भ ्</w>
प्पु क्कु</w>
नी ला
नर् जी</w>
टा ना</w>
लय ्यायि</w>
द मन</w>
ऊ टक
सं कल्प
ऊ क्कु
वेग वेगळ
चा लो</w>
कना डा</w>
an g
य़ ता</w>
ल ्यू
निर् धरि
ए जੰ
ॊ ळ
सह योग
मू वरु</w>
नटि ंचिन</w>
च ळा
फे ला</w>
कॊंडि दॆ</w>
आम र</w>
बी मार</w>
इ चै
नाहा न्ति</w>
विस्फो ट</w>
पि ळ
ज्ञ ों</w>
नायक ൻ</w>
तॊऴिला ळि
जा मी
कमि ष
उपलब् धता</w>
सम् मिलित</w>
यश स्व
मे लेनि</w>
ताऴ ॆ</w>
बिषय़ गुलो</w>
प्रति मा</w>
एयर पोर्ट</w>
अव श्य
प ർ
द य़ा</w>
ज़ ल</w>
म्प र्</w>
छ ੱड</w>
आय कर</w>
पੱ तर</w>
प्रती क्ष
पयऩ्प ा
पा श</w>
सि इ
ट्र ्या
कै या
पाक्कि स्थाൻ</w>
न थि
चेसे ंदुकु</w>
ई न्ड
पाक्कि स्था
सब् सि
म छ
भा वा
बिश् बे</w>
प्र िया</w>
18 0</w>
नाम ॆ</w>
स़ त</w>
कण क्का
व ण्यासाठी</w>
तिट्ट ङ्कळ्</w>
चाहि दा</w>
मस् जिद</w>
तरी कों</w>
टॉ म</w>
कार खा
10 5</w>
भारता चा</w>
ट्र ॆ
ंदु लु</w>
य़े न्
नट न्नु</w>
आमन्त्र ण</w>
एके बारेइ</w>
म् य़ा
तॆलिय दु</w>
नि ऊ
जाए ँगे</w>
इ वर</w>
ं ट्स</w>
हा उ
श िया
यन् त्र</w>
मु श
डा क
ंड न</w>
घट णारे</w>
सरि ह
अंच ना</w>
मूल्य ों</w>
ऒऩ्ऱ ै</w>
9 0
पसੰ द</w>
इउन िय़
रो क
मा काण
चा च
ङ्ङळु ण्ट्</w>
पू रै
द्र ुत
ण् डा</w>
कटि ऩ
सथा नक</w>
वारा ं</w>
मनो हर
नीड लागिदॆ</w>
उदाहरण स्बरूप</w>
अऩै त्तुम्</w>
भे बे</w>
करा याउछि</w>
त म्प
बा ला</w>
बि धि</w>
प्रत्ये क
ज़ि म्मे
सारि आं</w>
साधि ंचिंदि</w>
ल घु
यो टु</w>
बी र
पत् थर</w>
जा तात</w>
कर्त ारा</w>
क हो</w>
ऱ ियां</w>
न् थी
तु न्ना
करि बार</w>
ऒ के</w>
क्ला ब</w>
अनु करण</w>
ी टु</w>
H ome</w>
स य
रि कि</w>
ये कोनो</w>
डिय ल्लि</w>
हाय ला</w>
फाय दे</w>
कत टा</w>
कोह लि</w>
ू नच</w>
हि म
सुधी मां</w>
वाग लू</w>
लिय न</w>
विनियो ग
ह ट</w>
वै वि
मा छ</w>
म ल्ला
त्व चा</w>
निय ु</w>
गा लि
सु पारि
निय़ र</w>
आंदोळ न</w>
स्य ु
विस्तार मां</w>
टी चल्</w>
अ विट
झा ल्या</w>
जवा ब्
ज ड्
अ सुस्थ</w>
चु व
हॊंदि रुव</w>
वेस्ट इंडीज</w>
मण्ड लीर</w>
ए टिके</w>
ऩ ु</w>
च वा
अब स्थार</w>
e v
स्थान रे</w>
घु रे</w>
ख़ु स़</w>
नग दु</w>
बि न्द</w>
क्या मॆ
आ कलन</w>
10 :
स्वाभा विक</w>
शिक्ष ित</w>
ट्र ॉ
फ ्यू
क ण्ट</w>
आरथ िक</w>
नो टी
राजकी या
आ फी
वच ऩ
पिൻ वलि
पारु ङ्कळ्</w>
५ ००</w>
अ ङ्के</w>
वार दात</w>
शि ब
विनिम य</w>
मृ ग
ण मॆन्न्</w>
उन् ड</w>
उ दार
ग न
कॊ च्च
पा जि
अत ै
व न्नत्</w>
न्न तुं</w>
यॆ रू
चु ऴ
आग्र ही</w>
गान् धि
कৰ क</w>
खु नेर</w>
व शा
प्रति ज्ञा</w>
प्रति कळॆ</w>
ऎऩ्ऱ ाऩ्</w>
पिर तिनि
कुटु म्प</w>
मत्त ॊंदु</w>
उं टे</w>
मन्त्रा लयं</w>
दिग के</w>
इरु क्कु
समर्थ क</w>
भारत क्कॆ</w>
रूपा यि</w>
मरि च्चत्</w>
को नी</w>
स्मार्ट ्</w>
बा ड़िय़े</w>
केन्द्र ेर</w>
इ थ
्य ो
ता ळ
ज नेइ</w>
बि भक्त</w>
फ ्री
चॆय ल्</w>
क्री डा
स्कू ൾ</w>
तॊऴिल्नु ट्प</w>
तख नइ</w>
उट ल्
रि मै</w>
च म्</w>
व्यव हारा
मळ ्या</w>
गु त्तिदॆ</w>
छु ट
ऎस्य ू
आसा मि
लि ंग्</w>
बल ले</w>
फे स</w>
उद् बोधन</w>
इ छि</w>
आफ गानिस्ता
माध्य मातून</w>
दाय़ ू
ऎंऎൽ ऎ
से दारी</w>
मजबू र</w>
ना कार
कु लकु</w>
इल्ला त</w>
आजा दी</w>
आकर् षक</w>
ला ंच</w>
पवु ल्</w>
निर्देश ना</w>
ता कु</w>
त िलो</w>
च टु
खास गि</w>
अफि स</w>
ड ल
ी क</w>
नाथ न</w>
ऐ पी
आलोच नार</w>
अनु सन्धान</w>
अ तॊरु</w>
सार खे</w>
लाइ ने</w>
गा व</w>
नी क्कं</w>
तामिल ना
ऎ विटॆ</w>
हे ल
जे पी</w>
सार ुं</w>
परिष् करि
ग भर्
आय ु</w>
र ष्या</w>
कु ੱल</w>
मत ं</w>
दौ ड़</w>
कृत ज्ञ</w>
आए गी</w>
सतर् कता</w>
त क्क
च क
करू ंगा</w>
कॊल्ल प्पॆट्टु</w>
सिंगा पुर</w>
वाढ त</w>
पॆ र
आन न्द
आ द्रॆ</w>
हॆ ग्
ह ल्ला</w>
र सो
ति रा
पर्य टक</w>
का द
er s</w>
सि स
सदा प्रभु</w>
न्न व
तॆ रु
क ऱु
हॆ सरि
मा इल</w>
ब डे</w>
उपयोगि च्च्</w>
िलॆ त्ति
तॊ टा
हु सैन</w>
तो र</w>
अ हु
ं त्</w>
फो ट्टो
कोर्ट मां</w>
साम नो</w>
णा यक</w>
लੱग दा</w>
कुऱ च्च्</w>
त ੱ
ख ण्ड
नो ंद</w>
से हि</w>
तल िल्</w>
अम रि
तुट क्क
व ्रा
ल् डर</w>
प्र द
मा ऱिय
ग ड्
झु ँकि</w>
उळ्ळ ा
विद्यार्थ ी
यश स्वी</w>
अੱ गे</w>
अत निकि</w>
सु ब्र
है रान</w>
व त्</w>
पाछ ळ</w>
प ङ्कळि
आई एम
ट्ट े</w>
चांग ली</w>
किंग् स</w>
ल द्दा
ख निज</w>
४ ५</w>
बा छा
बह ळ
से ंट</w>
साम्रा ज्य</w>
व ंद
भे ंट</w>
दे व्</w>
च वु
ग न्</w>
क्किट यिൽ</w>
जस्टि स्</w>
ऎऩ्ऩ ुम्</w>
अ रे</w>
वी तं</w>
उप मुख्यमंत्री</w>
आम तौर</w>
र ही
प ्य</w>
ना चे</w>
स्पर् श</w>
दा नी</w>
श्रे णि
रे ल्वे
उयि र्</w>
अ मने</w>
iv e</w>
निर क्क्</w>
अल्लाहुवि ൻऱॆ</w>
C A
निष् कर्
उत्पा दि
ल्ल दॆ</w>
ऎल्ल रिगू</w>
टी य</w>
ए खानेइ</w>
स् सु</w>
मु त्त
महि मा</w>
नट न्तु
दिव ंगत</w>
प्रो ग्रा
ठ हरा
इर ण्टाम्</w>
आत्म निर्भर</w>
स्ता मनि</w>
तॆरकॆ क्कु
का छा
स़ा ंती</w>
स़ा मिल</w>
सश क्त</w>
ड र्</w>
जान ने</w>
े नु</w>
योज ने
बा ं</w>
आर बीआई</w>
रे स</w>
न्यू ढिल्ली
दु खा
तेंदु लकर</w>
क्कप्पट्ट ऩ</w>
ह त्य</w>
तलै मै
ण्ट िल्</w>
मा दक</w>
नो क्कि
द्दा ं</w>
प ती
सं सद
विविध ता</w>
ज ॉर्
प्रश स्त</w>
तरु म्</w>
आ क</w>
पर् व
वु मिल्ल</w>
भा स</w>
ब्रह् म
केन्द्र े</w>
ईं धन</w>
अंद रिकी</w>
र वी</w>
ड ेन</w>
ब्या टिंग्</w>
नु व्
हीरोयि न्
पुरुष ों</w>
स्प ेन</w>
संबंधि सिदंतॆ</w>
मेख लय
मू न्ना
या च</w>
रूप युटॆ</w>
मा ही</w>
ग ली</w>
वै शिष्ट
वं श</w>
म ळि
व् हे
पी ट</w>
सीए ए</w>
शास्त ्रीय</w>
श ार्
यूनि ट</w>
चे स्तोंदि</w>
ऎम्मॆ ल्ये</w>
ियि रिक्कुन्नत्</w>
म ्यु
बता ई</w>
क न्ना</w>
प्पि च्च्</w>
दे ननि</w>
ज़ गार</w>
शा स्त्री</w>
ग भी
हि तोप
प दी</w>
से वॆ</w>
मू ट
न् डा</w>
अं शे</w>
रो कथा
ऎटु त्तुक्</w>
औ पचारिक</w>
वि गॆ</w>
ड वामां</w>
कम रे</w>
प्प ळ्ळि</w>
नेता क्कൾ</w>
इरा क</w>
श्र ू
विट म्</w>
फि के
नार ी
मि ट्टी</w>
कृत ज्ञता</w>
विरु तु</w>
वाह नं</w>
गण ्य</w>
ख न्ना</w>
14 4</w>
स् मर
जिज्ञा सा</w>
कळ्या ण्</w>
साम ग्र
आज के</w>
ध ੰ
उन् हीं</w>
मोकाब िला</w>
मि क्स</w>
खा लि
कण क्क
डु नु</w>
का ई</w>
आव ार्</w>
यहोवा च्या</w>
मु ऩै
मुल गी</w>
उ ट्
व्या पि
मक्क ळै</w>
t r
पाकि स्थान्</w>
दुर् बल</w>
क खन</w>
अळ वुक्कु</w>
हाम लाय़</w>
मੰ न
क क्क
शा ळे
मन ॆयल्लि</w>
ंदि ः</w>
जग हों</w>
घा ट
प्रक्र िय़ा
ज लेर</w>
चो क्क
सा दर</w>
ब सा
त्ता ऩ</w>
ज नित</w>
कम ्युनि
7 9</w>
दॊ र
जे ला
रु चि
थ ्र
स्वर् ग
प्रतिष्ठा नेर</w>
आञ्च लिक</w>
बर् ध
गो गो
प्पु ऱ</w>
जर् मन</w>
के ष्</w>
मेघा लय</w>
तार का</w>
रोकथा म</w>
नी ळ
ंग ं</w>
प्रा णा
चाइ ते</w>
रसा यन</w>
बाब त
अति ൻऱॆ</w>
वर विल्लै</w>
ती मथ
ड ्रि
क चे
ी व्</w>
उ टै
संस्था ओं</w>
म सा
उंड े</w>
आमॆ कु</w>
फे टाळ
प्पा ळर्</w>
धु निक</w>
ते टु
जरुगु तुंदि</w>
विस्त ारो
नट क्कुन्न</w>
सर ैन</w>
बना ते</w>
ऒ ट्ट
रो गी
ए तु</w>
सु परी
मु आव
मु ँ
द त्त
श मी</w>
या वुदु</w>
मद्दे नजर</w>
ञ ङ्ङळॆ</w>
गिर लिल्ल</w>
श् ୱ
रि ंग्</w>
बंग्ला देश्</w>
नि कुति</w>
त्ता य</w>
उपा दान</w>
नाम करण</w>
कम्पिउट ार</w>
सा गि
प्पु प्</w>
दिने श</w>
उपा ध्या
डिय न</w>
केप्ट न</w>
शौचाल य</w>
न्न तु
तॆ रॆ
आट गार
बु रे</w>
पद् म
उ ൽ
सफ रे</w>
मु नि
इन्त्य युं</w>
लद्दा ख</w>
न लि
क्कप्पट्ट ार्</w>
ऎ वि
सिद्धा न्त
तॆरञ्ञॆटु प्पिൽ</w>
ढा ंचा</w>
सन मान</w>
ंत ं</w>
य़े इ</w>
घ ी</w>
अ नु</w>
सੱ च</w>
प्रति साद</w>
च तवि
अ तीत</w>
मरण म्</w>
क त्ता</w>
निका ला</w>
खे लाय़</w>
अव ळु</w>
सं चालक</w>
श्रेणी र</w>
वत ऱ्कुम्</w>
नൽक िय
ट्वि ट</w>
इरुप्प तु</w>
इ ङ्गि
ज़ख मी</w>
की करण</w>
का न्त्</w>
सि दरॆ</w>
अ हिम</w>
मङ् गल
न पर्</w>
मति प्पु</w>
प्रति कूल</w>
मत्सर त्तिൽ</w>
ने रा</w>
चू क</w>
गो ळी
वी र्</w>
दा ळि</w>
ख्री ष्टा
एक देशं</w>
्च ु
हइ बे</w>
तु ऩ्प
द्बी प</w>
जीवन मां</w>
ग्रन् थ</w>
भ्र ष्ट</w>
बेठ कमां</w>
इयक्कु ऩर्</w>
ह ियों</w>
ङ्कळु क्कुम्</w>
ह सन</w>
वरु न्नत्</w>
पा ध्याय़</w>
ऎन्नि ट्टुं</w>
ति टी
एसे छिल</w>
हजार ों</w>
सि ऱ्ऱि</w>
अवर् कळिल्</w>
सा नु
इ वർ
200 1</w>
पूर् वा
उप न्यास</w>
अस तील</w>
विषय म्</w>
होइ थिले</w>
हो गि</w>
सू बा</w>
प् र</w>
बड् डा
20 20
भ क्ति
सु द्दि</w>
च क्त
म्प िय
उन्न यि
अत ॆ</w>
जिते ंद्र</w>
जि ः</w>
किऱिस्त व</w>
अव लोक
तॆ ङ्किलुं</w>
चॆय्तु ळ्ळतु</w>
प णा
देश मुख</w>
अल्ल ु</w>
लि ः</w>
काछा का
यु टॆयुं</w>
क्कॊ ण्टु
कार्पॊ रे
कर न्नु</w>
य़े त</w>
नो इ</w>
चॆय ल्
से हि
ला ख
रत् न</w>
बास्त ब</w>
को टा</w>
सुधार णा</w>
मूल माक</w>
इरु तय
अङ् की
पॊ ंदि
टुइट ारे</w>
न् सी</w>
15 0
लु नु</w>
पोरा ट्टम्</w>
तसवी रां</w>
एऩॆ ऩिल्</w>
अफि सार</w>
ार् थि
च्च ॆय
लो त</w>
ि ൽ</w>
गे र
सੰ सद</w>
प्रदर्शन कारियों</w>
के बळ</w>
अर्था त्</w>
2 2
परि पाटि
जो न</w>
जाण ो</w>
ग लु</w>
क्री ड़ा</w>
इत ऱ्काक</w>
अत नि
समੱ सिआ</w>
विषय दल्लि</w>
बर्त न</w>
कळा यि</w>
से इसङ्गे</w>
पुरा नी</w>
रू न</w>
गुजरा त
विका सा
पतिल ळि
वर ही</w>
चा हुੰदा</w>
इ च्छे</w>
अन न्त
सरकार च्या</w>
सं घात</w>
ऋ षि</w>
र् मन्</w>
प्रका शन</w>
पोर् ट
ऩ ोम्</w>
टी आर्ऎस्</w>
चा ऩ्ऱ
किछु र</w>
ओ गे</w>
निमि ष
थ वा</w>
कु वि
ऐ कट</w>
गा इ
वे दी</w>
वर ैयिल्</w>
रूप ं</w>
हितोप देश</w>
ज ंग</w>
बय टकु</w>
जि ंग्</w>
उद्यो गों</w>
वित माऩ</w>
त्ता ൽ</w>
सन्तान देर</w>
चॆ ऩ्ऱ</w>
सा थियों</w>
वॆ ः</w>
ए ंड
सा जि
व ताल्</w>
पर् ब
तम तु</w>
कुमार ु
काष्मी र्</w>
सा न
लभि च्चु</w>
टाइ प</w>
च्चु कॊण्टि
चा ंदी</w>
खेलोय़ा ड़</w>
e x
शा डु</w>
वु दे</w>
बिष य़ेर</w>
कमि शन
इन्न ॊंदु</w>
हर् ष</w>
बि ट</w>
ॊ ब्ब</w>
सेरि सि</w>
ब्या ङ्क</w>
परि माण
अकाद मी</w>
उट ऩे</w>
यॆ न्न्</w>
पे न
ऐ क
सॉ फ्ट
मंड ळ</w>
त क्षण</w>
ज ई</w>
उ च्चा
ति न्ऱॆ</w>
जडे जा</w>
ं ता
वध े
अस्ति त्व</w>
. 0
्त ि</w>
गर जे
इं जि
हे न
हा म</w>
ती र्थ
कण्टॆ त्त
य़ न</w>
र र</w>
एस सी</w>
ले खि
बा स्</w>
दि रा</w>
सि म</w>
ब णा</w>
ऎ रु
प तरस</w>
कळु टॆयुं</w>
कावल्तुऱै यिऩर्</w>
त्त त्</w>
जाण गे</w>
शि ष्य</w>
ॊ ंद
चॆल वऴि
ऐरो प्पिय</w>
नामां कन</w>
आब ु</w>
आ ये</w>
o u
लि पि
ढ ेर</w>
धी आं</w>
जी ने</w>
उत्प न्न
सिफारि श</w>
साक्ष ्य
ल म्बा</w>
नൽ काൻ</w>
मो ल</w>
भ बन</w>
मा टि</w>
es t</w>
फ्रा ं
हाग ॆये</w>
सुर क्ष</w>
फ्ट ी</w>
परिस्थि तियों</w>
डे स्
विचारि त्तु</w>
ऎय ർ
बु मराह</w>
णु ळ्ळत्</w>
दोस्त ों</w>
तुम च्या
एक ल</w>
A l
सभा पति
भाष ल्लो</w>
इ ण्डि
प्रवർत्त कർ</w>
अऱियि च्चत्</w>
ब स्त
प्र वी
पोलि सां
निरोध क</w>
ड ्या</w>
कळ् ः</w>
अञ्च ु</w>
इश्रा ये
प्ट न</w>
देखि ए</w>
सि स्</w>
ऎक्क ड</w>
रो जी</w>
बो मा</w>
प्पट्ट ऩर्</w>
ज ग्
आ हात</w>
च्च ॆङ्किलुं</w>
क्कप्पट्टुळ्ळ ऩर्</w>
र ङ
नटवटिक्कै कळै</w>
क् यं</w>
BJ P</w>
युण्टा यि</w>
ऎऩ्ऩ ि
श हा</w>
ख्या ल</w>
२०० ६</w>
शिवा जी</w>
तो मर</w>
त ल्
कोह ली
दी क</w>
पु ट
ऐੱ न
िय़े छि</w>
ह ारी</w>
स् क्
स ख़त</w>
लै ंदि</w>
कॊळ्ळ ुम्</w>
कूऱ प्पटुकिऱतु</w>
स्त ो</w>
बय़ से</w>
अस्ट्रेल िय़ार</w>
ची ऩा</w>
आकिय वऱ्ऱै</w>
ർ माർ</w>
म तो
टॆक् नाल
सभे त</w>
प्पि ऩर्</w>
दर् दी
गॊ ळ्ळु
पर व
जीवि ता
उत्पा दक</w>
आक स्
विधा इक</w>
यू ट्यू
आंक ड़ों</w>
न्यू ज</w>
दिना ंक</w>
ति च्या
जगा तील</w>
वीर र्</w>
गी य़</w>
समावे शं</w>
या बेन</w>
पड़ो सी</w>
दिੱ तीआं</w>
अ त्ता
तिरु त्त
चॆल वु</w>
वे ज</w>
वऱ्ऱ ैयुम्</w>
रे जि
बृ त्ति</w>
निज ंगा</w>
क दार</w>
प्ट ि
जो ख
कृष्ण ൻ</w>
संश यि
ৱ े</w>
परा भव</w>
ख ार
यो जि
ख री</w>
कु लनु</w>
सम रੱ
क्क ियिरुन्नु</w>
राजधा नि</w>
प्र सङ्गे</w>
I M
मजबू ती</w>
विऴ ा</w>
भव ्य</w>
डे ब्य
स्पे शल</w>
र थ
त ङ्कळुटैय</w>
ट िया</w>
आई आईटी</w>
सॆ क्षन्</w>
प्रग ट</w>
टी में</w>
क्रम ं</w>
आइ ने</w>
हाइ ट</w>
वै सी</w>
ब यो
जग न्ना
तन्त्र ेर</w>
छा नबीन</w>
चर चा</w>
त न्तै</w>
रि जि
पੰ जा
टि का
अञ्च ल
एमन की</w>
धर ते</w>
सू प्पർ</w>
i f
सचि न्</w>
जिल्ल यिलॆ</w>
क्रिकेट ार</w>
अ त्तुटऩ्</w>
ए परि</w>
सम्पर् केर</w>
व्यक्त माय</w>
रक्ष णा</w>
आ पो
सबੰ धत</w>
ख़ु स़ी</w>
चलच्चित्र ेर</w>
वागि द्दु</w>
बे ंक</w>
नीड लु</w>
आज केर</w>
सि स्ऱ्ऱ
ओ ट्ट
ते डा
क िल
क नु</w>
अब् दुल</w>
बड् जॆट्</w>
एमन टा</w>
आर क्षण</w>
ना लों</w>
बु ले
सार ो</w>
बी बी</w>
फी स</w>
प्र कल्पा
आइन जीबी</w>
चटु वटि
ऎऩ् ऩाल्</w>
पॆ रिय
व्हि डीओ</w>
लं य</w>
खे ते</w>
ऎ ङ्के</w>
आवा ज़</w>
म ैयुम्</w>
मैय म्</w>
को न्
इ य़ो
अभिन ंद
सं ता
बे न
पु ट्टि
ची जों</w>
काम ों</w>
उन् ट</w>
सु मारे</w>
लो क्</w>
देश रे</w>
ट प्प
उन पर</w>
ट रोल</w>
समा जा
बन् दी</w>
नाय कुलु</w>
दू रं</w>
ई शा
से थि
वंत मैन</w>
तू फान</w>
श बरि
दल्लि दॆ</w>
एनआर सी</w>
प्र कृत
चम ॎकार</w>
कमि स़न</w>
अं जाम</w>
नाळ िल्</w>
इ त्तु</w>
शिक्ष कों</w>
वे शारु</w>
बिश् बासी</w>
कोर् स</w>
काछाका छि</w>
षे र्</w>
राज् नाथ्</w>
ति चा</w>
पा ं</w>
नൽ कुं</w>
स्ୱास्थ ्य़</w>
शताब्दी र</w>
पे टि
न्ति य</w>
भार ीगा</w>
पे शे
यॆ हू
तै री</w>
इ चै</w>
ए पी
आहार ं</w>
सर् वे</w>
मा य़ा
ष ार
बॆळ वणि
च क्क
अऱिवि प्पु</w>
नൽक ियिट्टुण्ट्</w>
देश ो</w>
वे रे</w>
स ऊदी</w>
मुम् बइ</w>
M P</w>
वि लै
मार्कॆ ट्लो</w>
पी ड़
हय़ त</w>
मश हूर</w>
री ए</w>
राजी नामॆ</w>
पु न</w>
परिष दे
किऱि स्तु
बाब तीत</w>
जि तना</w>
अन्ति म</w>
मा ओ
बि निय़ोग</w>
संरक्ष ण
धा व</w>
चार ि</w>
रि च्चु</w>
भविੱ ख</w>
स्वप् न</w>
प्रमा णा
पु कार
ंग र</w>
कला ं</w>
अंत रा
प्रेक्षि ते</w>
ते री</w>
उत्तराख ण्ड</w>
ज ङ्गि
पु कु
तह सील</w>
चॆ ल्लु
री तियिൽ</w>
यहोवाह ना</w>
पै केज</w>
न्त ार्कळ्</w>
त्त ळ
गॊ ंड
य़ ार</w>
वि कळ्</w>
सी ओ</w>
ऱ णा
बाधि कार</w>
प्प णि
तिया ण्</w>
कै या</w>
निट्टि नल्लि</w>
ध रि</w>
कৰ े</w>
ए ली
ऐ ंड</w>
इरु त्तदॆ</w>
I N
ब्रि ज</w>
पੱ छ
कॊच्चि ः</w>
ऐ सिसि</w>
का प्पा
तऱ् कॊलै</w>
यौ थ</w>
कै ंप</w>
काम काज</w>
अख्त र</w>
या जक</w>
बय़ स्क</w>
आप राधिक</w>
पिन्तु ट
ऎल्ल वू</w>
मो डी
प नं</w>
क्लि क्</w>
वर्ष ी</w>
बैठ कीत</w>
किछु दिन</w>
प ऱ्ऱु
न शील</w>
घ रो
उदघा टन</w>
ൻ स
सन्त्रा स
मुऩ्ऩ े
क्कु वाൻ</w>
तुऱ ैयिल्</w>
ए जन्य</w>
म लै</w>
क ंडि
प्पत ऱ्काऩ</w>
जो ट</w>
फी चर</w>
कार् ड्</w>
वाजपे यी</w>
पोली सिൽ</w>
इंड स्ट्री
आव ർत्ति
ज ेन</w>
सीमा न्त</w>
सा पड
प्र ी</w>
टै सट</w>
क्ष ൻ</w>
सौ न्
या दी</w>
ळ वु</w>
घृ णा</w>
म कळ्</w>
टुइट ार</w>
३ ८</w>
एऩॆ ऩ्ऱाल्</w>
बिमानबन् दर</w>
पर क</w>
जि ल</w>
इऱै वऩ्</w>
12 ,
स्पर् धा
या ൻ</w>
ति आं</w>
अर जी</w>
पाठ्य क्रम</w>
म्प िक</w>
मनो रंजन</w>
घा तक</w>
कार्य काल</w>
निलै मै</w>
ख़ा न</w>
कर वाई</w>
इत ऩ
ू आं</w>
ध्य ं</w>
द् वार
ण्ट ै</w>
कूऱ ियिरु
हो त्रा</w>
स न्न
रण ेर</w>
मु कु
स्थला निकि</w>
लो गो</w>
बेशि र</w>
ग् स</w>
मुँ ह</w>
पुरोग मि
कॊऱो ण</w>
ੱ ग</w>
हा थ
आङ्क िल
क्र िये
वि चे
या कू
जो ड़ने</w>
कॊळ्ळ लु</w>
सम् बन्ध</w>
दि क्क
तुल न</w>
बा स्
ति थे</w>
सुपरी म</w>
ऩ वर्कळ्</w>
च्चि तंगा</w>
चढ़ ा
क्क ൾक्क्</w>
हाद सा</w>
अभि भाष
दर रोज</w>
इ छन्ति</w>
तॆ ळ
ा ्
श्र मिक
प्र द</w>
पुस्त का
पि क्</w>
गो ल्
ता ॎ
अङ्ङ नॆय
r ic
ब नेर</w>
घटने ची</w>
वु क्कुम्</w>
ऱॆ क्को
न्नॆ ङ्किൽ</w>
ग म्
ंच नु
ङ्क िल्</w>
द्दा ळॆ</w>
दृश्य ङ्ङൾ</w>
मु झ</w>
नियो जक
ना षणൽ</w>
ञ् जन</w>
आरोप णं</w>
अवर े</w>
१९ ०
व टी</w>
म कळि
ग्लो बल</w>
वि ट्टाल्</w>
राज कारण</w>
बन् दर</w>
नो बेल</w>
तय ारु</w>
क्कुक यो</w>
कमि उनि
ं थ</w>
के समां</w>
हुम ला
े क्कुं</w>
ग ारु</w>
वि दग्
ऱ िल्ल</w>
दूर संचार</w>
तारी फ</w>
या गि</w>
स पोर्ट</w>
अ ँ
नो करी</w>
मौजू दगी</w>
ग ्य</w>
उप क्रम</w>
वर् कळु
चूड ंडि</w>
कुऱ य्
महੱतव पूरन</w>
बैज्ञा निक</w>
9 :
ऩ ो
ण ारा</w>
ट्टु त्</w>
ऎदु रु</w>
भू ष
तो न्न
टा य़</w>
अप ॊ
भा स़ा</w>
प्र दीप</w>
मना इआ</w>
जा नार</w>
कण् णी
ऒ डि
एमन इ</w>
कर िय़े</w>
इरुन्त ऩ</w>
अ मृत
ट्रा इ
एश िय़ा</w>
उत्तर प्रदेश</w>
या वागलू</w>
प डे
लु न्नायि</w>
ऱॆयिൽ वे</w>
पॊलीसरि गॆ</w>
1 1:
ी स्</w>
लि पि</w>
खे तरां</w>
ar t
ऩ िय
जी बित</w>
ए ट</w>
पा स्</w>
पङ्का ळि
नि बंधन
हेळि कॆ</w>
संस्थ लु</w>
मिसाइ ल</w>
बनाव वा</w>
पा न
अपघा तात</w>
जि क्</w>
ऩ्ट ्</w>
जा दु
ग वाही</w>
ब ती</w>
से मी
ग हरा</w>
सूच क</w>
वा इस</w>
के ने
बा ल्</w>
खास कर</w>
जि ੰदर</w>
कूट्ट म्</w>
अय्य िंदि</w>
भबिष्य ॎ</w>
पेर्कॊ ंदि</w>
ज वा</w>
अव ु</w>
स ता</w>
अ कल
रा तेर</w>
कर णीय</w>
९ ०</w>
विस़ वास</w>
वे ळे
का त
म नॆ
ल ड</w>
नि देशा
टॉ स</w>
ै क्कु</w>
मर िय
का णां</w>
ं कित</w>
विळैया ट्टु</w>
वि क्रम</w>
बै क</w>
अम ारा</w>
स रात</w>
गु णा
गा ल
सामान्य वागि</w>
सर फ
मे न्ट
दप्त रेर</w>
कर्णा टक
क नुं</w>
स्ऱ्ऱे ष
स् स्</w>
विशेष ज्ञों</w>
नीडु व</w>
थो ड़ी</w>
गो रख
कॊण्ट े</w>
नि पि
भे तरे</w>
नडॆयु त्तिदॆ</w>
ड क</w>
जि ट</w>
इ य़ा</w>
रै तुलु</w>
भबिष्य द्
नी कु</w>
सम्रा ट</w>
पिता व्</w>
तल्लिदंड्र ुलु</w>
करी बी</w>
प्र मुੱख</w>
वेळा ण्</w>
द व
टै क
घ न्
क्रि क्क
ऎन्नि वरुं</w>
सम्प्रदा य़</w>
र रे</w>
वॆळ िय
क्रि स्ट
पार् थि
जग दी
ऎऩ्ऱा लुम्</w>
अव ऩुटैय</w>
न कर</w>
दे य़नि</w>
पश्चि मे</w>
द वु</w>
or t
ऩा किय</w>
चो र</w>
को ना</w>
सोस िय़े
शे र
बृष्ट ि
पॉ लि
क वर्
वरु त्तु
कट ो
इं डि
करि ते</w>
मे च</w>
मान बाधिकार</w>
ए ल्
बिश् बा
गवर् नर</w>
कत ल</w>
अ केले</w>
ंचि नट्लु</w>
मा ध्य़
निर्व ह
कर्त व्य</w>
ऊ हि
अभियो गेर</w>
कॊळ्ळु व</w>
आ दु
हु ईं</w>
जे नी</w>
कर छिल</w>
ओय़े स्ट</w>
प संद
उत्प ी
मान वीय</w>
प्रख्यापि च्चु</w>
उॎ साह</w>
बु र</w>
अनुमो दित</w>
साधारण ंगा</w>
व्यतिरे कंगा</w>
चु क्ति
इ डि</w>
वा लीआं</w>
आ बारओ</w>
ർ म्म
सै क
पाऊ स</w>
भर ण</w>
गॆलु वु</w>
अनुष्ठा नेर</w>
तॆरिवित्तु ळ्ळतु</w>
कर ताम</w>
नऩ्ऱ ाक</w>
टॆ ल्ल
करि न्थी
इं धन</w>
स्टार् ट</w>
विप त्तु
भु ले</w>
प्रसं ग
पे शक
द क्कि
आयु ष</w>
कि त
ं का
विध ं</w>
रेखे छे</w>
बृह ॎ</w>
इप्पटि की</w>
ई रानी</w>
ur e</w>
महारा ज</w>
ब िय
टी मां</w>
खे ती
केर ळं</w>
किरि आ</w>
पाँच टि</w>
ट्ट ल्</w>
बा कि
द्र वि
कट्ट मैप्पु</w>
सु ले
मृत कों</w>
क् ट्रिक्</w>
अत ुं</w>
यु वत
मु न
उ डु
ंग े
शु ने
बि ऐ</w>
s p
अनु बाद</w>
प्र संस्करण</w>
निर्मि ती</w>
ए तो</w>
अऱि न्तु</w>
हो म
ब ू</w>
ञ्च ु</w>
कॆल वरु</w>
वाट त</w>
भूम ियिൽ</w>
सुप्रीं कोटति</w>
ह जी</w>
सहा य़
ब ंदु</w>
पुलि स्</w>
कट्ट मै
बार् षिक</w>
नट क्कुन्नत्</w>
देश ंलोनि</w>
अत्या चार
समान ता</w>
तो य</w>
क दर</w>
अव ध
सर्कार ि</w>
व न्तुळ्ळतु</w>
हर लाल</w>
भाग मां</w>
प्र गति
गाड़ि र</w>
राजी ना
बढ़ा कर</w>
पो काൻ</w>
सौ ंद
दी व</w>
आरा धि
शि कव
मह म्मद</w>
पी ढ़ी</w>
किऱ ीर्कळ्</w>
ता नी</w>
दा लु</w>
इ तॊरु</w>
स्थान त्त्</w>
लि ट्टर्</w>
भुवने श्वर</w>
देखा ते</w>
मि ऩ्ऱि</w>
ञ् जेर</w>
ंटु न्नारु</w>
स़ा न</w>
पह चा
चांग ला</w>
ओ पॆ
वार ु
पहिल ्या
घटनास्थ लेइ</w>
कुऱ च्चु</w>
मि रु
पॊतु वाक</w>
या च्छेन</w>
मा तु</w>
ए त्</w>
सम ्या
बेका द</w>
द रिंद</w>
घो र</w>
एमएसएम ई</w>
नजी क</w>
ऐੱ म
प्रख्या त</w>
७ ः</w>
व्यत्या स
पोली सने</w>
यु कत</w>
मं ट
धार ण
तेलु गु</w>
9 00</w>
बोर ड</w>
थ येला</w>
सं घटना</w>
नि ं</w>
चु ण
तुटർ च्च
अऩु पव
ल च्या</w>
डा कट
चॊ न्त
कർणा टक</w>
उद्देश े</w>
लि स</w>
ट ऩुम्</w>
ए इरकम</w>
आ यिरि
ऎस् ऎस्</w>
मह िले
रवी ंद्र</w>
सन् देहे</w>
प त्तॆ
ज िय़ा
सो स</w>
चॆन्नि त्तल</w>
गळ ॆ
क्कॆति राय</w>
पठ न
जल् ट</w>
कू डिन</w>
वु ट्</w>
प्रमाण पत्र</w>
इलेक्ट्रॉ निक</w>
पा ठि
इ तो</w>
विष् णु</w>
बढ़ त</w>
कै ट
संस्थ ॆ</w>
ब्य ति
o o
वरु माऩ
माति रि</w>
र न्
र काल</w>
निज ं</w>
रोजु ल</w>
देर इ</w>
्य ൻ</w>
एइ च</w>
संपा दि
वी रे
पेशक श</w>
दा देर</w>
जौ हर</w>
ग्री ष्
स्पष्ट ीकरण</w>
ल्ल ियू</w>
प्रत्या शी</w>
पेय़े छि</w>
प ण्ण
न्या स
निषेधा ज्ञा</w>
ती चा</w>
हता श</w>
दुर् घटनार</w>
ङ्ङळ ोट्</w>
कळ िलाण्</w>
प ण्डि
जन्म ग्रहण</w>
प्रि ंट</w>
ङ्कळ ैच्</w>
उ ते</w>
ी ना</w>
नै स़नल</w>
ट्टि ऱ्कु</w>
िलि ൽ</w>
सभ लो</w>
क् स्
मदु वॆ
ओ ट
संघ ेर</w>
क्क ियिट्टुण्ट्</w>
मु जा
बिद्य मान</w>
प्ल स्</w>
प्र योगि
चिकिॎ सार</w>
कौ ൺ
आग मि
तृ प्ति</w>
इस्ला मा
वा ति</w>
टि ं
जु टी</w>
क तै
बद ली</w>
ऎति र्त्तु</w>
अन् य़
र् न</w>
तु ल्लो</w>
तऱ्पो तैय</w>
पू मिय
हू डि
निय ंत्रि
डाइरै कटर</w>
गौर तलब</w>
सा म्ह
परि गण
कर ारा
कार्यक्रम दल्लि</w>
निय़े इ</w>
उॎ साहित</w>
वर्ष द</w>
ते चिय
क्क ऴि
शि ंदे</w>
र फ्त
अति नु
वर् कळिल्</w>
रि ए</w>
प्रयोजन ं</w>
नि ंग्</w>
संगठ नेर</w>
ह वी</w>
क्कण मॆन्नुं</w>
सेल् फी</w>
शु श्रू
रेल ओय़े</w>
व न्तऩर्</w>
ऎऴु तु
हिन् दू</w>
रहिੰ दे</w>
नम्म न्नु</w>
ै या
हो वानुं</w>
वण ूक</w>
म ंगळू
पाल्ट ा</w>
त्य ो
ब्यब स्थापना</w>
तोमा देरके</w>
चॆंद ारु</w>
भा स्
कॊ द्दि
प्ले ट</w>
उरि मै</w>
भ ंग</w>
प् ट</w>
ङ्कळु टऩ्</w>
द ल्लू</w>
सो चा</w>
बृष्ट िर</w>
प् स्</w>
स्कु लेर</w>
1 10</w>
सेवा वां</w>
प्य ारा
ੱ प</w>
आ हम
बि पुल</w>
फल ंदा
रूप िया
पं क
ड्राइ वर</w>
गो त्र
मा ठे</w>
ण् णि</w>
अभि मुख
तॆरिवि क्कप्पट्टुळ्ळतु</w>
कऴि वु
क दी</w>
तल्ला शि</w>
उट ऩ्</w>
महि म</w>
केसॆ टुत्तु</w>
आइ एस
आ ऴ्
स्वा स्थ
से न्ट</w>
सा हा
ख णी</w>
चॆयला ळर्</w>
ऑ स्ट्रेलिया
वे दन
माध्यम ङ्ङळिൽ</w>
स की
मक्कळि गॆ</w>
जो ध
काव डं</w>
श्रे ष्ठ
गुरुतर मायि</w>
विमർ शन
ता यि
अटि प्पटै
मि र्जा</w>
नो टु</w>
दे ऊ</w>
उमीद वार</w>
जरु री</w>
कर्त नु</w>
राष्ट्र ं</w>
उ तार</w>
A n
अੰ तर
व क्ता</w>
ल ळित
मान नीय</w>
प्र दർ
कथा ओ</w>
ूर प्प</w>
बृह स्प
दि खाने</w>
मू न्नु
मा के</w>
प्प ार्कळ्</w>
पि न्
ऎ ऱणा
मा कुं</w>
पो सट
निल ैयै</w>
मट्ट द</w>
त क्क</w>
आम राओ</w>
हੱ थ</w>
स्ना तको
चॆय्य प्पटुम्</w>
इप्पटि वरकु</w>
लभि च्चत्</w>
ब पति
जार् मानि
गमन ार्
क बीर</w>
इलेक्ट्र िक</w>
ऱ े</w>
ब्ला क्</w>
तन न्नु</w>
जै कट</w>
इ वरुक्कु</w>
u m</w>
्रॆ ड्डि</w>
मेखल यिൽ</w>
फ र्</w>
क्क प्पॆट्टु</w>
स बहु
बु र्
पो य्</w>
निर माण</w>
मु ंदा
टि सि</w>
स़ब द</w>
तुर् की</w>
ख ै
इ सरो</w>
४ ४</w>
३ ९</w>
लड़ कियों</w>
गॊ त्तिल्ल</w>
मत भेद</w>
तऩि प्पट्ट</w>
लेख न
ल मध्ये</w>
परीक्ष ॆ</w>
ति मुक</w>
ना वर</w>
जे म्स</w>
यिहो बाके</w>
महे न्द्र</w>
बिज य़</w>
परि न्तु
जा मि
सർ क्का
राश िय़ार</w>
रंग त्त्</w>
द क्ष</w>
चॊ प्पु
कदा चित</w>
सु शील</w>
पाल ियल्</w>
न्तु ळ्ळ
सेना बाहिनीर</w>
य शा
धा वा</w>
वी ट</w>
फ ्ले
ऒप्पन्त म्</w>
उ ण्ट
असल्या ची</w>
अव ऩै</w>
ट्रा म्प
ङ्ङ ुं</w>
कॊ च्चि</w>
ऒप्प ं</w>
ष ियल्</w>
प च
इन् ति</w>
सि डि
व च्चु
पू ज
न वें</w>
मार् केट</w>
म त्ति
ए ड़िय़े</w>
समा पन</w>
लि फोर्
ऱो ड्</w>
मर् गे</w>
अमै न्तुळ्ळतु</w>
रू क्ष
निय़े छिलेन</w>
विदेशा ंग</w>
फै ंस</w>
त ण</w>
ठिका ना</w>
1 ,000</w>
स्टे ड
सम् बन्
मंत्रि मंडळा
वे दिक
मु लनु</w>
भ ੱ
तीर् क्क
डॉक्ट रा
स ले
परा ति
क् सि</w>
ऒऩ्ऱ ा
u d
अ त्र</w>
शा इ
नवा चार</w>
खि ताब</w>
क्या न्सर्</w>
नार ीर</w>
क्कि ऴ
ए टाके</w>
किलो ग्राम</w>
अत्त र
व ते</w>
भ गत</w>
ब ट्टि</w>
संस् कार
भाग स्वा
प्रत्य ु
इनस्टि टिउट</w>
ैय े
ध क्का</w>
कल र</w>
इतिहा से</w>
ब्ल ो
बाय़ ु
अत ऩ्पि
सु दृढ़</w>
ल ारा</w>
न् ताऩ्</w>
आव ण
बिश्बका प</w>
परिबर्त ्त
व फा
म स़
फर क</w>
पर् व</w>
नि तिय
देश व्याप्तंगा</w>
दिवस वुं</w>
नू आ
200 2</w>
श शि</w>
त्या च</w>
हा गु</w>
कनि ष्ठ</w>
अस लेले</w>
S T</w>
नी चे
की ट</w>
अ नी
रॆंड व</w>
राष्ट ्रीय़</w>
कॆ ल</w>
पार त</w>
ट्रे ड</w>
जू लै</w>
तुल ्य</w>
करा य़</w>
ऎ ंब
रो म</w>
प्रा णालु</w>
अनु पात</w>
सम्पर् करे</w>
इङ्गि त</w>
प्राइ वेट</w>
बि रोध</w>
ु क्कु</w>
विट्ट ेऩ्</w>
म िया
पल रुं</w>
रि जल्ट</w>
आख़ ि
परिच य
टे शन</w>
ण्टा यिरु
ञा नुं</w>
कोर ारु</w>
इन् स्टा
ए समय़</w>
वॆ ऱुं</w>
ऱ िलॆ</w>
मन्त्रणाल य़ेर</w>
था इ
बो लिवू
दर मि
अल्प संख्यक</w>
हे ड</w>
न्त िय
धर् षण</w>
बाध्य त</w>
परिणाम स्वरूप</w>
र िले
मिनि ट</w>
मो ट्टो
चे हरे</w>
कारा गारे</w>
in g
ंटा यि</w>
विपण न</w>
फि केशन</w>
पत वि</w>
अक्क डि</w>
कार म्</w>
ऎफ् ऐ
इ ऩि</w>
विधा नं</w>
पु ष्प
कॊवि ड्</w>
या हा
को लि</w>
रा धा</w>
स्प ंदन</w>
ए ऱ
मुख्य ंगा</w>
गाय पड्डारु</w>
सा लों</w>
मो हि
पर्या य़ेर</w>
त कु</w>
च्च ो
स ग
प्रति श्रुति</w>
कॊण्टु ळ्ळ</w>
स्बे च्छा
वि स
म िय़ा
कमा ंडर</w>
क या</w>
उ दों</w>
अमैच्चर वै</w>
ॉ न</w>
मे टा
भेद गति</w>
ब्र ॆ
चੰडी गड़्ह</w>
घड ली</w>
क्क त्तिल्</w>
ऐ दु
त डॆ
चे सिन
सत्य विश्वासि
प्पि क्कुं</w>
अभिप्रा य</w>
व दु</w>
दु खी</w>
अर्थ नीति
नि के</w>
महा सागर</w>
प्रदेश द</w>
ॆ वु</w>
बल ब</w>
नि द्र
सुत्ति रुव</w>
प्रशिक्ष ित</w>
प सर
सी ना</w>
अति र
ंग् स</w>
व्याया म</w>
कोर् टुलो</w>
ർ घ
ल ्ताऩ्</w>
पदार् था
निर् मात
ऎंद ू</w>
पहुंचा ने</w>
त्ती रि</w>
मै त्रि</w>
का प
े क्क्</w>
य़े श
प्रकटि ंचिंदि</w>
इक बाल</w>
वित माक</w>
य ुम्</w>
कथ ॆ</w>
मा निक</w>
बि कल्प</w>
प्रतिक्र ियॆ</w>
तलै मैयिल्</w>
जल द</w>
कि ते</w>
सु स्थ
वा ൾ</w>
क ठी
गा य</w>
ियु माय</w>
निलैय त्तिल्</w>
15 ,
सੰ बोधन</w>
वा ्</w>
र बि
स्नेह ं</w>
शिशु र</w>
ल्लो कि</w>
फ रे
निल् दा
इति बाचक</w>
आ य़ो
आ णि
भे जने</w>
ठ हराया</w>
वैद्य ुलु</w>
रो शन</w>
[...]
