#version: 0.2
t h
i n
a n
th e</w>
r e
e r
e d</w>
a r
t i
e n
o n
e r</w>
h a
o f</w>
o n</w>
i s</w>
o u
an d</w>
in g</w>
o r
s t
t o</w>
i n</w>
a l
a t
e s</w>
i t
T h
i l
d i
r o
i c
a l</w>
o r</w>
e s
a c
a n</w>
e l
a t</w>
a s
e n</w>
a s</w>
o m
e c
Th e</w>
o l
ti on</w>
en t</w>
r i
v e</w>
u r
s i
a m
p l
a d
n o
f or</w>
i s
b e
t s</w>
er e</w>
e v
th e
u s
u n
th at</w>
a g
w as</w>
l y</w>
e m
o v
h i
ar e</w>
l i
w h
a i
a b
re s
o s
a tion</w>
er s</w>
a k
I n
ha s</w>
p ro
b e</w>
c on
i t</w>
i st
t r
l e
a y</w>
i r
it h</w>
il l</w>
a r</w>
c e</w>
c h
l o
ti on
i d
ha ve</w>
c om
w ith</w>
s u
t ed</w>
no t</w>
w ill</w>
u l
a p
b y</w>
In di
d e
g h
o u</w>
ou n
l e</w>
h e</w>
m ent</w>
o o
th is</w>
s o</w>
t h</w>
re d</w>
e x
f or
o w
ic e</w>
m e</w>
p e
at e</w>
u t</w>
e t</w>
a y
ro m</w>
th er</w>
a in
l d</w>
f f
f rom</w>
o p
t er</w>
ai d</w>
s h
H e</w>
ou r</w>
o d
n e
on e</w>
c i
y ou</w>
be en</w>
in g
in ist
it y</w>
w or
u m
s aid</w>
s e
an d
er n
s p
w ere</w>
ou t</w>
p er
u c
ha t</w>
h is</w>
al so</w>
i r</w>
q u
m e
t e
pl e</w>
r a
s t</w>
al l</w>
tion s</w>
p ol
a d</w>
p ar
Indi a</w>
re n
u d
i m
ou ld</w>
' s</w>
a v
h e
p or
ou r
re c
st r
an g
in c
I t</w>
M inist
u s</w>
a m</w>
v er
t w
ha d</w>
at ed</w>
e t
l a
d s</w>
gh t</w>
Th is</w>
d er</w>
an y</w>
ov ern
c h</w>
es t</w>
or e</w>
B ut</w>
C h
the ir</w>
v i
o ple</w>
c as
om e</w>
g i
ur e</w>
f il
the y</w>
en t
an t</w>
u t
e y</w>
Minist er</w>
en ts</w>
p re
g r
es s</w>
ev er</w>
the m</w>
p o
d o
h ar
A n
s e</w>
ag e</w>
si d
R a
w e</w>
f i
overn ment</w>
pol ice</w>
o ther</w>
pe ople</w>
t o
o w</w>
ac c
si on</w>
e ar
t ak
a f
en d
wh o</w>
W e</w>
2 0
l ed</w>
f ir
res s</w>
c an</w>
e p
it s</w>
f e
on g</w>
l l</w>
a in</w>
e d
on g
i ti
am e</w>
n o</w>
t er
for m
al ly</w>
ar y</w>
an ce</w>
u l</w>
en ce</w>
ou s</w>
oo d</w>
g h</w>
ic h</w>
W h
d o</w>
s ti
s o
I n</w>
h i</w>
t ing</w>
os e</w>
c oun
ay s</w>
c l
s er
u e</w>
p res
hi m</w>
es s
r a</w>
o c
e h
g e</w>
ar d</w>
os t</w>
tion al</w>
on s</w>
s ec
S t
o d</w>
re s</w>
con t
u p</w>
ab out</w>
t y</w>
wh ich</w>
ab le</w>
k no
n i
ti me</w>
com m
o ff
e l</w>
Th ere</w>
re g
Th ey</w>
di s
em b
at t
ac e</w>
e f</w>
th ere</w>
k e</w>
y our</w>
B J
an s</w>
p p
a u
W hat</w>
at er</w>
d uc
h er</w>
as t</w>
o t</w>
ev er
es e</w>
a ti
i es</w>
in e</w>
a tions</w>
g overnment</w>
k s</w>
w ay</w>
k ed</w>
us t</w>
ing s</w>
tw o</w>
ain st</w>
el y</w>
BJ P</w>
fil m</w>
k ing</w>
b o
ag ainst</w>
u p
N a
h el
m y</w>
m ar
ov er</w>
d ec
re e</w>
us ed</w>
r ic
w hat</w>
p ri
A l
in v
v id
ad e</w>
um b
b ut</w>
th ing</w>
cas e</w>
af ter</w>
al s</w>
t u
r ou
Indi an</w>
S ing
el l</w>
f e</w>
P ri
at es</w>
es h</w>
i c</w>
d ay</w>
hi ef</w>
re m
s ha
ow ever</w>
M od
P ol
u b
d ing</w>
t or</w>
w ould</w>
m is
s hi
fir st</w>
Sing h</w>
en g
ol d</w>
d er
me di
v ed</w>
st ed</w>
a h</w>
w e
m ore</w>
us e</w>
S h
ac k</w>
lo w
b le</w>
A r
as s
ow n</w>
ac h
il e</w>
P r
C ong
s el
m an</w>
tr y</w>
a il
i g
c al</w>
m o
Mod i</w>
as h
id ent</w>
oun d</w>
v es</w>
in d
is h
ec t</w>
e red</w>
per s
b ec
sh ould</w>
en ti
u r</w>
in d</w>
r y</w>
0 0</w>
i l</w>
e f
Cong ress</w>
ak e</w>
em ent</w>
ha n</w>
an n
il l
es ti
in to</w>
p h
it al</w>
o g
be ing</w>
ver y</w>
at h</w>
sid ent</w>
a re
el i
or y</w>
m on
m at
R s</w>
t ur
re as
or s</w>
w i
An d</w>
j u
Pol ice</w>
M a
c es</w>
20 1
th an</w>
s c
ic i
p os
ne w</w>
oo k</w>
G od</w>
st ate</w>
m inist
t ri
il y</w>
st ar
J eh
Pri me</w>
le ad
di d</w>
ha pp
th en</w>
so ci
p r
wh en</w>
A m
Jeh ov
c our
m ade</w>
f ac
m any</w>
e w</w>
ev el
com pl
al i
ti ve</w>
j o
inc l
tw e
ur ing</w>
it e</w>
A c
el ec
Y ou</w>
g o
os p
y a</w>
ar i
C om
res p
ac h</w>
b r
wor k</w>
f am
H owever</w>
in t
coun try</w>
un der</w>
ch il
on t</w>
com e</w>
g et</w>
e st
b u
incl ud
su ch</w>
c ha
1 9
s ome</w>
D el
li ke</w>
b l
d re
Ra j
at ing</w>
w ar
por t
c r
por t</w>
th ese</w>
v ing</w>
f in
on ly</w>
c ri
e i
m s</w>
a st
ti es</w>
a i</w>
r i</w>
P ak
en d</w>
for e</w>
g re
o t
tak en</w>
e p</w>
k e
th ose</w>
com p
m ov
f ul</w>
Pak ist
Del hi</w>
od y</w>
n t</w>
w om
P ar
inc ident</w>
c an
an s
S o</w>
i f</w>
w s</w>
m an
ec ted</w>
S he</w>
d ed</w>
c or
o b
g u
th ers</w>
t ure</w>
P re
n ed</w>
str ic
li fe</w>
ou s
en er
di ff
a tional</w>
kno w</w>
s ch
osp ital</w>
H ow</w>
s ed</w>
ad esh</w>
shi p</w>
B i
g ood</w>
. .</w>
twe en</w>
is su
evel op
st ud
m il
c ol
tak e</w>
di rec
be tween</w>
C hief</w>
h a</w>
m in
ti c
as ed</w>
S ha
in ju
' t</w>
A f
le g
un der
it ed</w>
n ing</w>
p er</w>
a w
a use</w>
v er</w>
al l
. ..</w>
wh ile</w>
u m</w>
w ell</w>
d em
wor ld</w>
U ni
P ro
w r
i d</w>
v en</w>
ec i
th rou
ren d
en tr
ar re
esti g
E n
ren t</w>
r u
f a
Jehov ah</w>
S u
c ap
f ol
t ly</w>
c re
e g
is t</w>
a j
lo c
N o</w>
m a</w>
Pakist an</w>
p s</w>
ev en</w>
su p
di d
it u
s he</w>
st s</w>
v ic
el l
iti es</w>
ch ang
th ree</w>
ec tion</w>
C on
rend ra</w>
is h</w>
d uring</w>
c o
p ow
m ost</w>
an a</w>
d es
di stric
l es</w>
M o
dre n</w>
inv estig
A d
m ed</w>
fam ily</w>
Na rendra</w>
al th</w>
g e
k et</w>
o f
ne ed</w>
M an
h ere</w>
si g
o k</w>
re ad
n umb
re t
et ing</w>
is e</w>
arre sted</w>
w ater</w>
pro duc
f l
y ing</w>
G overnment</w>
a th
k a</w>
kno w
throu gh</w>
a ve</w>
c ur
A s</w>
pl ace</w>
G and
in form
s y
s ur
c ould</w>
Pre sident</w>
su b
b eli
acc used</w>
en ed</w>
pres ent</w>
D e
M e
wh ere</w>
an k</w>
i z
h ospital</w>
as e</w>
str uc
m ake</w>
to o</w>
ex p
y ear
I s
T hat</w>
r e</w>
emb er</w>
inju red</w>
s on</w>
resp on
U n
y e
ver s
an ts</w>
l and</w>
st e
uc h</w>
b ody</w>
or d</w>
go ing</w>
w ays</w>
A s
f t</w>
N ew</w>
par t</w>
h ow</w>
pro vid
i on</w>
ch ar
reg ist
d own</w>
chil dren</w>
T r
ou th</w>
O n
pl ay
ic al</w>
is ed</w>
a ff
t t
b ro
an y
f ul
g an
be fore</w>
a h
H is</w>
g o</w>
j ust</w>
D i
St ate</w>
ar m
c al
diff e
H e
en c
lo w</w>
al a</w>
po si
Ch ri
Gand hi</w>
numb er</w>
par t
um ar</w>
ain ed</w>
d evelop
l ar
pol iti
m ay</w>
t re
ai r
s ay</w>
2 0</w>
u st
en s</w>
Sh ri</w>
c ar
g ed</w>
m i
hel p</w>
us h
off ici
b i
A ll</w>
s pe
pl o
I ts</w>
wi th
n ess</w>
and s</w>
e -
la h</w>
f ic
cr ore</w>
inc reas
cont in
sel f</w>
li c</w>
sti tu
ou gh</w>
a k</w>
ec h
ol og
sha ll</w>
er ing</w>
on d</w>
end ed</w>
Wh y</w>
om e
m es</w>
m it
il ity</w>
p ub
ain s</w>
t ook</w>
res t</w>
at a</w>
t al
par ty</w>
B o
k il
R e
per i
M ar
in k</w>
minist er</w>
medi a</w>
s ol
do es</w>
b ack</w>
soci al</w>
gi ven</w>
ent ly</w>
F or</w>
J es
l ak
qu es
at s</w>
t e</w>
po in
ever al</w>
bo th</w>
oo l</w>
me eting</w>
t ain</w>
ro w
C ha
v ir
Jes us</w>
i e</w>
i a</w>
er n</w>
id e</w>
se e</w>
o re
S ec
ou se</w>
di c
distric t</w>
ac tion</w>
I f</w>
Th e
E x
ti v
ul t</w>
ex t</w>
ex am
V i
c hief</w>
regist ered</w>
o m</w>
P e
T w
K han</w>
ak ing</w>
di ed</w>
im port
W or
year s</w>
l ast</w>
u str
ha r</w>
o thers</w>
in ce</w>
re qu
fol low
s ame</w>
cour t</w>
re por
Pr adesh</w>
K ar
v ari
an c
T ha
u g
m ents</w>
ai l</w>
C our
sid e</w>
rec ei
en i
y et</w>
K umar</w>
t en</w>
S har
ri ght</w>
A b
ag es</w>
p a
w ant</w>
ap pro
d ont</w>
in ter
de ath</w>
he ar
mat ter</w>
wom en</w>
s ing</w>
pro c
s et</w>
am ong</w>
P M</w>
Ra h
read y</w>
b en
n at
ro s
m ust</w>
Al lah</w>
v e
em s</w>
kil led</w>
ci p
h ome</w>
an i</w>
H ar
od ay</w>
c le
sp eci
or der</w>
m uch</w>
l ater</w>
1 0</w>
sp ot</w>
dec i
hi gh
ov er
s itu
ac t</w>
H i
re le
Na tional</w>
e ach</w>
h um
O n</w>
l y
in a</w>
c ent</w>
ser v
ti ce</w>
M umb
t ors</w>
F or
R o
m en</w>
m p
includ ing</w>
ha t
lak h</w>
c c
ci al</w>
ut e</w>
Uni on</w>
Cour t</w>
f un
0 00</w>
fi ed</w>
stud ents</w>
mov ie</w>
G u
lo ve</w>
d one</w>
si ble</w>
p ass
f ri
a b</w>
diffe rent</w>
star ted</w>
bu il
pre sident</w>
si st
B ang
S ab
su cc
Wh en</w>
ec ts</w>
re li
n ever</w>
d ays</w>
c am
p ur</w>
u k
pers on</w>
th ings</w>
tr a</w>
si ons</w>
ati ve</w>
en ing</w>
U S</w>
p ur
vid e
con c
or gan
p ed</w>
n am
Mumb ai</w>
in te
form er</w>
on om
w on</w>
al ity</w>
od s</w>
ye ar</w>
en s
do m</w>
st at
ever y
ever y</w>
l l
ap o
T am
s ome
Af ter</w>
te am</w>
ish ed</w>
c ul
m or
be g
S hi
f ound</w>
k ar</w>
o h
import ant</w>
ur ther</w>
g l
C entr
pl y</w>
Bi ble</w>
ur ity</w>
emb ers</w>
in ess</w>
n ame</w>
bec ause</w>
s ays</w>
so on</w>
t em
b re
ti mes</w>
t ern
g ener
P un
ti c</w>
di tion</w>
- 1
gi ve</w>
H ind
c ame</w>
u res</w>
dis c
pow er</w>
ech n
no w</w>
oc cas
h ol
d ue</w>
s ent</w>
Minist ry</w>
hel d</w>
ro l</w>
e ve</w>
lead er</w>
K ash
u al</w>
arm ers</w>
re la
sti ll</w>
wr it
know n</w>
ou t
of f</w>
t or
en ds</w>
st ory</w>
5 0</w>
ret ary</w>
cal led</w>
Rah ul</w>
a way</w>
l ong</w>
oun c
for m</w>
de t
situ ation</w>
g ar
On e</w>
Th en</w>
et y</w>
ad d
are a</w>
an other</w>
s everal</w>
g ot</w>
he alth</w>
Kash m
p ic
in es</w>
ul ar</w>
ain ing</w>
si on
d r
a z
j ect</w>
enc y</w>
ad v
ros s</w>
at ely</w>
B eng
c er
c ity</w>
t ow
gre at</w>
ri ed</w>
or t</w>
ch ed</w>
l it
f r
f ar</w>
w ard</w>
sec ond</w>
J am
e ds</w>
con n
wi fe</w>
ap pe
n ext</w>
as s</w>
m embers</w>
t oday</w>
fe w</w>
ec onom
cas es</w>
pro b
and ed</w>
e as
ep t</w>
Tam il</w>
ri es</w>
pl es</w>
oun t</w>
s m
t ter</w>
L i
on es</w>
s es</w>
deci sion</w>
f our</w>
do c
b us
Sab ha</w>
L e
v ill
ach ed</w>
compl ain
op er
as h</w>
gh ts</w>
s al
Th ese</w>
fir e</w>
pro t
pers on
ben ef
r ul
, 000</w>
h ouse</w>
tr ans
occas ion</w>
ex t
vide o</w>
s k
Chri sti
se en</w>
he av
re f
l ine</w>
vari ous</w>
posi tion</w>
h o
fa ther</w>
as ked</w>
t al</w>
si ve</w>
de p
olog y</w>
par ti
issu e</w>
v en
lo t</w>
ste m</w>
investig ation</w>
h and</w>
gr am
bec ome</w>
I s</w>
C ol
c el
an t
lead ers</w>
Ma har
p ut</w>
g ir
Kashm ir</w>
di st
mis sion</w>
d ri
L ord</w>
develop ment</w>
ay ing</w>
tr u
tri es</w>
au gh
ar ds</w>
is m</w>
st and
f urther</w>
inform ation</w>
re l
R es
e k</w>
ang u
ro le</w>
h on
pers ons</w>
la un
th or
com ing</w>
o k
un ity</w>
Bang l
comm it
ex c
e qu
e e</w>
gi on</w>
v al
D o</w>
st or
ar ly</w>
chang e</w>
Wor ld</w>
ra m</w>
n s</w>
ig n</w>
ac k
Shar ma</w>
ann ounc
ag ain</w>
wh y</w>
p op
vers ity</w>
r un
C or
int ern
al leg
n or
w in
ed uc
off ic
b ook</w>
i red</w>
w ent</w>
d on</w>
av ail
ren tly</w>
M al
e ff
o p</w>
ar ound</w>
A t</w>
m aj
pl ac
Sha h</w>
M any</w>
st ing</w>
sup port</w>
w ar</w>
d augh
coun tries</w>
vi ew</w>
al ready</w>
reg ard</w>
ou ght</w>
l s</w>
ri s
h owever</w>
el s</w>
or d
att ack</w>
re ad</w>
cl ai
emb ly</w>
y s</w>
ash tra</w>
re tur
w ood</w>
en ted</w>
to ge
disc us
20 0
ab ad</w>
t ers</w>
hi t</w>
te e</w>
he ad</w>
la w</w>
t old</w>
Pun j
toge ther</w>
v o
ro ad</w>
di es</w>
As s
gr ou
in ed</w>
le ar
part ment</w>
wor k
ai r</w>
st and</w>
c ent
un i
ren ce</w>
ac ross</w>
politi cal</w>
j ay</w>
T o</w>
ha l
v is
1 5</w>
th ink</w>
complain t</w>
R am
ren ts</w>
B I</w>
b ased</w>
pub lic</w>
f armers</w>
S p
ur al</w>
S ch
ag ed</w>
happ ened</w>
elec tions</w>
su ff
hi gh</w>
Mahar ashtra</w>
mon ey</w>
m er</w>
n a</w>
wom an</w>
Pe ople</w>
mit ted</w>
Wh o</w>
c ric
b el
d am
i k
T el
de red</w>
b as
can not</w>
n er</w>
l ing</w>
le ad</w>
j ar
wh e
b al</w>
M us
pl ay</w>
ter r
li on</w>
ah s</w>
M y</w>
ist s</w>
l ess</w>
th s</w>
sec urity</w>
contin u
M ad
si t</w>
m er
Tw o</w>
m other</w>
parti cip
S ome</w>
tre at
id enti
al e</w>
al ong</w>
d ev
em plo
sp ir
in f
b est</w>
lo ok</w>
G ods</w>
h us
em p
P a
u tion</w>
can did
ur y</w>
g est</w>
Ch ina</w>
ne ws</w>
con duc
th y</w>
y ed</w>
ti s
t a
th ough</w>
im medi
K apo
sy stem</w>
le m</w>
ol ly
g row
h u
1 2</w>
h er
z e</w>
li am
Bangl adesh</w>
lo o
ac tor</w>
y p
avail able</w>
ous ly</w>
col l
S an
y oun
eh ic
fi ve</w>
s ince</w>
li er</w>
st ates</w>
us tice</w>
olly wood</w>
f ace</w>
E l
Tha ts</w>
le t</w>
ad ded</w>
d u
ut y</w>
Kapo or</w>
ess es</w>
Punj ab</w>
c a
eni or</w>
pos ed</w>
in ation</w>
recei ved</w>
prob lem</w>
fi el
ser i
treat ment</w>
B ank</w>
Gu jar
offici als</w>
e ted</w>
vic es</w>
en a</w>
d e</w>
up on</w>
wor king</w>
I C
tr ue</w>
r an</w>
do ing</w>
F in
ha m
si b
are as</w>
u si
repor ted</w>
w ic
1 0
Jehov ahs</w>
r ap
beli eve</w>
s ci
l angu
re ached</w>
d ge</w>
Bo th</w>
w in</w>
our s</w>
v al</w>
S a
pro gram
N o
w at
speci al</w>
K er
ear th</w>
t le</w>
ir e</w>
a red</w>
pl ic
f ood</w>
with out</w>
pe ti
ir d</w>
r an
pri v
l i</w>
pa rents</w>
re port</w>
in iti
sch ool</w>
no thing</w>
ren g
vi ol
sh ow
er y</w>
fil ed</w>
al ways</w>
ques tion</w>
ra in</w>
li m
S outh</w>
con si
pre me</w>
f ore
m od
elec tion</w>
m ur
s ing
fe at
e br
al i</w>
beli ev
W est</w>
n ational</w>
the re
le ft</w>
e w
direc ted</w>
inform ed</w>
follow ing</w>
O ur</w>
c ro
o ve</w>
Di rec
C O
sel ves</w>
acc ident</w>
con f
Gujar at</w>
em ents</w>
m aking</w>
rele ased</w>
d h
am s</w>
i al</w>
St ates</w>
L ok</w>
de ad</w>
h op
pro te
c ou
ef for
in s</w>
3 0</w>
lar ge</w>
v ehic
R an
ti z
a di
ex peri
pos sible</w>
In tern
re ly</w>
ak a</w>
it n
le ge</w>
us p
N or
Is ra
li k
t echn
b oo
A ustr
st reng
con stitu
n ation</w>
ail s</w>
e y
E ver
B ollywood</w>
tu res</w>
Ker ala</w>
Austr ali
l ev
b ri
ab l
un d
l d
se ats</w>
lo cal</w>
mat ch</w>
li ght</w>
air s</w>
D ay</w>
ac ti
O ff
id ed</w>
po st
f el
did nt</w>
M L
ch es</w>
d ra
any thing</w>
cur rently</w>
si a</w>
y an
to tal</w>
2 5</w>
offici al</w>
tak ing</w>
ear ch</w>
Ever y
p i
Su preme</w>
c s</w>
r ang
pol ic
um p</w>
cl os
daugh ter</w>
e a</w>
B har
he ad
os s</w>
en se</w>
ke ts</w>
ush ed</w>
ec tive</w>
bec ame</w>
A k
di vid
f ind</w>
hum an</w>
to p</w>
Ac cor
G ener
d en</w>
announc ed</w>
us ing</w>
play ed</w>
P l
b ed</w>
er ic
ar s</w>
an ces</w>
fil ms</w>
Uni versity</w>
sh ow</w>
vi sit</w>
P at
end ing</w>
t a</w>
Par ty</w>
S al
1 1</w>
S am
ev ent</w>
t ou
rou ght</w>
be tter</w>
b or
i ght</w>
s af
exam ple</w>
p ati
ke ep</w>
vill age</w>
chil d</w>
U tt
S o
tur al</w>
Ac t</w>
bl ems</w>
l ost</w>
inv ol
D ist
th re
ex pres
b lo
end ra</w>
it ing</w>
m u</w>
pro g
S er
ov ered</w>
A p
ri t</w>
u n</w>
Centr al</w>
En g
m ain
ac y</w>
includ e</w>
ans w
S ar
ag ar</w>
I m
Sec retary</w>
en ces</w>
v ot
b and</w>
d eli
hear t</w>
ol s</w>
cha ll
lev el</w>
si m
reas on</w>
c ar</w>
V I
l ov
educ ation</w>
Hi gh</w>
y s
iz ed</w>
Kar nat
s usp
de ep</w>
N ot</w>
B ha
op port
o s</w>
mon th</w>
res ult</w>
N ad
s ure</w>
bi g</w>
ne eds</w>
c entr
Mus li
ph one</w>
D ev
J an
vi sion</w>
w al</w>
A n</w>
em e</w>
a w</w>
mi ght</w>
Un ited</w>
R am</w>
ul ture</w>
com es</w>
Jam mu</w>
happ y</w>
s aying</w>
k ind</w>
pro blems</w>
b ir
ser ies</w>
ut ure</w>
pub l
P an
Am eric
ni ght</w>
m ak
Karnat aka</w>
Beng al</w>
im pro
immedi ately</w>
gir l</w>
ri bu
w a
en n
serv ice</w>
an ted</w>
tru th</w>
1 4</w>
b ur
usi c</w>
terr or
au thor
B e
an ti
il i
hi m
-1 9</w>
ent al</w>
res ul
enti al</w>
ar ri
proc ess</w>
provid e</w>
Gener al</w>
re ally</w>
maj or</w>
p ric
Accor ding</w>
j ud
ed ed</w>
ab in
c ause</w>
g y</w>
W ith</w>
ti ll</w>
n ec
contin ue</w>
g overn
Ch and
b an
li ve</w>
b rought</w>
H ome</w>
1 .
gr ap
i ed</w>
H y
ul ation</w>
sha red</w>
as k</w>
im pl
all s</w>
comp an
oo per
Ma h
wor d</w>
id es</w>
al low
P er
the m
He alth</w>
In d
ful ly</w>
abin et</w>
sm all</w>
qu e</w>
c are</w>
f uture</w>
f ree</w>
th ird</w>
be h
se e
er a</w>
ad a</w>
D evelop
1 00</w>
1 8
N e
ph o
j ects</w>
b at
g lo
increas e</w>
st ation</w>
b er
cric ket</w>
comp any</w>
G re
g es</w>
Indi as</w>
a v</w>
g ave</w>
tr av
ic k</w>
ne l</w>
ag ement</w>
u ally</w>
cont rol</w>
K oh
tion ed</w>
bus iness</w>
th er
k ey</w>
ing dom</w>
per form
li ves</w>
work ers</w>
some thing</w>
pr in
ail ed</w>
fun c
an sp
f oo
m en
issu ed</w>
Am it</w>
Me di
diff ic
id ence</w>
stat ement</w>
p ost</w>
c ust
r ation</w>
sti t
Tr ump</w>
j our
te ach
se qu
compl et
wor ds</w>
ustr y</w>
ud e</w>
ap p
de st
f o
our ces</w>
r ushed</w>
laun ched</w>
al ed</w>
fe rence</w>
ser vices</w>
struc tion</w>
V ir
Dist ric
youn g</w>
es sion</w>
K e
peri od</w>
Nad u</w>
et ting</w>
r up
b an</w>
fa ith</w>
C oun
intern ational</w>
T e
est abl
br ing</w>
de f
h and
Develop ment</w>
S on
S i
ab ility</w>
C l
grou p</w>
dep end
Koh li</w>
ro w</w>
pro mis
b il
Is l
sib ility</w>
a j</w>
wor ks</w>
er ship</w>
1 3</w>
issu es</w>
me ans</w>
e ts</w>
cle ar</w>
writ ten</w>
ic s</w>
stand ing</w>
me d
att ended</w>
De partment</w>
know le
ar i</w>
ol e</w>
T est</w>
ac hi
S at
ad mitted</w>
il ities</w>
conn ection</w>
G overn
ri sh
enti re</w>
p an
pro ject</w>
provid ed</w>
J o
ful l</w>
d ro
Australi a</w>
hi story</w>
m ess
tow ards</w>
O p
it ter</w>
ne i
pro f
D r
an cial</w>
Ass embly</w>
fic ation</w>
de ed</w>
ic k
d ou
C BI</w>
su g
oun d
g er</w>
A h
l ist</w>
s enior</w>
ul ti
fin al</w>
t ain
G o
se as
mil it
run s</w>
I P
t en
itn esses</w>
m ember</w>
g one</w>
m ind</w>
vir al</w>
r ate</w>
ci tiz
poin t</w>
Raj as
fiel d</w>
him self</w>
M P</w>
at ure</w>
N C
i rit</w>
CO VI
dec ided</w>
s w
con dition</w>
tem ple</w>
sec tor</w>
fri ends</w>
or ity</w>
exp ected</w>
me as
rec ently</w>
it es</w>
ex pl
pe ace</w>
A sh
d ate</w>
con su
poin ted</w>
Distric t</w>
acc ount</w>
T V</w>
t ress</w>
in e
mar ket</w>
a ther</w>
beg an</w>
z ed</w>
do es
c y
stud y</w>
f all</w>
s ou
m a
fi ght</w>
Par liam
C C
ha l</w>
c are
with in</w>
cour se</w>
o il</w>
di sp
d el
Q u
d om
d y</w>
hus band</w>
st ri
mur der</w>
lik ely</w>
por ts</w>
ar ies</w>
D uring</w>
medi cal</w>
me et</w>
par ts</w>
under stand</w>
star t</w>
happ en</w>
R us
P h
ha ving</w>
f lo
di g
Af ric
h ya</w>
in st
1 6</w>
fe el</w>
at i</w>
For mer</w>
Ra il
beh ind</w>
off ice</w>
Intern ational</w>
S ri</w>
in der</w>
in king</w>
c u
b s</w>
op en</w>
eng ers</w>
g etting</w>
cl ose</w>
of ten</w>
1 8</w>
c ost</w>
c ir
ag re
b er</w>
s ite</w>
D ont</w>
2 4</w>
priv ate</w>
2 1</w>
d ged</w>
conc ern
f y</w>
buil ding</w>
pr ice</w>
cel ebr
S un
r it
re ve
ad minist
ro te</w>
Christi an</w>
spir itu
ar t</w>
a -
econom ic</w>
ap plic
2 2</w>
m ad</w>
S y
4 0</w>
on -
wr ong</w>
det ails</w>
t ory</w>
w rote</w>
cap tain</w>
ub lic</w>
t ro
par ties</w>
pric es</w>
ep s</w>
fe ar</w>
se ar
Pa ul</w>
Rajas than</w>
m usic</w>
J oh
S ub
T i
A ff
am a</w>
w el
ad s</w>
ear lier</w>
sp ec
at or</w>
plac es</w>
1 9</w>
20 20</w>
ha b
h old</w>
mil lion</w>
h y
W om
p ai
S w
on d
war ds</w>
h ur
c e
mar ried</w>
star s</w>
1 7</w>
gener al</w>
Utt ar</w>
effor ts</w>
n ers</w>
it ation</w>
av ir
ques tions</w>
answ er</w>
w al
H ospital</w>
Hind i</w>
f re
Centr e</w>
inv est
C M</w>
dri ver</w>
lit tle</w>
19 9
F ac
ci l</w>
ti t
D av
produc ed</w>
Ar my</w>
an e</w>
R i
re gion</w>
sp irit</w>
pro mo
M u
i an</w>
u ro
ha ts</w>
Com m
langu age</w>
v ol
B ri
s il
G ur
S he
direc tor</w>
Isra el</w>
o red</w>
ra ised</w>
rela tion
on avir
c at
N av
ear ly</w>
succ ess
f are</w>
ar a</w>
tic le</w>
Tw itter</w>
an k
seri ous</w>
ne ar</w>
B ab
vir on
ch ing</w>
har d</w>
nec ess
es p
str ong</w>
J ustice</w>
su ic
cre ated</w>
we ek</w>
con g
S P</w>
Aff airs</w>
C abinet</w>
ac ted</w>
onavir us</w>
p ose</w>
fi c</w>
knowle dge</w>
a ut
comm un
Com mission</w>
p ast</w>
g ri
politi cs</w>
us es</w>
as soci
m ain</w>
un to</w>
c ooper
en tion</w>
om s</w>
wh om</w>
peti tion</w>
si x</w>
ir man</w>
struc ture</w>
re pres
ac tiv
T ri
ill s</w>
investig ating</w>
t on</w>
C o
m ag
Y ad
impl em
E ar
Th ree</w>
L et</w>
pre ci
1 5
reli gi
op s</w>
a tion
hop e</w>
du ce</w>
o ols</w>
sh oo
t ar
2 .
ro r</w>
7 0</w>
chang ed</w>
dec la
rele ase</w>
program me</w>
gar h</w>
t able</w>
Al i</w>
es ides</w>
g ur
r ing</w>
B al
Eng land</w>
gr at
re sid
h ous
sp ok
I m</w>
O f</w>
bro ther</w>
R s
any one</w>
p ing</w>
K ingdom</w>
lo dged</w>
Bi har</w>
acc ep
rem ain</w>
mon ths</w>
grow th</w>
si an</w>
li ving</w>
di tional</w>
Direc tor</w>
ch o
sec retary</w>
increas ed</w>
s h</w>
Christi ans</w>
Com mit
sig ned</w>
M ore</w>
ti l</w>
stit ute</w>
pr ay
w ise</w>
an while</w>
D ef
wh ole</w>
inte rest</w>
hu ge</w>
Hy der
ast e</w>
t est</w>
gr ound</w>
ru n</w>
W itnesses</w>
y e</w>
R ed
low ing</w>
lar gest</w>
res ol
R av
every one</w>
ne eded</w>
Ch enn
S ur
n or</w>
blo od</w>
M ost</w>
en jo
vic ti
in t</w>
Wh ere</w>
Col lege</w>
c all</w>
vi ties</w>
e m</w>
rel ated</w>
jo b</w>
Y our</w>
Yad av</w>
A gr
y ana</w>
suic ide</w>
distric ts</w>
or ding</w>
O r
ar ding</w>
Ar e</w>
l ab
th i
qu ar
att ac
s ons</w>
ind ustry</w>
En gl
hal f</w>
Vir at</w>
I S
at ors</w>
comm on</w>
S ci
id e
g ing</w>
d ers</w>
y al</w>
on ce</w>
ap pointed</w>
ri age</w>
no v
them selves</w>
every thing</w>
im p
es h
Hyder abad</w>
fin ancial</w>
E duc
po or</w>
S ena</w>
f av
decla red</w>
char ge</w>
fr ont</w>
expres sed</w>
identi fied</w>
B an
C an
fam il
K ol
L ater</w>
Nor th</w>
F r
t ell</w>
M on
res h</w>
play ing</w>
inte re
al li
th ought</w>
M at
l a</w>
s ev
m it</w>
candid ates</w>
H er</w>
F ol
en ter</w>
s l
F i
resul ts</w>
loc ated</w>
ri gh
D ha
D is
b ow
diffic ult</w>
he al
ne w
Har yana</w>
succ ess</w>
retur n</w>
S e
experi ence</w>
clai med</w>
soci ety</w>
g ame</w>
tal k</w>
COVI D
b all</w>
y ment</w>
j ected</w>
glo bal</w>
le y</w>
ei ther</w>
er red</w>
Fin ance</w>
in stitu
Chenn ai</w>
A ir</w>
le ast</w>
mo ve</w>
Parliam ent</w>
respon se</w>
Wh ile</w>
th ous
f ted</w>
eas y</w>
cong reg
sp o
t yp
offic ers</w>
h an
cont ro
fac t</w>
The re
u ary</w>
cro res</w>
vi l</w>
Commit tee</w>
rec overed</w>
produc tion</w>
St ud
ut es</w>
ac tive</w>
st ated</w>
201 9</w>
te red</w>
y our
de b
resp ect</w>
p un
ser ved</w>
cent ury</w>
sch eme</w>
benef it</w>
ug u</w>
Me anwhile</w>
j i</w>
A u
m et</w>
pai g
feat ures</w>
ni fic
bor n</w>
E uro
H ere</w>
od e</w>
V ar
prot est</w>
in divid
ang ana</w>
ec tiv
famil ies</w>
our ce</w>
p ay</w>
respon sibility</w>
st re
un til</w>
G er
y outh</w>
er c
in fl
allow ed</w>
J u
R ec
1 4
M r</w>
un e</w>
f oc
m ulti
u es</w>
B ar
m i</w>
J a
cer tain</w>
p ay
mis sion
Tel ugu</w>
t rol</w>
on y</w>
ti cal</w>
f ru
si mil
pre v
Ch in
tr ying</w>
for ces</w>
id d
Y es</w>
acti vities</w>
relation ship</w>
The ir</w>
o -
G r
b us</w>
Engl ish</w>
t -
ec h</w>
l ong
m ing</w>
bas is</w>
is ation</w>
nam ed</w>
chall eng
ci es</w>
M os
Medi cal</w>
sh are</w>
er al</w>
d ly</w>
s ac
leg al</w>
au ght</w>
om es</w>
ens ure</w>
p e</w>
Mo ham
gr ad
for ce</w>
COVID -19</w>
tr ansp
d ata</w>
gi ving</w>
an im
am es</w>
P s</w>
Dav id</w>
J ap
ey es</w>
S everal</w>
sc re
wor ked</w>
e ased</w>
osp it
invol ved</w>
6 0</w>
pass ed</w>
bro thers</w>
le ave</w>
e ws</w>
em or
c ant</w>
necess ary</w>
h ands</w>
acc ording</w>
F il
The res</w>
K o
j it</w>
C up</w>
S pe
heav y</w>
sp read</w>
st u
g old</w>
Shi v</w>
person al</w>
h s</w>
b ad</w>
p ress</w>
An dh
ar ing</w>
ach ing</w>
Chri st</w>
o es</w>
aff ected</w>
commit tee</w>
ent ation</w>
201 8</w>
par tic
per cent</w>
op ped</w>
ati ves</w>
repor ts</w>
conduc ted</w>
ener gy</w>
t es</w>
econom y</w>
uc k</w>
sing le</w>
Andh ra</w>
requ ired</w>
w id
inju ries</w>
b ank</w>
techn ology</w>
ro les</w>
u v
con fir
au ti
pro per
ess ed</w>
st op</w>
t i</w>
ser ve</w>
centr al</w>
spiritu al</w>
de ter
S T</w>
Coun cil</w>
B y</w>
am ount</w>
dem anded</w>
Ch il
te ams</w>
spe ak</w>
sh a</w>
duc ed</w>
Afric a</w>
under way</w>
T echn
pro jects</w>
pop ulation</w>
Th ose</w>
Sch ool</w>
comm unity</w>
5 00</w>
h u</w>
or ig
ac tress</w>
re al</w>
d en
cam paig
form s</w>
alleg ed</w>
1 ,
m om
di t</w>
lo g
im um</w>
mar riage</w>
vehic les</w>
p aid</w>
tur n</w>
te m</w>
M is
ne y</w>
rec og
Agr ic
l oss</w>
I N
r s</w>
Joh n</w>
p at
t el
E ast</w>
F ir
K al
reas ons</w>
li st
S m
ell ing</w>
form ation</w>
s aw</w>
Shi v
D r</w>
J os
posi tive</w>
st ar</w>
ro om</w>
W hats</w>
g en
B l
candid ate</w>
cri p
Vi jay</w>
sch ools</w>
pati ents</w>
char ac
em er
tr aining</w>
dis ci
Al so</w>
ill ing</w>
Every one</w>
cap ital</w>
offic er</w>
fi gh
w anted</w>
religi ous</w>
he ard</w>
di se
st eps</w>
e al
E m
id ents</w>
em ic</w>
w an</w>
tr a
qu ir
N ar
h un
Rs .
person nel</w>
ag ing</w>
for ward</w>
ca used</w>
doc tors</w>
jo ined</w>
n ath</w>
follow ed</w>
ph ys
tr ain</w>
N ow</w>
pl an</w>
dise ase</w>
m y
lear n</w>
Ro hit</w>
form ed</w>
D ep
rec or
viol ence</w>
1 2
ac tu
pp ed</w>
mor tem</w>
aw a
sig nific
ab ove</w>
Educ ation</w>
en cour
ag ue</w>
ast er</w>
Bo ard</w>
sh ot</w>
W ill</w>
j a</w>
Y og
an th
t own</w>
add ress</w>
dem oc
polic y</w>
does nt</w>
de al</w>
c le</w>
b ar
U S
c ra
s le
w as
er ous</w>
id s</w>
F rom</w>
h or
compl eted</w>
pho to
ta x</w>
res earch</w>
j ee</w>
g le</w>
h ospit
ter m</w>
M uk
ef ul</w>
Sal man</w>
fore ign</w>
Mad hya</w>
hous es</w>
g s</w>
b ig
fri end</w>
ci ties</w>
pop ular</w>
particip ated</w>
re gi
P o
achi ev
u fac
sup por
s even</w>
ul arly</w>
R ep
loo king</w>
opport unity</w>
pro be</w>
Red dy</w>
mor ning</w>
B ra
lead ing</w>
ag ric
mess age</w>
Fac e
mat er
1 3
p en
ri b
m al</w>
reg arding</w>
y -
ass embly</w>
1 6
qu ality</w>
qu ite</w>
av o
prog ress</w>
s ession</w>
ish ment</w>
is ing</w>
poin ts</w>
cooper ation</w>
tur ned</w>
iz ation</w>
ar rang
ud get</w>
1 7
dest ro
E ven</w>
add res
reli gion</w>
l ate</w>
viron ment</w>
A g
c y</w>
cur rent</w>
minist ry</w>
el se</w>
ail y</w>
chang es</w>
ge ts</w>
est s</w>
at ory</w>
se par
Sp eci
cl ass</w>
w ide</w>
us h</w>
p ha
al ist</w>
includ ed</w>
ay a</w>
pass engers</w>
Face book</w>
emplo ye
f our
con struction</w>
int ro
D ec
high er</w>
bo dies</w>
S te
le tter</w>
l in
ML A</w>
on line</w>
oun ded</w>
A I
in au
A ir
d ol
d eni
Musli m</w>
foo t
fol low</w>
sh or
et ings</w>
Fol lowing</w>
elec tr
i m</w>
20 0</w>
loc k</w>
M ay</w>
ath s</w>
bo ard</w>
p al</w>
ab ly</w>
shi ps</w>
pp er</w>
ed ul
author ities</w>
Hind u</w>
s is</w>
ra il
De ep
cor onavirus</w>
po t
P ad
i ons</w>
it ting</w>
ri ghts</w>
k m</w>
S up
Def ence</w>
' m</w>
congreg ation</w>
cri tic
am b
clos ed</w>
m ental</w>
tr aff
ai th
su st
ri se</w>
al one</w>
p u
A N
A y
simil ar</w>
O R
af f</w>
la w
oc k</w>
e dom</w>
kno ws</w>
ag o</w>
as sist
dou b
wic kets</w>
mak es</w>
increas ing</w>
k ata</w>
tr ade</w>
ong s</w>
apo st
on al</w>
' re</w>
li gh
e at</w>
Wom en</w>
ap preci
pic ture</w>
fil e</w>
pre vi
whe ther</w>
C ap
fel t</w>
ud d
Tel angana</w>
ati c</w>
Mal ay
f esti
oc c
sol di
reve aled</w>
ab or
ra structure</w>
de fe
ing ly</w>
ac tions</w>
ti ves</w>
er t</w>
or ies</w>
st ay</w>
B h
Americ an</w>
S ince</w>
grat ul
Cor por
se at</w>
at est</w>
et c</w>
esp eci
out side</w>
S im
pol ls</w>
on al
especi ally</w>
e k
k ept</w>
th ern</w>
func tion</w>
att emp
2 3</w>
S ol
mar k</w>
ar ti
Kol kata</w>
li g
K ha
j ustice</w>
m as
am i</w>
A z
tis h</w>
In stitute</w>
B est</w>
and a</w>
O ther</w>
te sting</w>
cam era</w>
enc ed</w>
ec ting</w>
f ine</w>
ribu tion</w>
Pr as
op position</w>
W at
f ans</w>
as su
milit ary</w>
Fir st</w>
sear ch</w>
201 7</w>
El ec
Stud ents</w>
f ast</w>
consi dered</w>
pur pose</w>
mo b
19 8
commit ted</w>
quir y</w>
wor ship</w>
tak es</w>
hi stor
p age</w>
a p</w>
citiz ens</w>
se ized</w>
F I
sequ ently</w>
su per
sci enti
ai t</w>
0 0
sur vi
success ful</w>
K rish
vehic le</w>
con tr
buil t</w>
mov ed</w>
r in
de l</w>
righ te
oper ation</w>
Com mission
in deed</w>
ex ist
meas ures</w>
en sive</w>
A no
r ain
an ka</w>
jour n
K am
n on-
ap ur
j an</w>
f em
c op
de partment</w>
rec ord</w>
dem and</w>
m os
ke ep
continu ed</w>
f ailed</w>
we b
gu id
ev i
Dep uty</w>
compan ies</w>
Minist ers</w>
high est</w>
re ach</w>
it ness</w>
develop ed</w>
nei gh
en ough</w>
cou ple</w>
ann er</w>
acc oun
cri min
S uch</w>
su m
man ufac
oc cur
ur u</w>
ess ing</w>
tri b
includ es</w>
c in
de fin
val ue</w>
pl ays</w>
Bhar at</w>
ri ver</w>
pres sure</w>
N ir
s av
ai d
olog ical</w>
t ation</w>
M i
att le</w>
ust ri
as p
Chand r
pri me</w>
spo ke</w>
a head</w>
deni ed</w>
ven tion</w>
ab les</w>
complet e</w>
di tions</w>
es el</w>
pow er
ch ec
re st
Re ad</w>
in -
bir th</w>
A T
Pri yan
ann ed</w>
um ents</w>
C an</w>
att ention</w>
con sid
r ich</w>
emplo yment</w>
en cies</w>
rec ent</w>
publ ished</w>
P aw
Ch ar
sc en
N ag
li es</w>
y an</w>
s qu
sp or
plac ed</w>
st ers</w>
sur pri
u el</w>
seas on</w>
C re
Agric ulture</w>
s .</w>
ay ed</w>
N ob
tri ed</w>
pl e
t un
Con stitu
O D
On ly</w>
in n
traff ic</w>
Bri tish</w>
g ra
ell s</w>
B ec
sig n</w>
con v
H ence</w>
in depend
did n</w>
shi fted</w>
ro ads</w>
govern ments</w>
Priyan ka</w>
D P</w>
v ice</w>
lit er
d aily</w>
b ra
L a
spe ed</w>
th ou</w>
in come</w>
b al
ac ity</w>
sp ace</w>
administ ration</w>
G i
requ i
Hi gh
le av
T a
Chin ese</w>
c k
cre ate</w>
H ouse</w>
ent ary</w>
ar rest</w>
mov ement</w>
inau gur
ap er</w>
ow n
sec tion</w>
re jected</w>
G e
Speci al</w>
dec eased</w>
P al
Ano ther</w>
w ants</w>
t ained</w>
d ang
des ig
S ush
loc k
th r
ev idence</w>
st ag
Ab d
n ations</w>
believ ers</w>
f aith
P ublic</w>
Nob ody</w>
nat ural</w>
Indi ans</w>
cul ture</w>
sc ri
ex erc
minist ers</w>
ec u
des cri
ld nt</w>
all ing</w>
equ i
f al
J ay
man agement</w>
San jay</w>
S in
In v
off er</w>
IP L</w>
mob ile</w>
ast ern</w>
there fore</w>
Off ic
grou ps</w>
ic ation</w>
fre edom</w>
mar t
2 8</w>
eff ect</w>
Ear lier</w>
b ack
C ric
on ed</w>
ML As</w>
mar ks</w>
sim ple</w>
Pat el</w>
b ab
st ep</w>
play ers</w>
retur ned</w>
I T</w>
B esides</w>
ra ise</w>
shoo ting</w>
c ov
sci ence</w>
per f
res er
ord in
con ference</w>
r acy</w>
un ities</w>
fac ilities</w>
n av
aw ard</w>
produc ts</w>
ist an</w>
stud ent</w>
re p
v ers</w>
M S</w>
Y et</w>
sh ort</w>
el ing</w>
s ong</w>
ha m</w>
rul e</w>
cer tain
V er
f -
infl u
boo ks</w>
Ra o</w>
teach ers</w>
an tly</w>
F ri
employe es</w>
Mar ch</w>
h anded</w>
ic ally</w>
G rou
as si
streng th</w>
A sia</w>
I T
twe eted</w>
elec ted</w>
ste ad</w>
pic tures</w>
v an</w>
Hi m</w>
inte gr
ak er</w>
c um
J ud
ac qu
car ried</w>
consi der</w>
O c
H ave</w>
li ghts</w>
b order</w>
is nt</w>
campaig n</w>
rem ember</w>
S .</w>
o l</w>
me an</w>
N D
de dic
discus sed</w>
di e</w>
A R
Vi j
ai ah</w>
ce rem
grap h
or i
in side</w>
cor rup
in dic
ti m
Musli ms</w>
n om
C ity</w>
oun ds</w>
R eg
G B</w>
d a</w>
t ol
al uru</w>
for c
sup ply</w>
Govern or</w>
2 6</w>
A pri
Apri l</w>
V en
B u
Raj ya</w>
There fore</w>
au di
e .</w>
J ag
appro ved</w>
ne t
pl ied</w>
u red</w>
s ources</w>
d ru
read ing</w>
ver se</w>
Commission er</w>
al low</w>
up coming</w>
gu n</w>
sh e
Sec urity</w>
Ra j</w>
ro g
L anka</w>
B e</w>
B S
Pras ad</w>
com b
he ar</w>
ow er</w>
ad ha
vic tory</w>
concern ed</w>
gi ves</w>
happ ening</w>
M ay
go es</w>
be auti
and ing</w>
Dr .</w>
ul tural</w>
3 .
s em
T im
M ic
ha s
ed ly</w>
is l
Techn ology</w>
H im
whe re
me th
ad dition</w>
- old</w>
trans f
low er</w>
rem ov
onal d</w>
r ains</w>
eng er</w>
an ci
orig in
st opped</w>
establ ished</w>
ac ting</w>
em a</w>
se a</w>
ectiv ely</w>
s ex
spok es
cl es</w>
M il
Rus sia</w>
Th us</w>
L ak
bel ow</w>
r am
ash ed</w>
di esel</w>
ad i</w>
dev o
NC P</w>
l ic
se tt
t ty</w>
constitu ency</w>
suff ering</w>
Z eal
cle an</w>
pl at
tit ude</w>
cha y
langu ages</w>
opport unities</w>
cap acity</w>
op ened</w>
rul es</w>
cat eg
g oo
benef its</w>
ac ts</w>
fac ing</w>
applic ation</w>
ext rem
N ov
l os
neigh b
Th ir
re comm
no ti
V ice</w>
W ater</w>
in ning</w>
wor th</w>
r ural</w>
tr ust</w>
pa red</w>
la ws</w>
hat ever</w>
Isl am
con gratul
D hon
sac ri
F am
ann ing</w>
di v
perform ance</w>
ord ers</w>
th ats</w>
ban ks</w>
19 7
re r</w>
m oun
k ill</w>
invest ment</w>
st y
T ur
rela tions</w>
ch e
m ary</w>
D onald</w>
F ore
wh ose</w>
K ann
con cl
tic s</w>
cri tical</w>
ent ing</w>
s or
confir med</w>
anc ed</w>
cust ody</w>
en ge</w>
cas t</w>
inf rastructure</w>
b ul
ud i</w>
5 0
e x</w>
Pakist ani</w>
F our</w>
M r
3 0
ob j
K ing</w>
C hi
ei ght</w>
cip al</w>
c ut</w>
hel ped</w>
off ered</w>
it a</w>
ar my</w>
medi c
recei ve</w>
al ities</w>
th an
m ar</w>
ou se
respon sible</w>
Cric ket</w>
actu ally</w>
ic es</w>
A ward</w>
st ood</w>
cri me</w>
Jap an</w>
201 6</w>
mom ent</w>
institu tions</w>
E D</w>
ex per
x ed</w>
al ised</w>
El ection</w>
suff ered</w>
maj ority</w>
J une</w>
pro pos
exam ination</w>
T oday</w>
Ar ab
hear ing</w>
K h
s en
can c
doc tor</w>
con ditions</w>
B ill</w>
ver si
accep ted</w>
sion al</w>
em y</w>
vi ew
As soci
heal thy</w>
pr acti
acc ept</w>
alli ance</w>
B en
do or</w>
bl ack</w>
Ad d</w>
av er
Op position</w>
hel ps</w>
some one</w>
ish ing</w>
att ers</w>
I I</w>
ati s
Zeal and</w>
comm is
T er
fil led</w>
your self</w>
th us</w>
t om
Mos es</w>
it self</w>
sist er</w>
col lege</w>
S ik
ang e</w>
S ep
soldi ers</w>
un g</w>
laun ch</w>
cul tural</w>
Res earch</w>
Ro ad</w>
am an</w>
2 7</w>
Bec ause</w>
8 0</w>
I ran</w>
In stag
ter ms</w>
ath i</w>
nam es</w>
M un
i ka</w>
saf e</w>
direc tion</w>
impro ve</w>
ris k</w>
Instag ram</w>
hol y</w>
pre pared</w>
str at
complet ely</w>
c lo
recor ded</w>
te dly</w>
b it</w>
N iti
f ell</w>
post -
bre ak</w>
Rail ways</w>
j e
P M
saf ety</w>
an ing</w>
Dhon i</w>
de plo
j ri
d ar
ris m</w>
tal ks</w>
ev ening</w>
war ded</w>
Af gh
w on
K ore
J er
s ave</w>
S crip
loo ked</w>
pres ented</w>
men tioned</w>
sid es</w>
W e
W el
recog ni
sc ored</w>
seri ously</w>
D on</w>
N ep
ref used</w>
p rec
j ail</w>
l er</w>
en vironment</w>
Ke jri
ad d</w>
ov t</w>
re ment</w>
rem ained</w>
pr ac
Corpor ation</w>
nat ure</w>
l ess
show s</w>
Son ia</w>
3 5</w>
Grou p</w>
as hi
i th
believ ed</w>
U r
tern al</w>
L oc
s on
For ce</w>
Rail way</w>
E con
char ges</w>
U d
p il
R om
no w
O ver</w>
ar ticle</w>
Econ om
tem per
- -</w>
in ing</w>
ound ation</w>
C i
u sion</w>
A S
att end</w>
Ad it
s ource</w>
tow ard</w>
gh out</w>
Sci ence</w>
te es</w>
pe trol</w>
ev il</w>
i er</w>
char ged</w>
p ul
Beng aluru</w>
c ue</w>
de aths</w>
dra w
4 .
G ar
in quiry</w>
at eral</w>
or dered</w>
l ines</w>
al am</w>
spe aking</w>
arri ved</w>
rail way</w>
alleg ations</w>
beauti ful</w>
ac her</w>
fem ale</w>
gir ls</w>
mat ches</w>
st age</w>
Cha irman</w>
big gest</w>
er ation</w>
B ach
G ST</w>
el ess</w>
Un der</w>
Constitu tion</w>
s anc
avo id</w>
b ir</w>
E very</w>
cerem ony</w>
exc ept</w>
W ord</w>
imp act</w>
provid ing</w>
c row
was nt</w>
K ul
grow ing</w>
F armers</w>
y ou
bo y</w>
organ ised</w>
eng ine</w>
S ou
T ake</w>
Oc to
spe ech</w>
c hi
apur am</w>
duc tion</w>
l evel
st aff</w>
comm er
p ain</w>
vis ited</w>
Ju ly</w>
k new</w>
F ather</w>
jo in</w>
continu es</w>
Afgh an
c ard</w>
on e
201 4</w>
r ying</w>
mod ern</w>
T al
esti m
conduc t</w>
an kar</w>
Sep t
ed ing</w>
S enior</w>
foc us</w>
s ense</w>
p ain
sch edul
P ur
C P
Kejri wal</w>
se t
ne g
al most</w>
S um
rem ains</w>
or ing</w>
ic ity</w>
P ho
care er</w>
vi ews</w>
B ro
Le ague</w>
Ass am</w>
con st
sig ns</w>
ju n</w>
me etings</w>
hol ds</w>
g a
ed ding</w>
conf idence</w>
b ac
S ri
happ ens</w>
ev ents</w>
3 1</w>
jud g
en h
ac tors</w>
str ong
dic t</w>
Pe ter</w>
mi gr
ear ing</w>
com for
previ ous</w>
C ar
esti c</w>
ribu ted</w>
trav el</w>
qu ali
eg et
A P</w>
port ers</w>
democ racy</w>
assist ance</w>
vot e</w>
ed y</w>
pro ph
C ur
Sept ember</w>
oper ations</w>
2 9</w>
u ti
Octo ber</w>
uk h</w>
nei ther</w>
Dec ember</w>
ay an</w>
su rely</w>
th inking</w>
Fam ily</w>
im m
L on
M am
certain ly</w>
P et
Raj nath</w>
jo y</w>
st er</w>
M ess
Fr ance</w>
ad ditional</w>
prin ci
ind ra</w>
c han</w>
s atis
aw are</w>
po sted</w>
mo del</w>
di a</w>
e ed</w>
g as</w>
b ail</w>
m us
C E
p and
s ought</w>
discus sion</w>
Ac tor</w>
h ours</w>
pl eas
tr adi
il a</w>
fri end
R em
cont est</w>
the e</w>
clai m</w>
tion ing</w>
m atters</w>
L aw</w>
id ea</w>
four th</w>
E g
scri p
An il</w>
e th</w>
year -old</w>
h ouse
n e</w>
m ist
T ra
rap e</w>
ra tic</w>
L OR
J e
t our
Bach chan</w>
en ship</w>
al ty</w>
k et
bo x</w>
Afghan istan</w>
st ems</w>
M or
an g</w>
serv ants</w>
ac hal</w>
anc ing</w>
al ore</w>
lead ership</w>
R A
web site</w>
cra ft</w>
D es
201 5</w>
is es</w>
ow s</w>
chall enge</w>
te sts</w>
pre sid
la u
Com p
y er</w>
victi m</w>
air port</w>
o be
thous and</w>
Man o
anti -
H um
Nov ember</w>
w il
o ts</w>
ag er</w>
iti z
import ance</w>
J ust</w>
dam aged</w>
pre par
vi a</w>
A ug
agre ed</w>
Lon don</w>
f f</w>
S C</w>
stor age</w>
M ur
stat us</w>
ar m</w>
no te</w>
com pri
pres ence</w>
wat ch</w>
announc ement</w>
S rin
buil d</w>
al -
O r</w>
ot e</w>
M eh
9 0</w>
n ation
Ab out</w>
re pe
Off ice</w>
Jan uary</w>
and er</w>
N E
ha ps</w>
jud ge</w>
sh ou
throu ghout</w>
Or gan
Americ a</w>
signific ant</w>
em o
festi val</w>
19 6
G oo
' ll</w>
extrem ely</w>
phys ical</w>
es cap
op pos
3 00</w>
cri sis</w>
H a
apost le</w>
numb ers</w>
LOR D</w>
A part</w>
lov ed</w>
s in</w>
Fil m</w>
S tr
celebr ated</w>
effor t</w>
se l</w>
det ained</w>
5 -
ur ged</w>
spor ts</w>
hospit als</w>
ess or</w>
tal king</w>
r ally</w>
pro sp
S S</w>
k en</w>
reli ef</w>
on ic</w>
di sha</w>
prote sts</w>
5 .
c k</w>
re v
c lim
on a</w>
centr e</w>
in sp
terror ists</w>
ha d
f led</w>
an -
anci ent</w>
gre ater</w>
appe ared</w>
pho to</w>
de g
ass es</w>
er ti
ne ar
I r
str ug
em es</w>
faith ful</w>
W il
Go a</w>
in j
acc ess</w>
o ing</w>
Ad v
om ing</w>
P ati
tr uck</w>
co -
har m
run ning</w>
ish es</w>
Fore ign</w>
Thir uv
deter min
Aug ust</w>
Associ ation</w>
tr ou
ad e
D M
S ome
rang e</w>
fac ed</w>
W he
con struc
pun ishment</w>
attac ks</w>
J D</w>
R eli
er -
Ak sha
no tice</w>
see king</w>
CC I</w>
ap ply</w>
ben ch</w>
v i</w>
terror ism</w>
typ e</w>
se ek</w>
bat s
H ol
ine ering</w>
vir us</w>
nor mal</w>
ad ing</w>
O disha</w>
n one</w>
vill ages</w>
ex plo
it ate</w>
r aid</w>
1 -
cor rec
CC TV</w>
ak es</w>
C A
pol l
v ind</w>
i on
vi sions</w>
occur red</w>
B as
ou red</w>
benef ici
re fl
challeng es</w>
ser ving</w>
ust ries</w>
Ma j
tour nam
em en</w>
qu i
ju di
tre ated</w>
ess ential</w>
sol ution</w>
In formation</w>
eff ective</w>
ustri al</w>
recei ving</w>
N ath</w>
d own
7 .
fal se</w>
B a
T H
vo ice</w>
gh t
promis e</w>
con dem
T em
evi sion</w>
uc k
K um
v eget
happ iness</w>
deci sions</w>
des p
D em
al led</w>
daugh ters</w>
tur ing</w>
S id
u als</w>
R ev
Y or
reg ul
s outh</w>
sist ers</w>
W ar</w>
pl ans</w>
IC C</w>
w est</w>
mil k</w>
beg inning</w>
wh ite</w>
gre en</w>
ra j</w>
w edding</w>
cha irman</w>
cha ired</w>
6 .
Chil dren</w>
beg in</w>
hum ans</w>
Li fe</w>
3 2</w>
Ar jun</w>
4 5</w>
sh i</w>
agric ulture</w>
for th</w>
K an
P le
it er
G ood</w>
main tain</w>
b udget</w>
Isl am</w>
ren ch</w>
nor th</w>
Ar ticle</w>
ha v
C ov
we ight</w>
at tr
re ply</w>
inn ings</w>
Eg yp
tr ains</w>
li ons</w>
er ve</w>
p ath</w>
mon it
Am ong</w>
N eh
s we
deg ree</w>
direc t</w>
ad es</w>
be gun</w>
te sted</w>
il s</w>
pand emic</w>
M in
w ait</w>
diffe rence</w>
gi es</w>
0 .
lock down</w>
Krish na</w>
corrup tion</w>
end ment</w>
heav ens</w>
tu red</w>
h ood</w>
ak ash</w>
sy mp
near by</w>
cust om
quar ters</w>
r ates</w>
Ci vil</w>
sk in</w>
in ated</w>
x imum</w>
ter ror</w>
sou l</w>
vers ary</w>
provid es</w>
cas h</w>
w ish</w>
Mr .</w>
si x
il ed</w>
fe et</w>
prev ent</w>
F un
exerc ise</w>
w is
He av
re t</w>
pray er</w>
re ti
tri c</w>
victi ms</w>
l ds</w>
Ch an
sle ep</w>
ad op
ab h</w>
mo tor
destro yed</w>
au th
b a</w>
te l</w>
def ence</w>
ch i</w>
p ass</w>
2 ,
under going</w>
N aid
C am
mater ial</w>
jo int</w>
B ad
2 -
coun ter</w>
o ples</w>
jour ney</w>
ru pe
prot ect</w>
an th</w>
ec tions</w>
k ids</w>
enjo y</w>
Ah med</w>
Sat an</w>
l and
stri ke</w>
B CCI</w>
sub ject</w>
ach es</w>
dra w</w>
u d</w>
Au thor
g ency</w>
implem ented</w>
Rep ublic</w>
vot es</w>
L eg
m and
ac compan
In deed</w>
Al l
par liam
er jee</w>
G ang
Isra el
evel op</w>
conc ern</w>
pha se</w>
cir cum
w ell
appro val</w>
mov ies</w>
m anner</w>
Euro pe
op in
ecu tive</w>
deplo yed</w>
individ ual</w>
fi f
L u
idd le</w>
F rench</w>
un it</w>
D id</w>
accoun ts</w>
' ve</w>
Naid u</w>
Mu ham
udd in</w>
p rou
partic ular</w>
Malay alam</w>
H as
No thing</w>
ear th
susp ended</w>
p on
Ser vice</w>
v ely</w>
se ts</w>
S ee</w>
Wel fare</w>
K ap
S ay</w>
s end</w>
b ill</w>
streng th
hear ts</w>
t ar</w>
dem on
aver age</w>
cer ti
Aksha y</w>
S A
ri d
C itiz
a g</w>
ep tion</w>
ici ent</w>
pre h
reg ular</w>
ur ch</w>
ent er
ak s</w>
the w</w>
streng then</w>
d uty</w>
pri mary</w>
s -
ann a</w>
pro duce</w>
Ch op
re view</w>
T ata</w>
G up
Ar vind</w>
bil lion</w>
repres ent
go al</w>
f arm
appro ach</w>
us ers</w>
Am b
Ger many</w>
F ood</w>
sur ance</w>
Yor k</w>
am y</w>
l led</w>
Nep al</w>
dis mis
el a</w>
wr ite</w>
ni versary</w>
k es</w>
win ning</w>
resid ents</w>
en sion</w>
sh own</w>
jo bs</w>
res cue</w>
re rs</w>
Jan ata</w>
A li
R E
n um
s ent
Thiruv an
dom estic</w>
play er</w>
G od
us al
Deep ika</w>
sal t</w>
b attle</w>
w ont</w>
st -
Vi k
u ri
car ry</w>
fun ds</w>
Moham med</w>
il e
d evelop</w>
com petition</w>
ag ers</w>
i ous</w>
Cha mp
i -
Ser vices</w>
n ership</w>
pur su
au r</w>
Ban erjee</w>
U P</w>
st one</w>
canc er</w>
t oms</w>
ver sion</w>
7 5</w>
adv ant
F ar
i v</w>
v ey</w>
re ality</w>
Jer usal
Dha ka</w>
b ar</w>
tournam ent</w>
gr anted</w>
Ah med
8 .
B ook</w>
en tered</w>
Ram esh</w>
h om
3 3</w>
terr it
U p
z a</w>
perf ect</w>
sev ere</w>
im age</w>
ai f</w>
ig n
ver dict</w>
t an
m al
ab s
pro per</w>
ous ness</w>
T u
Thiruvan anth
fel low</w>
wa iting</w>
doub t</w>
level s</w>
e en</w>
J har
I A
bec omes</w>
S ach
Y ah
pro v
So ci
M an</w>
sty le</w>
ext ended</w>
So cial</w>
Sch eme</w>
w hatever</w>
all -
bro ke</w>
J as
gener ation</w>
op tions</w>
long er</w>
figh ting</w>
do w</w>
hur t</w>
consu l
E ach</w>
des ire</w>
ren ces</w>
W ar
I M
sel f-
th -
e ks</w>
requ est</w>
in nov
rain fall</w>
har d
su l
Im ran</w>
inc idents</w>
Thiruvananth apuram</w>
P ower</w>
head ed</w>
th day</w>
S el
O b
pl ea</w>
19 5
cr u
Al though</w>
equ al</w>
ly mp
sy m
tou ri
G h
ad ed</w>
Fi ve</w>
al ism</w>
sel ected</w>
sub mitted</w>
re duce</w>
me g
lear ning</w>
1 st</w>
inv ited</w>
s ongs</w>
sex ual</w>
V al
co ach</w>
op ening</w>
Pr in
cel e
organ is
an al
pe ac
FI R</w>
suppor ted</w>
thre at
u b</w>
F ire</w>
ra ther</w>
appro pri
prou d</w>
Chop ra</w>
col our</w>
implem entation</w>
ali zed</w>
t op
t ains</w>
ta x
intro duced</w>
sh oc
ur ban</w>
br an
charac ter</w>
sp ent</w>
ri g
tis garh</w>
ke ter</w>
prof es
W ell</w>
C ri
Mis sion</w>
man i
s li
Muham mad</w>
en su
mo han</w>
wor ld
Moham mad</w>
Ar un</w>
st ations</w>
ec t
tw o-
Euro pe</w>
s itting</w>
ci vil</w>
de but</w>
d ings</w>
res ources</w>
F urther</w>
pot ential</w>
m ir
Europe an</w>
O lymp
Kann ada</w>
de al
In ter
heav en</w>
Ple ase</w>
li ved</w>
ur rec
Indi a-
n er
S ud
program mes</w>
righte ous</w>
proper ty</w>
Ch hat
initi ated</w>
ra di
L im
D oc
in struc
ha v</w>
feat ure</w>
ol o
r ound</w>
Ab ra
under standing</w>
el ines</w>
ud ed</w>
F ebr
k hand</w>
an i
R ak
mis sing</w>
d on
te acher</w>
list en</w>
dr ink</w>
L t
min ent</w>
19 4
temper ature</w>
Heav y</w>
P i
lim ited</w>
Jerusal em</w>
w itness</w>
c ast
Paw ar</w>
Sim il
gu il
OD I</w>
con vic
Pr akash</w>
dre ds</w>
A sian</w>
a u</w>
ar gu
st ands</w>
M C</w>
cou ldnt</w>
sug ar</w>
T ou
emp ha
c aught</w>
se ems</w>
dre am</w>
sch emes</w>
car rying</w>
Febr uary</w>
dam age</w>
sig n
ref erred</w>
aut om
scen e</w>
author ity</w>
prac tice</w>
ven ue</w>
disp ute</w>
thous ands</w>
Tha ck
V is
promo te</w>
agre ement</w>
H on
C r
Y e
writ er</w>
air craft</w>
propos al</w>
Mat thew</w>
g ames</w>
9 .
Te am</w>
ic t</w>
separ ate</w>
stu dies</w>
m un
el led</w>
individ uals</w>
c alls</w>
tri al</w>
H er
Thack er
S war
pi ec
om b
t ree</w>
ag g
m ach
tar get</w>
direc tly</w>
coun tr
prog ram</w>
a be
attac ked</w>
st ly</w>
st ances</w>
it am
ush ka</w>
M ake</w>
g es
L ab
se x</w>
Tr ansp
z es</w>
we ap
leg isl
ang er</w>
pro posed</w>
ma ximum</w>
ap p</w>
loc ation</w>
d ar</w>
pl ant</w>
v ac
immedi ate</w>
Am it
net work</w>
en ly</w>
ov ind</w>
us ti
cont act</w>
chay at</w>
bab y</w>
M as
bec oming</w>
keep ing</w>
S ad
in i</w>
ne arly</w>
Sa udi</w>
ren ess</w>
af raid</w>
writ ing</w>
power ful</w>
wor lds</w>
man kind</w>
fir m</w>
my self</w>
M and
Offic er</w>
a warded</w>
Y outh</w>
spok en</w>
P sal
k illing</w>
An ushka</w>
F e
k ings</w>
k h
ha ir</w>
m ine</w>
sk i
Chhat tisgarh</w>
anim als</w>
c over</w>
rul ing</w>
re stric
lig ence</w>
G lo
comp ared</w>
remov ed</w>
u ted</w>
i ah</w>
af ter
sy stems</w>
am ed</w>
P or
os h</w>
for tun
v ation</w>
B us
f ish</w>
ag ree</w>
2 5
ri sing</w>
ash es</w>
for get</w>
Ap p</w>
Spe aking</w>
bil ateral</w>
appe al</w>
partic ularly</w>
un its</w>
Bang alore</w>
thre e-
occ up
U K</w>
accompan ied</w>
qu ick
z ing</w>
cre dit</w>
bas ic</w>
Su resh</w>
prot ection</w>
ear s</w>
h omes</w>
Every thing</w>
wal k</w>
K a
e sted</w>
tr ac
we h</w>
cre ation</w>
2 4
l ands</w>
Yah weh</w>
cy cle</w>
c ros
si ght</w>
fam ous</w>
Ti me</w>
e th
associ ated</w>
S en
U N</w>
g n
f ail
D oes</w>
grad u
is tic</w>
f ying</w>
ici pal</w>
D ar
lov ing</w>
Thacker ay</w>
ro b
i ans</w>
speci fic</w>
no ted</w>
Pr ad
disci ples</w>
in ner</w>
audi ence</w>
cric keter</w>
initi ative</w>
F o
D E
re -
res sed</w>
Jhar khand</w>
R ash
In depend
dec l
discus s</w>
P ul
V id
teach ing</w>
us ually</w>
scre en</w>
Ash ok</w>
dec ide</w>
m ent
Pr ab
in stead</w>
leg es</w>
achi eve</w>
post- mortem</w>
gh ty</w>
Rav i</w>
over y</w>
cont rib
repor tedly</w>
Amit abh</w>
H us
our selves</w>
E .</w>
Op en</w>
can cel
M emor
tre es</w>
L ove</w>
H el
D ut
transp ort</w>
Ahmed abad</w>
lo an</w>
R ukh</w>
ec tor</w>
exist ing</w>
con dol
Ad ditional</w>
P ic
l atest</w>
terror ist</w>
inter view</w>
Jam es</w>
Y ou
l ose</w>
graph y</w>
th ar
Sun il</w>
des ign</w>
coll abor
l ack</w>
T I</w>
activ ity</w>
Gup ta</w>
ve er</w>
f le
Ke ep</w>
P C
promis ed</w>
sil ver</w>
pur cha
the red</w>
resp ectively</w>
Rus sian</w>
spokes person</w>
t y
Man agement</w>
some times</w>
G en
photo s</w>
pro p
ass a
as tic</w>
ti tle</w>
in ations</w>
B r
sh aring</w>
P F</w>
off ers</w>
Ex c
ag ency</w>
o x
g row</w>
be l</w>
Pun e</w>
T R
t aught</w>
mas sive</w>
k ind
politi ci
o ever</w>
wis dom</w>
l al</w>
n ar
v a</w>
a z</w>
ar ch
Mo han</w>
be at</w>
u ment</w>
ra tive</w>
dig ital</w>
ic ations</w>
F ad
con fl
L o
com posed</w>
Pro f
P and
Sach in</w>
alleg edly</w>
descri bed</w>
dr inking</w>
pre aching</w>
shor t
ca uses</w>
Jos ep
ci v
we alth</w>
t on
gi c</w>
t aining</w>
organ iz
show ed</w>
m ic
demon str
loc ked</w>
mar kets</w>
s mart
be y
uni que</w>
exam ples</w>
K at
G o</w>
tel evision</w>
ati ya</w>
goo ds</w>
s am
bu y</w>
appe ar</w>
Psal m</w>
chec k</w>
Econom ic</w>
estim ated</w>
rem aining</w>
m ut
C S
l aid</w>
ch em
it ch
lo ad</w>
appropri ate</w>
Kore a</w>
ens ation</w>
ir s</w>
9 9</w>
pow der</w>
dedic ated</w>
st ern</w>
ap ped</w>
li e</w>
b ap
d -
Ex ternal</w>
an niversary</w>
al ists</w>
fin ally</w>
lak hs</w>
201 3</w>
Yog i</w>
ha th</w>
Pho to</w>
A jay</w>
c ot
s p</w>
hol ding</w>
fac ility</w>
b esides</w>
an o
ad y</w>
it able</w>
tr o</w>
arrang ements</w>
op e</w>
Mam ata</w>
di seas
Fad nav
E r
Mo U</w>
M ir
uni versity</w>
set ting</w>
est er
s a</w>
lear ned</w>
aj i</w>
m id
oun der</w>
mon y</w>
s a
pl an
bey ond</w>
Su per
po int
R el
ab road</w>
I ve</w>
lit re</w>
wel fare</w>
le ar</w>
we red</w>
pr ay</w>
pay ment</w>
M er
ing ton</w>
deb ate</w>
divid ed</w>
Le ts</w>
Abra ham</w>
C .
w itn
clai ms</w>
3 7</w>
c old</w>
multi ple</w>
w a</w>
plat form</w>
electr icity</w>
we eks</w>
A mar
ul lah</w>
et er
ong oing</w>
le ts</w>
a wards</w>
si ze</w>
Islam ic</w>
bl es</w>
attemp t</w>
N agar</w>
does n</w>
be ar</w>
Fadnav is</w>
wor shi
Raj iv</w>
x im
Tha k
trans l
anc y</w>
N R
wor ry</w>
Com mer
3 6</w>
e ast</w>
f low
man aged</w>
b ag
Sin ha</w>
3 4</w>
ut ri
diseas es</w>
N at
Goo gle</w>
comm ents</w>
Man mohan</w>
R BI</w>
t ext</w>
re sig
S on</w>
S ection</w>
ple ase</w>
Ri ver</w>
me aning</w>
ph ones</w>
M ag
war a</w>
coll ap
4 00</w>
U .
fir ing</w>
fo rest</w>
loc als</w>
ing ing</w>
g od
mov ing</w>
sust ained</w>
Ne ws</w>
N i
com ment</w>
per mission</w>
ik h</w>
ish er
off ering</w>
ai m</w>
ap i
ech an
B hat
tol l</w>
pati ent</w>
ph ere</w>
cont ribution</w>
r ac
Lt d</w>
ut i</w>
doc uments</w>
M S
part ments</w>
addres sed</w>
k in
n y</w>
organ ized</w>
Tem ple</w>
neg ative</w>
spec ies</w>
Wh ich</w>
G op
rela tives</w>
ent y</w>
ab i</w>
sim ply</w>
organ ization</w>
b at</w>
Ma hat
bir thday</w>
cor por
esh war</w>
Am endment</w>
sc ore</w>
ad er</w>
u ter</w>
it age</w>
del eg
b ase</w>
new sp
a ur
f air</w>
res sing</w>
o j
perform ed</w>
mer cy</w>
ar ity</w>
hon our</w>
cho ose</w>
S ports</w>
tr i</w>
ch ance</w>
be ha
ent ually</w>
inj ury</w>
Sup er</w>
Sh ankar</w>
H app
s in
D ue</w>
f ts</w>
Con trol</w>
min or</w>
H ist
Ak h
te as
und red</w>
crimin al</w>
prote sters</w>
g ain</w>
dis play</w>
Intern et</w>
b and
we ather</w>
W est
at ures</w>
F C</w>
twe et</w>
beg ins</w>
l ying</w>
K ovind</w>
p ac
vers y</w>
quick ly</w>
guid ance</w>
b ut
S ang
pro ved</w>
dem ands</w>
A t
k g</w>
ar d
proc e
op posed</w>
loo ks</w>
o ted</w>
pres sed</w>
B ir
b ad
comm and</w>
g un
ou ghts</w>
an ity</w>
hi d</w>
cho ice</w>
desp ite</w>
y l
investig ations</w>
r is</w>
respon d</w>
com peti
I S</w>
diffic ul
- year-old</w>
p al
typ es</w>
Ja it
Be fore</w>
V ic
wic ket</w>
intern al</w>
circum stances</w>
op h
coun sel</w>
M E
H am
sacri f
develop ing</w>
Mahat ma</w>
certi fic
s old</w>
Ger man</w>
n agar</w>
gr and
guil ty</w>
draw n</w>
ter y</w>
pro ve</w>
D ig
f requ
inaugur ated</w>
ap ur</w>
at en</w>
fac il
p as
Dev endra</w>
disci pl
res cu
f light</w>
po sts</w>
independ ent</w>
1 50</w>
3 ,
ther wise</w>
Si thar
im ag
V in
op tion</w>
D o
or a</w>
am e
is la
pp ing</w>
Kam al</w>
He bre
Josep h</w>
ari a</w>
Indi es</w>
Transp ort</w>
3 70</w>
Rah man</w>
sc ale</w>
201 2</w>
fe eling</w>
particip ate</w>
val ues</w>
su d
adi um</w>
er gy</w>
ur g
Beng ali</w>
vide os</w>
symp toms</w>
i o</w>
intern et</w>
pl anning</w>
201 1</w>
u ries</w>
C R
Li ke</w>
di al
Bhar atiya</w>
J av
ha i</w>
A N</w>
ar ak
adv ice</w>
forc ed</w>
assu red</w>
n i</w>
ar ms</w>
ann ual</w>
as w
contro versy</w>
Comm un
M ish
DM K</w>
Author ity</w>
al ert</w>
sh ops</w>
m ala</w>
Lim ited</w>
defe at</w>
h undred</w>
part nership</w>
veget ables</w>
war m</w>
organ isation</w>
pre p
Adit yan
St ation</w>
K .</w>
sch ol
f low</w>
B el
cin ema</w>
V ish
ond a</w>
Elec tr
f ur
Bha g
re duced</w>
Chan di
k er</w>
Ac ad
M Ps</w>
s la
influ ence</w>
as i</w>
S ind
w ishes</w>
A AP</w>
li qu
conn ected</w>
Hum an</w>
thre at</w>
d y
Prin cipal</w>
tru ly</w>
discus sions</w>
ans wered</w>
Ran veer</w>
on es
en ant</w>
Bus iness</w>
sp end</w>
awa reness</w>
stor ies</w>
an ese</w>
in spir
s mo
un ion</w>
c overed</w>
st able</w>
s ound</w>
mar t</w>
ut ting</w>
th a</w>
la sting</w>
cancel led</w>
bats man</w>
leav es</w>
j un
P -
In f
p ment</w>
sec tors</w>
k i</w>
lau gh
Sithar aman</w>
col leges</w>
C el
pro visions</w>
A ar
v s</w>
hi r</w>
exc ell
as king</w>
commer cial</w>
war i</w>
ap ers</w>
F a
ing u
N et
mater i
f resh</w>
C al
intere sts</w>
pe oples</w>
wor ried</w>
s ad</w>
G ad
manufac turing</w>
categ ory</w>
Th ough</w>
pos es</w>
elec tric</w>
bel ong
M ov
E astern</w>
investig ated</w>
sk y</w>
s n
t ab
dri ve</w>
Yog a</w>
a str
stand ards</w>
cam p</w>
car s</w>
v acc
har i</w>
ex change</w>
Dha wan</w>
Fri ends</w>
v ement</w>
bri dge</w>
Ad minist
pray ers</w>
D in
dang erous</w>
tra dition</w>
sav ed</w>
won der
tou ch</w>
Govern ments</w>
N T
re vol
liter ature</w>
n it
ri a</w>
R is
view ed</w>
dep uty</w>
tu al</w>
it or</w>
Ac tion</w>
origin al</w>
sup pl
Adityan ath</w>
H un
commun ication</w>
no body</w>
fin ance</w>
U s</w>
Ge or
wel come</w>
im posed</w>
Pol ic
val u
R ed</w>
x el</w>
ski pper</w>
serv ation</w>
Jait ley</w>
bus in
eas ily</w>
Gre at</w>
th ir
An and</w>
chang ing</w>
T end
at mos
sacrif ice</w>
T ru
k har</w>
sub sequently</w>
pre gn
F ed
On ce</w>
T ir
sur r
follow ers</w>
opin ion</w>
l am
k ers</w>
pi one
cont ains</w>
re al
m emor
strug gle</w>
J on
re over</w>
pro vision</w>
d ates</w>
princi ples</w>
ri vers</w>
W ash
M ot
war ning</w>
fru its</w>
Sush ant</w>
Pol iti
at titude</w>
aff airs</w>
wic ked</w>
W ere</w>
H es</w>
pro minent</w>
Bra z
mag az
comp uter</w>
n ine</w>
Wat ch</w>
Pad uk
ques tioned</w>
v ered</w>
sec tions</w>
K aur</w>
s y</w>
tradi tional</w>
t ally</w>
ep h
j u</w>
uc lear</w>
K are
Con ference</w>
S ain
bus y</w>
achiev ed</w>
ar am</w>
Dem oc
B SP</w>
N G
isla tive</w>
ad ers</w>
con vers
L ook</w>
Gre ek</w>
Ven k
n am</w>
li fe
N I
As sist
0 -
ey e</w>
es sions</w>
Ab h
so f
sh ar
lead s</w>
inc h</w>
rou te</w>
high ly</w>
in ted</w>
e um</w>
gu ar
pl om
G old</w>
Glo bal</w>
Hind us</w>
cent res</w>
techn ical</w>
es day</w>
pri son
CE O</w>
de eds</w>
K ings</w>
Nir mala</w>
d ness</w>
care ful</w>
h ost</w>
dismis sed</w>
B ag
e re
v als</w>
dou ble</w>
Egyp t</w>
Him achal</w>
war ned</w>
Ro y</w>
el ders</w>
r u</w>
see ing</w>
dist ance</w>
S T
ob served</w>
survi ved</w>
it ems</w>
pl ane</w>
beha vi
Inv estig
f oundation</w>
A w
pri ority</w>
L ast</w>
rescu ed</w>
O ut</w>
J ews</w>
ing er</w>
con ver
reg ularly</w>
regi onal</w>
en counter</w>
gu ard</w>
inf ection</w>
Prad han</w>
t rem
Fun d</w>
P ra
squ ad</w>
fa thers</w>
6 5</w>
Un der
Ma ha
produc er</w>
he at</w>
s ain</w>
tr ack</w>
N ations</w>
dom in
fiel ds</w>
fac es</w>
re ward</w>
R u
B aj
initi atives</w>
num erous</w>
Chri st
Bab u</w>
tr ail
s un
b h
Ind ustry</w>
f alls</w>
B udget</w>
qu ake</w>
Paduk one</w>
ap point
Abd ul</w>
deli vered</w>
s an
Pro ject</w>
Bra h
Pro gram
intere sted</w>
Mish ra</w>
cle arly</w>
z z
ld n</w>
tion ally</w>
it ors</w>
A jit</w>
I ra
bl ast</w>
u tions</w>
respon ded</w>
f uel</w>
as es</w>
cont ent</w>
Th ank</w>
f it</w>
Mo reover</w>
C ooper
W hat
S idd
pl anned</w>
en try</w>
Tend ul
m em
us er</w>
3 8</w>
b ing</w>
mar k
W ith
em ed</w>
C y
Raj put</w>
con sequ
it ted</w>
part ner</w>
insp ired</w>
coun t</w>
go als</w>
cent uries</w>
pl ants</w>
ici ous</w>
row n</w>
Ta x</w>
sha n</w>
see m</w>
lo ans</w>
res urrec
congratul ated</w>
In te
oun ding</w>
S il
pop ul
dru g</w>
defe ated</w>
noti fication</w>
ap pl
r ace</w>
p aper</w>
y ers</w>
l eng
Bhat t</w>
ha p</w>
j i
D S</w>
M ang
t oss</w>
l ink</w>
fun d</w>
photo grap
bro ken</w>
inter rog
s at
resol ve</w>
ay an
u sive</w>
Wash ington</w>
judg ment</w>
int en
R ural</w>
Can ada</w>
R ob
sc ared</w>
is ol
fr on
as ks</w>
P en
meg api
over ty</w>
educ ational</w>
ag encies</w>
f ill</w>
has nt</w>
ch an
th oughts</w>
dis rup
Niti n</w>
Scrip tures</w>
Chi dam
schedul ed</w>
L al</w>
Mah esh</w>
C ent
intere sting</w>
Chandi garh</w>
ac ad
sh op</w>
per man
ov ers</w>
mil lions</w>
app a</w>
pre ne
requ ested</w>
k ari</w>
st ress</w>
C ome</w>
Ph ili
Simil arly</w>
av es</w>
adv ised</w>
foot ball</w>
S af
A B
w at</w>
un known</w>
Utt arak
ai k</w>
Ac tress</w>
She ikh</w>
construc ted</w>
hav ent</w>
gre atest</w>
il legal</w>
promis es</w>
Y oj
f an</w>
Chidam bar
Air port</w>
rul ed</w>
agric ultural</w>
k ingdom</w>
Man i
te ach</w>
G al
ab and
Ra i</w>
el ings</w>
Thak ur</w>
G an
answ ers</w>
S E
ess ings</w>
atmos phere</w>
tiv ity</w>
you ths</w>
mis hap</w>
olo gies</w>
resig nation</w>
min imum</w>
surpri sed</w>
Pati l</w>
re signed</w>
Th ous
be d
pos s
g ath
Sha k
cre ating</w>
exp ect</w>
A tt
well -
cir cul
tw ice</w>
Ud d
histor ic</w>
oppos ite</w>
ten sion</w>
Swar aj</w>
P har
wr ong
crow d</w>
de v</w>
li z
expl ained</w>
iz e</w>
t our</w>
ot a</w>
judi cial</w>
U P
e ase</w>
b ol
t in
Kap il</w>
Uttarak hand</w>
ra h</w>
fil es</w>
Ch ou
Kar an</w>
al tern
hi l</w>
be half</w>
organis ations</w>
up s</w>
Chand ra</w>
C. E.</w>
com pe
Tendul kar</w>
sha res</w>
M s</w>
trou ble</w>
ak k
clim ate</w>
ond ary</w>
f un</w>
ep ing</w>
commit ment</w>
milit ants</w>
fore ver</w>
ul ts</w>
vi sible</w>
strong ly</w>
for d</w>
K ab
custom ers</w>
commis sion
c up</w>
c abinet</w>
stand ard</w>
G ames</w>
con testing</w>
x i
y es</w>
n an</w>
per haps</w>
med al</w>
resid ence</w>
pur a</w>
er ate</w>
T DP</w>
ab sol
follow s</w>
Cor onavirus</w>
megapi xel</w>
4 2</w>
n utri
Pro duc
ref u
pow ered</w>
R SS</w>
c oo
ren cy</w>
She tty</w>
suff er</w>
E d
2 8
ali ve</w>
aff ect</w>
og ue</w>
leav ing</w>
ac compl
sub -
it ch</w>
we stern</w>
p ack
d ance</w>
represent atives</w>
th ank</w>
u me</w>
fe elings</w>
ex cl
ex -
ai pur</w>
br inging</w>
sp ort</w>
am az
ut ing</w>
Citiz enship</w>
L al
lim it</w>
Em plo
R ic
er ial</w>
proc ed
cro ps</w>
win dow</w>
smart phone</w>
head quarters</w>
l ay</w>
k id
Spe aker</w>
devo tees</w>
win s</w>
W al
dru gs</w>
Cur rently</w>
R C
S till</w>
rupe es</w>
sal e</w>
s ites</w>
co sts</w>
tw are</w>
Sh ow</w>
s low
m ale</w>
produc t</w>
ap ore</w>
L uc
ph il
Ar ound</w>
What s
sec ret</w>
bra tions</w>
O thers</w>
resol ved</w>
wid ely</w>
scienti fic</w>
resol ution</w>
desig ned</w>
A wards</w>
fe e</w>
R ag
poll ution</w>
Nav y</w>
R en
m echan
correc t</w>
hel ping</w>
G ir
de y</w>
Mar uti</w>
vill agers</w>
fru it</w>
Al la
o di
v ital</w>
w aste</w>
ver bs</w>
6 -
associ ation</w>
identi ty</w>
polic emen</w>
p raise</w>
conf ident</w>
umb le</w>
T C</w>
h ot</w>
ric h
mak er</w>
pol l</w>
eng aged</w>
G ul
t ren
str ai
en ess</w>
3 9</w>
youn ger</w>
s log
re porters</w>
compl ex</w>
ab ilities</w>
me t
Tr ans
Kare ena</w>
G ol
pass ing</w>
resp ective</w>
gi ft</w>
emer gency</w>
stric t</w>
mor al</w>
D al
scienti sts</w>
D esp
determin ed</w>
g ovt</w>
ak h
r as</w>
ent ure</w>
am ing</w>
g od</w>
T o
Commer ce</w>
tro ops</w>
exp ress</w>
ov ere
ide as</w>
M usic</w>
, 9
w adi</w>
B .
s ell</w>
BJ Ps</w>
hi bi
versi ties</w>
bl essings</w>
r ice</w>
West ern</w>
P ost</w>
fif th</w>
Col l
wonder ful</w>
re duc
S to
Ad d
i v
b anned</w>
I O
5 5</w>
ful filled</w>
resul ted</w>
Lab our</w>
sib ilities</w>
por ary</w>
ab u</w>
4 8</w>
anim al</w>
tion ary</w>
rem ove</w>
ad equ
Cor in
3 -
over se
t ask</w>
Soci ety</w>
m iddle</w>
Australi an</w>
pres sion</w>
cas u
bran ch</w>
cha mp
exper ts</w>
strat e
S C
r o</w>
dri ving</w>
dev ice</w>
Dev i</w>
bo ost</w>
P S</w>
beli ef</w>
guid elines</w>
dist ributed</w>
Cov id
rap ed</w>
A I</w>
uk i</w>
n ur
ang els</w>
cour age</w>
B C</w>
s ort</w>
ol der</w>
tain ment</w>
P rem
Pan dey</w>
m ate</w>
Ali a</w>
hus han</w>
M ed
ren der</w>
c alling</w>
k ar
Muk her
int el
abs con
world wide</w>
l ers</w>
recog n
addres sing</w>
fav our
journ alist</w>
Tou rism</w>
P res
So on</w>
En ergy</w>
d ry</w>
CP I</w>
cul tiv
boo ked</w>
ap ati</w>
hi b
eff ects</w>
M ary</w>
Comp any</w>
appro ached</w>
ab bed</w>
St ar
Ad am</w>
p a</w>
b es</w>
Su z
im al</w>
el d</w>
un ch</w>
Desp ite</w>
experi enced</w>
S ul
p ending</w>
there after</w>
pow ers</w>
ex ist</w>
w illing</w>
y re</w>
ens es</w>
h our</w>
G ovt</w>
tou rism</w>
in surance</w>
a x
A adha
dem anding</w>
B ud
ac tly</w>
equi pment</w>
com ed</w>
Acad emy</w>
a rent</w>
pro of</w>
di vision</w>
ri c</w>
coun ter
sen si
sh ut</w>
Ind ones
t ough</w>
pri son</w>
C he
ga thered</w>
fi g
ind ustrial</w>
comp ensation</w>
gri ef</w>
ec k</w>
c ally</w>
bo ys</w>
M other</w>
r on</w>
201 0</w>
ev entually</w>
An n
b om
En ter
Chidambar am</w>
wel comed</w>
D G
os en</w>
ano inted</w>
mo tiv
particip ation</w>
appreci ated</w>
P TI</w>
Sec ret
In c
the res</w>
adi se</w>
pre dic
Ro yal</w>
Ear th</w>
conduc ting</w>
re ar</w>
Ran bir</w>
4 4</w>
trail er</w>
en th</w>
- based</w>
cl ash</w>
the ast</w>
independ ence</w>
re marks</w>
strat eg
Gur u</w>
ev ol
tr ag
U se</w>
weap ons</w>
An g
T ot
A am
identi fy</w>
L ad
Jo int</w>
itam in</w>
i tion</w>
ul a</w>
V ery</w>
r um
success fully</w>
Ay od
ar ance</w>
po on</w>
V ill
complain ts</w>
ang ry</w>
sur g
g g
Wh ite</w>
Tim es</w>
A j
Ac c
show ing</w>
ex am</w>
t an</w>
est ing</w>
R at
practi ces</w>
Yoj ana</w>
M eg
wat er
re venue</w>
de x</w>
har ass
fa ult</w>
suppor ting</w>
- e-
ul am</w>
it ely</w>
Pro t
ow ned</w>
high -
post mortem</w>
stre et</w>
i .
Pro verbs</w>
as ser
spec tor</w>
advant age</w>
regi ons</w>
asp ects</w>
ab led</w>
fi es</w>
cha p
in k
Off ici
acc idents</w>
Kum ar
ap art</w>
territ ory</w>
Aadha ar</w>
polic ies</w>
Is aiah</w>
win ners</w>
m ay
gre es</w>
Ex p
f lights</w>
Arab ia</w>
C le
mar ked</w>
e ating</w>
gr ant</w>
m ol
Mah indra</w>
Ayod hya</w>
mic ro
V o
vol un
Thous ands</w>
recomm end
fi xed</w>
cru cial</w>
Sing apore</w>
mi ghty</w>
ear ch
Th om
p an</w>
obj ective</w>
S ea</w>
we ak
rel ev
Rec ently</w>
er ror</w>
concern s</w>
ari an</w>
fin ished</w>
vo id</w>
on ds</w>
den ly</w>
ali ze</w>
tow er</w>
it ary</w>
ant a</w>
w ind</w>
ordin ary</w>
fav our</w>
Par k</w>
gu est</w>
int end
shoc ked</w>
Wor k</w>
Sm ith</w>
sug ges
n uclear</w>
adv is
K now
Gad kari</w>
inst ance</w>
Polic y</w>
prep are</w>
S k
Champ ion
Sub sequently</w>
d es</w>
th i</w>
B rit
occ ur</w>
ef s</w>
sec ure</w>
Sy stem</w>
Ex press</w>
tr an
. -</w>
om et
D al</w>
int on</w>
k umar</w>
oo th</w>
transf erred</w>
H o
Medi a</w>
v e-
P .</w>
profes sional</w>
en der</w>
L ev
br ings</w>
0 ,000</w>
j ew
ir i</w>
hi k
con sist
requi res</w>
E R
ge sted</w>
Pre sid
dist ribution</w>
meas ure</w>
ain able</w>
commis sion</w>
Fin ancial</w>
Jo b</w>
mem ory</w>
S U
Sol om
sk ills</w>
ex actly</w>
B ur
ch osen</w>
Mar k</w>
m outh</w>
pol ling</w>
encour age</w>
de grees</w>
sur vey</w>
Th an
per form</w>
a uty</w>
Mukher jee</w>
stu died</w>
os ed</w>
There after</w>
fig ure</w>
Mano har</w>
Vij ay
the at
p overty</w>
appe aled</w>
Suz uki</w>
Happ y</w>
Niti sh</w>
ath y</w>
w all</w>
on e-
flo or</w>
jo ining</w>
li ber
situ ated</w>
l u
ou d</w>
la g</w>
tis m</w>
er ity</w>
bel ongs</w>
Srin agar</w>
si der</w>
O per
Pr an
le -
adv oc
applic ations</w>
R ul
al ong
respon ding</w>
H os
constitu ted</w>
reas on
Aam ir</w>
f ought</w>
Chil d</w>
Whats App</w>
foot age</w>
B R
Di w
th care</w>
at e
constitu encies</w>
rem ents</w>
Indi ra</w>
st ock</w>
high way</w>
de ep
con sci
G l
se eds</w>
Ac ts</w>
mak ers</w>
em ies</w>
es is</w>
Doc tors</w>
mo tion</w>
righte ousness</w>
it t
Neh ru</w>
bro ad
ant i</w>
is he
confl ict</w>
appe ars</w>
bal ance</w>
no tes</w>
friend ly</w>
B eh
any where</w>
Kul deep</w>
head s</w>
Ad vis
law yer</w>
gl ory</w>
en able</w>
fin als</w>
wat ching</w>
ectiv ity</w>
Jap anese</w>
al though</w>
Ur ban</w>
200 9</w>
hand le</w>
Sha hid</w>
Pri v
K ir
i res</w>
ad or</w>
any body</w>
Sush ma</w>
Reg ist
P u
pass es</w>
transp or
V ad
f ast
d ated</w>
leng th</w>
ak h</w>
Program me</w>
d i</w>
offic es</w>
appro ves</w>
prin cipal</w>
go tt
ND A</w>
8 -
pre -
stud ying</w>
N an
peac eful</w>
activ ists</w>
it ure</w>
Udd hav</w>
ch er
w ing</w>
commun ities</w>
Na z
gre at
sing er</w>
ar r
stor m</w>
Loc al</w>
gu ide</w>
K i
He res</w>
cle an
TH E</w>
sub st
Paw an</w>
vic e-
sur face</w>
de partments</w>
ar ay
appoint ment</w>
dec ades</w>
A l</w>
sacri fic
Eng ineering</w>
gar lic</w>
un able</w>
T an
4 -
dre w</w>
I tal
di plom
fail ure</w>
lear nt</w>
Shar ad</w>
P in
produc ing</w>
impro ved</w>
le um</w>
A C
be aten</w>
lab ou
concern ing</w>
si tion</w>
Raj a</w>
buil dings</w>
an ish</w>
escap e</w>
Tim o
conv eni
al co
Investig ation</w>
hun dreds</w>
ici ency</w>
W H
e rely</w>
M ali
ay er</w>
T om</w>
D ra
E v
dang er</w>
U T
cour ts</w>
s i</w>
c li
e ply</w>
ap ex</w>
Braz il</w>
Pul w
we ar</w>
Some times</w>
proph et</w>
end iture</w>
An dro
clo th
bi ke</w>
asw amy</w>
ec ture</w>
phil os
20 00</w>
c ell</w>
su n</w>
tor al</w>
establ ish</w>
touri sts</w>
cl ari
E S</w>
Raj esh</w>
s ar</w>
el low</w>
prene ur
ch urch</w>
har mony</w>
ind ustries</w>
M E</w>
serv ant</w>
O il</w>
Go yal</w>
Cap tain</w>
col li
a c</w>
sal es</w>
Israel ites</w>
thi ans</w>
star ting</w>
T om
tiz ed</w>
ob ile</w>
St at
U N
re plied</w>
medic ines</w>
cont ext</w>
ar g
re d
s pl
M ain</w>
Covid -19</w>
perman ent</w>
uck y</w>
gar wal</w>
l or
200 8</w>
Pulw ama</w>
conn ectivity</w>
ex ecutive</w>
R ad
bus es</w>
wor se</w>
A T</w>
m ass</w>
am m
COVI D</w>
se ed</w>
um s</w>
Tot al</w>
D C</w>
on ion</w>
mod e</w>
increas es</w>
U. S.</w>
or row</w>
e astern</w>
sy n
tal ked</w>
A le
2 7
o ath</w>
she ep</w>
all er</w>
9 -
S av
P C</w>
b ound</w>
so il</w>
g en</w>
Lu ke</w>
flo od</w>
V ide
o i</w>
A v
dh ood</w>
ac i
it ated</w>
countr ys</w>
monit oring</w>
kind ness</w>
All -
ar med</w>
histor ical</w>
pic ked</w>
pos sibility</w>
2 6
citiz en</w>
condem ned</w>
Sha h
main ly</w>
D ani
me ant</w>
kin ds</w>
mist ake</w>
det ailed</w>
tor que</w>
ari ous</w>
qu it</w>
M y
excell ent</w>
p us</w>
threat ened</w>
A ra
Cong res
expl ain</w>
su pp
M ul
bir ds</w>
re di
G et</w>
W ould</w>
rec overy</w>
empha si
ong st</w>
aj a</w>
Man tri</w>
m ers</w>
Y oun
st ayed</w>
over all</w>
fi gu
dro p</w>
as an</w>
P il
Corin thians</w>
D R
clos ely</w>
J N
Jos hi</w>
Andro id</w>
Ar un
l at
er as</w>
strateg y</w>
adequ ate</w>
heav enly</w>
ha z
tor ate</w>
ter min
al lo
witn essed</w>
to il
Hist ory</w>
D et
Afric an</w>
recor ds</w>
St u
proper ties</w>
Ital y</w>
F oundation</w>
4 3</w>
per c
lin ked</w>
in hab
er ring</w>
ent re
li sted</w>
deli ver</w>
Ch eck</w>
s ung</w>
B ah
in her
pan ic</w>
nor thern</w>
fac ts</w>
coll ection</w>
D h
transf er</w>
Phili pp
v el
Mod is</w>
vis iting</w>
appro xim
Timo thy</w>
R et
ann oun
o h</w>
we i
I t
tem ples</w>
m ul
in ik
A L
F esti
ext ent</w>
trav elling</w>
fac tors</w>
z ation</w>
decl ined</w>
M yan
Fo rest</w>
Bl ack</w>
Diw ali</w>
rou gh</w>
intend ent</w>
Cl ick</w>
cele brations</w>
civ ili
Ko chi</w>
o res</w>
e ties</w>
expres sion</w>
convers ation</w>
Can did
umb er</w>
pre mi
ir person</w>
bel ong</w>
2 50</w>
O h</w>
gri ev
vot ers</w>
Tr aining</w>
motor cycle</w>
Si x</w>
Con sider</w>
diffe rences</w>
Su rely</w>
C PM</w>
d ens</w>
ear ned</w>
b alls</w>
cont ain</w>
J ew
ex ic
inst alled</w>
star red</w>
N one</w>
in al</w>
Di vision</w>
ail ing</w>
N m</w>
sug gested</w>
under stood</w>
a uc
bl ue</w>
u z
meth od</w>
H ous
pr on
ys is</w>
Ja ish
um p
Mess enger</w>
4 7</w>
te a</w>
por tion</w>
exp ect
J ac
Su kh
c ode</w>
gener ally</w>
comfor t</w>
t aste</w>
sol ar</w>
Sec ond</w>
comp on
star ts</w>
en de
prob ably</w>
ali d</w>
pan el</w>
Luc know</w>
relev ant</w>
en emies</w>
J it
acc ur
il li
strai ght</w>
sel ling</w>
in str
Maj or</w>
bow l</w>
Abh ishe
er able</w>
hon oured</w>
ak shi</w>
flo od
regist ration</w>
er ly</w>
Thom as</w>
fun dam
gath ering</w>
argu ment</w>
Ind ustries</w>
ri d</w>
f ounder</w>
S I
P P
tic ally</w>
stat ements</w>
Solom on</w>
z er
sp ar
ati sti
dist inc
mar ry</w>
p m</w>
mart y
re forms</w>
Pro c
D u
ro oms</w>
along side</w>
H av
M exic
CR PF</w>
4 ,
acc ord
s ins</w>
fac tory</w>
suff icient</w>
Tr ade</w>
ho l</w>
M ember</w>
bro w
ac le</w>
en ni
Pa rents</w>
grat eful</w>
dis h</w>
defin itely</w>
every where</w>
o g</w>
Amb ani</w>
farm er</w>
Mano j</w>
ro se</w>
A gre
te en</w>
mil es</w>
Kal yan</w>
N ever</w>
T re
Mun icipal</w>
jo int
Ira q</w>
fi red</w>
emer ged</w>
house hold</w>
th eless</w>
li v
r ina</w>
eng ineering</w>
ci ful</w>
D ub
ak ed</w>
Gang a</w>
Abhishe k</w>
s ens
S BI</w>
L ok
magaz ine</w>
b ha
j aw
arch it
De v</w>
sub mit</w>
B re
es .</w>
K ot
N ame</w>
sel ection</w>
sear ching</w>
mur dered</w>
b lock</w>
Assist ant</w>
w w
vari ety</w>
b it
Vi ve
des er
har m</w>
d est</w>
NR C</w>
v ed
ro ll
har y</w>
challeng ing</w>
assa ult</w>
our ing</w>
A void</w>
T ar
R O</w>
ful fil
S aif</w>
ph y</w>
sou thern</w>
f all
I F
en emy</w>
auth or</w>
ow ner</w>
sp ot
Sp ace</w>
e v</w>
cap tured</w>
se g
Bu il
Res erve</w>
be auty</w>
g ent
democ ratic</w>
el im
P S
strength ening</w>
gott en</w>
bat ting</w>
com preh
wal king</w>
y i
Wom an</w>
medic ine</w>
succ eed</w>
requ ire</w>
mo stly</w>
Ch ow
Mah endra</w>
r ail</w>
id a</w>
sof tware</w>
per sec
f ra
de eply</w>
Sum mit</w>
promo ting</w>
continu ing</w>
so ft</w>
c o</w>
f arm</w>
C .</w>
is land</w>
3 5
car ds</w>
J al
g an</w>
ag no
than ked</w>
co ast
p ace</w>
enjo yed</w>
B er
al ties</w>
cl ass
Abd ullah</w>
citiz enship</w>
i or</w>
R os
p ages</w>
ca using</w>
anal y
ill a</w>
P O
coll ected</w>
am ongst</w>
d han</w>
your selves</w>
D as</w>
to -
parliam entary</w>
In stead</w>
n d</w>
bap tized</w>
part ners</w>
t b
repres ented</w>
ill ustr
ter ri
t ells</w>
Kat rina</w>
Vij ayan</w>
chil dhood</w>
collabor ation</w>
y as</w>
cu it</w>
enh ance</w>
b ound
Raj inik
L ank
lo ts</w>
D han
cloth es</w>
Var an
pos session</w>
newsp aper</w>
ear n</w>
bl essed</w>
mo on</w>
pre et</w>
Myan mar</w>
slog ans</w>
Tra ff
im possible</w>
el ements</w>
pass enger</w>
tr ained</w>
an ia</w>
contrib ute</w>
impro ving</w>
sh el
mp tion</w>
w earing</w>
re aching</w>
K as
bh p</w>
f isher
4 1</w>
fl u
ei gh
benefici al</w>
h ang
Muk esh</w>
Sh r
fil m
Chandr ab
ish a</w>
main tained</w>
ow ed</w>
B hu
abscon ding</w>
dr ama</w>
tiv ely</w>
E li
pl us</w>
N ic
B omb
A .</w>
contro versi
H all</w>
susp ect</w>
no on</w>
li f
requi rements</w>
. ...</w>
sum mer</w>
experi ences</w>
ai med</w>
ven ess</w>
shoo t</w>
f at
encour aged</w>
condol ences</w>
a f</w>
T ai
di o</w>
ester day</w>
div ine</w>
or ities</w>
adop ted</w>
m aster</w>
6 00</w>
o graphy</w>
C ath
der ly</w>
res ent
A M
Geor ge</w>
I D</w>
cam eras</w>
dec reas
di an</w>
Cooper ation</w>
CA A</w>
R evel
Am rit
stre ets</w>
Mali k</w>
9 5</w>
mar g
es si
prov ince</w>
eli gi
joint ly</w>
C s</w>
t ech
st ones</w>
Shar if</w>
H u
R ef
oper ating</w>
chan nel</w>
keep er</w>
the me</w>
D A</w>
hibi tion</w>
Me tro</w>
friend ship</w>
is on</w>
stit utes</w>
to tally</w>
celebr ate</w>
En vironment</w>
Sun day</w>
sat ell
g ate</w>
id ly</w>
politici an</w>
qu alities</w>
lar ger</w>
ir on</w>
ut ely</w>
C ould</w>
wor thy</w>
mut ual</w>
Whe ther</w>
J our
di et</w>
Ch ange</w>
Am az
con spir
Inv est
com par
C ode</w>
sh r
Varan asi</w>
recomm ended</w>
Le ader</w>
tit led</w>
col or</w>
pri de</w>
Mani pur</w>
c ore</w>
wi ves</w>
pu ts</w>
cro p</w>
c ut
i um</w>
meth ods</w>
medi um</w>
dar k</w>
qu es</w>
a a</w>
comm and
P ay
fac tion</w>
know ing</w>
S .
oc key</w>
cov enant</w>
deleg ation</w>
Tr in
Pet rol</w>
abe tes</w>
N am
ut ers</w>
ali tion</w>
lab our</w>
col ours</w>
emo tional</w>
US A</w>
fi ve-
div or
en th
Revel ation</w>
sol ve</w>
gre w</w>
Chandrab abu</w>
t reas
presid ed</w>
tic ket</w>
proph ec
re au</w>
destro y</w>
t ong
dro pped</w>
pur poses</w>
br and</w>
Pan chayat</w>
fl esh</w>
is n</w>
n es</w>
administ rative</w>
el der</w>
im ages</w>
dis charged</w>
grow n</w>
expect ations</w>
s inc
co al</w>
Sec tor</w>
pl i
ra ising</w>
ni a</w>
st ore</w>
pil gri
critic ism</w>
ext end</w>
eter an</w>
b ility</w>
Pat na</w>
en viron
particip ants</w>
flo ods</w>
g ade</w>
4 9</w>
en e</w>
C ro
H C</w>
p el
har a</w>
piec es</w>
g ods</w>
Candid ates</w>
op en
H an
earch ers</w>
k an
d u</w>
integr ity</w>
cl asses</w>
heal thcare</w>
susp ected</w>
be red</w>
e ing</w>
l ac
hear t
Indones ia</w>
Ye ar</w>
2 nd</w>
cr ash</w>
Pin aray
ke eps</w>
Ap plic
Gre en</w>
adv ance</w>
los ing</w>
8 5</w>
op ping</w>
v ar
de struction</w>
ind ows</w>
T ro
her self</w>
200 7</w>
consequ ences</w>
Lad akh</w>
Pinaray i</w>
A D</w>
ur a</w>
Festi val</w>
sol utions</w>
Bomb ay</w>
A ad
F oo
govern or</w>
Traff ic</w>
ro ws</w>
there in</w>
Pr ice</w>
mi x</w>
dar k
every body</w>
back ground</w>
an ch
tur ns</w>
tom orrow</w>
con ven
prof it</w>
bur nt</w>
f ake</w>
apost les</w>
vot al</w>
c enter</w>
er ies</w>
r ai
P ass
Ra ther</w>
M e</w>
pi votal</w>
m ates</w>
ern al</w>
Har sh</w>
F re
shor tly</w>
An y</w>
sol ved</w>
pleas ure</w>
critic ised</w>
i. e.</w>
H as</w>
mod els</w>
Amar inder</w>
Priv ate</w>
br ary</w>
arti cles</w>
c aste</w>
T ell</w>
re jo
Rom ans</w>
pre tty</w>
c ry</w>
5 2</w>
initi al</w>
In iti
N S
Bh ut
sent ence</w>
Every body</w>
moun tains</w>
Dig ital</w>
schedul e</w>
fortun ate</w>
B ased</w>
par k</w>
P ress</w>
dis aster</w>
Pe ace</w>
struc k</w>
exist ence</w>
ex act</w>
sk ill</w>
ar ily</w>
n ice</w>
ban king</w>
w ounded</w>
los ses</w>
cl in
go ti
ap plied</w>
up set</w>
al ing</w>
approxim ately</w>
amaz ing</w>
3 7
tic ed</w>
U m
Sind hu</w>
Fin ally</w>
un ve
pa rent</w>
ex ec
sil ent</w>
bre ak
St adium</w>
H az
investig ate</w>
S ans
4 6</w>
Brit ain</w>
pre f
Memor ial</w>
ap s</w>
s ick</w>
K har
ho tel</w>
Elec tions</w>
ch a</w>
w itnesses</w>
od a</w>
wat ers</w>
charac ter
ay am</w>
ounc ed</w>
c ells</w>
St re
Pet ro
Ex ecutive</w>
ro man
Pro ph
n et</w>
A R</w>
ten ance</w>
st an</w>
Sar dar</w>
materi als</w>
consid eration</w>
h its</w>
comm it</w>
fe der
facil itate</w>
W as</w>
Mar athi</w>
a an</w>
ti n</w>
dist ur
V e
hi d
feat ured</w>
sla ve</w>
comm od
techn ologies</w>
const antly</w>
Var dhan</w>
Gi ve</w>
sp reading</w>
Ra f
ai ms</w>
Ran jan</w>
W in
bl ing</w>
Agre ement</w>
initi ally</w>
loc ations</w>
K is
asp ir
B S</w>
kil omet
her itage</w>
fic ations</w>
cast ing</w>
B or
Jud ah</w>
Dani el</w>
st ep
conn ect</w>
D har
inf ected</w>
organiz ations</w>
deli very</w>
gu ided</w>
Rajinik anth</w>
Organ isation</w>
5 1</w>
Ind ustrial</w>
gr and</w>
M en
V ol
Independ ence</w>
ile ge</w>
Re gi
F ree</w>
coun cil</w>
gl ori
Man ish</w>
ad ver
tech ni
than ks</w>
thi k</w>
allow s</w>
contro lled</w>
Sar a</w>
Ben ef
res h
qu oted</w>
for give</w>
we ek
lov es</w>
sam ples</w>
Sci ences</w>
con sec
M embers</w>
ach ers</w>
Bha van</w>
A C</w>
strate gic</w>
t ex
loc ks</w>
pre mis
Olymp ic</w>
viol ent</w>
s overe
long -
Parliam entary</w>
fl ag
f alling</w>
in- law</w>
Cha ll
ap olog
accep table</w>
work er</w>
posi tions</w>
ob tained</w>
Reli ance</w>
ens uring</w>
St aff</w>
stre am</w>
ed ings</w>
obe y</w>
Deep ak</w>
tb sp</w>
ou l
wor st</w>
he ed</w>
sett led</w>
Ver ma</w>
appreci ation</w>
t elling</w>
prosp erity</w>
post er</w>
and um</w>
E R</w>
orig in</w>
Youn g</w>
compri sing</w>
L ist</w>
Rom an</w>
l ar</w>
difficul ties</w>
K aif</w>
U A
ed ge</w>
Ap ple</w>
m as</w>
ass ador</w>
G angu
re action</w>
exp enditure</w>
th ly</w>
Sh ould</w>
discipl ine</w>
em an</w>
2 9
rit i</w>
retur ns</w>
Fed eration</w>
Sam aj
w ash</w>
certific ate</w>
previ ously</w>
c ow</w>
de pos
Cor ona</w>
constitu tional</w>
S om
por tr
F ile</w>
benefici aries</w>
Gangu ly</w>
Bangl ad
prin t</w>
doc ument</w>
vo ting</w>
hol id
Dut t</w>
200 6</w>
was n</w>
Wat ch
de ad
Kumar aswamy</w>
n ab</w>
jud ges</w>
K ur
Dr .
g ram</w>
T 20
N ay
appe arance</w>
Ph one</w>
mi x
us ual</w>
func tioning</w>
Bab yl
b anner</w>
pri est</w>
P G</w>
der ing</w>
St ar</w>
ind a</w>
vi sional</w>
Tr ust</w>
co alition</w>
clos er</w>
att ending</w>
prote sting</w>
govern ance</w>
T ests</w>
ak rish
Sik h</w>
fe els</w>
o b</w>
instruc tions</w>
n a
b id
man ager</w>
practi cal</w>
out standing</w>
Am bed
Sy ria</w>
sy ch
dre ams</w>
R ight</w>
purcha se</w>
8 00</w>
col le
proper ly</w>
me an
o ol
men tion</w>
10 ,000</w>
e ous</w>
st ors</w>
gh ly</w>
dis crimin
u k</w>
rap idly</w>
Sci enti
M T</w>
obe di
Bu reau</w>
dev ices</w>
Bad al</w>
us eful</w>
in sul
Pand ya</w>
in dig
Sa hi
Sch edul
establ ishment</w>
Cha ud
I sh
person ality</w>
C ust
S H
li p
surpri se</w>
end ers</w>
RA M</w>
as sets</w>
M c
emplo yed</w>
alco hol</w>
H onda</w>
r on
B um
rig ation</w>
f erti
sc am</w>
g ol
y am</w>
Jour n
comm anded</w>
In come</w>
V aj
San deep</w>
tr apati</w>
conc entr
enth usi
off ee</w>
m ind
pri ze</w>
Sat ur
R O
An ti
min utes</w>
charac ters</w>
Pl an</w>
inten si
mess ages</w>
Ro h
6 4</w>
Ko z
y .</w>
vi g
band ry</w>
inc or
y esterday</w>
Dub ai</w>
av ail</w>
B hushan</w>
sh ock</w>
A si
e dition</w>
hon or</w>
Me eting</w>
Lak sh
M et
comp as
st ret
foo t</w>
ever lasting</w>
chap ter</w>
1 1
conc ept</w>
ab und
Din esh</w>
sp ring</w>
p utting</w>
produc es</w>
recogni zed</w>
ha te</w>
stat ue</w>
M C
Jew ish</w>
Cre ator</w>
Leg islative</w>
tt ers</w>
princi ple</w>
w ou
Arun achal</w>
Phar a
innov ation</w>
An imal</w>
recommend ations</w>
spokes man</w>
high ligh
Sp ain</w>
S ir</w>
BJ P-
institu tion</w>
prop he
labou rers</w>
power ment</w>
T ig
Malay sia</w>
nam ely</w>
w ake</w>
3 r
pri ses</w>
we ak</w>
P ric
pen alty</w>
cir cuit</w>
them ati
lo y
S O
Democ ratic</w>
ha el</w>
Ab hi
L and</w>
B ul
av a</w>
impl ement</w>
ill i</w>
mo thers</w>
t esti
deb t</w>
H al
qu ick</w>
m el
V ehic
d ges</w>
Tu be</w>
escap ed</w>
figh ter</w>
ques tioning</w>
deli ber
B oo
preci ous</w>
st ak
whe at</w>
qu anti
pregn ant</w>
b rain</w>
Res pon
ma p</w>
Ch ris</w>
quali fied</w>
sac red</w>
Mo han
ad ding</w>
b in</w>
proce edings</w>
JN U</w>
Cl ass</w>
cre d
IS RO</w>
i or
concl uded</w>
moun tain</w>
e es</w>
den y</w>
constitu tion</w>
I N</w>
B at
e u
E mp
contr act</w>
parliam ent</w>
do ers</w>
pat ri
categ ories</w>
Per haps</w>
Samaj wadi</w>
IP C</w>
g ained</w>
retur ning</w>
b on</w>
believ es</w>
Proph et</w>
Koz hik
Bum rah</w>
reti red</w>
ain t</w>
j usti
ur ance</w>
cour ses</w>
Jac ob</w>
s enti
bl essing</w>
exam ined</w>
ut t
win ter</w>
fall en</w>
Prem ier</w>
M el
particip ating</w>
exp ensive</w>
Fri day</w>
ur s
Offic ers</w>
5 6</w>
J awa
tre at</w>
sev erely</w>
figh ters</w>
cy cl
C enter</w>
me at</w>
et ary</w>
Vide o</w>
des c
Tri pura</w>
Cath ol
B ig
With out</w>
Sha mi</w>
philos oph
Ch urch</w>
h in
r at</w>
ex tra</w>
z one</w>
h ot
Mon day</w>
w hats</w>
priv ilege</w>
en ever</w>
y o
tri p</w>
eligi ble</w>
un ited</w>
sanc tioned</w>
care fully</w>
G or
ris h</w>
M iz
di agno
Bud dh
b locked</w>
as cer
V as
F ans</w>
ast s</w>
cl ub</w>
rev el
S ah
guar an
prepar ations</w>
earth quake</w>
v ast</w>
wal ked</w>
Kozhik ode</w>
r at
nov el</w>
sugges tions</w>
ing -
dep ends</w>
ud es</w>
p ure</w>
it an</w>
do ors</w>
Watch tower</w>
r are</w>
anc ell
Pran ab</w>
uni versities</w>
Al ong</w>
b la
ur i</w>
Prof essor</w>
pack age</w>
Har di
ab use</w>
N O
tu ally</w>
re sident</w>
ra tions</w>
great ly</w>
consi sts</w>
wil d
eng ine
adv anced</w>
Chandr as
over come</w>
Raj u</w>
mani fe
lo od</w>
S and
dem ise</w>
pre ad</w>
cop y</w>
under taken</w>
dr ag
I MS</w>
spe aks</w>
pri t</w>
E C</w>
bri ef
spot ted</w>
Ste ve</w>
alli es</w>
You Tube</w>
for gi
Jit endra</w>
b un
Pur i</w>
K ish
pan chayat</w>
Ter rit
Ri ghts</w>
U R
M ac
lik es</w>
Mexic o</w>
dial ogue</w>
E ph
rec ru
premis es</w>
Ex am
piec e</w>
tr ading</w>
consec u
hel l</w>
c auti
Par is</w>
Par t
200 5</w>
deter ior
S us
L y
st ressed</w>
m m</w>
in ar</w>
P as
altern ative</w>
Shiv a</w>
Aar on</w>
n ative</w>
3r d</w>
Sahi b</w>
six th</w>
reve al</w>
V arious</w>
tri gg
c ross</w>
in ary</w>
R ab
val ent</w>
il ing</w>
R JD</w>
Sw ach
p t</w>
D C
N ew
uti l
short age</w>
ill er</w>
tri als</w>
absol utely</w>
um ps</w>
sem i-
pun ished</w>
I C</w>
att end
sensi tive</w>
invest ments</w>
S re
J aipur</w>
e tion</w>
Sw ami</w>
invest ors</w>
or able</w>
collap sed</w>
Ver ily</w>
Sp anish</w>
le g</w>
A vi
o grap
th ank
N A
ap e</w>
res ses</w>
5 4</w>
ne goti
journ alists</w>
bl ame</w>
N A</w>
Pi y
resurrec tion</w>
Pic ture</w>
ame work</w>
ver i
se emed</w>
har v
k ills</w>
ende av
Ah mad</w>
ter n</w>
sust ainable</w>
avail ability</w>
del ay</w>
neighb ours</w>
figu res</w>
si r</w>
comm its</w>
vers al</w>
intel ligence</w>
ali zation</w>
pati ence</w>
f ashi
ath le
Olymp ics</w>
vacc ine</w>
a thing</w>
6 ,
pay ee</w>
stak eh
ever theless</w>
u rement</w>
f lag</w>
Petro leum</w>
E C
where as</w>
sha pe</w>
op ic</w>
gl ad</w>
C ali
cl assi
multi -
N umber</w>
A Y
wic ket
ch opped</w>
z e
f ever</w>
trans mission</w>
sud denly</w>
De ath</w>
Q ur
exp an
app ing</w>
in ks</w>
proc essing</w>
Rem ember</w>
ex ists</w>
Sh ri
Administ ration</w>
mis sions</w>
enn is</w>
A tal</w>
tri bal</w>
Sans k
Az ad</w>
acad emic</w>
B il
Di v
pain ful</w>
Cha k
Adv ani</w>
ver ily</w>
wh ol
compri ses</w>
c over
w ai
TR S</w>
any more</w>
Politi cal</w>
For ces</w>
Ambed kar</w>
res sive</w>
pres er
w an
em on</w>
regi me</w>
restric tions</w>
ing ent</w>
fir st-
co ast</w>
un less</w>
7 2</w>
to m</w>
t ack
po et</w>
eas ier</w>
as signed</w>
d ay
pr its</w>
as ide</w>
e ously</w>
es tion</w>
met res</w>
pri ests</w>
hel p
I ran
H D
T MC</w>
le tters</w>
Th rough</w>
const ant</w>
b y
hum anity</w>
Jo har</w>
cul prits</w>
ash ing</w>
O S</w>
He ad</w>
ti s</w>
ul s</w>
appreci ate</w>
sha l
foc used</w>
situ ations</w>
re placed</w>
do g</w>
tem porary</w>
O therwise</w>
el ev
Hardi k</w>
Mic hael</w>
or am</w>
cl ashes</w>
cap able</w>
fundam ental</w>
bre ad</w>
pro mp
as sign
harass ment</w>
F A</w>
tu ary</w>
pe ak</w>
Raf ale</w>
cont ributed</w>
Prot ection</w>
chem ical</w>
P ort</w>
ser ves</w>
rel ating</w>
mos que</w>
G ow
form ing</w>
after noon</w>
0 s</w>
person ally</w>
squ are</w>
Mot ors</w>
Bi g</w>
trib ute</w>
Re gion</w>
ex port</w>
mas ks</w>
P V</w>
me ets</w>
bre aking</w>
Rav indra</w>
succ e
pl enty</w>
ak umar</w>
achiev ement</w>
st un
ascer tained</w>
st ake</w>
on ics</w>
attemp ts</w>
ul l</w>
m ood</w>
disc overed</w>
des ires</w>
sub jects</w>
E at</w>
g a</w>
gi ous</w>
ill ness</w>
Cr ore</w>
m ly</w>
con ve
S ant
R ang
ol en</w>
te or
O F</w>
I R
ex pe
god ly</w>
ad ap
H R
Hol y</w>
ke wise</w>
pl eased</w>
Con su
hab ad</w>
P ath
G og
J i</w>
5 ,
en ue</w>
po e
A ish
b att
cont em
commun ic
Re port</w>
it ating</w>
m ail</w>
f er
c ing</w>
wor n</w>
No ah</w>
tur ning</w>
spiritu ally</w>
consecu tive</w>
tren d</w>
de ar</w>
challeng ed</w>
ow ing</w>
bat tery</w>
strong er</w>
ob vi
sum mit</w>
regist er</w>
mar ily</w>
f ail</w>
leg s</w>
hy po
the ory</w>
el derly</w>
arrang ement</w>
Au to</w>
gradu ate</w>
Sri dev
me rely</w>
J adha
b le
refl ect</w>
hi c</w>
du ties</w>
G aut
actu al</w>
I L</w>
bur den</w>
cam pus</w>
vis its</w>
om i</w>
as a</w>
Punj abi</w>
Na wa
foo ds</w>
B oss</w>
il and</w>
exc ited</w>
ess ment</w>
Var un</w>
Phara oh</w>
compl etion</w>
st ages</w>
p aying</w>
R .</w>
ic als</w>
B hop
bri gade</w>
N ote</w>
f ounded</w>
consid ering</w>
Ch em
ul ty</w>
so m</w>
war ya</w>
bo x
s low</w>
bo l</w>
manufac tu
we b</w>
b orders</w>
prote stors</w>
ch ann
four -
Pr ince</w>
5 7</w>
bur ning</w>
end a</w>
G un
P aci
d il
disrup ted</w>
He at</w>
ol ders</w>
cal m</w>
A ut
er i</w>
cov ering</w>
ju ice</w>
pri zes</w>
lo yal</w>
bo tt
su m</w>
si vely</w>
mach ine</w>
Tr ue</w>
viol ation</w>
surg ery</w>
- up</w>
ra ti
K ath
T ali
dec lar
pres ently</w>
ch ose</w>
hi ke</w>
di abetes</w>
her o
O ce
20 22</w>
less on</w>
mer ic</w>
pric ed</w>
g y
nom inated</w>
J P</w>
c ool</w>
sup porters</w>
touri st</w>
on ze</w>
conv inc
anc er</w>
sur ve
func tions</w>
alleg ation</w>
belong ing</w>
Sid hu</w>
Me dic
expl ains</w>
K L</w>
Piy ush</w>
L ine</w>
M W</w>
cr ying</w>
explo sion</w>
Ra wat</w>
il esh</w>
The yre</w>
med als</w>
s ile</w>
ex emp
cal cul
com pos
si st</w>
5 9</w>
at oes</w>
rid or</w>
gener ations</w>
Paci fic</w>
al u
Super intendent</w>
m u
in ate</w>
t elec
mani f
a he
5 8</w>
sol id
High ways</w>
I d
Aish warya</w>
hous ing</w>
Offici als</w>
U s
J ade
20 -
d ess</w>
survi ve</w>
enti rely</w>
b ought</w>
Nat ural</w>
Wil liam
re alize</w>
Ob ama</w>
satis faction</w>
M all
Ag ency</w>
A ri
I D
ord ination</w>
a than</w>
ro c
E s
B and
Th urs
pro sec
gen u
Srin iv
t led</w>
Nawa z</w>
casu alties</w>
dic tion</w>
Mi x</w>
ari o</w>
Ab u</w>
A garwal</w>
forc ement</w>
w age</w>
an xi
am oun
W ed
-1 8</w>
grad ually</w>
OD Is</w>
t ent</w>
Wh os</w>
Mon ey</w>
teas poon</w>
S ev
wh oever</w>
v enture</w>
-1 7</w>
6 2</w>
in no
program s</w>
O ver
A P
list ening</w>
pl astic</w>
conspir acy</w>
mi xed</w>
e ag
por ted</w>
oo t</w>
me al</w>
ro ad
ac res</w>
religi ons</w>
S R
H D</w>
Y uv
Sch ools</w>
re a</w>
new ly</w>
G as</w>
st olen</w>
Hebre ws</w>
s mart</w>
5 ,000</w>
pe t</w>
201 7
Add ressing</w>
M ak
in tim
Kh anna</w>
b ers</w>
ro lled</w>
ar ded</w>
J usti
proced ure</w>
der i
forgi veness</w>
In stitu
An y
speci fied</w>
N ext</w>
Gen esis</w>
Sansk rit</w>
si us</w>
r ad
y og
l iness</w>
Ban ks</w>
K un
f at</w>
entre preneur
Adit ya</w>
Pakist ans</w>
200 1</w>
er o
re ference</w>
trem end
et a</w>
Gop al</w>
10 .
b ands</w>
re new
P op
imm ense</w>
inter pre
he ight</w>
emp ty</w>
for d
6 3</w>
mo di
IC S</w>
satis fied</w>
G DP</w>
K u
Val ley</w>
cha in</w>
ack ers</w>
6 7</w>
n ings</w>
ret ali
dest ination</w>
re vi
exc eption</w>
asp ect</w>
St and
prof essor</w>
b id</w>
G eh
Mal di
T O</w>
M obile</w>
frequ ently</w>
exam ine</w>
dark ness</w>
Jade ja</w>
c au
li ked</w>
exp anded</w>
writ es</w>
cauti ous</w>
su it</w>
fortun ately</w>
co ordin
p apers</w>
Hebre w</w>
impro vement</w>
gl ing</w>
bow ler</w>
farm ing</w>
Sm all</w>
200 4</w>
er ings</w>
6 6</w>
Joh n
z y</w>
Tha iland</w>
bow ling</w>
Vill age</w>
out break</w>
migr ants</w>
Na w
H or
Than ks</w>
Te achers</w>
main taining</w>
e an</w>
quar ter</w>
busin ess
' d</w>
es pread</w>
sim ul
sib ly</w>
UT s</w>
K now</w>
ser ver</w>
pri marily</w>
ac he</w>
fin ed</w>
Bhop al</w>
ex ternal</w>
K en
de par
l am</w>
out come</w>
ul e</w>
pray ed</w>
W i
expl an
Pad ma</w>
is tics</w>
Independ ent</w>
gr ace</w>
re present</w>
add y</w>
fe rences</w>
In do
S und
IA F</w>
Rev enue</w>
pione er</w>
ist rate</w>
ati n</w>
cy l
plat forms</w>
Tur key</w>
i ya</w>
Satur day</w>
C in
add a</w>
5 3</w>
ste el</w>
ob serve</w>
O s</w>
bri ties</w>
Ti wari</w>
mand atory</w>
l ap
Be ing</w>
d .</w>
comfor table</w>
compl ained</w>
50 ,000</w>
con vention</w>
R up
et e</w>
w ave</w>
Al -
th west</w>
stakeh olders</w>
favour ite</w>
ton nes</w>
ro ll</w>
D om
electr onic</w>
Direc ted</w>
te en
y ellow</w>
liqu or</w>
Shi khar</w>
Por tu
fil ing</w>
Exc ell
di sh
up to</w>
cr ude</w>
In nov
scrip t</w>
big ger</w>
Jadha v</w>
A pp
ent ering</w>
cam ps</w>
An sw
um ped</w>
K angana</w>
Mad ras</w>
sp ending</w>
refu ge
celebr ation</w>
dist ress</w>
Thurs day</w>
W hatever</w>
M B
promo tion</w>
1 25</w>
Has an</w>
al y
her o</w>
prec ed
judg ement</w>
tou ched</w>
t une</w>
consu mption</w>
ap preh
prec au
ici al</w>
Al li
inspir ation</w>
assi st</w>
rel ation</w>
Ph il
atisti cs</w>
ar am
Arab ic</w>
re sist
commission er</w>
Rak esh</w>
t ment</w>
gr ade</w>
slow ly</w>
up az
Hun dreds</w>
requi rement</w>
speci ally</w>
del ayed</w>
reser ved</w>
L ef
gr ounds</w>
imag ine</w>
ass emb
min ds</w>
D harm
it ya</w>
Hy und
so ever</w>
v an
tong ue</w>
offici ally</w>
subst anti
rupe e</w>
sal ary</w>
res earchers</w>
w ill
mist akes</w>
Vik ram</w>
is s</w>
per mitted</w>
Jay al
ancell or</w>
Direc torate</w>
ag ues</w>
all i</w>
fel ic
Stre et</w>
occas ions</w>
lim its</w>
Ch o
Ara b</w>
pil ot</w>
ang a</w>
Wed n
Son am</w>
vo ted</w>
Mo h
Hyund ai</w>
Ash win</w>
signific ance</w>
obj ec
form al</w>
Vi et
st ability</w>
ob ject</w>
dedic ation</w>
cri mes</w>
L ar
t .</w>
there of</w>
str anded</w>
lab or
house holds</w>
ex ports</w>
k rish
hi de</w>
tow ns</w>
Big g</w>
re bel
C a
un a</w>
ro ot</w>
op sy</w>
sm aller</w>
p es</w>
dis appointed</w>
Pl ay</w>
win ner</w>
ge ted</w>
sel ect</w>
respon sibilities</w>
Akh tar</w>
V s</w>
sec ondary</w>
l ement</w>
enter tainment</w>
relation ships</w>
gre etings</w>
ant ine</w>
trib utes</w>
t abl
Gaut am</w>
er r
pha ses</w>
fe ed</w>
strength ened</w>
tic kets</w>
anal ysis</w>
o therwise</w>
tem p
mun icipal</w>
concl usion</w>
Cre dit</w>
colli sion</w>
wom ens</w>
p raised</w>
cont ain
soldi er</w>
Jud ge</w>
deli ver
Sin gh
Bro ad
4 0
nom ination</w>
ari at</w>
b ally</w>
prote in</w>
advoc ate</w>
m ad
AN I</w>
f is
applic able</w>
R ashi
Nag pur</w>
Banglad es
Saf ety</w>
1 ,000</w>
ou tr
o o</w>
T op</w>
associ ate</w>
Dev il</w>
c la
b ud
disp er
Congres s-
v ul
mis s</w>
v oc
Pal est
N ig
Pr at
O ut
tal ent</w>
IN G</w>
ici an</w>
B udd
won der</w>
pl ain</w>
m ans</w>
assist ant</w>
Cel sius</w>
arri ves</w>
w alls</w>
recogn ised</w>
hol ders</w>
BS E</w>
1 20</w>
defin ed</w>
st aying</w>
highligh ted</w>
Sa ul</w>
vis itors</w>
Sab ar
Hus sain</w>
SU V</w>
ther ap
M iddle</w>
-1 6</w>
inv itation</w>
E k
G os
teach ings</w>
R ain
Jayal ali
form at</w>
al es</w>
Cent res</w>
g ov
m ast
perform ing</w>
re sign</w>
am bi
Ste el</w>
F l
li est</w>
Th ink</w>
g er
rap id</w>
Kore an</w>
sym bol</w>
Cali for
pat tern</w>
ec e</w>
Ch ha
recogni tion</w>
gra titude</w>
p ill
Mar k
Tali ban</w>
prepar ing</w>
Tra v
Qur an</w>
it i</w>
ac commod
gar den</w>
Ma ster</w>
ligh tly</w>
m emb
w are</w>
tri ya</w>
mov es</w>
enti ve</w>
radi o</w>
er als</w>
ath a</w>
Dis aster</w>
bl ind</w>
Tu esday</w>
gu ests</w>
bag ged</w>
ign ty</w>
coast al</w>
lin ks</w>
p he
cor responding</w>
Agric ultural</w>
Mus eum</w>
pe pper</w>
Ar ora</w>
6 8</w>
War ner</w>
ph en
dec line</w>
ex tr
Alla habad</w>
ut ation</w>
pres cri
C at
aut opsy</w>
a ut</w>
har an</w>
BR ICS</w>
u pper</w>
fol k</w>
fac tor</w>
prophec y</w>
g ar</w>
Gr and</w>
P oo
b ird</w>
B N
ha med</w>
Bhut an</w>
r ub
n u</w>
se es</w>
main tenance</w>
Ha asan</w>
gh ted</w>
sp ac
ac les</w>
7 00</w>
l in</w>
Gog oi</w>
ingu ished</w>
indig en
uni or</w>
Memor andum</w>
sent enced</w>
encour aging</w>
invol ving</w>
av ed</w>
invol ves</w>
Wedn esday</w>
qui et</w>
el ed</w>
t ings</w>
l -
i b</w>
High er</w>
see ks</w>
reduc ing</w>
consci ous</w>
hat i</w>
congreg ations</w>
Under standing</w>
Regi onal</w>
Jawa har
g al</w>
aband oned</w>
chann els</w>
w ished</w>
Champion ship</w>
Gh osh</w>
al located</w>
ol a</w>
det ail</w>
eph one</w>
Par adise</w>
2 ,000</w>
il eg
C ulture</w>
hid den</w>
dis played</w>
cop e</w>
ren dered</w>
flow ers</w>
ac u
ati cally</w>
In spector</w>
man age</w>
beh old</w>
sid y</w>
ex ecu
c attle</w>
port al</w>
on ing</w>
Sur vey</w>
Pro vid
Avi ation</w>
o or</w>
wid espread</w>
S election</w>
He ad
Vaj payee</w>
nor ms</w>
as c
Sridev i</w>
reti rement</w>
compreh ensive</w>
N and
Pat n
g am
R evi
ast es</w>
on ions</w>
gan j</w>
O ld</w>
Meh ta</w>
S S
ch ances</w>
Mu f
volun te
re viewed</w>
eff ectively</w>
od ays</w>
S earch</w>
tabl es
environ mental</w>
H ong</w>
invol vement</w>
eff icient</w>
direc tions</w>
cele brities</w>
pri or</w>
bl amed</w>
cut ta</w>
Na tion
man ual</w>
Pro te
hu a</w>
Rob ert</w>
re iter
inter action</w>
id ing</w>
b es
for ts</w>
Bab a</w>
he l</w>
deal ing</w>
repe ated</w>
or ds</w>
reason able</w>
desig n
Bl ue</w>
Miz oram</w>
autom atic</w>
am id</w>
K on
C ase</w>
end ar</w>
cou ldn</w>
Indo -
fi gur
l ake</w>
Je rem
onom y</w>
M ain
teor ological</w>
Ph ys
Del hi
oper ational</w>
ensu s</w>
bo y
hop es</w>
J ack
dol lar</w>
Sel ect</w>
w .
1 000</w>
G aur
im port</w>
Hel p</w>
Amaz on</w>
f ab
swe et</w>
Sam uel</w>
cros sed</w>
H I</w>
gen der</w>
noti fied</w>
AI IMS</w>
Y S
it ants</w>
harm ac
bo t
s ake</w>
ol i
Sik k
A th
tax es</w>
6 1</w>
expan sion</w>
eng ines</w>
stri kes</w>
post p
19 0
P ak</w>
Califor nia</w>
T eh
ev es</w>
T ex
W ash</w>
hospit alised</w>
N as
UA E</w>
Organ ization</w>
pol y
ly ric
ford able</w>
ha sh</w>
bom b</w>
ast y</w>
S et
ar ise</w>
transpor tation</w>
sti c</w>
8 3</w>
g inger</w>
au to</w>
politici ans</w>
bad ly</w>
un fortunate</w>
trans actions</w>
Jawahar lal</w>
It ali
S cot
Cathol ic</w>
wh el
1 2.
fin ding</w>
li mit
controversi al</w>
migr ant</w>
allow ing</w>
re n</w>
L ED</w>
pai red</w>
it ment</w>
ri an</w>
no ticed</w>
busin esses</w>
I M</w>
f u
es sive</w>
transl ated</w>
hus bandry</w>
cat ch</w>
R F</w>
7 ,
WH O</w>
7 7</w>
Wor king</w>
rum ours</w>
N is
M ount</w>
m ere</w>
Pic tures</w>
J ain</w>
P ud
fav or</w>
C B
S even</w>
R ana</w>
prot ected</w>
Up on</w>
N adda</w>
Tru th</w>
dri vers</w>
recogni ze</w>
ob serv
bo at</w>
arri val</w>
exc ep
comb at</w>
rem ote</w>
ch illi</w>
As k</w>
d am</w>
W a
isol ated</w>
ici ans</w>
ch ur
S qu
N evertheless</w>
ov i
inv est</w>
p sych
st ro
o x</w>
sh ep
D F</w>
ici p
arrang ed</w>
. in</w>
tim ely</w>
Ay ush
Cal cutta</w>
N H
oper ated</w>
f ty</w>
Man j
consu mers</w>
believ ing</w>
susp ects</w>
r ank</w>
Rash triya</w>
A L</w>
hy dro
Maldi ves</w>
Hous ing</w>
cre w</w>
Cri me</w>
s mil
at ar</w>
U p</w>
shep her
satell ite</w>
p sal
ad mit</w>
S ig
fisher men</w>
col on
equ ality</w>
l ment</w>
May aw
tre me</w>
tremend ous</w>
ber g</w>
pursu e</w>
activ ist</w>
li fted</w>
exp enses</w>
accur ate</w>
200 3</w>
pic k</w>
compl i
cur rency</w>
bro ther
cha irperson</w>
Trin am
L angu
ev acu
ade kar</w>
I ll</w>
k itch
re duction</w>
competi tions</w>
fra ud</w>
s essions</w>
proc urement</w>
ro ck</w>
su s</w>
trigg ered</w>
Cl ub</w>
cric ket
C R</w>
prepar ation</w>
ti ous</w>
sch ool
eff iciency</w>
ag itation</w>
Nar ayan</w>
l der</w>
cover age</w>
Rashi d</w>
Iran ian</w>
m our
Nor thern</w>
sh ed</w>
inter ven
comm only</w>
D I
A S</w>
d ad</w>
ac knowle
Chou han</w>
bats men</w>
E f
C erti
m inton</w>
Techn ical</w>
aff lic
No .
read s</w>
gr ains</w>
nec k</w>
lar s</w>
ass y</w>
ic op
Char an</w>
ac hi</w>
ch ol
tradi tions</w>
heav ily</w>
dh ury</w>
Foo t
sovere ignty</w>
M A</w>
be aring</w>
H en
s ending</w>
Ar med</w>
ei ved</w>
ref ers</w>
fe ren
f ar
t ons</w>
profes sion
Oce an</w>
on to</w>
IC I</w>
im prison
Akh ilesh</w>
mis sile</w>
I V</w>
Te j
Jayalali th
pres ti
e .
NI A</w>
Pric es</w>
em bered</w>
gl ass</w>
are r</w>
8 6</w>
h ill</w>
ti le</w>
201 8
P ow
convic ted</w>
R ail</w>
anti cip
iti me</w>
t ted</w>
ob lig
repres ents</w>
lo k</w>
dri ven</w>
B en</w>
b ag</w>
di so
Re al</w>
ri ya</w>
D O</w>
pro to
fi re
ac har
there by</w>
g ains</w>
gram s</w>
at edly</w>
N ation</w>
ag enda</w>
th ala</w>
ni c</w>
k y</w>
w ine</w>
tar geted</w>
A ay
pre ach</w>
f ly</w>
arri ve</w>
V .</w>
ti a</w>
diso be
co m</w>
DG P</w>
Invest ment</w>
tol er
o graph
8 4</w>
J io</w>
pen sion</w>
s wi
ste ad
eli hood</w>
con qu
poe try</w>
lar g
est er</w>
corpor ate</w>
Dr ink</w>
Pro tests</w>
D am
su itable</w>
Sikk im</w>
sec ured</w>
gr ac
bre aks</w>
K .
K ong</w>
Di ff
simul tan
IC ICI</w>
ol dest</w>
abs ence</w>
An ur
tor ment</w>
be st
Jas prit</w>
b right</w>
a to</w>
ud ing</w>
tr e</w>
str ange</w>
ir rigation</w>
g han</w>
con science</w>
sp r
Vin od</w>
reser vo
D .</w>
8 ,
hal aya</w>
m ation</w>
v alid</w>
ext ension</w>
7 3</w>
ur appa</w>
Det ails</w>
7 4</w>
Inf rastructure</w>
equi pped</w>
M essi
it ra</w>
Ur du</w>
In surance</w>
whe el
n abbed</w>
ran som</w>
ing redi
k in</w>
reser vation</w>
supp osed</w>
st on</w>
ar aj
doc um
Eph es
con servation</w>
con tested</w>
stat e-
priv ileg
C op
u ts</w>
Vik as</w>
Ro y
ic a</w>
7 8</w>
Sm t</w>
in y</w>
sol id</w>
Dev g
N ick</w>
att ached</w>
rem embered</w>
ec tors</w>
ang el</w>
inc es</w>
Patn aik</w>
sig ning</w>
5 th</w>
arti sts</w>
Hos sain</w>
S mart</w>
val ley</w>
oo m</w>
cor ner</w>
imprison ment</w>
T or
200 2</w>
di y
H ow
K az
Ka us
valu able</w>
suppl ies</w>
9 7</w>
lat ter</w>
rest aur
ear ning</w>
devo tion</w>
sm ooth</w>
over whel
signific antly</w>
ra ises</w>
B ody</w>
k ha</w>
festi vals</w>
commer ce</w>
1 1.
E mer
7 6</w>
u han</w>
K hur
ti red</w>
La x
br onze</w>
Jo e</w>
Rash trapati</w>
ai ry</w>
ho sted</w>
bac ked</w>
ut er
g on
UP A</w>
Con struction</w>
May or</w>
re cip
har th</w>
ali a</w>
res sion</w>
os si
add ha</w>
w oo
p air</w>
vol ume</w>
ick y</w>
Raj k
mark eting</w>
laun ches</w>
B ack
difficul ty</w>
congratul ate</w>
Lak h</w>
surr ounding</w>
Tur k
them .</w>
- led</w>
shar p</w>
ac t
K im</w>
7 -
Muf ti</w>
Bh up
in dex</w>
BS F</w>
mix ture</w>
im itate</w>
ra f</w>
enc ing</w>
li min
Lank an</w>
re form</w>
philosoph y</w>
ac id</w>
vers es</w>
Tig er</w>
ai k
Mic ro
H ear
Mayaw ati</w>
S ovi
Christ mas</w>
m its</w>
hum an
X I</w>
D en
star ring</w>
9 1</w>
te ars</w>
7 1</w>
int ell
succe eded</w>
terri ble</w>
ush ing</w>
h vi</w>
conveni ence</w>
lo aded</w>
tor ies</w>
it ched</w>
occup ied</w>
ass essment</w>
fun ding</w>
H ad</w>
NE W</w>
ke en</w>
b a
nor m
re mark
ribu tions</w>
part ys</w>
countr y
theat re</w>
M itch
por ting</w>
ic h
attend ance</w>
S ir
presid ential</w>
B ay</w>
b ond</w>
aff air</w>
Ar t</w>
L ah
c a</w>
gi l</w>
Sha m
Emplo yment</w>
p ool</w>
wil d</w>
S aj
achiev ements</w>
N ik
sud den</w>
Ram a</w>
w ala</w>
v endra</w>
exam s</w>
jew ell
Gr ad
n on</w>
unve iled</w>
Raj endra</w>
to ols</w>
has n</w>
6 9</w>
Shr addha</w>
stri ve</w>
u pro
Jav adekar</w>
N aik</w>
st er
B ob
ish ments</w>
mat ely</w>
trans g
prob ing</w>
ad ju
Fil m
Jerem iah</w>
Mitch ell</w>
Lef t</w>
pe l</w>
Meg halaya</w>
sym bol
PC C</w>
ang le</w>
2018 -19</w>
sev enth</w>
s .
b i</w>
y o</w>
W itness</w>
limin ary</w>
cher ry</w>
Venk aiah</w>
Trinam ool</w>
t sp</w>
for gotten</w>
Ir ani</w>
repe atedly</w>
decl are</w>
oper ate</w>
S yed</w>
implem enting</w>
C lim
N P
ig no
le ep</w>
enh anced</w>
arre sts</w>
Cap ital</w>
pron ounced</w>
Gol den</w>
br ut
gener ated</w>
fr amework</w>
am med</w>
sug g
ish ers</w>
int ended</w>
ho sts</w>
or al</w>
ef ul
h umble</w>
me tal</w>
A M</w>
astr ay</w>
P ha
Hind ust
Cour ts</w>
sacrific es</w>
fo ret
k h</w>
bow lers</w>
ad ds</w>
con ut</w>
film maker</w>
r or
ti an</w>
Mo tor</w>
l ady</w>
es war</w>
competi tive</w>
Sub hash</w>
dis closed</w>
ens ity</w>
draw ing</w>
addres ses</w>
Geh lot</w>
surpri sing</w>
fru str
Kab ir</w>
2017 -18</w>
kid n
D ru
Ef forts</w>
continu ously</w>
I IT</w>
certific ates</w>
Inte gr
ran ked</w>
genu ine</w>
M oun
Devg n</w>
St .</w>
conf usion</w>
ch er</w>
explan ation</w>
C H
crip tion</w>
J ord
b on
integr ated</w>
Babyl on</w>
continu ous</w>
spe aker</w>
fiel ded</w>
A am</w>
e er</w>
Tro phy</w>
as i
im a</w>
up date</w>
Bhar ti</w>
p ers</w>
er up
T ry</w>
9 2</w>
pleas ant</w>
writ ers</w>
sing ing</w>
comb ined</w>
sp on
ow ners</w>
d ren
k ne
Mir za</w>
eng age</w>
ma themati
Y am
G az
9 6</w>
ran ks</w>
NT R</w>
pro hib
cl ou
bac ter
Res ources</w>
manif est</w>
fo rec
behavi or</w>
Rul es</w>
asser ted</w>
sal vation</w>
D esh
ter med</w>
ra v</w>
dev ast
St ay</w>
elec toral</w>
Gow da</w>
em ail</w>
8 2</w>
u tr
V itamin</w>
O s
ti les</w>
sup ports</w>
Sid di
Cov id</w>
m ai
- day</w>
deter mine</w>
W r
Buil ding</w>
re views</w>
ear liest</w>
f aster</w>
Lal u</w>
d w
thank ful</w>
peti tions</w>
s word</w>
es cal
S D</w>
S kill</w>
Isl ands</w>
Cha m
dis believe</w>
or ial</w>
divor ce</w>
Coll ector</w>
8 1</w>
row ing</w>
du o</w>
dra ft</w>
int ention</w>
l ined</w>
Li ber
je et</w>
arti st</w>
8 0
vice- president</w>
contr ast</w>
Amrit sar</w>
vari ants</w>
Mer ciful</w>
F isher
Per son
gra ve</w>
Con gratul
un believers</w>
P ay</w>
upaz ila</w>
al and</w>
photograp hs</w>
HD FC</w>
hon est</w>
Tre at
es ome</w>
ur ai</w>
ful fill</w>
8 8</w>
y ar</w>
Itali an</w>
she et</w>
H em
DE L
ili p</w>
ga on</w>
publ ic
ha ven</w>
larg ely</w>
201 9-
exp and</w>
en quiry</w>
bi opic</w>
par am
b as</w>
af fordable</w>
SC O</w>
av ati</w>
ow ns</w>
M en</w>
Ar ti
j a
Inc reas
re ject</w>
n on
min ing</w>
jaw ans</w>
For um</w>
pro file</w>
conve yed</w>
K ed
d ress</w>
with drawn</w>
indic ated</w>
fl our</w>
cont ributions</w>
scre en
v eteran</w>
Pan chay
mon thly</w>
help ful</w>
John son</w>
m ous</w>
st oc
anxi ety</w>
Pl anning</w>
hy dr
h oo
enti tled</w>
ha ll
ra v
ra w</w>
pass word</w>
cy cles</w>
collap se</w>
eg gs</w>
6 0
Gan esh</w>
st aged</w>
less ons</w>
super star</w>
prop ag
every day</w>
R ani</w>
9 8</w>
employe e</w>
dec ade</w>
sug gest</w>
resul ting</w>
gener ate</w>
mer ged</w>
outr age</w>
eng agement</w>
n ak
c ad
at ra</w>
V P</w>
IT I</w>
glo bally</w>
ext ensive</w>
os y
b y-
J ai</w>
ig nor
ov ed</w>
inno cent</w>
per cent
res s
vul ner
th rown</w>
but ton</w>
Gur d
inaugur ate</w>
gi fts</w>
assa ul
i Phone</w>
ad ults</w>
In tel
in stitute</w>
amb ul
glo be</w>
sub sidy</w>
S MS</w>
Pro duction</w>
tor -
inhab itants</w>
Pa uls</w>
re after</w>
Ind ore</w>
an o</w>
Sou rav</w>
fashi on</w>
J un
v itamin</w>
trav eling</w>
u a</w>
arg uments</w>
S n
di r</w>
pay ments</w>
dr am
f lowing</w>
ha bil
n ic
educ ated</w>
G ri
N S</w>
r t</w>
ep is
Sun ny</w>
S A</w>
ul ated</w>
ev alu
B on
c ation</w>
im mor
where in</w>
bur n</w>
C er
T y
cri ti
c offee</w>
hat red</w>
dis cre
E V
B eli
Sec ondary</w>
D ilip</w>
out put</w>
F ur
direc tors</w>
ha ll</w>
N either</w>
Fr anc
t end
o e</w>
re aches</w>
Viet nam</w>
Educ ational</w>
en abled</w>
prescri bed</w>
Shiv raj</w>
dec or
sor ry</w>
man aging</w>
phen om
n ity</w>
rep ent
f ed</w>
ex it</w>
proc esses</w>
Ser ies</w>
p aste</w>
Has ina</w>
id ity</w>
Scrip tural</w>
par king</w>
in si
down load</w>
Applic ation</w>
. 0
uni verse</w>
in- charge</w>
Nan ak</w>
Y our
yog a</w>
vari ant</w>
fl ying</w>
convinc ed</w>
dist ancing</w>
Um esh</w>
re land</w>
Chaud hary</w>
cov ers</w>
en i</w>
Sidd aram
Jayalalith aa</w>
er ted</w>
Th ings</w>
beli efs</w>
Hav ing</w>
car bon</w>
Vic e-
star rer</w>
No bel</w>
th row</w>
di verse</w>
sec ular</w>
z en</w>
di tionally</w>
Nav een</w>
I bra
shou lder</w>
Banglades hi</w>
col um
jo y
advant ages</w>
T aking</w>
behavi our</w>
Comm and</w>
sens or</w>
rou tes</w>
Pri ze</w>
rul er</w>
civ il
Sat y
interrog ation</w>
ev ident</w>
Pl us</w>
Nag aland</w>
8 7</w>
rest ored</w>
Ar gent
off ence</w>
St art</w>
ub lic
1 30</w>
Ter ror
O mar</w>
cricket ers</w>
I reland</w>
ist ry</w>
Vad ra</w>
H ollywood</w>
b ath
Aad mi</w>
s an</w>
inter vention</w>
A G
acc el
the l</w>
mon soon</w>
Venk at
posi t</w>
S et</w>
regul ations</w>
g ear
est y</w>
w hi
re alized</w>
C ultural</w>
the ft</w>
real ise</w>
d ust</w>
dep th</w>
su per</w>
pl ying</w>
perform ances</w>
Poo ja</w>
P ant</w>
ex treme</w>
ain ts</w>
Vid y
sub si
plan et</w>
p ist
kitch en</w>
mat ure</w>
AI A
G ov
sil ence</w>
Th ou</w>
199 9</w>
e em</w>
s ar
Af ghan</w>
S it
enti ally</w>
activ ely</w>
le gi
Pro v
up grad
O k
Vi ol
sp ective</w>
B et
schol ars</w>
g ro
Jon as</w>
Me th
conn ections</w>
t ations</w>
v n
20 21</w>
instruc ted</w>
fam ili
ern ess</w>
g ather</w>
st adium</w>
Emp ire</w>
v il
aff ection</w>
Mo di
cha e
M ulti
st am
Sovi et</w>
For t</w>
ev ed</w>
S P
9 ,
tru th
th ro
E U</w>
ub s</w>
mom ent
Buddh ist</w>
smo ke</w>
de pression</w>
Man aging</w>
P .
im pressed</w>
BN P</w>
fis cal</w>
ne gl
m ust
mod ern
ch est</w>
T20 I</w>
Pe oples</w>
shel ter</w>
Is land</w>
rev ised</w>
ter -
ti ps</w>
dis believers</w>
D I</w>
sav ing</w>
8 9</w>
li a</w>
te ar</w>
hal i</w>
integr al</w>
Alli ance</w>
DEL HI</w>
enthusi as
char ging</w>
ment ally</w>
h il
X i</w>
ensu red</w>
al in</w>
saf e
ke y
gre eted</w>
innov ative</w>
civili an</w>
N T</w>
ten der</w>
win ds</w>
r ounds</w>
t ense</w>
holid ay</w>
b od
ag ar
lin ing</w>
igno red</w>
assign ment</w>
Ros han</w>
cha ir</w>
Per sian</w>
V S</w>
IA S</w>
H oo
En ter</w>
int ense</w>
Pre vention</w>
US D</w>
L atin</w>
indic ate</w>
ill ance</w>
com edy</w>
i k</w>
war s</w>
equi valent</w>
L oo
H ope</w>
tr aders</w>
with draw</w>
D urg
H ass
S -
bran ches</w>
Ran aut</w>
em in
Nav al</w>
ad ul
K y
rela tive</w>
r ated</w>
ad mon
ick en</w>
ex hibition</w>
H ari
di ver
Mat t</w>
r ant</w>
dist rib
kilomet res</w>
awa ited</w>
Sm riti</w>
journ al</w>
f er</w>
Tom ar</w>
sc ar
im pe
x ing</w>
ju ven
predic ted</w>
May be</w>
Ac coun
bri ef</w>
U l
Fil ms</w>
L ist
D aw
9 4</w>
u plo
comb ination</w>
wei gh
nutri tion</w>
Li ght</w>
origin ally</w>
publ ications</w>
emer ging</w>
gol den</w>
H ell</w>
determin ation</w>
F ran
mid st</w>
head ing</w>
re now
spl it</w>
H O
remark able</w>
under ing</w>
Ste p</w>
spec t
gear box</w>
Israel i</w>
Clim ate</w>
j ah</w>
y gen</w>
ok ay</w>
mis t</w>
Meh boo
st el</w>
shal t</w>
overse as</w>
Laksh mi</w>
Chri sts</w>
h es
represent ative</w>
photograp h</w>
hand ling</w>
ho tra</w>
el abor
c us
indigen ous</w>
gon na</w>
Con tin
phys ically</w>
win der</w>
Emplo ye
T yp
percent age</w>
ti ed</w>
pic ally</w>
P al</w>
b ow</w>
rele ases</w>
fir mly</w>
rem ind
di versity</w>
op al</w>
compon ents</w>
fic ally</w>
conf erred</w>
Bro ther</w>
seg ment</w>
I L
M ug
I G
reg arded</w>
bl ess</w>
0 th</w>
Ch and</w>
D M</w>
dig nity</w>
Answ er</w>
gr an
inv ite</w>
Ale x
comm emor
Gand hi
sinc ere</w>
de pic
Res ource</w>
ND RF</w>
ap ps</w>
Cha hal</w>
ingredi ents</w>
ci um</w>
O N</w>
20 th</w>
two- day</w>
isl ands</w>
Lah ore</w>
transl ation</w>
leg ally</w>
coo king</w>
acqu itted</w>
rem ake</w>
os ing</w>
emphasi zed</w>
B E
with dra
Siddaram aiah</w>
C A</w>
Ra ut</w>
lab s</w>
un k</w>
re place</w>
compas sion</w>
d row
ut ter</w>
c itation</w>
Anur ag</w>
br e</w>
end ure</w>
ed itor</w>
im ala</w>
ful ness</w>
S we
mo tor</w>
fore sts</w>
colle agues</w>
sou ls</w>
min erals</w>
j ac
Or der</w>
youn g
wh enever</w>
prote sted</w>
aff ects</w>
Mu z
spar ked</w>
for th
A F
Sh re
J an</w>
consu mer</w>
leg islative</w>
B id
ind ul
arri er</w>
feren cing</w>
ran kings</w>
oppos ing</w>
trag edy</w>
s ari</w>
gan g</w>
sl ammed</w>
newsp apers</w>
sc oo
an ian</w>
cha sti
sec ret
s ement</w>
a rency</w>
cl ick</w>
ass ass
et c
doub ts</w>
High way</w>
tel ephone</w>
postp oned</w>
hel icop
clai ming</w>
rejo ice</w>
Vish nu</w>
Hind u
f ing
announ ce</w>
Pho to
B ose</w>
l un
cl ust
f ame</w>
s worn</w>
P on
ur ge</w>
Secret ariat</w>
ter ing</w>
Bi hari</w>
equ ally</w>
Beh old</w>
thre ats</w>
pur am</w>
L ake</w>
pilgri ms</w>
Bhu vn
G haz
sc ope</w>
m ask</w>
f itting</w>
h ockey</w>
Sha str
a o</w>
P F
Eng ine
V a
earth ly</w>
pl ate</w>
he i
Qu ali
g ap</w>
fr ame</w>
p in</w>
Ch ang
sle eping</w>
U k
ol ution</w>
g rain</w>
ha st
bal anced</w>
a e</w>
ide al</w>
Be thel</w>
diplom atic</w>
B ac
3 50</w>
un toward</w>
J i
ay ers</w>
Con sul
vac ant</w>
fin ish</w>
ic king</w>
R B</w>
hon ey</w>
Mal hotra</w>
1. 5</w>
influ enced</w>
air ports</w>
B ran
ev id
witn essing</w>
vis a</w>
attemp ted</w>
L ucky</w>
sti ck</w>
B order</w>
poss ess</w>
Chow dhury</w>
Whe re
Ibra him</w>
Schedul ed</w>
Wor kers</w>
aff ili
K es
su peri
c ed</w>
Vive k</w>
renow ned</w>
bag s</w>
land sli
pe dia</w>
ad mission</w>
Jag an</w>
bor ne</w>
pres sive</w>
an j
ro of</w>
mus eum</w>
mechan ism</w>
P uti
9 3</w>
f itness</w>
in o</w>
i ation</w>
cyl inder</w>
be ings</w>
d at
c tion</w>
preced ented</w>
Nir av</w>
un identified</w>
ligh t
life style</w>
duc ted</w>
Mohan lal</w>
ro yal</w>
ach and
toil et</w>
d well</w>
co ordination</w>
and -
legisl ators</w>
7 9</w>
No ida</w>
Baj aj</w>
ha pat
eful ly</w>
d ur
Intel ligence</w>
simultan eously</w>
b ath</w>
fo ol
comm ented</w>
Ti m</w>
Sen sex</w>
pl ed</w>
law yers</w>
dig nit
ar k</w>
contr ary</w>
Bhuvn eshwar</w>
empha sis</w>
eag erly</w>
Con vention</w>
le ague</w>
shoc king</w>
shi ft</w>
K or
pl ot</w>
ag on
cont ained</w>
refu ge</w>
san itation</w>
f icial</w>
archit ecture</w>
Ris hi</w>
str ang
t am
res ource</w>
e ut
im ports</w>
r itu
trac ks</w>
le t
Him al
legisl ation</w>
E z
prof ession</w>
me tro</w>
bu ried</w>
cou ples</w>
b lock
E ve</w>
Corpor ate</w>
low est</w>
Par ri
t ool</w>
C ard</w>
in justice</w>
Comm on</w>
discrimin ation</w>
Puti n</w>
al location</w>
law ful</w>
refuge es</w>
co l</w>
to x
Langu age</w>
Jord an</w>
C are</w>
Ab bas</w>
ex posed</w>
tal ity</w>
reiter ated</w>
mach ines</w>
consid erable</w>
re act</w>
a rest</w>
publ ication</w>
Net work</w>
N G</w>
D ata</w>
Roy als</w>
weap on</w>
car ri
Me teorological</w>
w rest
st om
cont aining</w>
critic ally</w>
pur i</w>
Electr onics</w>
sion ate</w>
quanti ty</w>
ast ing</w>
prophe ts</w>
Sh or
Man ager</w>
neighb ouring</w>
milit ant</w>
ren a</w>
C ir
st uck</w>
low -
Ch ancellor</w>
repres enting</w>
Foot ball</w>
L it
rela tively</w>
ch -
acc es
Sur at</w>
uti li
4 th</w>
t ant</w>
li brary</w>
m ud</w>
Swach h</w>
w ages</w>
ic on</w>
is had</w>
T own</w>
Bi bles</w>
fle e</w>
jewell ery</w>
ir a</w>
C I</w>
Ar ts</w>
minist erial</w>
Pri th
Par am
vo ked</w>
em at
u ff
criti ci
rec alled</w>
wor s
fast est</w>
emo tions</w>
critic s</w>
u sted</w>
ob servation</w>
bot tom</w>
m on</w>
S cre
B .</w>
ak ar
dol lars</w>
consul t</w>
ne utr
di men
Philipp ines</w>
k ill
pres sing</w>
cu red</w>
A D
P L
car go</w>
m ukh</w>
blo g</w>
op ens</w>
Mehboo ba</w>
appe aring</w>
Mar tin</w>
f air
Sh uk
Er ror</w>
Ex change</w>
il led</w>
bu ying</w>
ten ure</w>
develop ments</w>
Qu een</w>
J in
uni versal</w>
G ill</w>
liz ers</w>
Sol ar</w>
separ ated</w>
an ya</w>
up dates</w>
intell ec
objec tives</w>
sc al
Prab hu</w>
Com pan
IO N</w>
quar antine</w>
AIA DMK</w>
m o</w>
I B
T E</w>
M D</w>
B is
ght ened</w>
for t</w>
L o</w>
N early</w>
tack le</w>
pos sibly</w>
M O
ne edy</w>
Is a
S IT</w>
G S
d ual</w>
un precedented</w>
min ority</w>
Prab has</w>
M R</w>
persec ution</w>
prison ers</w>
I P</w>
I q
acc o</w>
thr one</w>
od es</w>
v ity</w>
L ong</w>
achiev ing</w>
tr ace</w>
profession als</w>
monit or</w>
exper t</w>
An d
hal f-
deli ght</w>
F ind</w>
S ati
g i</w>
ten sions</w>
Prat ap</w>
Fr ont</w>
t ennis</w>
design ated</w>
T -
M .</w>
revol ution</w>
B. C.E.</w>
On line</w>
in qu
La un
ex tra
crimin als</w>
incor por
c c</w>
struc tures</w>
li am</w>
att ackers</w>
V ig
entrepreneur s</w>
tar gets</w>
di c</w>
Com pl
ak ers</w>
memb ership</w>
allo tted</w>
territ ories</w>
K ane</w>
par adise</w>
Co al</w>
h ana</w>
Aay og</w>
smo king</w>
per pe
Islam abad</w>
Broad casting</w>
Son akshi</w>
li ft</w>
liter acy</w>
exam inations</w>
Rep resent
y ours</w>
Ne ed</w>
as ing</w>
in ity</w>
descri be</w>
Citiz ens</w>
Americ ans</w>
ti me
Pre par
Ann ual</w>
201 6
No .</w>
B ish
cre atures</w>
conf essed</w>
br illi
b ones</w>
and i</w>
Sabar imala</w>
z ones</w>
Some thing</w>
dignit aries</w>
Justi ces</w>
bap tism</w>
G ay
Can adi
er ia</w>
agre ements</w>
Wom ens</w>
leg end</w>
P ot
accord ance</w>
Pud u
acqu ired</w>
Leg al</w>
iz ing</w>
ay al</w>
A x
ul ous</w>
D a
ing .</w>
b oun
accord ingly</w>
you .</w>
scen ario</w>
fi x</w>
20 ,000</w>
ay ana</w>
Parri kar</w>
S ave</w>
d ating</w>
Jos hua</w>
Champ ions</w>
res hi</w>
ha st</w>
cooper ate</w>
b ery</w>
me ters</w>
Jaish -e-
ati vely</w>
Th ar
s er</w>
ri de</w>
resp ected</w>
Kan pur</w>
re plac
Sat ans</w>
3 ,000</w>
popul arity</w>
J od
ri val</w>
tri be</w>
ref er</w>
bu m</w>
reg ret</w>
s lightly</w>
L iter
bow led</w>
ob tain</w>
Medic ine</w>
fl at</w>
be ds</w>
eth nic</w>
t ine</w>
jo ins</w>
rec over</w>
Diff e
Ba had
w indows</w>
hus bands</w>
rail ways</w>
bro ad</w>
judi ci
rai ds</w>
premi um</w>
end ary</w>
urg ent</w>
ris ks</w>
surr ounded</w>
harmac eu
wat ched</w>
ab rog
Qu es
pregn ancy</w>
announ ces</w>
Bangl a</w>
us age</w>
bre athing</w>
N ur
min al</w>
intro duction</w>
comp ul
Congratul ations</w>
brow n</w>
fulfil lment</w>
migr ation</w>
M ust
D ou
ri ding</w>
Uk rain
Po on
Mat ch</w>
l uck</w>
W ise</w>
ti al</w>
inter -
Y S</w>
s om
E ight</w>
ic ked</w>
m ang
ke ys</w>
cal cium</w>
quali fy</w>
organ ic</w>
ester ol</w>
ab s</w>
apolog ise</w>
exper im
b one</w>
sec ond
N on-
Mil itary</w>
Commun ist</w>
ar pur</w>
al isation</w>
inf ections</w>
sc oring</w>
Amb assador</w>
Rad ha</w>
ic hand
H ri
2 1st</w>
U T</w>
T ag
Res urrec
2019- 20</w>
sex ually</w>
Gand his</w>
pul led</w>
d inner</w>
N .</w>
clean liness</w>
ly -
l an
gu y</w>
p ush</w>
cal am
Pr o</w>
Shastr i</w>
bl ack
scre ening</w>
ro ots</w>
Consu mer</w>
Employe es</w>
bac ks</w>
R ome</w>
ern ity</w>
reduc es</w>
cre ative</w>
Sub ram
I II</w>
-1 5</w>
sequ ent</w>
gr y</w>
pp ers</w>
K ri
encour agement</w>
per spective</w>
el eph
Sain a</w>
dren s</w>
AY US
g ang
harm ful</w>
H eg
Co ast</w>
w hat
jun a</w>
l ord</w>
bound aries</w>
re tri
aff ir
fi l</w>
b age</w>
nation als</w>
isol ation</w>
famili ar</w>
se y</w>
step ped</w>
Your e</w>
Tal king</w>
j ection</w>
clari fied</w>
Gu wa
Mo on</w>
Jas on</w>
Ch enni
l est</w>
avo ided</w>
itam ins</w>
av i</w>
c ked</w>
em is
S as
Cle an</w>
n ant</w>
az ar</w>
Gu ard</w>
ou ghly</w>
equ ity</w>
S aw
Gir l</w>
in ery</w>
Air tel</w>
habil itation</w>
des ired</w>
em powerment</w>
top ic</w>
entr ance</w>
d ingly</w>
Pudu cherry</w>
c us</w>
cap it
T rain</w>
E -
sm ile</w>
poin ting</w>
h ence</w>
bul let</w>
um a</w>
inter im</w>
Comm unity</w>
Benef its</w>
c ops</w>
vulner able</w>
D il
ob jects</w>
norm ally</w>
reve als</w>
hang ing</w>
itt ag
ty pically</w>
e z
O x
K ey</w>
in spector</w>
Delhi -
twe ets</w>
exc e
deli ghted</w>
am p
Lev el</w>
B lood</w>
B eg
Qu reshi</w>
Presid ents</w>
j ot</w>
id hi</w>
Reli ef</w>
Secret aries</w>
intro duce</w>
Sati sh</w>
ess els</w>
ahe b</w>
er o</w>
Str ict</w>
E T</w>
Jaish ankar</w>
rul ers</w>
benef ited</w>
T elec
fe es</w>
in form</w>
Mar ket</w>
log ging</w>
be y</w>
S ource</w>
sp ouse</w>
C ar</w>
or ation</w>
in su
harv est</w>
promo ted</w>
Chenni thala</w>
t odays</w>
ri st</w>
Ne ther
im plic
K ad
mo bil
O rig
Sant osh</w>
ges he
as kar</w>
senti ments</w>
of -
w ay
mun icip
auth enti
ther more</w>
is i</w>
motiv ated</w>
hun t</w>
AN D</w>
J .</w>
un cle</w>
mag ic</w>
Shiv aji</w>
yi eld</w>
Isa ac</w>
Ap pro
Gir ls</w>
vi d</w>
AYUS H</w>
f ant
com e
c og
Sus hil</w>
Simil ar</w>
au g
sec re
l ashed</w>
Th ird</w>
Bran ch</w>
deal t</w>
S ai
occur s</w>
ot t
cri ed</w>
re ign</w>
fe ared</w>
me als</w>
sc rib
foret old</w>
Hass an</w>
Sou thern</w>
Muz aff
Certi fic
ast ro
um es</w>
He reafter</w>
are rs</w>
In dex</w>
S an</w>
sup plied</w>
descri bes</w>
Dharm endra</w>
op pose</w>
rup tion</w>
lyric s</w>
revel ations</w>
coun ting</w>
defin ite</w>
MS ME</w>
su preme</w>
administ ered</w>
po ems</w>
Indi an-
indic ates</w>
hel med</w>
conver ted</w>
c eas
de fault</w>
fac ulty</w>
enjo ying</w>
d ub
Innov ation</w>
am endment</w>
tro p
qu e
on y
N ITI</w>
1. 0
ret ail</w>
al tar</w>
o tic</w>
incl usive</w>
d al</w>
R id
pre liminary</w>
sti r</w>
fol der</w>
Guwa hati</w>
compl ic
po ons</w>
execu ted</w>
St ore</w>
up dated</w>
2016 -17</w>
199 8</w>
fir ms</w>
lig ent</w>
ab sor
i b
b locks</w>
Wil liam</w>
Hon ble</w>
ox ygen</w>
d a
Tri bal</w>
six es</w>
m in</w>
amm uni
hand led</w>
ho pe
pri se</w>
fr ay</w>
T it
Sh ro
f ishing</w>
pres entation</w>
exc iting</w>
Bro thers</w>
Shuk la</w>
vir tual</w>
os oever</w>
boo k
Minist ries</w>
l ucky</w>
Tri p
P DP</w>
et ernal</w>
co aches</w>
J ail</w>
depend ent</w>
at -
rem anded</w>
am ended</w>
al ise</w>
Pres ently</w>
teas er</w>
Nether lands</w>
phenom en
surve illance</w>
am in</w>
Iq bal</w>
H and
pain ting</w>
in struction</w>
Ag ain</w>
fur n
ab il
pre vention</w>
civili ans</w>
b low</w>
Ro ads</w>
el ine</w>
confir mation</w>
con fron
transp arent</w>
Mall ya</w>
I -
Sp irit</w>
consul tation</w>
Ay ur
k it</w>
psal mist</w>
Bh ub
sec onds</w>
R adha
Resurrec tion</w>
B lock</w>
C ou
tu r</w>
AS E
con ferencing</w>
dy nam
cal endar</w>
b in
on ia</w>
- to-
u ka</w>
can e</w>
ud a</w>
gar dens</w>
succ umb
Per s
Grad u
rest ore</w>
net works</w>
D an
h es</w>
M uch</w>
char geshe
Co im
C D</w>
Advis or</w>
open er</w>
rati o</w>
Ag ainst</w>
Raj e
vig il
therap y</w>
t ary</w>
hun ger</w>
v ast
chol esterol</w>
Sup port</w>
f ro
E L
Man ch
D s</w>
roll ing</w>
ti fied</w>
Sil ver</w>
Ex per
w ami</w>
adver tis
p ays</w>
Champion ships</w>
HR D</w>
D ile
M erc
resist ance</w>
ed .</w>
recru itment</w>
Men on</w>
Ch ittag
fore ig
D NA</w>
wou ldnt</w>
p our</w>
Ar m
pol itan</w>
L aw
tur meric</w>
Coim bat
Con c
ven ted</w>
a ult</w>
Pan k
Coun try</w>
cre ates</w>
produc tive</w>
compon ent</w>
Sw ed
per or</w>
sha me</w>
n in
re sted</w>
e tic</w>
custom er</w>
transp arency</w>
b har</w>
ar ts</w>
T S</w>
E st
flow s</w>
ur ally</w>
your e</w>
d in
S ession</w>
se where</w>
N air</w>
Re pe
f ting</w>
Mot or
D ab
Ephes ians</w>
akrish nan</w>
acqu i
Pol l
co ol
celebr ating</w>
worshi pped</w>
n asty</w>
Shi m
Chandr ay
coun c
u tionary</w>
ai -
proced ures</w>
k ni
C BSE</w>
corrup t</w>
cle ared</w>
hab its</w>
c ks</w>
Kashm iri</w>
ved i</w>
v o</w>
zer o</w>
tu m</w>
ev a</w>
rou tine</w>
f earing</w>
ec osy
chec ked</w>
re stor
loy alty</w>
what soever</w>
re acted</w>
infl ation</w>
Loc als</w>
reservo irs</w>
propos als</w>
d oned</w>
Ram an
fin ds</w>
4 ,000</w>
st o</w>
refl ected</w>
S ame</w>
Gh ulam</w>
man n</w>
Ye ah</w>
Christi anity</w>
Accor dingly</w>
des ir
Mov ement</w>
divid e</w>
as y</w>
af ford</w>
in sec
p ap
coll ective</w>
God dess</w>
purcha sed</w>
Ra in</w>
F erti
b led</w>
P R
Hindust an</w>
ad u</w>
toil ets</w>
Var ma</w>
ur am</w>
trans formation</w>
op pon
Kh ans</w>
ann ually</w>
Emer gency</w>
D aily</w>
Desh mukh</w>
intensi fied</w>
s add
H ab
heart felt</w>
ap pa
disp utes</w>
Shak ti</w>
ful fil</w>
belong ed</w>
achar ya</w>
Ret ur
liv elihood</w>
aspir ations</w>
PM s</w>
bi a</w>
youn gest</w>
audi o</w>
p at</w>
condem n</w>
San je
Har ish</w>
fi e</w>
Shro ff</w>
ap point</w>
g ger</w>
o ting</w>
Fur thermore</w>
Enter tainment</w>
Revi ew</w>
199 6</w>
K CR</w>
op ted</w>
cust oms</w>
W rit
Sad ar</w>
t end</w>
Enter prises</w>
Argent ina</w>
ind ustri
P ut</w>
temper atures</w>
Ang el
l ity</w>
casu alty</w>
Sriniv as</w>
prin ted</w>
v essels</w>
N L</w>
t ari
pos ing</w>
Se th
r ab
Institu tions</w>
r ance</w>
h pur</w>
An ant
r aining</w>
Jan hvi</w>
Kann ur</w>
eut enant</w>
where ver</w>
sm ug
stom ach</w>
Ra th
Man i</w>
pos sibilities</w>
anc ement</w>
W ik
Ris hab
Man dir</w>
S SP</w>
thor oughly</w>
pres erve</w>
mission ary</w>
Cha t
Bhub an
um in
D oing</w>
L PG</w>
IP S</w>
di m
trib es</w>
en -
t ank</w>
clos ure</w>
Nar as
obvi ous</w>
un employment</w>
it ance</w>
restric ted</w>
bid den</w>
F ern
L a</w>
invol ve</w>
ass ail
cau tion</w>
shi t</w>
il -
Pr ash
par ked</w>
ne red</w>
commit ting</w>
15 th</w>
deri ved</w>
contin ent</w>
Sw it
hu b</w>
e state</w>
st al
produc ers</w>
f lock</w>
W as
techni ques</w>
g m</w>
de posit</w>
S eh
Jam a
mo tive</w>
exec ution</w>
Ques tions</w>
La unch</w>
Bhag at</w>
A m</w>
rep air</w>
W eve</w>
clo thing</w>
Char ge</w>
F I</w>
ti e</w>
extra ordinary</w>
Pen al</w>
ww w.
presti gious</w>
enh ancing</w>
inter acted</w>
R onal
2. 0</w>
champ ion</w>
Mo del</w>
resid ential</w>
d ying</w>
h ec
may be</w>
Canadi an</w>
prot ecting</w>
un just</w>
do gs</w>
re alised</w>
hop ed</w>
Agr a</w>
er ably</w>
Far oo
recei ves</w>
spo ts</w>
hum ility</w>
p att
Is nt</w>
ei ve</w>
s ends</w>
Ra dio</w>
the tic</w>
Pri mary</w>
scen es</w>
Mad urai</w>
p ag
os is</w>
Fa ith</w>
arm ing</w>
Sh es</w>
j et</w>
Aw ake</w>
Sul tan</w>
Kot t
N al
ar aj</w>
lov ers</w>
sett lement</w>
Gaur i</w>
Politi cs</w>
liter ary</w>
ME s</w>
Ch it
trag ic</w>
I B</w>
commun al</w>
j id</w>
mo b</w>
felic itated</w>
Ak ali</w>
ter ly</w>
L am
Coimbat ore</w>
ayan ad</w>
termin al</w>
b hai</w>
C all</w>
enthusias m</w>
rec all</w>
produc tivity</w>
fr anch
e able</w>
Hen ry</w>
C ancer</w>
Know ing</w>
B ap
cot ton</w>
auc tion</w>
conn ecting</w>
qu i</w>
Az har</w>
Vive kan
Rup ani</w>
Na than</w>
Li ve</w>
Chittag ong</w>
ind ings</w>
long- term</w>
inst all
al pur</w>
mis sed</w>
C C</w>
Kar thik</w>
S en</w>
sw ing</w>
7 th</w>
v and
class ical</w>
Rishab h</w>
cre te</w>
or ted</w>
person alities</w>
loc ality</w>
ens ely</w>
increas ingly</w>
b our
ent ers</w>
W ayanad</w>
renew able</w>
Chandras ek
ran king</w>
Rah ane</w>
Ma th
quali fication</w>
guaran tee</w>
hor ri
mom ents</w>
Reg ul
el ve</w>
rep utation</w>
V ed
hel pl
respon d
i a
G av
dep end</w>
Vo ting</w>
appl ies</w>
Un it</w>
Ish ant</w>
Anti -
bound ary</w>
convic ts</w>
C um
Person nel</w>
A .
Stud ent</w>
sugg ests</w>
N abi</w>
10 5</w>
el ement</w>
T A</w>
For tun
Vehic les</w>
moment um</w>
bre ath</w>
it ori
si c</w>
ob st
mod erate</w>
Stu dies</w>
Rav ichand
Par ti
c ensus</w>
con tra
hab it</w>
197 1</w>
es y</w>
min orities</w>
ref erring</w>
2. 5</w>
adop t</w>
S ources</w>
appa rently</w>
Compan ies</w>
assi um</w>
Chall engers</w>
I mp
be ating</w>
Sa ur
D P
Ap ply</w>
f ears</w>
Exp o</w>
b ills</w>
v itamins</w>
Raje ev</w>
Com mon
susp ici
sol e</w>
a war
Res cue</w>
N il
ne arest</w>
drag on</w>
V il
de fam
A K
devo ted</w>
ag iri</w>
Com pu
as hi</w>
Swed en</w>
Im age</w>
g ates</w>
B ol
A Y</w>
withdra wal</w>
declar ation</w>
Ak bar</w>
pre vented</w>
disper se</w>
d ha</w>
Rel ations</w>
im perfect</w>
x es</w>
cu ts</w>
rec t</w>
re ven
pl em
hum ili
St alin</w>
ha b</w>
mar itime</w>
cap abilities</w>
Le ela</w>
ammuni tion</w>
demonstr ate</w>
gr ants</w>
S top</w>
attr act</w>
business man</w>
al bum</w>
Sri k
en or
amoun ts</w>
E arly</w>
Heg de</w>
Gu ar
St or
shr ine</w>
olog ist</w>
conc e
Sam sung</w>
Y ed
Ma ul
cr ushed</w>
anth a</w>
stoc ks</w>
Palest in
Con sequently</w>
A h</w>
Compu ter</w>
forth coming</w>
J et</w>
peti tion
some where</w>
Sto kes</w>
H ey</w>
ri ots</w>
cul tures</w>
ap ar
ac re</w>
mar ine</w>
um ping</w>
nation wide</w>
v es
A ge</w>
young sters</w>
it .</w>
sc uff
ai b</w>
Hri thik</w>
j j
l anding</w>
bel oved</w>
G O
D ri
de -
tr apped</w>
inau g
M ut
be tr
. com</w>
o ke</w>
Nation alist</w>
inaug ural</w>
pres su
establ ishing</w>
199 1</w>
Y uz
re signs</w>
T ay
A rea</w>
tr il
ha il</w>
second -
l ayer</w>
Pers onal</w>
bur g</w>
Ra him</w>
w aves</w>
it arian</w>
rec k
m ity</w>
mp h</w>
end ments</w>
cop ies</w>
cont acted</w>
n esses</w>
E ff
14 4</w>
Mar riage</w>
as aheb</w>
sp inner</w>
be t</w>
Ad ditionally</w>
Swit zer
ti k</w>
susp ension</w>
Er nak
L O
18 0</w>
attr active</w>
g or
S I</w>
th inks</w>
su e</w>
mean ing
resp ects</w>
sing le-
as hamed</w>
usp icious</w>
Tri bun
tw enty</w>
I yer</w>
it em</w>
work shop</w>
eal ous</w>
thi eves</w>
se aled</w>
it ations</w>
S uc
low s</w>
fi bre</w>
ju ris
st ores</w>
h os
sa ith</w>
Ste ph
S c
Hist or
ne phe
memor ial</w>
b onds</w>
W ant</w>
yi el
speci fically</w>
P ed
s ick
Sy mp
Bel gi
w ashed</w>
neigh bor
mus ical</w>
hard ship</w>
H om
R ay
gi ant</w>
Jin ping</w>
engine er</w>
car ries</w>
D id
all- r
out fit</w>
ab ol
G ram</w>
I A</w>
T ower</w>
sl aves</w>
mid -
Commun ication</w>
ax y</w>
Ronal do</w>
car di
ligh ting</w>
Yuz vendra</w>
cent ers</w>
S ays</w>
L ud
onom ous</w>
ris en</w>
Rat na</w>
re in
An up
acces sible</w>
interrog ated</w>
inher itance</w>
acc us
s nat
Sh er
un usual</w>
trav elled</w>
confl ic
Fre edom</w>
l o</w>
F DI</w>
def end</w>
Turk ish</w>
in di
ut or</w>
a on</w>
pro -
mil d</w>
i z</w>
expl ore</w>
end ants</w>
J E
up athi</w>
ass urance</w>
min us</w>
argu ed</w>
O m</w>
ri dic
har dly</w>
A K</w>
mo m</w>
s ad
Bha tt
re mark</w>
Des ign</w>
Nor th-
vi c</w>
st ery</w>
b b
With in</w>
s now</w>
M au
accompl ished</w>
T ok
Radha krish
emin ent</w>
su r</w>
emb arr
AN S</w>
roman tic</w>
cha m
M id
sc at
sel fie</w>
wor e</w>
sum mon
Mag istrate</w>
p addy</w>
Man ufac
pas sport</w>
dem ol
19 th</w>
William son</w>
high lights</w>
resent ment</w>
os ity</w>
comm enced</w>
ar ities</w>
j am</w>
Im port
He al
s killed</w>
su pre
c ure</w>
Pan dit</w>
Mi ke</w>
ad hy
tis ation</w>
de fic
P ok
sp er
air line</w>
cultiv ate</w>
W indows</w>
P AN</w>
tables poon</w>
h ills</w>
Shi pping</w>
Gujar ati</w>
min s</w>
ard han</w>
Co -
il ee</w>
An dam
or -
De partments</w>
di p</w>
We b</w>
Cho ose</w>
Par ishad</w>
M .
olo gi
w ani</w>
t ance</w>
l is
Sh il
C ases</w>
Man n</w>
in convenience</w>
view ing</w>
memor ies</w>
f et
ach ment</w>
s now
r ut
off spring</w>
T og
in ev
bra ve</w>
g are
Bahad ur</w>
contro ll
inter f
Kir an</w>
gr ass</w>
Switzer land</w>
enti ty</w>
er ce</w>
all est</w>
l anded</w>
Raj an</w>
ulti mately</w>
ou ts</w>
m oc
k id</w>
ner v
g al
exp elled</w>
Durg a</w>
in stitutes</w>
FI FA</w>
mess engers</w>
ex hor
Sn ap
Fol low</w>
thre w</w>
ic ed</w>
Ven ug
Integr ated</w>
schol ar</w>
absol ute</w>
U L
pass age</w>
mov ements</w>
ad ult</w>
N ab
Cor ruption</w>
inter c
S ai</w>
G S</w>
Yed dy
R ai
ul ate</w>
G ab
ex ha
trib ulation</w>
Sha shi</w>
Aw ami</w>
as pur</w>
marty red</w>
de pri
corpor ation</w>
stric tly</w>
ou rish
Symp toms</w>
ran g</w>
ol ate</w>
Gand hin
B ed
D .
B ack</w>
Kha le
an j</w>
Journ al</w>
ign ore</w>
Si v
pe tro
no t
forec ast</w>
Regist er</w>
public ly</w>
dep ending</w>
Q atar</w>
con crete</w>
,9 99</w>
no ise</w>
lo g</w>
remov al</w>
to b
ov al</w>
ev i</w>
T ech</w>
P A</w>
O R</w>
cor ridor</w>
Sik hs</w>
Mov ie</w>
sub sequent</w>
cre di
Mos que</w>
199 7</w>
h umb
Lar ge</w>
volunte ers</w>
m .</w>
M G
pu ri
pot assium</w>
obedi ence</w>
imm unity</w>
Initi ally</w>
As ked</w>
min ute</w>
high ways</w>
fre ely</w>
for bidden</w>
R ap
Her o</w>
Can not</w>
Aut om
O wa
sav ings</w>
el sewhere</w>
comp are</w>
Jod hpur</w>
Bh ans
P N
g am</w>
F ord</w>
succumb ed</w>
inc ur
re str
prohib ited</w>
id ols</w>
gu ards</w>
Vi ew</w>
w ad</w>
con sent</w>
Res p
Cust oms</w>
B ei
Gandhin agar</w>
1- 0</w>
Ran chi</w>
Common wealth</w>
condol ed</w>
S is
s and</w>
conv ey</w>
ze al</w>
p ath
Krish n
m ated</w>
k top</w>
complic ated</w>
shou ldnt</w>
hun gry</w>
cu ri
t age</w>
A ur
ov es</w>
Le aders</w>
Mod ern</w>
ran ath</w>
saf ely</w>
Le ave</w>
l av
inaugur ation</w>
stret ch</w>
glori ous</w>
Messi ah</w>
Head quarters</w>
appl ying</w>
An na</w>
la undering</w>
dw elling</w>
Ran deep</w>
bre ast</w>
H A</w>
g ue</w>
x ious</w>
bas eless</w>
Nav jot</w>
Kar tar
st a
he a</w>
l emon</w>
Comm ander</w>
war n</w>
ed ness</w>
ca p</w>
publ ishers</w>
mer ciful</w>
v ain</w>
instr ument</w>
Kott ayam</w>
List en</w>
Un fortunately</w>
dom ain</w>
ch icken</w>
D -
superi or</w>
dead ly</w>
c ook</w>
jud ged</w>
ti se</w>
Budd ha</w>
12 th</w>
Stand ard</w>
ta p</w>
des erve</w>
ti er</w>
f ear
polic eman</w>
wr ath</w>
im pressive</w>
0 1</w>
bath room</w>
l or</w>
F ull</w>
ri ses</w>
Ram achand
tit les</w>
intro duc
Vin ay</w>
Mahar aj</w>
laun ching</w>
survi v
bri dges</w>
T ill</w>
ul -
sla in</w>
ret ained</w>
Sam aj</w>
Kartar pur</w>
s ab
R S</w>
top -
judici ary</w>
de als</w>
20 20-
marg in</w>
um ed</w>
scienti st</w>
des cription</w>
list ened</w>
ai c</w>
C S</w>
substanti al</w>
chil ds</w>
star t
shor t-
as ion</w>
In cl
det ected</w>
compar ison</w>
nephe w</w>
chem icals</w>
acknowle dged</w>
199 5</w>
re actions</w>
Ernak ulam</w>
pl un
acqui sition</w>
m iti
demonstr ated</w>
epis ode</w>
ade ep</w>
manufac tured</w>
Coun ty</w>
ex ual</w>
tru sted</w>
Venug opal</w>
pen ned</w>
Pl ace</w>
lau gh</w>
no se</w>
f i</w>
Mis s</w>
in tr
imm une</w>
hur i</w>
for giving</w>
Stud y</w>
R it
G en</w>
obedi ent</w>
ll a</w>
coll ect</w>
Kis an</w>
des per
att rib
coun sel
s ang</w>
rem emb
inc redi
Faroo q</w>
Col our</w>
ob jected</w>
Yuv raj</w>
Mas jid</w>
fun eral</w>
Te acher</w>
Respon se</w>
reli able</w>
uni ons</w>
tob acco</w>
defin ition</w>
K i</w>
prin ting</w>
an cies</w>
Kish ore</w>
Pr am
sanc tions</w>
op enly</w>
depos its</w>
Bri dge</w>
sett le</w>
T P</w>
or ous</w>
bes ide</w>
illustr ation</w>
Ghaz i
um an</w>
sem i
fr ag
araj an</w>
un t</w>
se as</w>
c utting</w>
mol ec
counter part</w>
Wh oever</w>
Pil ot</w>
strug g
p oo
L ou
M ari
mer ch
cha se</w>
S po
sti mul
disci ple</w>
cour ag
r age</w>
intern ation
te enth</w>
ful l-
r ator</w>
b ha</w>
certain ty</w>
C ant</w>
c ub
Pas wan</w>
K ut
nav ig
Yeddy urappa</w>
disp os
abund ance</w>
frequ ent</w>
mil est
opin ions</w>
DR DO</w>
augh ter</w>
MS MEs</w>
bl ings</w>
Gre ater</w>
Y O
Author ities</w>
accompl ish</w>
C ut</w>
Ex -
emer ge</w>
c lock</w>
ali zing</w>
tr ain
lu x
is ha
Su st
S am</w>
war ri
Re ally</w>
testi mony</w>
circul ated</w>
D ad
199 0</w>
y ad
conf used</w>
Dal it</w>
An sari</w>
shi rt</w>
Sain i</w>
Mark eting</w>
Micro soft</w>
scuff le</w>
n es
cle aning</w>
re verse</w>
hor se</w>
col our
st up
show cas
Sw amy</w>
00 ,000</w>
for warded</w>
BJ D</w>
det ention</w>
G amb
v in
Rep ublic
Dis cus
nom in
establ ishments</w>
Gul f</w>
threat ening</w>
Bhuban eswar</w>
G ro
champ ion
a uspicious</w>
a q</w>
di um</w>
Territ ories</w>
Part nership</w>
accep ting</w>
L ang
rele asing</w>
Dist ribution</w>
k ing
All u</w>
hal t</w>
fe eding</w>
st ance</w>
occup ation</w>
ograph ical</w>
Gor akh
Cle arly</w>
c r</w>
teach es</w>
ric k
l aying</w>
gu ys</w>
rich es</w>
gr ound
M it
F er
f indings</w>
Rak sha</w>
ai ka</w>
tt ar</w>
cla use</w>
cho ices</w>
3 1st</w>
sh ots</w>
di visions</w>
t asks</w>
Jay anti</w>
J yo
compan ions</w>
Gu in
ab ling</w>
hol der</w>
6 th</w>
pal ace</w>
overn ight</w>
hum i</w>
comm ence</w>
ot es</w>
Owa isi</w>
Andam an</w>
commit tees</w>
Repe at</w>
t ops</w>
Shiv akumar</w>
uri ties</w>
ambul ance</w>
Rem ove</w>
D ate</w>
C are
hi a</w>
priv acy</w>
ric k</w>
enti l
distinc t</w>
Thar oor</w>
gir l
hapat nam</w>
r ul</w>
brilli ant</w>
Ac tive</w>
ti ght</w>
Pakist an-
8 th</w>
1 10</w>
repe at</w>
medi ate</w>
exp ec
demonstr ation</w>
M ush
ab ase</w>
under take</w>
scrip tion</w>
cr iter
es i
li kewise</w>
wild erness</w>
assu med</w>
J ai
fem ales</w>
Jav ed</w>
Film fare</w>
x it</w>
v ary</w>
Meth od</w>
h ug
co conut</w>
che ating</w>
L og
R ate</w>
Pre m</w>
pr aying</w>
assaul ted</w>
Gar dens</w>
weak ness</w>
Naras im
19 14</w>
r as
no table</w>
Bo x</w>
manufactu rer</w>
H ockey</w>
on el</w>
g all
schol ar
precau tions</w>
Trip athi</w>
S ali
V la
ex al
embarr ass
discus sing</w>
spe ech
av ari</w>
as leep</w>
Seth upathi</w>
telec om</w>
pul ses</w>
9 th</w>
am ent</w>
ell ers</w>
econom ies</w>
c ous
Az am</w>
ic it</w>
L E
b omb
M L</w>
C ell</w>
Li brary</w>
defic it</w>
but ter</w>
bha jan</w>
oc ation</w>
er on</w>
aw ada</w>
0 5</w>
s laugh
Im plem
y st
uc ks</w>
s ounds</w>
G ile
San ia</w>
G il
cap ability</w>
concl ude</w>
a ud
N iz
Har ry</w>
high light</w>
t s
Pro motion</w>
al le
don ated</w>
Kar un
J r</w>
d ancing</w>
Egyp tian</w>
pri sed</w>
f ate</w>
Bha wan</w>
pursu ing</w>
Cl ose</w>
si blings</w>
athle tes</w>
contem porary</w>
viol ating</w>
li ver</w>
ac ks</w>
im ming</w>
dic t
-1 2</w>
sett ings</w>
id ental</w>
cust om</w>
Raj ap
viol ated</w>
sc ul
d ging</w>
Maul ana</w>
Hoo da</w>
- in-law</w>
f old</w>
Met ro
2 3
ol es
instr uments</w>
magaz ines</w>
g et
V all
v ent
ref resh
oli ve</w>
P ension</w>
Dile ep</w>
resurrec ted</w>
sha l</w>
Mos cow</w>
war ns</w>
op ti
pill ars</w>
ag ents</w>
d rought</w>
L ot</w>
set up</w>
leg endary</w>
ox ide</w>
i ander</w>
ext en
liter ally</w>
re sist</w>
Rav e
194 7</w>
T B</w>
pres s
dou bles</w>
hi ana</w>
Hear t</w>
ide ology</w>
per mit</w>
Wor ks</w>
exp ecting</w>
consist ent</w>
erup ted</w>
ti g
l unch</w>
Cha irperson</w>
tru ths</w>
R as
ind e</w>
flood ed</w>
Su k
L earn</w>
rem and</w>
off erings</w>
figur ation</w>
b ul</w>
j ing</w>
convic tion</w>
rec ording</w>
ali ke</w>
D re
tor ious</w>
t all</w>
recip i
m ass
Char les</w>
W ay</w>
recogn ise</w>
qu arre
S em
and an</w>
str ingent</w>
dom inated</w>
K ail
meas ured</w>
fl av
disp uted</w>
elabor ate</w>
bad minton</w>
in put</w>
B ush</w>
g ence</w>
U G
P ari
An t
Pati ala</w>
As ad
Re ports</w>
ref use</w>
To y
ag u
Sub -
por a</w>
necess arily</w>
Ru pe
meth i</w>
d airy</w>
excl usive</w>
elim inate</w>
sw itched</w>
For giving</w>
neg ligence</w>
An j
p ushed</w>
Sund ar</w>
Hindu ism</w>
tr act</w>
comm odi
Ma o
Bag h
thor ough</w>
ak ar</w>
com promise</w>
Ri o</w>
summon ed</w>
integr ation</w>
tem por
fav or
R .
sh opping</w>
log ged</w>
K night</w>
ast ers</w>
S of
s al</w>
ox id
av iation</w>
ad verse</w>
San j
A lok</w>
um b</w>
Sukh bir</w>
Mad rid</w>
compe te</w>
Rain a</w>
inst all</w>
may or</w>
a .</w>
Li kewise</w>
depar ted</w>
av ing</w>
ag ent</w>
institu tional</w>
nor theast</w>
Al ways</w>
ed -
te eth</w>
k i
conc ep
ved a</w>
Chin as</w>
H ospit
tal ented</w>
he ated</w>
N AS
K end
pun ish</w>
mess enger</w>
deser ved</w>
Tribun al</w>
Sh o
Kar tik</w>
utt ler</w>
r ush</w>
life time</w>
God avari</w>
Ham id</w>
man ship</w>
wicket -
shou ted</w>
repor ting</w>
ing a</w>
doc tr
amb assador</w>
Gri ev
identi fication</w>
remind ed</w>
n est</w>
k -
cor ona</w>
Her itage</w>
I ll
Ma x
J og
ver sions</w>
associ ates</w>
Har v
b itter</w>
ash a</w>
A pr
t .
clos ing</w>
tri ple</w>
Portu gu
De ol</w>
ren sic</w>
M aking</w>
199 3</w>
la tions</w>
Tel evision</w>
re b
st em
sl ams</w>
celebr ates</w>
b ans</w>
be ach</w>
Siddi qui</w>
Mess engers</w>
L D</w>
Cy cl
proc essor</w>
Pr adeep</w>
D own
evol ution</w>
O ni
tw elve</w>
K av
un clear</w>
c ited</w>
Dr inking</w>
S eng
ic y
Pro per
10 th</w>
Asi f</w>
wh om
c ated</w>
Oper ation</w>
le dge</w>
commodi ties</w>
p ast
motor cycles</w>
B us</w>
exam ining</w>
peri ods</w>
feder al</w>
econom ics</w>
cra zy</w>
Gre ece</w>
hot els</w>
ch ro
t ag
diffe rently</w>
st ating</w>
E specially</w>
eigh th</w>
Un able</w>
negoti ations</w>
SA W</w>
Raj kumar</w>
par ag
oc ean</w>
l oud</w>
hy gi
dis cour
Rajap ak
Mess i</w>
H it
199 2</w>
spe edy</w>
Ma hab
F lo
Wik i
commun ications</w>
Mal aika</w>
gov .in</w>
cros sing</w>
Gamb hir</w>
elec tro
den ies</w>
Z e
NC R</w>
pas sion</w>
fin ancing</w>
deleg ates</w>
Exam ination</w>
qu eries</w>
pl ant
Govern ance</w>
be re
separ ately</w>
P ap
Gu id
b ars</w>
Direc t</w>
or ded</w>
m ac
inst ances</w>
scul p
on wards</w>
Cha van</w>
arm ies</w>
clin ical</w>
T ab
sub mission</w>
at ories</w>
199 4</w>
web sites</w>
em entary</w>
Sanje ev</w>
ri vals</w>
aw n</w>
scoo ter</w>
e ye
Prov ince</w>
en na</w>
monit ored</w>
all-r ounder</w>
Gile ad</w>
re comp
goo dness</w>
Kaus hal</w>
Offici al</w>
O f
Elec tric</w>
IC U</w>
politi cally</w>
ass ure</w>
techn ological</w>
back ward</w>
Suc c
Govern ing</w>
C au
mand ate</w>
inter ior</w>
ern s</w>
b arre
ren dering</w>
exist ed</w>
ad joining</w>
me ter</w>
s at</w>
ha iled</w>
H ir
Treat ment</w>
ul es</w>
th ick</w>
per taining</w>
Scrip ture</w>
over ies</w>
de emed</w>
A char
blo od
Ok ay</w>
et te</w>
as certain</w>
cor doned</w>
Cha tur
sign al</w>
enter prises</w>
soci eties</w>
Lit tle</w>
Portugu ese</w>
Par v
wat i</w>
exp anding</w>
Comm and
vi ously</w>
is al</w>
ot i</w>
fun ded</w>
mag ne
sc ores</w>
re jects</w>
in i
obj ection</w>
comp uters</w>
subsi di
e fire</w>
We b
H IV</w>
Ar ch
fin alised</w>
un anim
ir ates</w>
A di
or ange</w>
ak i</w>
manufactu rers</w>
T .</w>
Viol ence</w>
tr ust
hom age</w>
chargeshe et</w>
St ory</w>
bur ned</w>
P E
akrish na</w>
mo ther
electr ical</w>
af ar</w>
Cha uhan</w>
loc ate</w>
Jud g
D eli
func tional</w>
N ature</w>
Mi th
nat urally</w>
audi ences</w>
H on</w>
confir m</w>
cl oud</w>
Har bhajan</w>
la i</w>
it -
chasti sement</w>
la in</w>
govern ing</w>
best owed</w>
Bir th</w>
1 60</w>
the -
Shre yas</w>
week ly</w>
eg g</w>
Kar achi</w>
uri ous</w>
bo ats</w>
ar ose</w>
Adv oc
vac ation</w>
six -
inter rup
three- match</w>
th ri
f ound
chil lies</w>
ali as</w>
Fed eral</w>
smil ed</w>
impro ves</w>
s en</w>
ha van</w>
al erted</w>
Con n
te st
ent ally</w>
prob ed</w>
sc rap
marty rs</w>
Manch ester</w>
nar row</w>
E ver</w>
et ers</w>
T ik
res ort</w>
ou l</w>
const able</w>
A methi</w>
tor ial</w>
es -
cr ashed</w>
Des ai</w>
uz ha</w>
AI DS</w>
str a</w>
are n</w>
id ol
acqu ire</w>
ab ide</w>
6 4
IS IS</w>
lic ense</w>
Raj am
consist ing</w>
pione ers</w>
ecosy stem</w>
s ory</w>
Mil k</w>
l ine
U V
Chandray a
P ush
laugh ed</w>
De b
or ney</w>
h o</w>
ori ented</w>
J al</w>
sim pli
critici zed</w>
I RC
D E</w>
deterior ated</w>
li d</w>
clou ds</w>
E c
ov en</w>
re bel</w>
wh osoever</w>
cred ited</w>
M ys
k mph</w>
en forcement</w>
ell a</w>
Sud denly</w>
Fe ar</w>
tor ture</w>
mach inery</w>
def ense</w>
- megapixel</w>
an ic</w>
Pro test</w>
ap ology</w>
201 5
am endments</w>
Gr and
G aj
En forcement</w>
f lower</w>
Mas ood</w>
CS O</w>
perpe tr
con stitute</w>
susp icious</w>
er ated</w>
Dig vi
Quali fication</w>
r ating</w>
eng ue</w>
autom atically</w>
incl usion</w>
Electr icity</w>
e aten</w>
w ings</w>
lam p</w>
E den</w>
M M</w>
ha kar</w>
bo ards</w>
or g
dra ws</w>
cooper ative</w>
parti al</w>
Fin al</w>
Li eutenant</w>
d hary</w>
Nar ayan
t ability</w>
Distric ts</w>
ban k
dis appeared</w>
hope ful</w>
h tt
st atistics</w>
Tri b
I IT
Gorakh pur</w>
pist ol</w>
Medi um</w>
ou ter</w>
dist inguished</w>
pri orities</w>
M ach
Cin ema</w>
read ers</w>
p itch</w>
Gar den</w>
Hous es</w>
ti fication</w>
Aj ink
mor tuary</w>
t us</w>
sub jected</w>
H ell
Con tro
fab ric
l on
Au th
w ills</w>
vo y</w>
n uts</w>
ch equ
consu ming</w>
alle l</w>
S ath
emp t</w>
Sh inde</w>
Bha i</w>
Toy ota</w>
Fortun ately</w>
t less</w>
presid ents</w>
attr acted</w>
Scienti sts</w>
l ec
foreig ners</w>
acc orded</w>
Ch ic
an xious</w>
Certific ate</w>
Ben ch</w>
country men</w>
pac er</w>
nur ses</w>
multi t
u ality</w>
B ho
Ajink ya</w>
wom ans</w>
Far id
est ock</w>
Res ults</w>
bur st</w>
Li b
Ex erc
ASE AN</w>
wal ks</w>
car ing</w>
H aw
theat res</w>
suspici on</w>
diff er</w>
in cial</w>
after wards</w>
En tre
comm ander</w>
mai den</w>
ret ain</w>
c ow
chec king</w>
To o</w>
sor row</w>
pref erred</w>
lab or</w>
dis abled</w>
Tal k</w>
noti ces</w>
D il</w>
oper ative</w>
Chandraya an-
ap prised</w>
ul i</w>
Ju di
le f
hop ing</w>
hero ine</w>
or i</w>
es ha</w>
consu me</w>
prof its</w>
de ity</w>
ir atory</w>
Scienti fic</w>
Sa eed</w>
prev ailing</w>
Ayush man</w>
Administ rative</w>
Bei jing</w>
sam ple</w>
re ver
Arab ian</w>
b o</w>
tim ate</w>
ceas efire</w>
cy ber</w>
-1 4</w>
mal es</w>
et i</w>
less ly</w>
del eted</w>
awa iting</w>
proc ession</w>
fi res</w>
bo o</w>
Res idents</w>
Al am</w>
neighb or</w>
Vis ak
requ ests</w>
K han
Pri or</w>
dil ig
M ong
treas ure</w>
s had</w>
hal ted</w>
Min imum</w>
str ing</w>
comm end
Har i</w>
Di esel</w>
nerv ous</w>
Tai wan</w>
Per i
ig ned</w>
min im
P os
O w
Li ving</w>
D ur
long est</w>
Bl u
enor mous</w>
Em powerment</w>
. The</w>
P G
pe red</w>
ak sh
F at
Proc ess</w>
associ ations</w>
Bhans ali</w>
sub- section</w>
liqu id</w>
St atistics</w>
2020- 21</w>
ak en</w>
Har ris</w>
ta g</w>
men u</w>
ai re</w>
Un ity</w>
dub bed</w>
consu med</w>
Ac count</w>
Sel f</w>
c os
rap ing</w>
circul ation</w>
T us
pres ents</w>
r allies</w>
form ula</w>
Dut ta</w>
ris ers</w>
interf ere</w>
la uded</w>
agg ressive</w>
Im ag
so red</w>
hol e</w>
est -
Lud hiana</w>
dem one
Prash ant</w>
esh s</w>
Air ways</w>
dis bur
e- up</w>
K S</w>
B A</w>
mission aries</w>
manife sto</w>
is ms</w>
e ar</w>
bas ically</w>
S agar</w>
g ut
P om
Kum ari</w>
j ets</w>
overse er</w>
Know ledge</w>
K ak
198 9</w>
9 00</w>
smart phones</w>
fe at</w>
rang ing</w>
disobe di
PM O</w>
rat ri</w>
Abhi yan</w>
girl friend</w>
chur ches</w>
An der
y ard</w>
G -
Pr of</w>
super vision</w>
cur b</w>
intellec tual</w>
de a</w>
rich est</w>
mit ting</w>
pre ached</w>
pl anted</w>
Pank aj</w>
di am
Ren ew
Cap t</w>
Ac tually</w>
gi a</w>
g ross</w>
evacu ated</w>
ca res</w>
Sy d
C ross</w>
Z one</w>
T en</w>
Cap it
o dia</w>
Pu jar
Tok yo</w>
Ni fty</w>
G a
li ps</w>
C ook</w>
laugh ing</w>
F i</w>
con solid
Sun risers</w>
gra v
juris diction</w>
distur bed</w>
ar rog
ann ers</w>
sp ared</w>
alli ed</w>
t ful</w>
wic k
exerc ises</w>
trans form</w>
Air lines</w>
ub ali</w>
sha d
prosec ution</w>
attac king</w>
refl ects</w>
ni ghts</w>
0 9</w>
May ank</w>
stro ke</w>
an as</w>
manufac ture</w>
Snap dragon</w>
ut most</w>
end urance</w>
Sy n
C oo
intel ligent</w>
N or</w>
H ur
di str
Mys ore</w>
whe els</w>
th under
feat uring</w>
ag a</w>
Vivekan anda</w>
fif ty</w>
pl as
Tag ore</w>
exc ess</w>
pil ots</w>
Tam il
b hushan</w>
V and
ti re</w>
mind set</w>
tex ts</w>
d an</w>
ab h
lo ok
D ays</w>
r ats</w>
s lo
sal ute</w>
e b</w>
appreh ended</w>
D G</w>
whe el</w>
ob s</w>
ang al</w>
domin ant</w>
im ported</w>
flag ship</w>
tr um</w>
har raf</w>
uplo aded</w>
ob ar</w>
ch ron
2 1-
Th ane</w>
S ac
Phys ical</w>
Chandras he
command ments</w>
inter act</w>
vi sion
iti ous</w>
franch ise</w>
trans action</w>
1 1,
pos ure</w>
un ite</w>
plan es</w>
cl arity</w>
P y
Ben j
Roh ing
Sto ck</w>
parti tion</w>
jaw an</w>
en vis
broad cast</w>
si l</w>
cerem on
ple x</w>
11 th</w>
Me gh
sha ped</w>
neighb our
m asses</w>
en abling</w>
F ru
sp an</w>
m ou
interven e</w>
chi efs</w>
proc eed</w>
PN B</w>
ous ed</w>
M om
G .</w>
scrip tures</w>
Mug hal</w>
tor ia</w>
contain ment</w>
M ir</w>
ep id
g est
en ary</w>
ad vers
I R</w>
municip ality</w>
compli ance</w>
Y emen</w>
mor tality</w>
d as</w>
Ravichand ran</w>
p h</w>
distinc tion</w>
be arers</w>
rel ates</w>
olog ists</w>
ess ors</w>
Pr ag
techni que</w>
perf ection</w>
usi vely</w>
Territ ory</w>
Advis ory</w>
G ra
o a</w>
in und
c ups</w>
J unior</w>
coun ted</w>
V ell
V eteran</w>
lo gy</w>
desig ns</w>
Kha ttar</w>
tit udes</w>
g aining</w>
be t
y n</w>
up right</w>
keep ers</w>
Ric hard</w>
ri f
categ or
drow ned</w>
p ink</w>
recei pt</w>
wa g</w>
em ia</w>
A wa
U z
T aj
BS NL</w>
Un til</w>
c ell
affili ated</w>
u f</w>
tra its</w>
d ouse</w>
ar ch</w>
B om
m age</w>
ain ted</w>
cr yp
vo ter</w>
pl edge</w>
Sy rian</w>
D oval</w>
D ol
t ab</w>
in puts</w>
enti ties</w>
decreas ed</w>
Pro jects</w>
Achar ya</w>
my stery</w>
L in
k k
Rec ords</w>
pul l</w>
e ager</w>
Y ash
Dra vid</w>
S or
tion -
ack er</w>
top ics</w>
sk ir
fail ing</w>
Goo ds</w>
coll ector</w>
Ev entually</w>
sear ched</w>
j umped</w>
form erly</w>
concentr ation</w>
bu ff
K os
truth ful</w>
abund ant</w>
sh ore</w>
safe guard</w>
S M</w>
oo th
En d</w>
dis charge</w>
U sing</w>
righ tly</w>
fl ames</w>
R R</w>
campaig ning</w>
Dut ch</w>
25 ,000</w>
volun tary</w>
Engine er</w>
sha me
be k
o on</w>
Le ban
fair ly</w>
C L</w>
commission ed</w>
Ale x</w>
kno ck</w>
ic ks</w>
cop per</w>
clo th</w>
Pol ling</w>
fi erce</w>
Wor k
j unior</w>
i OS</w>
vir tually</w>
sel fish</w>
preser ved</w>
2015 -16</w>
sing les</w>
hi ding</w>
c ough</w>
Far han</w>
ber t</w>
restor ation</w>
Mal ap
par able</w>
legisl ature</w>
per su
Red mi</w>
strug gling</w>
v entil
Sw am
ard less</w>
tom atoes</w>
we ep</w>
shepher d</w>
rob ust</w>
expres sing</w>
cor iander</w>
S cin
Pal ace</w>
Kap ur</w>
peac efully</w>
Cor ridor</w>
' ble</w>
compl eting</w>
Maha jan</w>
boy cot
att ain</w>
po is
in sight</w>
b ly</w>
A V
fel low
B hand
b ore</w>
qu est</w>
d well
sc ape</w>
X ia
nit ude</w>
hei ghts</w>
R eh
Assist ance</w>
u jan</w>
me anwhile</w>
entr usted</w>
Produc tions</w>
K umble</w>
Con t
the astern</w>
Regist ration</w>
ang les</w>
Su rend
Bar cel
D ad</w>
ov ering</w>
Vid han</w>
compan ion</w>
Po st
under taking</w>
co in</w>
un expected</w>
Bi pin</w>
hy per
high- level</w>
rem in
0 6</w>
J ab
Belgi um</w>
lic ence</w>
Su n</w>
wid ow</w>
be ars</w>
sh ells</w>
prosp ect</w>
cir cle</w>
K hand
Al mighty</w>
Nag ar
arm er</w>
N ight</w>
pot atoes</w>
coo ked</w>
cap ture</w>
gu ides</w>
om mun
ag on</w>
V icky</w>
Pok h
Hus band</w>
H ill</w>
tax pay
sh ine</w>
Jam ia</w>
des ert</w>
Na q
Mic ro</w>
r ay</w>
micro SD</w>
ed a</w>
Vid ya</w>
PO CSO</w>
w er</w>
ol i</w>
leg acy</w>
Implem entation</w>
bor row
grand father</w>
viol ations</w>
A B</w>
fal se
Cri minal</w>
Ap pe
D isha</w>
writ ings</w>
compos er</w>
Tr ains</w>
c at</w>
comb ine</w>
Econom ics</w>
end or
propag anda</w>
sugges tion</w>
parag rap
Nay anth
thro at</w>
G etting</w>
rebel lion</w>
cl ay</w>
- India</w>
il es</w>
dim ir</w>
U NE
Ir r
sp are</w>
Direc tors</w>
K od
t ail</w>
J os</w>
regist ering</w>
er i
cul ar</w>
disc ern
Ho tel</w>
Gandhi ji</w>
hor ses</w>
amb itious</w>
Ne er
Aur ang
O ne
Un to</w>
Mo m</w>
s and
bla sts</w>
sin ful</w>
ri ti
a .
Vla dimir</w>
ti fy</w>
aff ecting</w>
R ac
Sha ll</w>
Syd ney</w>
B BC</w>
St ri
Na resh</w>
Barcel ona</w>
Rid ers</w>
q i</w>
Ko diy
G ok
fulfil ling</w>
must ard</w>
Vis hal</w>
m idd
gu m</w>
30 ,000</w>
decreas e</w>
Some one</w>
gun fight</w>
con sen
I ANS</w>
Gal axy</w>
Commun ications</w>
ra ft</w>
k o</w>
3 2
some what</w>
insp ection</w>
I l
tro phy</w>
ra p</w>
vi br
ac ute</w>
YS R</w>
J h
fe ed
rec eption</w>
M l
milest one</w>
g rows</w>
Ken ya</w>
communic ate</w>
limit ations</w>
f ails</w>
nom inations</w>
meaning ful</w>
Scin dia</w>
K aj
par allel</w>
S port</w>
vari eties</w>
acc um
Sur jew
he res</w>
estim ates</w>
regul atory</w>
D as
worshi ppers</w>
spiritu ality</w>
seas ons</w>
Portu gal</w>
Diffe rent</w>
A head</w>
po ta
at ro
T ext</w>
subst ance</w>
character istics</w>
0 8</w>
D K</w>
10 8</w>
win i</w>
c it
Uni versities</w>
T E
ec lip
ank er</w>
Visak hapatnam</w>
ex em
W ing</w>
H E
engine ers</w>
dy nasty</w>
pota to</w>
tril lion</w>
t one</w>
kilomet ers</w>
are dness</w>
E id</w>
Sy stems</w>
Surjew ala</w>
conflic ts</w>
S E</w>
8- megapixel</w>
cycl one</w>
Eli jah</w>
sust ain</w>
righ t-
favour able</w>
excell ence</w>
M G</w>
O sc
Bhag wat</w>
champ ions</w>
pl ing</w>
am en
stu ff</w>
promis ing</w>
Sar ah</w>
rin se</w>
Ja han</w>
ev an</w>
O man</w>
Nayanth ara</w>
c hat</w>
Ayur veda</w>
Jag ann
sp ite</w>
experi ment</w>
port fol
tempor arily</w>
F oc
b old</w>
po c
por ter</w>
Phar is
sha w</w>
fun ny</w>
ur ges</w>
th om</w>
10 4</w>
repent ance</w>
ben e
th ine</w>
of s</w>
cl esi
mag nitude</w>
K ush
B T</w>
foc using</w>
swe ar</w>
F lood</w>
t esy</w>
Entre preneur
direc ting</w>
a ha</w>
L et
T O
Reg arding</w>
Kodiy eri</w>
An drew</w>
T en
dist ant</w>
x ation</w>
D V
cont am
lo ading</w>
a sted</w>
India- Pakistan</w>
and ra</w>
Ander son</w>
tur n
Jay ant</w>
typ ical</w>
Kar gil</w>
Cha p
wor th
B ring</w>
Le one</w>
Mo z
H S</w>
akk ad</w>
C rown</w>
o v</w>
SA D</w>
Malap puram</w>
overwhel ming</w>
Ki ara</w>
colour ful</w>
ves sel</w>
pref er</w>
a ar</w>
ul ative</w>
construc t</w>
Kol lam</w>
ri ans</w>
m ons</w>
W is
S hel
Irr fan</w>
R ol
NG Os</w>
inspir ing</w>
omb o</w>
dr unk</w>
Raj inder</w>
an de
F em
rob bery</w>
pain tings</w>
appro aching</w>
Ref erring</w>
Pop ulation</w>
c oc
R and
Gradu ate</w>
vast ava</w>
brother hood</w>
Ram an</w>
L os</w>
Mess age</w>
tre ating</w>
aw a</w>
Chak r
m oo
IC MR</w>
st ored</w>
bb l</w>
Ke er
Go ing</w>
ti dings</w>
intim id
M SP</w>
li ar</w>
in .</w>
M U
neighb ors</w>
Str ate
D eh
D eg
t- up</w>
li sts</w>
oc ratic</w>
we al
am al
Cooper ative</w>
Med al</w>
N ish
16 th</w>
sty les</w>
Nig eria</w>
z ila</w>
valu ed</w>
ass et</w>
D or
l ad
Bha v
dispos al</w>
IRC TC</w>
pel ine</w>
fa ther
Benj amin</w>
Ad mir
post ers</w>
Panchay ats</w>
ste ady</w>
fru it
B P</w>
Ag garwal</w>
T k</w>
Den mark</w>
wat ch
bac king</w>
la b</w>
S op
ag i</w>
st abbed</w>
I d</w>
12 8</w>
Sis odia</w>
u no
Cre ate</w>
Th ris
Seh wag</w>
R ou
di r
contrib uting</w>
arm ents</w>
repres entation</w>
re habilitation</w>
Chic ago</w>
stun ning</w>
Pad m
um ari</w>
cultiv ation</w>
Mo S</w>
St reng
- -
consci ousness</w>
M s.</w>
er ts</w>
en ables</w>
Z im
14 th</w>
po t</w>
po em</w>
c od
ti sing</w>
disc overy</w>
pro str
the yre</w>
ri yal</w>
gradu ated</w>
nor th-
fl ash</w>
M I</w>
gr as
0 2</w>
mar ri
inspir e</w>
sur faced</w>
can al</w>
F lip
Cer tain
or ph
el ect</w>
Di p
w i</w>
inf ant</w>
chae ological</w>
some time</w>
th y
AI M
u sions</w>
dis asters</w>
Represent atives</w>
ext ending</w>
any way</w>
hi es</w>
Terror ism</w>
kni fe</w>
coun ts</w>
ad em
su gar
bi kes</w>
J aya</w>
res ume</w>
er a
con str
t y-
Philipp ians</w>
0 7</w>
direc torial</w>
Al most</w>
conver t</w>
Hon ey</w>
ve en</w>
reser ve</w>
ph er
v ir</w>
rel ate</w>
ai de</w>
war rant</w>
hi ked</w>
o e
V an
Typ e</w>
qu ity</w>
oun ce</w>
helicop ter</w>
ac ked</w>
201 4
strate gies</w>
Ax is</w>
an agar</w>
ta res</w>
gare tt
Tay lor</w>
S l
shame ful</w>
F inch</w>
Democ racy</w>
C as
Bir thday</w>
S ay
Mad an</w>
los es</w>
sp in
j ump</w>
Steph en</w>
6 ,000</w>
speech es</w>
al on
S itu
pa ise</w>
od us</w>
g eting</w>
Min ority</w>
trou bled</w>
Z ak
hi ka</w>
Jack son</w>
ic ide</w>
labor atory</w>
ex posure</w>
O ber
har sh</w>
char ity</w>
No tice</w>
no where</w>
e kar</w>
Whe res</w>
vo ices</w>
Sidd harth</w>
etc .</w>
W arri
phenomen on</w>
O m
1 40</w>
restaur ant</w>
expres sions</w>
assail ants</w>
lit res</w>
Gr ound</w>
recommend ation</w>
prosp erous</w>
desc endants</w>
cin emat
cl er
G ran
Certain ly</w>
pres ent
cha ir
Sy l
Bi j
inc enti
S ak
p oured</w>
calam ity</w>
Kail ash</w>
param eters</w>
P ent
Nic obar</w>
rob bers</w>
cur se</w>
pro visional</w>
bere aved</w>
act resses</w>
Subram anian</w>
Excell ency</w>
beli ever</w>
Vehic le</w>
and har</w>
ain e</w>
Thris sur</w>
Chakr abor
advis ory</w>
cre am</w>
2- 0</w>
M aria</w>
ar kar</w>
colum n</w>
ci garett
pe o
form ally</w>
S aid</w>
W ell
thr iller</w>
less ness</w>
compul sory</w>
aut onomous</w>
Rev olution</w>
4 50</w>
dis count</w>
Qu ality</w>
t ech</w>
self- reli
ff s</w>
bu yers</w>
R ay</w>
Gay le</w>
me tre</w>
H P</w>
comm ands</w>
simil arly</w>
ar chi
privileg es</w>
p -
influ ential</w>
William s</w>
Kis han</w>
m ath</w>
c ows</w>
C W
co ins</w>
st y</w>
pursu ed</w>
ph r
D on
Chi ran
Bah rain</w>
ed ged</w>
Chandrayaan- 2</w>
st rations</w>
int ent</w>
hospit ality</w>
Ma ur
10 ,
abrog ation</w>
sin ners</w>
log ical</w>
Ba ah
ump h</w>
ograp hic</w>
ar bit
L t</w>
sal aries</w>
rem inder</w>
criter ia</w>
inhab ited</w>
phys ics</w>
defam ation</w>
Narasim ha</w>
f li
comp ound</w>
Cum mins</w>
Any one</w>
survi val</w>
0 3</w>
seg ments</w>
reg ards</w>
do zen</w>
wild life</w>
Wh om</w>
level led</w>
T esting</w>
supre mo</w>
tr actor</w>
her oes</w>
San k
In st
ar nath</w>
mathemati cs</w>
Sh oo
Rul e</w>
sur ge</w>
U pa
tu be</w>
Mumb ai-
Kash y
privileg ed</w>
is ite</w>
e di
prev ailed</w>
Add ress</w>
ograp her</w>
L E</w>
Mal lik
appro aches</w>
alleg ing</w>
Col ombo</w>
i i</w>
Mar shal</w>
Pro b
Presid ential</w>
Pom pe
Ban king</w>
Loo king</w>
A ch
k er
fac tories</w>
Dev o
15 0th</w>
spec trum</w>
A ustri
B s</w>
Ex port</w>
dest inations</w>
Re as
Chou dhary</w>
for tune</w>
ut ors</w>
or nam
Bah ujan</w>
b icy
ap ologi
14 .
pro found</w>
mir acle</w>
Inte rest</w>
prog ressing</w>
Ukrain e</w>
I V
F ailed</w>
f as
emp ire</w>
B y
bene ath</w>
ati a</w>
pri s
R ud
Naw ab</w>
os es</w>
dur ation</w>
dic ate</w>
deep er</w>
k art</w>
fil ling</w>
K R</w>
amen ities</w>
author ised</w>
discre et</w>
Win ter</w>
Commer cial</w>
v end
estim ate</w>
some body</w>
e i</w>
dat abase</w>
18 th</w>
y av
s '</w>
attr action</w>
19 50</w>
res umed</w>
no -
Republic an</w>
e z</w>
Pol and</w>
Y us
7 50</w>
bod ys</w>
soci o-
ar ises</w>
Khar ge</w>
premi er</w>
ann um</w>
SR TC</w>
L ady</w>
D y
reser ves</w>
Che t
fant astic</w>
br is</w>
struc tural</w>
Rus sell</w>
Sal es</w>
dis close</w>
ne ed
idol at
IM D</w>
tom ato</w>
e h</w>
We ek</w>
Mis ra</w>
Dru g</w>
arri ving</w>
pal m</w>
Ox ford</w>
N eg
lo om</w>
upro oted</w>
pl ies</w>
L .</w>
Cl inton</w>
sw imming</w>
mis leading</w>
k ash</w>
justi fied</w>
Fisher ies</w>
15 ,000</w>
D SP</w>
add i</w>
ili an</w>
k its</w>
un necessary</w>
Saw ant</w>
f ours</w>
che aper</w>
Schedul e</w>
consequ ence</w>
E thi
ek i
a the</w>
week end</w>
an pur</w>
nomin ee</w>
Sang h</w>
Pl at
D O
s q</w>
A ICC</w>
g earing</w>
adhy ay</w>
Naq vi</w>
ulti mate</w>
cont ingent</w>
Mallik ar
N it
L at
Kal am</w>
F lor
ci ent</w>
V od
O ri
Mil lions</w>
am boo</w>
Imag ine</w>
Bag h</w>
ritu als</w>
im pose</w>
spor ting</w>
sc ore
pro ven</w>
Ti har</w>
Baah ubali</w>
sha dow</w>
ap parent</w>
S eas
w k</w>
grap h</w>
th in</w>
depos ited</w>
M ol
198 4</w>
ac es</w>
circul ar</w>
campaig ns</w>
break fast</w>
Prith vir
conven tional</w>
M d</w>
H ou
de af</w>
a res</w>
chec k
Gos pel</w>
solid arity</w>
ext ends</w>
Ke eping</w>
0 4</w>
u ous</w>
sc rut
Ha fi
thir d-
Sal t</w>
tr ucks</w>
inst al
pl ug
P at</w>
M echan
Bon ey</w>
hoo ds</w>
sacrific ed</w>
id st</w>
Ked arnath</w>
K ev
B MW</w>
hec tares</w>
under go</w>
bre ach</w>
with drew</w>
l ay
cous in</w>
co p</w>
N u
obvi ously</w>
bi o
well- being</w>
assu me</w>
U mar</w>
G row
L abor
tion able</w>
R educ
J acqu
e ther</w>
P ub
war nings</w>
B Y</w>
mag istrate</w>
stead ily</w>
b other</w>
spe akers</w>
b ell</w>
O K</w>
L earning</w>
Mul ayam</w>
p ack</w>
exc essive</w>
ev al</w>
cont acts</w>
f its</w>
g arments</w>
ell ation</w>
Sig ns</w>
Flip kart</w>
Bed i</w>
medi ately</w>
exper tise</w>
Bar ack</w>
st ays</w>
fil tr
un beaten</w>
gun s</w>
trans formed</w>
restaur ants</w>
air lines</w>
Chakrabor ty</w>
med itation</w>
Shak ib</w>
Pro gram</w>
Electr onic</w>
scat tered</w>
Pha se</w>
Man ju</w>
B ak
depri ved</w>
S ong</w>
IN S</w>
i est</w>
arti ficial</w>
proto col</w>
Pl ant</w>
Ethi op
Fe atures</w>
op her</w>
wicket keeper</w>
oper ates</w>
Sid harth</w>
Sch ol
Im mediately</w>
K her</w>
Cam paig
197 2</w>
pres enting</w>
che ap</w>
an try</w>
Admir al</w>
consen sus</w>
Trans l
Congres s
boo th</w>
feder ation</w>
Loc k
Chiran je
lo s</w>
hel per</w>
trac ed</w>
gener ous</w>
Neh wal</w>
vari ed</w>
Import ant</w>
Boo ks</w>
M P
Strate gic</w>
N ay</w>
cros s-
rep ent</w>
om ed</w>
de en</w>
50 th</w>
sem inar</w>
ra rely</w>
Bi ot
deal ings</w>
T M</w>
F az
Exc ept</w>
ac knowledge</w>
Chandrasek har</w>
Cel ebr
Brah m
Ghazi abad</w>
Un like</w>
Liber ation</w>
D am</w>
remov ing</w>
h ra</w>
Jal andhar</w>
w re
uni form</w>
tra p</w>
fin anci
Le e</w>
A -
histor ian</w>
d ow
a x</w>
S t</w>
13 .
Bob de</w>
Ber lin</w>
v el</w>
Oper ations</w>
sadd ened</w>
ri p
kid ney</w>
Rajk ot</w>
sick ness</w>
00 0
shou ld
rec re
exten sively</w>
Af rid
RC P</w>
K and
198 8</w>
classi fied</w>
p ig
en comp
Mus harraf</w>
reg ulation</w>
im migrants</w>
NAS A</w>
str y</w>
li t</w>
sear ches</w>
off ences</w>
veget able</w>
our i</w>
gar bage</w>
no ble</w>
agon ist</w>
Col umb
is s
ac ular</w>
Vig il
re conc
stre ams</w>
H .
Est abl
sp i
hygi ene</w>
compl ex
sw ear
T 20</w>
og ues</w>
e -</w>
8 GB</w>
t ue</w>
off ensive</w>
M R
per sist
Hind ut
Ec clesi
chil drens</w>
Ferti lizers</w>
ar ag
Bo y</w>
ph y
inund ated</w>
ru in</w>
An k
er ful</w>
Kashy ap</w>
ing- in</w>
De uter
un d</w>
tin y</w>
resp iratory</w>
ren amed</w>
par ks</w>
er b
diver ted</w>
Vi sit</w>
E sti
AR C</w>
w ada</w>
Amrit a</w>
lam ps</w>
pilgri mage</w>
P v
Ak ash</w>
trop ical</w>
is her</w>
Naw az
v in</w>
ho stel</w>
dem ons</w>
m ur</w>
revel ation</w>
acc l
Palestin ian</w>
Hospit als</w>
Govern ors</w>
Em b
h ind
Griev ances</w>
up held</w>
se -
re fin
publ ishing</w>
ossi ans</w>
Abh in
Pri ya</w>
Col ossians</w>
r ar</w>
par a</w>
ov a</w>
loc king</w>
Jyo ti
W ait</w>
thre n</w>
trav eled</w>
Trav el</w>
wai ver</w>
champion ship</w>
J ack</w>
Deuter onomy</w>
m ud
Wal es</w>
B od
wou ldn</w>
world ly</w>
tol erate</w>
mag nific
Gav askar</w>
inc umb
anc est
Wh ose</w>
F uture</w>
Deg ree</w>
ay as</w>
an anda</w>
R oot</w>
inc idence</w>
Chem icals</w>
sanc tuary</w>
Mo ve</w>
sh oes</w>
Al ready</w>
wh is
develop mental</w>
controversi es</w>
p ad</w>
dynam ic</w>
d ul</w>
bo thered</w>
an tum</w>
Am ar</w>
ref ox</w>
hi ma</w>
Ant ony</w>
l ash</w>
Gu est</w>
experi encing</w>
Vod af
Reli gion</w>
out look</w>
emb assy</w>
flu id</w>
commer ci
Sust ainable</w>
chem istry</w>
P ink</w>
fin ely</w>
petro leum</w>
Qu al
h itting</w>
H earing</w>
gu ess</w>
Nav deep</w>
Prithvir aj</w>
incredi ble</w>
High lights</w>
V .
Pujar a</w>
inter v
deliver ing</w>
ex changes</w>
j av
A tom
Sar kar</w>
Par t</w>
Al o</w>
w ashing</w>
re voked</w>
B are
pro ves</w>
Proc essing</w>
BJP- led</w>
lov ely</w>
bat ch</w>
Ran jit</w>
F our
k ram</w>
ar tis
B ar</w>
L ov
im moral</w>
retali ated</w>
p harmaceu
ha ils</w>
Angel es</w>
Kaj al</w>
ail able</w>
17 th</w>
conveni ent</w>
my th
al d</w>
arg ue</w>
tou ching</w>
po sting</w>
Bal akrishnan</w>
por no
Ober oi</w>
prep aredness</w>
scre ened</w>
fle xi
arr ay</w>
own ership</w>
Str ong</w>
l ateral</w>
Ja is
adop tion</w>
V I</w>
K und
D e</w>
K umb
C ru
Afrid i</w>
vi ous</w>
perf ec
dam ages</w>
st opping</w>
San ju</w>
ir rit
inv ested</w>
dis order</w>
D im
tw in</w>
Cust om
Th ess
feed back</w>
dec ides</w>
att ributed</w>
ter ies</w>
c iting</w>
wid th</w>
Telec om</w>
Com plex</w>
sy stem
em i
ap pointing</w>
al istic</w>
de rer</w>
ble eding</w>
bel t</w>
sou thwest</w>
me tro
moun ted</w>
B ank
Laun ched</w>
In dr
30 th</w>
d ried</w>
Rajapak sa</w>
G au
E E
kind ly</w>
woo den</w>
d har
al is</w>
S ag
fin est</w>
expres ses</w>
dist ingu
N ana</w>
ow al</w>
ar ising</w>
Gro ver</w>
prov inces</w>
Hindut va</w>
ar y-
mo il</w>
w is</w>
k ms</w>
em power</w>
ch lor
sor ts</w>
show case</w>
desir able</w>
crow n</w>
Q ur</w>
sion ers</w>
ang ered</w>
fl u</w>
dom s</w>
Xia omi</w>
U g
liv estock</w>
diffe ren
v om
Exerc ise</w>
E dition</w>
mour ning</w>
eng aging</w>
Cl asses</w>
tic ulture</w>
tar geting</w>
gur u</w>
ref uses</w>
bacter ia</w>
Metro politan</w>
Ecclesi astes</w>
bom bs</w>
conduc tor</w>
Pro thom</w>
con fined</w>
Shil pa</w>
Col in</w>
on ian</w>
In stitutes</w>
P ack
An niversary</w>
Reli gious</w>
recomp ense</w>
nation alism</w>
err ors</w>
ri sts</w>
Sho aib</w>
qu een</w>
Sum mer</w>
expec tation</w>
N anda</w>
di os</w>
Pokh riyal</w>
cur ric
Zim bab
de grad
consid erably</w>
brief ed</w>
un clean</w>
excl usively</w>
controll ing</w>
Thess alon
B ath
hi p</w>
ad jour
il le</w>
satell ites</w>
worshi pers</w>
mean time</w>
k ha
mur ders</w>
be an</w>
resp ect
Wat er
Vigil ance</w>
IN X</w>
B ot
semi- final</w>
scrib ers</w>
She khar</w>
S overe
for um</w>
Lak hs</w>
well- known</w>
Min or</w>
1 19</w>
ati vity</w>
Upa zila</w>
two- wheel
assemb led</w>
Photo s</w>
overse ers</w>
R aipur</w>
st a</w>
el ite</w>
swear ing-in</w>
Minist erial</w>
L aughter</w>
Atom ic</w>
heal ing</w>
gen cies</w>
excep tional</w>
T20 Is</w>
en mity</w>
ad or
ul um</w>
p ar</w>
opti mis
c ave</w>
be dro
Vad od
wa j</w>
he m</w>
gre y</w>
b ond
re pro
Jon athan</w>
prog ressive</w>
oblig ation</w>
Vic toria</w>
UNE SCO</w>
Sp ir
w av
real istic</w>
god dess</w>
Exper ts</w>
satis fying</w>
perc eption</w>
magne tic</w>
Cau very</w>
5 000</w>
YS RCP</w>
off -
chap ters</w>
cap ac
ar an</w>
h .</w>
ch ari
author ized</w>
z o</w>
ha le</w>
est ly</w>
Ez eki
vic torious</w>
con figuration</w>
F al
ment -
elec tri
G all
sh ut
lo ose</w>
incl ined</w>
id av
sm ell</w>
Scot land</w>
ut ory</w>
sequ ence</w>
bu re
Awa reness</w>
assass ination</w>
nav al</w>
Nor theast</w>
B uttler</w>
1, 0
ear marked</w>
Mr .
in sti
Y ash</w>
sw itch</w>
Tru ly</w>
mus cles</w>
Ayush mann</w>
assi sted</w>
a qu
cont empt</w>
C E</w>
quir ing</w>
emb rac
Tur meric</w>
k an</w>
sub ur
insul t</w>
main stream</w>
legisl ator</w>
Y ears</w>
Se eing</w>
emb ar
coll ections</w>
minist ries</w>
Mor gan</w>
cor n</w>
bre ath
ion ally</w>
econom ically</w>
con version</w>
Grow th</w>
Exc ise</w>
multit ude</w>
hor iz
Vijay awada</w>
Pram od</w>
NP R</w>
mis cre
z er</w>
oppon ents</w>
prev entive</w>
convers ations</w>
st e</w>
ad -
Sh ops</w>
res emb
appe als</w>
Phil ist
thir ty</w>
hon ours</w>
Cur rent</w>
admon ition</w>
ud u</w>
los ers</w>
ha vo
S od
g .</w>
super intendent</w>
neighbour hood</w>
clust er</w>
D U</w>
gener ating</w>
Kar n
K PCC</w>
Bid en</w>
An cient</w>
pr ince</w>
land mark</w>
f ounding</w>
Gl en
wrong ed</w>
Si bal</w>
H our</w>
gradu ation</w>
con di
Man ik
dec ent</w>
sha t
Sh ort</w>
Pro mis
N ok
Mad h
re warded</w>
p it</w>
B E</w>
marri ages</w>
func tion
el i</w>
Pass engers</w>
vis ual</w>
vir tue</w>
W ard</w>
R un</w>
in gh
wick edness</w>
havo c</w>
f s</w>
Sain t</w>
ar -
Bo ys</w>
un employed</w>
n an
Sur ya</w>
kill ings</w>
three- day</w>
th od
Per form
ed haran</w>
inter face</w>
ass ess</w>
Wh enever</w>
Anup am</w>
C O</w>
ne ys</w>
gar nered</w>
Nic hol
198 0</w>
int ensity</w>
Jud ges</w>
198 6</w>
shi re</w>
Y as
Pompe o</w>
ul la</w>
Bac hel
l over</w>
oper ators</w>
Su gar</w>
view ers</w>
disp osed</w>
T on
Ex odus</w>
counc ill
ati ans</w>
Ku wait</w>
R oc
Mau riti
deci sive</w>
N AT
temp tation</w>
og y</w>
ru ined</w>
he re
elev ated</w>
compl ain</w>
prote ins</w>
Renew able</w>
Per sons</w>
tal uk</w>
o ked</w>
gut ted</w>
sun ami</w>
nutri ents</w>
j in
ex hib
an is
Com b
interpre tation</w>
esh wara</w>
S h</w>
K id
Bir la</w>
K us
showcas ed</w>
res orted</w>
pi peline</w>
un likely</w>
ub ble</w>
har b
ar ances</w>
Oni on</w>
Ha que</w>
Alex ander</w>
joy ful</w>
cha sed</w>
Lang don</w>
immor ality</w>
n as
Mur ug
replac ement</w>
our able</w>
bl em
Nawaz uddin</w>
st rain</w>
d ressed</w>
courag eous</w>
secret aries</w>
ou li</w>
l inking</w>
w ounds</w>
Advoc ate</w>
wors ened</w>
it ement</w>
devast ated</w>
boo king</w>
adul tery</w>
W ick
sil es</w>
R ice</w>
Cro res</w>
Super star</w>
resid ing</w>
conven tions</w>
ans i</w>
Vi render</w>
R hea</w>
Dal its</w>
Sa x
grand son</w>
Chiranje evi</w>
PP P</w>
in definite</w>
M B</w>
nin th</w>
fi er</w>
benef itted</w>
mon d</w>
diagno sed</w>
rou ghly</w>
p aths</w>
Singh s</w>
J ah
B attle</w>
d ensity</w>
at om
Sel f-
D Y</w>
acc ord</w>
Gurd aspur</w>
the irs</w>
stri king</w>
W D</w>
Sup porting</w>
Pro g
Hafi z</w>
insec ts</w>
elim inated</w>
consid ers</w>
is a</w>
jo l</w>
dis believed</w>
Baj wa</w>
B in
de pressed</w>
ti ble</w>
ess entially</w>
St one</w>
ent y-
dis c</w>
rel ess</w>
imm ensely</w>
come back</w>
En viron
Econom y</w>
so ap</w>
a is</w>
Am ir</w>
Rajk um
persec uted</w>
ar shan</w>
him .</w>
def ine</w>
k el</w>
fer v
V C</w>
P att
tren ds</w>
th esis</w>
incorpor ated</w>
demone tisation</w>
Judi cial</w>
Himal ayan</w>
C ost</w>
Bet ter</w>
r us</w>
min es</w>
don ation</w>
c ab
dish on
Vodaf one</w>
men ace</w>
id ol</w>
ad oles
He z
prev enting</w>
G ha
l ending</w>
Ma hal</w>
Emb assy</w>
s -</w>
ep tive</w>
m ount</w>
ar h</w>
won dered</w>
treat y</w>
m ill</w>
Asad uddin</w>
ra j
Tex as</w>
K K</w>
Jack ie</w>
di al</w>
decor ated</w>
tun nel</w>
g in</w>
fas cin
con test
lun ar</w>
P RE
origin ated</w>
Cor ps</w>
st ra
cont ents</w>
Em irates</w>
Ko ch
th ood</w>
fic tion</w>
Di plom
inst ant</w>
ess ence</w>
Mang alore</w>
cle arance</w>
India- China</w>
we rent</w>
ur s</w>
Con nec
u ce</w>
parti ally</w>
Ar chi
n ut</w>
L ic
lux ury</w>
dis appointment</w>
Sud hir</w>
it ory</w>
R ange</w>
15 .
sur render</w>
Pop ular</w>
h et</w>
aff idav
forc ing</w>
sub merged</w>
iti ve</w>
hab i</w>
contro ls</w>
nor thwest</w>
ill enni
insi sted</w>
gen etic</w>
em powered</w>
deplo yment</w>
im per
Sh ang
Ri ji
K hal
tr ick</w>
int ensive</w>
trans mitted</w>
is co</w>
dis sem
tur moil</w>
C o</w>
ic onic</w>
Ali garh</w>
screen play</w>
St an
Di xit</w>
C ities</w>
for got</w>
eclip se</w>
flood ing</w>
vac ancies</w>
pe dest
endeav our</w>
fav orable</w>
be fitting</w>
D eci
S G
sil k</w>
mod est</w>
incur red</w>
al ter
un limited</w>
list en
Gur ug
st ops</w>
sou theast</w>
ic ing</w>
false hood</w>
S exual</w>
Del his</w>
dro ps</w>
C J
will ingly</w>
es war
na o</w>
Mauriti us</w>
Dar shan</w>
20 30</w>
compri sed</w>
R TI</w>
Sha b
Lok esh</w>
Na x
mer ger</w>
Yus uf</w>
2014 -15</w>
Bhar at
tran sition</w>
es sional</w>
es ar</w>
Radhakrish nan</w>
y am
vacc ines</w>
radi ation</w>
ci vic</w>
aj pur</w>
Mad huri</w>
Gal atians</w>
tab ern
Mus a</w>
G ob
had nt</w>
Hun g
destro ying</w>
aw ake</w>
o tive</w>
Sch emes</w>
st ore
Vil as</w>
V -
pill ar</w>
mos ques</w>
Y atra</w>
v y</w>
carri er</w>
The at
n ish</w>
J obs</w>
m ess</w>
indic ation</w>
Chandr ak
mat i</w>
mo ist
L ords</w>
G w
pr one</w>
des ktop</w>
D ance</w>
pan chay
expe d
nar rated</w>
Sit aram</w>
ac king</w>
St anding</w>
w aja</w>
pic s</w>
petition er</w>
han g</w>
R est
ra tion
cle ans
bo il</w>
Inf os
pl ary</w>
Rel ation
Capit als</w>
od der</w>
Vadod ara</w>
U jj
d engue</w>
Tog ether</w>
Kab ul</w>
Gun tur</w>
en coun
acc using</w>
pleas ing</w>
th ana</w>
g az
depar ture</w>
accommod ation</w>
m ens</w>
g li
Pol y
out comes</w>
tu ous</w>
hard ships</w>
Prepar ations</w>
the mes</w>
G ate</w>
Ash wini</w>
re ts</w>
declar ing</w>
cr uel</w>
senti ment</w>
Un nao</w>
ub a</w>
l ing
inher it</w>
install ation</w>
m at</w>
every ones</w>
z ealous</w>
in ser
Pal akkad</w>
San itation</w>
vigil ant</w>
Sev a</w>
B azar</w>
Cel e
dedic ate</w>
ti ger</w>
shar ply</w>
Rajkum mar</w>
Prof .</w>
G ame</w>
sol v
Man u</w>
em an
accep tance</w>
roman i</w>
mir acles</w>
bure auc
Of ten</w>
N arm
A be</w>
m Ah</w>
hi re</w>
wr apped</w>
w ast
Prote sters</w>
Pe ti
Lax man</w>
sel f
ra o</w>
Riji ju</w>
Bas ic</w>
cir cles</w>
bab ies</w>
w ind
w ary</w>
bott les</w>
nov els</w>
goo d
Z o
ref uted</w>
exerc ising</w>
hear ted</w>
Wa q
ath on</w>
si sted</w>
Infos ys</w>
Gurug ram</w>
Grou ps</w>
Star c</w>
198 3</w>
E l</w>
c ake</w>
spir its</w>
hur ry</w>
Po int</w>
B run
light ning</w>
Foc us</w>
smil ing</w>
un happy</w>
griev ous</w>
Su b</w>
Be th
saf er</w>
os ph
- long</w>
pro por
com m</w>
Proper ty</w>
Cat eg
vi z</w>
meg a</w>
mir ac
loo ted</w>
t ac
pac ked</w>
sha re
Shi romani</w>
Poll ution</w>
50 -
command ment</w>
adju st
Be tween</w>
Tr umps</w>
har der</w>
T H</w>
C L
ste in</w>
Pro blems</w>
divor ced</w>
Ramachand ran</w>
Han uman</w>
ro t</w>
revol utionary</w>
bott le</w>
Pharis ees</w>
AB VP</w>
patt erns</w>
hypo cr
human itarian</w>
ab ode</w>
re nov
corpor ations</w>
Ash ish</w>
us crip
s ay
interven tions</w>
compas sionate</w>
cap tains</w>
b low
ah o</w>
ge -
bul lets</w>
di g</w>
Wil d
W id
par ted</w>
grand mother</w>
Har deep</w>
19 70</w>
thi ef</w>
show ers</w>
Mad hav</w>
ton ight</w>
toler ance</w>
ro m
ud s</w>
Ka jol</w>
Gop i</w>
mat urity</w>
Rath ore</w>
De ar</w>
Sof tware</w>
work place</w>
B O
prev ail</w>
Rad hika</w>
Mi ghty</w>
tak er</w>
Sud an</w>
N utri
N ine</w>
C P</w>
Ac ting</w>
Glen n</w>
se al</w>
interrup ted</w>
Deh rad
Mu ji
Mah mood</w>
K SRTC</w>
dis k</w>
198 7</w>
196 2</w>
th ur</w>
obst acles</w>
pre domin
grac ed</w>
Inter -
exec ute</w>
C ID</w>
w et</w>
poss essions</w>
C ounc
semi- finals</w>
ro p
Max well</w>
C ash</w>
B ans
oc ity</w>
Ma x</w>
Pu ja</w>
Par kash</w>
ob serving</w>
Surend ran</w>
N .
bro ch
am ped</w>
Mal e</w>
Dav ids</w>
sh ell</w>
re medi
fr at
Devo tees</w>
Commission ers</w>
less er</w>
compe tent</w>
ac ha
o y</w>
C z
et ooth</w>
Zimbab we</w>
Gop al
E PF
echn ology</w>
artis ans</w>
sel v
nit ure</w>
veri fication</w>
s its</w>
f ond</w>
cas h
ap ple</w>
Tal uk</w>
mon etary</w>
mo s</w>
brow ser</w>
bour ne</w>
smug gling</w>
illustr ate</w>
d le</w>
Sup ply</w>
12 ,
magnific ent</w>
inst antly</w>
V it
uk ki</w>
en acted</w>
Go el</w>
lin k
dr inks</w>
rem ind</w>
hat ch
bre thren</w>
Wor ship</w>
pan ch</w>
j ecting</w>
teen ager</w>
neighb our</w>
ak ot</w>
Fi eld</w>
13 th</w>
wa ited</w>
do or
res ili
r pm</w>
cho osing</w>
U. S.
in filtr
colon ial</w>
Produc er</w>
is ance</w>
Y ech
Shim la</w>
Reg ulation</w>
Bad minton</w>
suppor tive</w>
be ast</w>
compri se</w>
mir ror</w>
ho sting</w>
emphasi sed</w>
c rem
fru itage</w>
U DF</w>
195 6</w>
accoun table</w>
K M</w>
pressu res</w>
l ecture</w>
D ay
Fisher men</w>
E ase</w>
ill ary</w>
Pl ayer</w>
L ate</w>
C or</w>
um -
fruit ful</w>
S end</w>
pr inces</w>
Shar dul</w>
fi ghts</w>
I J</w>
Gurd wara</w>
sci ences</w>
gre ets</w>
Wi fe</w>
brief ing</w>
M und
G .
f ati
lif ting</w>
dram atic</w>
c av
Com petition</w>
4 0,000</w>
En try</w>
lo dge</w>
landsli de</w>
-1 1</w>
long ed</w>
s aints</w>
initi ate</w>
holid ays</w>
ch and</w>
Mu ja
nor th
N F
loc ally</w>
consist ently</w>
Fi f
perfec tly</w>
197 5</w>
cl ubs</w>
S O</w>
av an</w>
Gar cha</w>
j ailed</w>
desig ner</w>
insu la</w>
slow down</w>
Me et</w>
A la
vibr ant</w>
Pan ch
l ingu
198 5</w>
recomm end</w>
p ond</w>
cha os</w>
el and</w>
ail ments</w>
Gi ri
re y</w>
pursu it</w>
Di visional</w>
b u</w>
ar us</w>
Th i
lan tic</w>
fir st
Ch er
ap h
RC B</w>
H ouse
ha pur</w>
V P
NE R</w>
Nav ratri</w>
Leg isl
wicket- keeper</w>
prosp ects</w>
enti als</w>
su es</w>
Ru th</w>
J ose</w>
T ul
sti r
sh u</w>
faith fully</w>
Shor tly</w>
har mon
adv enture</w>
p en</w>
autom obile</w>
app uzha</w>
H old</w>
Cha w
vol tage</w>
g ation</w>
bla ze</w>
Seng ar</w>
18 .
P age</w>
k al</w>
t ang
B ad</w>
ev ers</w>
umb ers</w>
b are
Pr ayer</w>
Ma ha</w>
mis siles</w>
eh ow</w>
Af ter
cog n
Entrepreneur ship</w>
As sy
fo res
adjour ned</w>
Sen ate</w>
Mallikar jun</w>
crow ds</w>
an is</w>
Nok ia</w>
war m
H ay
prac tic
pa ren
we aker</w>
nes ium</w>
S R</w>
L od
mar ital</w>
exemp tion</w>
auth ors</w>
NC C</w>
N B
Lev ites</w>
sugar cane</w>
Dis ease</w>
r ana</w>
proce eded</w>
in visible</w>
-1 3</w>
p y
mob ility</w>
la sted</w>
Col om
s aff
pac i
ell er</w>
poll uted</w>
Ma sters</w>
War ning</w>
Fem ale</w>
di min
C lar
accus ations</w>
Chandr ach
boy friend</w>
recipi ent</w>
Wiki pedia</w>
sp in</w>
oc olate</w>
mut ually</w>
innov ations</w>
wid er</w>
tabern acle</w>
pol e</w>
B ai
AIM IM</w>
ah u</w>
J DS</w>
dec lining</w>
im peri
dec ree</w>
juven ation</w>
exem plary</w>
Fac tory</w>
Dehrad un</w>
pl e-
Mur ali</w>
d awn</w>
sanc tion</w>
er .</w>
attemp ting</w>
Id ukki</w>
Fi refox</w>
EV Ms</w>
al together</w>
miscre ants</w>
hard ware</w>
bl ind
un aware</w>
griev ances</w>
b ols</w>
Muk er
scal ped</w>
pati ently</w>
198 2</w>
H ills</w>
tt a</w>
liber ation</w>
grap hic</w>
M T
ess ly</w>
Bar oda</w>
inher ited</w>
bi ological</w>
R oss</w>
mechan ical</w>
ic les</w>
G A</w>
mus cle</w>
Jaish-e- Mohammed</w>
respon ds</w>
Ven ez
God .</w>
Down load</w>
194 8</w>
pris oned</w>
k le</w>
incumb ent</w>
fre e
5 00
l u</w>
Fi re
deb it</w>
Comp are</w>
compl im
Mahar aja</w>
evid ently</w>
Back ward</w>
respon ses</w>
thr ust</w>
ex changed</w>
coll ecting</w>
B ut
AB S</w>
cast es</w>
and on</w>
man i</w>
sn ake</w>
Ac tiv
financi ally</w>
col ors</w>
Perform ance</w>
de ities</w>
c ann
Retur n</w>
Pre et</w>
Ma z
Th r
Ira qi</w>
S ti
t um
direc tory</w>
apolog ised</w>
A er
S wi
Lak h
y al
r onic</w>
organiz ing</w>
De ad</w>
ong -
Ma ximum</w>
Je evan</w>
ten th</w>
Z afar</w>
frequ ency</w>
Parti cip
Fran k
E i
S W
H aj
prec eding</w>
0- litre</w>
y le</w>
defe ating</w>
5- litre</w>
Blu etooth</w>
16 .
mer it</w>
under stands</w>
Srik anth</w>
accoun tability</w>
M ust</w>
g au
moun tain
landsli des</w>
internation ally</w>
Sand hu</w>
J y
C ul
de bris</w>
ner ships</w>
in ts</w>
Mel bourne</w>
Ath le
c king</w>
ast ar</w>
acc idental</w>
Venez u
Commit tees</w>
R og
Keer thy</w>
organ ising</w>
K ag
C B</w>
modi fied</w>
Palest ine</w>
fat al</w>
taxpay ers</w>
tab led</w>
insp ected</w>
am -
Sh are</w>
L T
I sha
stead fast</w>
or ship</w>
par ade</w>
Apr il-
F ul
D own</w>
C -
re kar</w>
labor atories</w>
i di
cast s</w>
ab used</w>
S ist
Dhan ush</w>
C H</w>
Qual comm</w>
viol ate</w>
elev ation</w>
Cam bo
b arri
D era</w>
ordin ance</w>
bri d</w>
mar king</w>
un rest</w>
show room</w>
qu ota</w>
ght ful</w>
contra dic
W uhan</w>
sti pul
R un
spac es</w>
s le</w>
4 8
traff icking</w>
US -
P ath</w>
or us</w>
inc t</w>
revi ve</w>
psych ological</w>
advers ely</w>
ph ot
l ag
Nor way</w>
read ily</w>
Sas ik
C ad
od d</w>
fre ight</w>
enter prise</w>
Dom estic</w>
Chandrach ud</w>
ro ck
IM F</w>
eleph ant</w>
Qu e
F armer</w>
congratul ates</w>
k es
ast on
Sh an
ve sted</w>
Pat ani</w>
Chat ter
Ac tors</w>
sh ook</w>
dis gu
Increas e</w>
adi a</w>
advis or</w>
prot ective</w>
amaz ed</w>
roc ks</w>
fo g</w>
congratul ations</w>
Ser ve</w>
H ot
Adv anced</w>
ra h
evol ved</w>
bri de</w>
al ysis</w>
T ari
C e
sub scribers</w>
sk y
mast ers</w>
Flor ida</w>
Buddh ism</w>
Gos wami</w>
ther mal</w>
p esti
Ho stel</w>
J ana</w>
G on
D A
qu antum</w>
im prisoned</w>
en ance</w>
An ir
stor ms</w>
en rolled</w>
Yech ury</w>
P enn
under ground</w>
T ok</w>
J ub
si zes</w>
H T
l ever
Sh ane</w>
Leban on</w>
Di k
A post
6 50</w>
marg in
im pression</w>
Be gum</w>
spe eding</w>
ex tor
adver tising</w>
Su ff
T un
hon esty</w>
demon strations</w>
spor t
slog an</w>
R in
K ari
EPF O</w>
jo ke</w>
au dit</w>
el dest</w>
Rajam ouli</w>
CS K</w>
provid ers</w>
incor rect</w>
Judg ment</w>
Ac hi
6- speed</w>
en sed</w>
fr amed</w>
bacter ial</w>
b uc
wor rying</w>
neutr al</w>
imp acted</w>
shat tered</w>
g ery</w>
doub led</w>
impro v
Pal anis
p raises</w>
identi fying</w>
sha hi</w>
bir th
Shoo ting</w>
Bhup inder</w>
desp air</w>
M ud
judi ce</w>
Nir bha
C old</w>
' an</w>
cha l</w>
T ow
ent -
D habi</w>
B rown</w>
reason ing</w>
invest ing</w>
Transl ation</w>
sw ept</w>
angu ish</w>
Gi rish</w>
mat ernal</w>
rec ited</w>
Si va</w>
R C</w>
gh t-
agg reg
Spir itu
M ines</w>
comp ati
P all
implic ations</w>
aband on</w>
sl ated</w>
deep en</w>
cre ature</w>
anticip ated</w>
ot ers</w>
Bor is</w>
dev ils</w>
Chand y</w>
dro ve</w>
spon sored</w>
so -
desper ate</w>
Har man
Alla h.</w>
r and
proce eding</w>
e tr
du es</w>
ap er
Liter ature</w>
Bhar ati</w>
T ask</w>
prophec ies</w>
min eral</w>
bl ical</w>
The y
Tex tiles</w>
YO U</w>
Syl het</w>
stri ving</w>
un fair</w>
su b</w>
cong estion</w>
Sh w
Rav inder</w>
Acc ess</w>
Rus si
ing ness</w>
At lantic</w>
re sting</w>
ob li
medic ation</w>
Dru gs</w>
promo tes</w>
time -
Ne il</w>
19 .
war fare</w>
um ental</w>
sig nature</w>
afflic ted</w>
ill icit</w>
mind ed</w>
correc tly</w>
os a</w>
Em peror</w>
t ala</w>
il legally</w>
Tri bes</w>
L L
sc and
apar tment</w>
or bit</w>
En able</w>
R oo
tal e</w>
A bo
lef t-
tend ency</w>
Mang aluru</w>
Wor lds</w>
Sou theast</w>
Sim on</w>
stun ned</w>
lo ads</w>
V illi
Sam son</w>
sinc erely</w>
shi eld</w>
Poon am</w>
i y
Cam eron</w>
nur sing</w>
l ane</w>
F ati
se dition</w>
fing er
Col leges</w>
toler ated</w>
s on-
cur few</w>
harv esting</w>
6 GB</w>
sha m
s ink</w>
Mor cha</w>
I .</w>
re at</w>
vice- captain</w>
fac to</w>
Advis er</w>
we th</w>
mp ur</w>
gr abbed</w>
dang ers</w>
tic als</w>
Cr ude</w>
legi timate</w>
dead line</w>
C Ms</w>
201 1
en dom</w>
mag nesium</w>
un constitutional</w>
W E</w>
Swe dish</w>
rememb rance</w>
oul try</w>
man uscrip
fool ish</w>
196 1</w>
ph osph
ak umari</w>
Ezeki el</w>
suic ides</w>
bri be</w>
ad o</w>
advis er</w>
I E
inaugur ates</w>
ev ang
Christ endom</w>
thr illed</w>
happ ily</w>
Te j</w>
Su hana</w>
K riti</w>
sel fies</w>
5- speed</w>
a er
ri ft</w>
S anc
Fa thers</w>
y n
le aked</w>
Su rendra</w>
medi cin
Me er
warri ors</w>
contr acts</w>
re affir
cr yst
conn ects</w>
char t</w>
t ants</w>
thod ox</w>
tables poons</w>
ar th</w>
promp tly</w>
is ma</w>
- in</w>
tal ents</w>
docum entary</w>
Cha har</w>
proc ured</w>
ha ul</w>
es wara</w>
Rupe e</w>
10 0
Panchay ati</w>
A qu
Sha ikh</w>
We ather</w>
T VS</w>
Pil lai</w>
B MC</w>
introduc ing</w>
stup id</w>
C ong</w>
renew ed</w>
kne e</w>
h ani</w>
H ai
Fern and
symbol ic</w>
pu ja</w>
pione ering</w>
cardi ac</w>
ca red</w>
brut al</w>
T as
om a</w>
mod es</w>
disc over</w>
in ous</w>
tiz ens</w>
hi bit</w>
n adu</w>
identi al</w>
expl oration</w>
ordin ate</w>
motiv ate</w>
f inger</w>
appoint ments</w>
AT M</w>
ari b
mic ro</w>
lac king</w>
fe wer</w>
as th
Set tings</w>
z ens</w>
O BC</w>
B hat</w>
ro t
labou rer</w>
au gur
Kar ti</w>
ug g
reg ardless</w>
liz er</w>
Sav arkar</w>
b ite</w>
Sovere ign</w>
Le h</w>
tor n</w>
p in
commemor ate</w>
p airs</w>
no ver</w>
negl ected</w>
Dis play</w>
Bo dies</w>
gri m</w>
qu akes</w>
exc itement</w>
li on
Wel come</w>
l ens</w>
up ta</w>
succ essive</w>
gh ee</w>
dri ves</w>
counter -
Win dow</w>
p ant</w>
hall s</w>
fo rensic</w>
Mon soon</w>
Gab ri
reb els</w>
d ances</w>
convic t</w>
J ha</w>
C ot
unanim ously</w>
Bal an</w>
kne es</w>
govern mental</w>
enjo ys</w>
Star ting</w>
pre y</w>
Q a
Id enti
Bob by</w>
ith a</w>
AS I</w>
back drop</w>
Ash raf</w>
no te
y ani</w>
f odder</w>
dec re
panchay ats</w>
F OR</w>
fe ast</w>
O ris
c able</w>
Li v
Ked ar</w>
necess ity</w>
Ver sion</w>
anti oxid
first- class</w>
F air</w>
B H
down loaded</w>
ad h</w>
agg ression</w>
Seas on</w>
Re uters</w>
Net aji</w>
Braz ilian</w>
ver b</w>
un fortunately</w>
form ats</w>
Rat an</w>
15 00</w>
At ul</w>
pro ving</w>
issu ing</w>
boun ty</w>
ce ase</w>
Bal akot</w>
ide als</w>
10 -
Villi ers</w>
Happ iness</w>
vel ocity</w>
c m</w>
Neer aj</w>
f lies</w>
dig estion</w>
Trans fer</w>
Kha lid</w>
j ith</w>
evalu ation</w>
3. 5</w>
snow fall</w>
pro claimed</w>
li fel
f ool</w>
an no
D han</w>
tari ff</w>
mat ory</w>
Sh in
L ower</w>
Cri sti
lak es</w>
S usp
fing ers</w>
Mand i</w>
De ve</w>
k eting</w>
iz ations</w>
colle ague</w>
Me ena</w>
Ky r
J im
in take</w>
affidav it</w>
cha irs</w>
exemp ted</w>
rel uc
poly the
compl y</w>
co aching</w>
ab st
com position</w>
agre es</w>
Sh ub
prov incial</w>
le af</w>
E liz
excep tions</w>
Ne el
jac ent</w>
ir regul
tan ks</w>
pe ts</w>
ly n
Z ia</w>
P reg
17 .
ush es</w>
transpor ted</w>
shi p
ic ate</w>
dou bling</w>
abe th</w>
wrong doers</w>
shou ting</w>
cham ber</w>
as se
g ged</w>
cha ins</w>
Environ mental</w>
ear nings</w>
Bab ri</w>
2 5-
ve z</w>
ati le</w>
Merc ed
interv ened</w>
complain ant</w>
ame ter</w>
G enti
equ ation</w>
R ape</w>
Z am
T rent</w>
Shang hai</w>
Fin land</w>
mu ch-
Ar ms</w>
pro jected</w>
observ ations</w>
intensi fy</w>
Guid elines</w>
mar vel
Res er
Gaz a</w>
Dec lar
Campaig n</w>
19 45</w>
suff ers</w>
rem ost</w>
cum ulative</w>
T abu</w>
Dis p
Cha ir
inform al</w>
emplo yers</w>
Squ ad</w>
Jos h</w>
scholar ship</w>
Son u</w>
Chan nel</w>
se ize</w>
pack ages</w>
fam ine</w>
exp ects</w>
wrong doing</w>
success or</w>
posi tively</w>
encour ages</w>
condem ns</w>
T reas
Gi ving</w>
int ers</w>
un deserved</w>
ut osh</w>
ir is</w>
Narm ada</w>
ul ations</w>
sust enance</w>
pro portion</w>
portr ayed</w>
deterior ating</w>
IS I</w>
Chandrak ant</w>
Vij aya</w>
trou bles</w>
Az iz</w>
un ci
inc ess</w>
esh wari</w>
Tal ks</w>
Sar as
Me as
Ma themati
19 60</w>
Shar ing</w>
R ising</w>
imag ined</w>
il itary</w>
l ung</w>
fil ming</w>
kidn apping</w>
hab it
should ers</w>
umb ling</w>
ir bhar</w>
ge ographical</w>
figu red</w>
exc eed</w>
tom b</w>
N RE
An ton
sur rendered</w>
15 -
inv ites</w>
u ity</w>
p up
accompan ying</w>
Shw eta</w>
I G</w>
cad re</w>
j aya</w>
T aj</w>
precau tionary</w>
prac ticed</w>
att a</w>
Oris sa</w>
Proc ed
B each</w>
t us
commend able</w>
J ar
Di al
f la
Spe ak</w>
Sha w</w>
L au
es ha
doctr ine</w>
c ens
Tai mur</w>
Sal em</w>
Kaz akh
Def ense</w>
ti te</w>
over turned</w>
deliber ately</w>
decla res</w>
crow ded</w>
adv ancement</w>
Sw iss</w>
com e-
arch y</w>
Wild life</w>
P L</w>
Isra els</w>
Cour se</w>
hol istic</w>
Or din
res sively</w>
guil t</w>
Back ground</w>
C ars</w>
rec overies</w>
phys ician</w>
at titudes</w>
P ann
inf o</w>
shi pping</w>
shepher ds</w>
Theat re</w>
F ai
sin ned</w>
kar ni</w>
am idst</w>
Raj e</w>
Pay ment</w>
cl ue</w>
ad an</w>
Sali m</w>
M HA</w>
F Y</w>
pe d
epid emic</w>
blo gger</w>
medicin al</w>
ab a</w>
treas ures</w>
Ye diy
frustr ated</w>
Kri shan</w>
mil a</w>
Uni versal</w>
Nar ayana</w>
Muk h
subsidi ary</w>
F lag</w>
phr ase</w>
se em
P ir
Kul bhushan</w>
Bab y</w>
di arr
b arrier</w>
agar h</w>
sl av
in ducted</w>
Pro to
I v
3 8
p ts</w>
Re al
iz es</w>
cy clo
accep ts</w>
Chatter jee</w>
weal thy</w>
d oused</w>
pl ains</w>
N ot
Chap ter</w>
17 5</w>
pow ering</w>
ad ays</w>
p ouring</w>
deser ves</w>
at ri</w>
Ash utosh</w>
ket ball</w>
distrib ute</w>
Kh ul
wa sted</w>
canc ellation</w>
Was im</w>
Doc tor</w>
Con st
Ca uses</w>
vom iting</w>
d rain</w>
T il
Sah u</w>
Karun an
Con servation</w>
vol can
vari able</w>
under stand
itori ous</w>
T each</w>
st alled</w>
rela x</w>
after ward</w>
196 5</w>
Jan m
wid ows</w>
sym bols</w>
predomin antly</w>
assu res</w>
jun ction</w>
for ty</w>
ar di
a we
Son ali</w>
Intern al</w>
diagno sis</w>
b all
refl ection</w>
Bhatt acharya</w>
Pen sions</w>
Imp act</w>
m l</w>
an jit</w>
e el</w>
Sind h</w>
A re
def ending</w>
comm uters</w>
V eget
Att orney</w>
N C</w>
Mo hit</w>
strength ens</w>
id entally</w>
Yam una</w>
Tur n</w>
Phys ics</w>
k is
gar ment</w>
W i-
Re forms</w>
Mar cus</w>
saff ron</w>
men tions</w>
O pp
Jagann ath</w>
t opped</w>
canc el</w>
K C</w>
Sha he
mar ch</w>
accommod ate</w>
J aff
Mit tal</w>
M ass</w>
re vision</w>
Gur preet</w>
Al appuzha</w>
Accoun ts</w>
ri der</w>
reti re</w>
go ats</w>
liber ty</w>
au d</w>
ad orable</w>
M ass
Po or</w>
Chaw la</w>
perpetr ators</w>
ni ght
Produc ts</w>
sp ices</w>
log istics</w>
ind ranath</w>
g ren
eleph ants</w>
satis fy</w>
atisti cal</w>
Net any
L un
Rak ul</w>
del icious</w>
ch andra</w>
ad mi
Val ue</w>
man tra</w>
Kas hi</w>
Hol i</w>
org ans</w>
Geor gia</w>
BS 6</w>
op pression</w>
G ita</w>
De ep</w>
ound ings</w>
Sha sh
thr ashed</w>
portfol io</w>
gri eve</w>
U E
atro cities</w>
ignor ance</w>
G ovind</w>
wrest ling</w>
ser p
occas ionally</w>
Rohing ya</w>
trav ellers</w>
v inder</w>
Indi a
Do es
p ushing</w>
exc use</w>
appro ve</w>
S essions</w>
duc t</w>
devast ating</w>
se am
ha cked</w>
Sur inder</w>
wan ath</w>
interrog ating</w>
D T</w>
school ing</w>
flag s</w>
Bas u</w>
Un its</w>
UG C</w>
Th rou
Khur rana</w>
Excell ence</w>
Vice- President</w>
B air
re side</w>
Nish ank</w>
Des am</w>
util ised</w>
ri val
calcul ated</w>
water logging</w>
negl ect</w>
Know er</w>
favor ite</w>
Elec toral</w>
ou b
Z i
CS IR</w>
re fe
hypocr ites</w>
Aurang abad</w>
Att ack</w>
swi ft</w>
pol es</w>
L S</w>
ai ded</w>
Sa he
Dip ak</w>
st abil
let ting</w>
Th or
Man e
F M</w>
weak nesses</w>
mo t
Rec ord</w>
s or</w>
R ole</w>
speci fy</w>
1 70</w>
acad em
Niz am
j ar</w>
it ators</w>
1 12</w>
mod ule</w>
ad jacent</w>
K ids</w>
upgrad ed</w>
CJ I</w>
Kyr gy
s ensation</w>
revi val</w>
den om
Pub l
in ating</w>
Phili p</w>
Ch ron
wat er-
upro ar</w>
u re
Shi r
Gar g</w>
vo ke</w>
ha k
ang ir</w>
T able</w>
proc essed</w>
am matory</w>
Tir up
under went</w>
prophe tic</w>
nar rative</w>
ist ed</w>
imag ination</w>
R RB</w>
O tt
whol esome</w>
fat alities</w>
Tir uv
Na th
N et</w>
trac king</w>
Osc ar</w>
Indones ian</w>
la bel</w>
contr acted</w>
teas poons</w>
surg ical</w>
sm ashed</w>
prot ects</w>
Sul tan
war ding</w>
low ly</w>
influ ences</w>
Vo ices</w>
J .
cri tic</w>
Rag hur
v aries</w>
som ehow</w>
quar ter
mit a</w>
low ers</w>
flood -
consul tations</w>
K ey
inv iting</w>
w ed
od ed</w>
in mates</w>
hi ra</w>
O .</w>
du al-
o z
un acceptable</w>
mast er
aband hu</w>
inter ference</w>
fa ul
ensu ed</w>
med itate</w>
Sri vastava</w>
oblig ations</w>
Sah itya</w>
rec overing</w>
glori fy</w>
le ys</w>
con serv
si zed</w>
prev ents</w>
det ection</w>
E vid
spec ulation</w>
O range</w>
Adi l</w>
sle pt</w>
si ves</w>
eth a</w>
ang i</w>
Rec og
ge ous</w>
dist ressed</w>
surr oundings</w>
sti cks</w>
eas es</w>
coll ectively</w>
Son y</w>
obj ections</w>
g har</w>
Tra ditional</w>
g ers</w>
F el
Alla hs</w>
comp ens
bin ding</w>
W all</w>
An im
rec alls</w>
po ison</w>
inten tions</w>
cal ories</w>
C ensus</w>
dir ty</w>
alco hol
Cristi ano</w>
rela xed</w>
pay able</w>
Neh a</w>
discour aged</w>
cu is
Uz bek
rem nant</w>
Swi ft</w>
n uc
k ins</w>
Su icide</w>
porno graphy</w>
clos est</w>
inter views</w>
exhor ted</w>
pre valent</w>
organis ms</w>
kill ers</w>
ad he
T ob
Pay ments</w>
l emen</w>
k iller</w>
ar sh</w>
Th er
Kan ha
Ex press
197 4</w>
tri umph</w>
will ingness</w>
had i</w>
S ign</w>
over -
e et</w>
M K</w>
util ity</w>
sti p
festi ve</w>
brut ally</w>
cl ashed</w>
bre athe</w>
Manufac turing</w>
Kha di</w>
mis use</w>
endeav or</w>
Ir on</w>
ti ming</w>
T ension</w>
- 1</w>
v eter
Roh t
credi ble</w>
Stu art</w>
emplo yer</w>
ad dic
Sri ram</w>
Bha tia</w>
197 9</w>
foo d
N uclear</w>
qu it
migr ated</w>
op ol
Mam moo
po ets</w>
Mun de</w>
Bha s
veri fied</w>
per ish</w>
k al
read er</w>
id able</w>
ari us</w>
S pr
B all
sid elines</w>
per ing</w>
cum in</w>
Saur ashtra</w>
lo gic</w>
infl ammatory</w>
ac e
Netany ahu</w>
M ade</w>
Hem ant</w>
seri al</w>
e. g.</w>
M ob
AT ION</w>
re sts</w>
T ollywood</w>
Harv ard</w>
An aly
liz ation</w>
bas es</w>
C M
stat utory</w>
sou th
gir aff
dis orders</w>
Ric h
l ays</w>
bul k</w>
blow n</w>
Ra wal</w>
promp t</w>
Auth or</w>
13 ,
rain y</w>
An anya</w>
A gar
land scape</w>
g hat</w>
sy l
oc e
Jon ah</w>
kno cked</w>
fur niture</w>
clust ers</w>
L MT</w>
harass ed</w>
Stat ement</w>
classi fication</w>
administ rator</w>
R ub
end ran</w>
consi st</w>
plic ation</w>
es ity</w>
Nis san</w>
Cor p</w>
on au
j ury</w>
Wi- Fi</w>
conce al</w>
P raise</w>
Kun al</w>
uc hi
pro voked</w>
Ta hir</w>
sovere ign</w>
perc eived</w>
pl ague</w>
strugg led</w>
m ic</w>
an am
Mad hu</w>
Kazakh stan</w>
Ka ul</w>
30 -
rebel li
Te ams</w>
score r</w>
sh op
ov ic</w>
R ains</w>
B la
pro ofs</w>
D ul
20 .
sur u</w>
kil ome
ind ers</w>
exal ted</w>
evid ences</w>
adv ances</w>
Eliz abeth</w>
inter actions</w>
IS T</w>
guar dian</w>
socio- economic</w>
You ll</w>
we st
Stu dios</w>
on er</w>
K el
r y
inv ented</w>
Lal it</w>
K he
H ai</w>
Abo ve</w>
19 19</w>
re pay</w>
Ha q</w>
An th
ti ans</w>
lev ied</w>
excl uded</w>
d har</w>
ver age</w>
ge ar</w>
Me en
gri d</w>
Ch ok
int end</w>
Manj rekar</w>
se ated</w>
op t</w>
Tir un
Mo hamed</w>
195 2</w>
L C</w>
don ate</w>
assemb lies</w>
Si x
wil led</w>
RO M</w>
B att
dis belief</w>
2 4.
work shops</w>
sha ke</w>
Ve er
perman ently</w>
k ot</w>
Sh op
H U
plant ation</w>
del ete</w>
ak onda</w>
Jer sey</w>
G ates</w>
ation .</w>
Ir rigation</w>
B ase</w>
vel i</w>
it ta</w>
entrepreneur ship</w>
Rap id</w>
Har id
experim ents</w>
J ha
har s</w>
Hou ston</w>
Ek ta</w>
num bered</w>
an and</w>
Vall abh
L and
sent ences</w>
he al</w>
compl aining</w>
C T
AR D</w>
web inar</w>
stam p</w>
ap ed</w>
1, 4
spo on</w>
ho st
h l
Declar ation</w>
B row
contain er</w>
Writ ten</w>
St and</w>
Pr ay
ir ing</w>
all a</w>
Ash a</w>
197 3</w>
utili zed</w>
sli p</w>
she ets</w>
r ings</w>
hatch back</w>
Throu ghout</w>
3 000</w>
g ros
y u</w>
for n
Ear th
ra fts</w>
14 5</w>
hi e</w>
contrib utes</w>
bu tion</w>
assign ments</w>
son- in-law</w>
cl ing</w>
ag e-
R iz
ell ate</w>
sou th-
ig a</w>
ex plic
den ying</w>
K ing
th al</w>
ess ant</w>
y able</w>
un like</w>
qu ery</w>
incenti ves</w>
d ense</w>
ch ronic</w>
Am id</w>
u pp
Ph D</w>
North- East</w>
s ounded</w>
fo remost</w>
fe asi
de struc
b und
Mon it
Lank esh</w>
head ache</w>
cor respond
Rec overy</w>
t ens</w>
Stand ards</w>
Pri zes</w>
Beli eve</w>
M ental</w>
gradu ates</w>
cr ashes</w>
benefici ary</w>
ne kar</w>
pre side</w>
Spo kes
net working</w>
fisher ies</w>
Yediy urappa</w>
gu arding</w>
Pa than</w>
1. 5-litre</w>
war ner</w>
rec ur
broch ure</w>
PS Us</w>
. in.</w>
ob serves</w>
Sec tions</w>
De aths</w>
restr aint</w>
facil itating</w>
Sh ank
ay ak</w>
Uzbek istan</w>
th es
man irbhar</w>
part nerships</w>
N eigh
Im am</w>
ur o</w>
rang es</w>
c ement</w>
t allest</w>
helicop ters</w>
exp ense</w>
Mo hali</w>
Mos aic</w>
sim pl
fl ou
ap u
S ood</w>
Le wis</w>
198 1</w>
nation alist</w>
guid ing</w>
Muzaff ar
scri bed</w>
re ferences</w>
em peror</w>
as cri
Mand al</w>
th ful</w>
enjo yment</w>
alleg es</w>
curric ulum</w>
of- the-
Qu estion</w>
fl ame</w>
ec tural</w>
organiz e</w>
ol er
SA ARC</w>
und oub
navig ation</w>
be ef
adop ting</w>
ul u</w>
s our
reven ge</w>
h r</w>
be have</w>
che ated</w>
flo ors</w>
b amboo</w>
U pper</w>
Nik hil</w>
Chall enge</w>
allow ance</w>
Sun ni</w>
Categ ory</w>
B humi</w>
vis as</w>
substanti ally</w>
im an</w>
dis course</w>
T ic
Sh yam</w>
ce iling</w>
Nirbha ya</w>
Kanha iya</w>
Jy oti</w>
man power</w>
arrang e</w>
Sh u
separ ation</w>
Inter ior</w>
G om
y right</w>
view point</w>
show er</w>
Mahab har
y l</w>
Koch har</w>
Kar isma</w>
G H
En cyclo
ext inguished</w>
7 ,000</w>
al titude</w>
Soci alist</w>
os h
Mong ol
G am
streng ths</w>
meas uring</w>
foc uses</w>
Res earchers</w>
B oul
ste al</w>
Sax ena</w>
ll er</w>
had ra</w>
c el</w>
Su render</w>
N ec
Hell o</w>
Mas sive</w>
Anant apur</w>
ref rain</w>
akk al</w>
Situ ation</w>
Anj ali</w>
U R</w>
z z</w>
ony mous</w>
gran ting</w>
conv ened</w>
Gr ant</w>
requ esting</w>
lor ry</w>
R on
water logged</w>
mor tal</w>
j al</w>
ib n</w>
att ained</w>
N ow
AF P</w>
cultiv ated</w>
3 9
Nagar juna</w>
Electr ical</w>
us s</w>
off line</w>
Kul karni</w>
K KR</w>
F ashi
escal ated</w>
W oe</w>
Padm avati</w>
am ple</w>
Ar juna</w>
Philist ines</w>
197 8</w>
inc ar
cool ed</w>
ari ans</w>
10 3</w>
or gan</w>
un certainty</w>
in direct</w>
An gan
Sing er</w>
Kev in</w>
s owing</w>
Vallabh bhai</w>
Bor n</w>
kidn apped</w>
nur se</w>
bi an</w>
M ata</w>
Khale da</w>
Bro ok
Aar yan</w>
slaugh ter</w>
ag en</w>
tur nover</w>
min i</w>
self-reli ant</w>
imp ounded</w>
Mur al
ond ers</w>
m ile</w>
Monit oring</w>
bo iling</w>
Us er</w>
S ew
L av
C ant
ly n</w>
boo sting</w>
Al tern
mechan isms</w>
S ap
id -
civil ization</w>
brief ly</w>
run -
character istic</w>
Tamil nadu</w>
Raj shahi</w>
oc hi
Express way</w>
D ST</w>
D D</w>
Bo il</w>
Meer ut</w>
Justi n</w>
w ire</w>
tradi tionally</w>
clim b</w>
business men</w>
hi deen</w>
bag h</w>
Lou is</w>
t- ups</w>
develop s</w>
Qu ar
Prag ya</w>
Dr ama</w>
ut terly</w>
reg ation</w>
ancest ors</w>
H ann
p ump</w>
Por tal</w>
Dab ang
tion ers</w>
so- called</w>
scre ens</w>
poss essed</w>
ev ent
b ids</w>
faith fulness</w>
Tik Tok</w>
1, 500</w>
N im
re paired</w>
fem in
deliber ate</w>
restric tion</w>
bicy cle</w>
cli p</w>
G T
in spec
comp any
L ow</w>
spect acular</w>
im migration</w>
Sad ly</w>
FI Rs</w>
197 7</w>
ch in</w>
Tej ash
Columb ia</w>
vacc ination</w>
K endra</w>
ver sus</w>
be ef</w>
Saras wati</w>
e o</w>
Applic ations</w>
Ram pur</w>
Cycl one</w>
no ol</w>
an di
undoub tedly</w>
in ely</w>
B B
symp ath
Re ading</w>
How rah</w>
war t</w>
br ands</w>
advertis ements</w>
F r</w>
e rec
discipl inary</w>
dam s</w>
D os
Cy ber</w>
r aged</w>
Jaish-e- Mohammad</w>
Dabang g</w>
Chem ical</w>
sli pped</w>
l ou
1, 7
resp ite</w>
a we</w>
C utt
e ast
vol umes</w>
oper ation
dis playing</w>
is er</w>
e- commerce</w>
Sh ram
196 9</w>
photo graphy</w>
cra fts</w>
deb ates</w>
Co conut</w>
Beli evers</w>
F light</w>
B ern
Ram akrishna</w>
In augur
D ever
fl esh
Col onel</w>
speci fications</w>
gor geous</w>
paragrap h</w>
l ish</w>
ing ham</w>
gras p</w>
cent ric</w>
c ence</w>
tax i</w>
repent ant</w>
ak har</w>
le ather</w>
Rob in</w>
z ar</w>
pain t</w>
as ph
IC T</w>
head lines</w>
S DM</w>
M ela</w>
Is n</w>
Bel ow</w>
re wards</w>
fiel ding</w>
en ues</w>
comm ent
clim bed</w>
Muzaff arpur</w>
govern ed</w>
dr un
la dies</w>
ai red</w>
V AT</w>
S pic
in ches</w>
B lo
wis ely</w>
war ming</w>
sol em
Guin ea</w>
F IC
san iti
Mammoo tty</w>
Ho pe
D river</w>
St even</w>
K ant</w>
param ilitary</w>
electr onics</w>
amoun ting</w>
PM -
Con f
ur ging</w>
Sa ha</w>
S SC</w>
Mod e</w>
IS F</w>
tw itter</w>
eth ical</w>
coun ty</w>
coordin ated</w>
consi sted</w>
advertis ement</w>
st es</w>
rub ber</w>
roc ket</w>
es see</w>
M oo
Bang abandhu</w>
197 6</w>
or ary</w>
par tly</w>
medi eval</w>
ML C</w>
Fri end
un changed</w>
scri be</w>
gre en
ent y
R D</w>
b ish
jav ur</w>
Chow k</w>
sh y</w>
ferti lizers</w>
Over all</w>
un seen</w>
block bu
Vidy al
Jacqu eline</w>
Austri a</w>
w ells</w>
popul ations</w>
concep ts</w>
Vell ore</w>
sp y</w>
an ag
ha y</w>
Engl ish
Franc isco</w>
Bi blical</w>
viol ates</w>
pi ous</w>
dr one</w>
Muk ul</w>
En joy</w>
C F
th rowing</w>
emis sions</w>
ec tious</w>
Dem and</w>
out lay</w>
Chet eshwar</w>
mi ka</w>
Mov ies</w>
wi pe</w>
201 3
oper ator</w>
log in</w>
sp reads</w>
n ick
PC R</w>
pro min
overwhel med</w>
forn ication</w>
end ured</w>
Regul atory</w>
R um
tox ic</w>
ar as</w>
Israel ite</w>
u x</w>
n ag</w>
stri p</w>
m ented</w>
air -
v is</w>
ser vic
satis factory</w>
Contin ue</w>
Chandrashe khar</w>
Cam bridge</w>
A W
vil lain</w>
key board</w>
diam ond</w>
an ed</w>
x els</w>
quanti ties</w>
concentr ate</w>
inev itable</w>
di re</w>
an jan</w>
S ut
Cha l
Bas ket</w>
sc or
resol utions</w>
C AR
dis astr
entre prene
SH O</w>
wh it
reven ues</w>
Dik shit</w>
st ow</w>
sl apped</w>
mas ala</w>
Succ ess</w>
Ordin ance</w>
clari fy</w>
M A
b ury</w>
W edding</w>
the ories</w>
ec har
al arming</w>
F ar</w>
sing ers</w>
rebelli ous</w>
re ap</w>
pen etr
m id</w>
intim ate</w>
ord ained</w>
first- ever</w>
regul ated</w>
in fin
bri gh
ha ted</w>
ri ot</w>
gre ed</w>
direc tive</w>
sm oo
propos es</w>
re fund</w>
ing e</w>
Az erb
rob bed</w>
d ancer</w>
sp ell</w>
Jo y</w>
roll s</w>
fi qu
3 D</w>
pur -
Ta xes</w>
K em
Azerb ai
un conscious</w>
mo dest
helpl ess</w>
fre ed</w>
B in</w>
p han</w>
i .</w>
ed e</w>
de duction</w>
accl aimed</w>
car ved</w>
PP E</w>
r ak
beef ed</w>
D at
tur ne
sport sper
semi finals</w>
humb ly</w>
th in
on board</w>
Du bey</w>
new born</w>
gr a</w>
gg ers</w>
b are</w>
T ap
Eli gi
c ate</w>
2 2
en rich
NG O</w>
H F
gath erings</w>
et u</w>
no tion</w>
Pa resh</w>
boo ths</w>
Bar am
3 00
p ity</w>
merch ant</w>
disc ern</w>
You ve</w>
pur ity</w>
ing h</w>
b oss</w>
UR L</w>
DI A</w>
2011 -12</w>
Loc ation</w>
ir respective</w>
Ex pressing</w>
E qui
Bhas kar</w>
up grade</w>
out lets</w>
man uel</w>
fron t
c ali
Exp enditure</w>
La ws</w>
under gone</w>
E F</w>
st aff
my ster
cour tesy</w>
capac ities</w>
Co ast
th am</w>
er s
ed it
anticip atory</w>
Over seas</w>
Math ura</w>
di versi
F ight</w>
3 4
- related</w>
gest ure</w>
Mao ists</w>
fati gue</w>
K om
Jh ansi</w>
sp here</w>
apur a</w>
Stat us</w>
N E</w>
one theless</w>
hi red</w>
correc ted</w>
ob taining</w>
exerc ised</w>
curi ous</w>
ad ha</w>
Mic ah</w>
Us man</w>
Narayan an</w>
L ord
10 6</w>
institu ted</w>
deli vers</w>
motiv ation</w>
abscon ded</w>
L Y</w>
t sunami</w>
pain ted</w>
bi ology</w>
aw i</w>
pl ight</w>
w l</w>
Car ol
S mo
L ash
arrog ant</w>
Tejash wi</w>
gr ass
dimen sions</w>
whom ever</w>
marvel ous</w>
are th</w>
E state</w>
publ isher</w>
preser vation</w>
applic ants</w>
D war
1 15</w>
hun ting</w>
comp act</w>
c ep
U su
Than javur</w>
17 4</w>
u pli
imper ative</w>
Pro v</w>
Mah ila</w>
territ orial</w>
cap ped</w>
D ic
tion .</w>
cr ack
be ans</w>
W arrier</w>
Raghur am</w>
c ents</w>
accoun ting</w>
He ads</w>
r ators</w>
G inger</w>
fi x
con sol
K ota</w>
wor ries</w>
min der</w>
Kar im
A H</w>
un certain</w>
san itiz
und hara</w>
pre ference</w>
ur b
bl asph
V an</w>
F uel</w>
vic inity</w>
de part</w>
Ris k</w>
l ayers</w>
Kut ch</w>
Con sid
Al low</w>
bar red</w>
journ alism</w>
ain ment</w>
red dy</w>
air space</w>
S L</w>
R od
Pat ekar</w>
Bl essed</w>
BJP- Shiv</w>
dis plays</w>
Sa aho</w>
te h
symp athy</w>
o dic
g ging</w>
P ash
L ink</w>
ti vities</w>
fi xing</w>
bal lot</w>
Mer kel</w>
E k</w>
th m</w>
po or
Rin se</w>
F ace</w>
bid ding</w>
No ble</w>
col s</w>
Gr am
work force</w>
sur plus</w>
ben ch
N ashi
Du ke</w>
slav ery</w>
ep ic</w>
cl am
Z echar
Y ellow</w>
NT PC</w>
ple as</w>
perc eive</w>
Cambo dia</w>
4 G</w>
under -
end uring</w>
Scot t</w>
reli eve</w>
inv alid</w>
Stat ue</w>
Cre ations</w>
shoo ts</w>
Meg a</w>
Digvi jaya</w>
Ti bet</w>
10 2</w>
uc king</w>
ill ust
Y e</w>
Bair stow</w>
accoun ted</w>
T ennis</w>
Ram ayana</w>
In c</w>
w ound</w>
se dan</w>
s ne
s ound
prof itable</w>
1, 5
m ills</w>
T at
Ag ra
stu dio</w>
acqu ainted</w>
Labor atory</w>
Initi ative</w>
196 7</w>
sle w</w>
sk i</w>
ad h
Ram pal</w>
Discus sions</w>
ri e</w>
off enders</w>
improv ements</w>
Acc used</w>
c and
ann ess</w>
W rest
Tha l
Reg ular</w>
195 1</w>
u rer</w>
r ams</w>
eg o</w>
Mar itime</w>
tran sit</w>
c ute</w>
C NG</w>
ro d</w>
indic ating</w>
Coun tries</w>
p oultry</w>
finger print</w>
col oured</w>
Mor occ
disbur sed</w>
as pora</w>
J im</w>
Gen .</w>
For m</w>
king doms</w>
distur bing</w>
Im port</w>
Gur gaon</w>
Aj ith</w>
ad mits</w>
Ml A</w>
Kes hav</w>
surviv ors</w>
s au
y ant</w>
tis sue</w>
or g</w>
o is</w>
adv ise</w>
M ec
K om</w>
Fashi on</w>
- off</w>
n aked</w>
T ea</w>
Col or</w>
Ki ren</w>
retali ation</w>
midd le-
ili ation</w>
J ay</w>
195 7</w>
ro oted</w>
j o</w>
it er</w>
Tw enty
Ju li
H il
Chaud h
An dre
val ence</w>
ni z
guaran te
certi fication</w>
D an</w>
disp at
publ ish</w>
T andon</w>
P I</w>
no dal</w>
val idity</w>
f a</w>
dic ated</w>
Proto col</w>
Hope fully</w>
qu ired</w>
bo arding</w>
awa its</w>
Thessalon ians</w>
Dhar ma</w>
2- megapixel</w>
vend ors</w>
e dic
bi fur
U t
Dom in
Li ver
K ay
tal uka</w>
r al</w>
Chha trapati</w>
cal f</w>
R ace</w>
nutri tious</w>
gli mp
frustr ation</w>
Path ank
E N</w>
v ania</w>
evang eli
Sat ell
PC B</w>
tex tile</w>
sac ked</w>
P sych
Dar k</w>
tel ep
explo itation</w>
descri bing</w>
Mar x
le an</w>
op athy</w>
ch e</w>
cap tive</w>
Muja hideen</w>
b en</w>
Ly on</w>
concl uding</w>
concl udes</w>
accel erate</w>
ill -
disper sed</w>
box es</w>
Rag h
D un
10 7</w>
li ed</w>
b its</w>
Mil lion</w>
k ars</w>
H aj</w>
G NO
Sh ou
sol ving</w>
Re juvenation</w>
Ch ile</w>
under lined</w>
l es
bil lions</w>
H ows</w>
CW C</w>
el veli</w>
educ ate</w>
avail ed</w>
Sam ar
Har sim
ri al</w>
pl ot
en z
el le</w>
M NS</w>
B ay
re al-
it ches</w>
emo tion</w>
M M
av at</w>
Pe el</w>
quarre l</w>
ex- showroom</w>
deliver ies</w>
all- new</w>
threat en</w>
dis ability</w>
Pres ent</w>
odi versity</w>
i pur</w>
Mar ath
3 6
promp ted</w>
earth .</w>
ad just</w>
Coast al</w>
Vid ar
rad itya</w>
m ouse</w>
Pr ak
retri eved</w>
jun c
V K</w>
Hol der</w>
S akshi</w>
Pack age</w>
t lement</w>
sha pes</w>
u th
speci alist</w>
gl asses</w>
comp elled</w>
barri ers</w>
Respon ding</w>
disastr ous</w>
G ag
E le
Ar ya</w>
L emon</w>
Ar thur</w>
zz le</w>
tur bo
deliber ations</w>
T est
K any
testi fy</w>
secre tly</w>
ru b</w>
por tions</w>
Wor ld
Sat ya</w>
Is a</w>
C arib
8 ,000</w>
tw ist</w>
pop ularly</w>
cli ent</w>
K ia</w>
F -16</w>
hang ed</w>
h ome
ac company</w>
Kot ak</w>
Ch el
Cap e</w>
Mr s.</w>
tiz ation</w>
car tri
Ker al
F T</w>
ush ree</w>
pl ates</w>
gent le</w>
ai ds</w>
ad diction</w>
Gre en
B han
B un
a erial</w>
seas onal</w>
re marked</w>
r aging</w>
p sy
mis erable</w>
e str
che ese</w>
Palanis wami</w>
B road</w>
deep est</w>
ali on</w>
So or
Penn syl
Ex pl
fl oral</w>
ass ed</w>
expe di
cr ush</w>
clari fication</w>
Scre en</w>
Hy dro
zz aman</w>
prosp er</w>
celebr ity</w>
Tem per
flo ating</w>
Karunan idhi</w>
det ect</w>
Treat y</w>
Multi ple</w>
J K</w>
sw ung</w>
g ain
sha ken</w>
ac ids</w>
inn ah</w>
en ic</w>
Us ers</w>
Cutt ack</w>
Maur ya</w>
sun light</w>
Va ish
trans form
per mits</w>
pa thetic</w>
fri ed</w>
F ee</w>
195 5</w>
sig ni
compe ting</w>
C lear</w>
w ed</w>
n ourish
li me</w>
inc ense</w>
Tus har</w>
Ti be
Dri ve</w>
to s</w>
f urious</w>
Inter view</w>
shou ldn</w>
mis led</w>
hom os
Con stable</w>
voc al</w>
M ans
Lo an</w>
stipul ated</w>
assu ming</w>
Wat son</w>
Gi ven</w>
Div ine</w>
de bu
Waq f</w>
Per man
Ch un
H ans
s aint</w>
ram pant</w>
fab ric</w>
5 G</w>
pro longed</w>
ci a</w>
Sor ry</w>
Pl ayers</w>
Boul t</w>
2 1
t ail
remin ds</w>
man ia</w>
parti cles</w>
hol es</w>
deb ated</w>
liber al</w>
i pat</w>
Dever akonda</w>
prison er</w>
fle et</w>
plan ets</w>
main tains</w>
Prab hakar</w>
K TM</w>
mo tives</w>
des cent</w>
set back</w>
V ern
Reh man</w>
block ade</w>
radi cal</w>
ommun ications</w>
mis lead</w>
Ko tw
Heal thcare</w>
10 1</w>
ND PS</w>
Lax mi</w>
Cam p</w>
tow n
bar ric
Wr ite</w>
H ans</w>
ti p</w>
strang ers</w>
N umbers</w>
ti de</w>
occur rence</w>
bre eding</w>
Pro mo
A udi</w>
A at
2 30</w>
bedro om</w>
C ast</w>
cap tivity</w>
P T</w>
t ext
C ain</w>
t anker</w>
reg rets</w>
frat ernity</w>
C ause</w>
boycot t</w>
SI DE
ti ghtened</w>
strong est</w>
ge on</w>
all ist</w>
vand alised</w>
mon ument</w>
I dea</w>
tran qu
pro claim</w>
po p</w>
gi an</w>
ear ne
d in</w>
K DE</w>
A my</w>
athle te</w>
Ug anda</w>
Com ing</w>
conc eived</w>
por e</w>
Morocc o</w>
su its</w>
Usu ally</w>
re jection</w>
amb a</w>
Pv t</w>
Offic es</w>
wrong -
company s</w>
be gotten</w>
Z ero</w>
P RO
19 40</w>
irregul arities</w>
Ped nekar</w>
GNO ME</w>
is ely</w>
ad mir
Pre v
mon uments</w>
altern ate</w>
Jyoti raditya</w>
US B</w>
MB A</w>
pic king</w>
emis sion</w>
ek iah</w>
deni al</w>
R K</w>
Hez ekiah</w>
spin ners</w>
Hit ler</w>
is en</w>
foc us
ax is</w>
Sam antha</w>
H illary</w>
Any thing</w>
s eni
off s</w>
f oun
an am</w>
alter cation</w>
Teh ran</w>
Squ are</w>
Egyp tians</w>
disobedi ence</w>
di oxide</w>
P anda</w>
MB BS</w>
Cir cle</w>
umb re
Pol ish</w>
sc ary</w>
for given</w>
scand al</w>
pen sioners</w>
look out</w>
Bl ack
trib un
pot entially</w>
post al</w>
bo iled</w>
Pennsyl vania</w>
2013 -14</w>
in is</w>
conqu ered</w>
Shahe en</w>
Ric hard
Lo C</w>
hat a</w>
th row
hor ror</w>
disrup tion</w>
fle w</w>
[...]
