. 26002716
, 16175269
। 15247976
के 7362963
" 6561344
है 5316240
में 4582769
की 4160309
- 4069010
ने 3399872
और 3288095
' 2860568
से 2827588
को 2691457
) 2653923
( 2652064
? 2635854
कि 2290691
का 2286152
पर 2025199
एक 1714351
ना 1703346
हैं 1621023
ओ 1443487
ई 1439735
छे 1432090
इस 1343520
कर 1283326
ते 1266779
लिए 1195715
नहीं 1169280
दे 1103616
दी 1097608
तो 1096504
भी 1053239
या 1039042
क@@ 1035925
न 1025575
अ@@ 1008157
न@@ 999670
एबं 980592
ही 978696
आ 958866
आ@@ 958170
आहे 931199
किया 925129
करे 876172
ए 866188
त@@ 853788
म@@ 839640
व@@ 818871
वि@@ 811789
भारत 810024
क 808907
ता 808239
कहा 806369
र@@ 795281
स@@ 790004
का@@ 785047
ना@@ 783670
हो 766060
प@@ 755036
नी 752378
द 746729
मा@@ 735219
ये 734831
यह 733940
ल@@ 725729
! 718567
इ@@ 709846
र 697590
त 696975
एइ 680168
नूੰ 676387
करने 659054
ब@@ 657028
पा@@ 655075
ल 644963
गया 643993
ं 641561
नि@@ 636850
ए@@ 634194
वा@@ 633770
सु@@ 627623
करा 622428
दा 617821
रा@@ 617530
जो 617474
अने 615563
ः 612486
करते 605511
कु@@ 600504
ग@@ 594646
ऒरु 590619
ज@@ 583911
तिनि 580075
बि@@ 575560
था 570672
बा@@ 569130
साथ 568081
स 565193
ता@@ 562107
द@@ 558739
ट@@ 558180
ह@@ 556005
सि@@ 555030
मां 554445
ला 550037
रि@@ 548279
व 544482
च@@ 544220
सा@@ 543461
उ@@ 535344
तार 533180
हय़ 531518
च 527144
ज 524070
सरकार 522987
म 522546
टि 519362
अते 512995
लु 507548
य@@ 502712
मु@@ 495454
लो 493371
मि@@ 490040
या@@ 488710
जन्य 484288
को@@ 479176
ला@@ 477752
आर 473711
ं@@ 472702
ट 470934
आणि 468910
कु 465658
पि@@ 464426
जा 458508
ओ@@ 458082
ड@@ 455608
थी 454943
थेके 452643
बाद 452145
उन्होंने 451051
सी 450205
नु 445432
के@@ 440037
बे@@ 437533
वे 436641
वी 435116
हा@@ 433709
जा@@ 431547
ति@@ 429430
म् 428802
न् 428318
पण 427411
कि@@ 427116
ले 426050
स् 422304
इ 419998
मे@@ 419569
नि 412179
लि@@ 410091
पुलिस 409924
वह 408894
डि@@ 408794
: 408394
अपने 407191
वे@@ 406166
क् 404588
दिया 404288
य 401206
मध्ये 401102
ऎ@@ 400359
पो@@ 399433
रहे 399257
कोई 398425
ल् 397949
टि@@ 397290
दा@@ 395398
गई 393957
मो@@ 391800
रे 390484
सं@@ 385674
किन्तु 384382
ली 382080
मत्तु 380384
ने@@ 379117
गा 377692
त् 375490
हय़ेछे 372873
एकटि 372184
श@@ 371432
रही 370843
नो 369674
हन 369389
प्र@@ 368812
आमि 368722
चा@@ 366098
तों 365073
गा@@ 364028
ण 362766
रु@@ 361806
नी@@ 360394
च्या 360313
क्क@@ 357449
ले@@ 357039
स्@@ 354609
से@@ 353085
एर 352539
पु@@ 350770
तु@@ 349759
न्@@ 348225
ती 347397
रो@@ 345670
तादेर 344730
ो 342189
हबे 340568
द्वारा 340182
दि@@ 337363
मोदी 336477
चि@@ 336217
मऱ्ऱुम् 335302
ेर 334901
थे 334319
सि 334118
भारतीय 333601
गु@@ 333130
हुए 332985
रे@@ 332771
तक 332415
रा 331217
ब 330169
ൻ 329789
श्री 329480
चे 328600
ई@@ 328017
े@@ 327888
रूप 326790
फ@@ 325601
पे@@ 324676
ड 324528
र् 324487
सी@@ 322635
विੱच 321505
ण@@ 320379
राज्य 320048
जि@@ 318475
देश 316514
छिल 315807
लई 315416
नाल 314479
उस 313584
हम 313001
त्त@@ 310934
े 310836
आमरा 310817
मैं 309768
चा 308464
लोगों 307653
र्@@ 306697
अनेक 306350
मा 306193
वु@@ 303424
रु 303376
गए 303091
रू 302503
नाही 300487
सो@@ 299405
प् 298978
देर 298507
ऩ् 297856
ख@@ 296558
भ@@ 295192
1 291917
वु 291837
साथे 291538
खा@@ 290663
गळु 290617
बा 290338
कुछ 290186
इन्त 288891
वर 288728
दु@@ 288290
प्प@@ 285449
चु@@ 285260
कर@@ 284695
दिन 284386
टा@@ 283906
ची 282619
दो 282331
नो@@ 281886
करेन 281041
मी 278934
प 278560
क्@@ 277608
ळ@@ 276966
रहा 274365
ों 274247
वुं 273855
तारा 272997
कै@@ 272430
क्कु 272370
हे 270676
विच 269589
2 268608
लो@@ 268451
/ 268285
ऐ@@ 267636
काम 266373
बो@@ 265480
प्रधान 265341
आमादेर 265115
जे@@ 264570
ൽ 263880
जी 263310
चे@@ 263105
गो@@ 263091
सिंह 262725
वै@@ 261462
कारण 261243
नुं 259093
य़ 259037
हो@@ 258726
डा@@ 258702
नु@@ 257411
बार 254873
तथा 254850
परि@@ 254338
अन्य 254199
ो@@ 253709
वी@@ 253457
दे@@ 250493
निय़े 250469
ती@@ 250425
मंत्री 250343
वन्नु 250202
ॆ@@ 250120
टा 249884
जी@@ 249521
वॆ@@ 249476
ऎंदु 249297
वाले 249022
थ@@ 248111
वर@@ 247867
जन@@ 246883
ते@@ 246669
ी@@ 246603
सङ्गे 245864
उनके 245796
ु@@ 245730
कळ् 245196
आहेत 244691
मी@@ 244491
नेर 243862
सिੰघ 243372
यु@@ 242622
ष@@ 242146
टी@@ 242112
ङ्ङൾ 242109
िय@@ 242098
लु@@ 241962
बहुत 241881
ർ 241458
जो@@ 241130
करार 241128
माटे 240850
प्रति 240542
री 240171
वा 240144
तो@@ 239917
त्तिൽ 239635
ि 239560
ट् 239438
शा@@ 238162
ध@@ 237258
टे@@ 237084
यि@@ 236209
आमार 236140
मे 236112
हि@@ 235675
क्या 235566
कൾ 235290
तु 235288
इन 235130
त्तु 234492
श 234255
बी@@ 234158
पर@@ 233657
मै@@ 232514
इसके 231939
कार@@ 231505
भा@@ 230675
न्नु 229479
च्चु 229437
ू 229106
ऎऩ्ऱु 228492
पी@@ 228417
करना 228323
ति 228202
ट्ट@@ 227873
फिल्म 226600
अपनी 226332
िया@@ 225757
कार 225273
हा 224892
दल्लि 224072
डि 223028
इह 223013
किसी 222792
तबे 222374
करी 222229
अव@@ 222159
जे 221727
त्ति@@ 221720
ली@@ 220094
ताँर 219030
पहले 218681
कई 218558
हय़े 217740
ु 217702
क्कॆ 217620
टु@@ 217470
नाम 217109
बारे 217019
होता 215736
नेइ 215672
मामले 215352
लेकिन 214294
गॆ 214264
लनु 213879
एवं 213875
उन्हां 213585
ർ@@ 212812
री@@ 212668
जु@@ 212488
इतु 212481
ङ्कळ् 212151
सेइ 212098
ऱ@@ 212055
समय 211889
पि 210254
बु@@ 210115
लि 210089
ॆ 209434
कॊ@@ 209418
ंगा 209040
रि 208693
प्रति@@ 208634
गळन्नु 208350
डी@@ 207863
माण् 207403
कूडा 206872
उप@@ 206045
ग 205912
ू@@ 205822
शि@@ 204719
क्क 204654
उत्तर 203879
तर@@ 202868
किछु 202833
क्कुम् 202746
ै 202703
% 202264
क्कु@@ 201990
टी 201700
उन्हें 200853
त्तु@@ 200736
न्न@@ 200526
अधिक 200226
च्च@@ 199387
बे 198708
होते 198633
तर 198575
सभी 198376
कथा 198063
ल्@@ 197865
मॆ@@ 197540
नां 196521
गि@@ 196351
नॆ@@ 195644
क्का@@ 195555
डे@@ 195359
नं 194978
करता 194736
बात 194315
हे@@ 194202
राज@@ 193680
जब 193578
दिल्ली 193543
अनु@@ 191868
3 191004
रय़ेछे 190600
लोग 190555
घटना 189766
प्रधानमंत्री 189392
होने 189284
बले 189189
ा 189172
सन 188911
तरह 188571
सर@@ 188432
दु 187292
महा@@ 187191
ा@@ 186943
विकास 186915
फिर 186902
डी 186076
दौरान 186030
क्षेत्र 185826
लिया 185478
त्तिल् 185462
गळ 184596
सब 184205
आप 183382
5 182250
ऎन्नाൽ 181855
अवर् 181748
हुआ 181722
ि@@ 180656
ऒ@@ 180293
प्रथम 180055
युं 179629
फि@@ 179524
मात्र 179129
सम@@ 178560
कल@@ 178404
यो@@ 177943
सह 177428
आदरॆ 176475
ार@@ 175927
नॆ 175403
ह 174859
्य@@ 174826
न्त@@ 174054
याय़ 173787
होती 173647
करन 173223
कीता 172766
त्त 171316
मान@@ 171174
मायि 171165
जन 171073
न्त 170854
हती 170677
ऩ@@ 170545
हर 169499
कम 169438
मुख्य 169073
ऊ@@ 169055
जारी 168852
राष्ट्रीय 168821
छिलेन 168324
यदि 168281
की@@ 168220
बि 167808
मू@@ 167457
हुई 167345
पाकिस्तान 167186
त्तै 166693
मने 166094
शामिल 166077
10 166066
क्काൻ 165520
3@@ 165177
आर@@ 165090
गे@@ 164976
न्न 164932
ळि@@ 164890
परे 164823
पुलिश 164563
एक@@ 164485
नथी 164410
णा@@ 164261
पू@@ 164093
खान 163147
भाबे 162985
सॆ@@ 162944
कॆ 162890
आऩाल् 162860
ऐ 162638
प्रमुख 162620
ङ्क 162403
ंग@@ 162261
हु@@ 162209
बल@@ 161964
फे@@ 161921
ञाൻ 161894
लकु 161769
उसके 161585
जाता 161573
फा@@ 161533
काज 161057
देश@@ 160620
डु 160378
नय़ 159790
एटा 159689
अवरु 159679
१ 159598
वेण्टुम् 159485
ये@@ 159335
दोनों 159064
माक 158994
समय़ 158978
अध्यक्ष 158156
क्क् 158020
जाने 158011
करा@@ 157988
होगा 157875
पास 157773
चाहिए 157279
् 157137
4 157131
कॆ@@ 156610
प्रदेश 156327
कांग्रेस 156141
दी@@ 156066
काल@@ 155683
सकता 155608
म्@@ 155286
करेछे 154663
आगे 154410
चॆय्तु 154301
प्पि@@ 154045
इक 153990
कार्य@@ 153975
गिआ 153896
पारे 153755
करि@@ 153704
भि@@ 153699
ৰ 153628
छ@@ 153364
आज 153247
चार 153211
कुमार 152703
वि 152663
2@@ 152538
कोन 152163
पूर्व 152160
बीच 152129
प्पु 152076
प्रा@@ 151910
आछे 151753
माय 151349
करो 150970
सै@@ 150752
इदु 150542
ड् 150279
मरियु 150241
किए 150234
उह 150184
न्तु 149974
कळै 149783
राष्ट्रपति 149648
वरु@@ 149646
ल्लो 149575
गांधी 149499
कळ@@ 149223
मुख्यमंत्री 148877
डा 148781
तील 148780
्@@ 148593
पी 148469
ी 148320
पार्टी 147851
ियों 147604
s 147561
कट@@ 147321
मान 147100
यिൽ 146931
ळ 146915
घ@@ 146522
जि 146004
दि 145859
जांच 145729
ऎस् 145594
सा 145502
उनकी 145389
भाजपा 145225
बर@@ 145172
णा 144865
मन 144512
टीम 144490
डु@@ 144361
गत 144073
वो 143821
हच्छे 143758
तां 143717
नट@@ 143698
किहा 143057
्या 142950
4@@ 142938
ऱि@@ 142845
आपणे 142587
इत् 142443
सकते 142372
बलेन 141845
बी 141723
णी 140762
शुरु 140676
ार 140634
ट्टु 140603
तुम 140495
टै@@ 140289
6 140255
उसे 140194
य़@@ 139796
अवർ 139582
लोक 139431
शन 139238
20 138890
लै@@ 138686
कोनो 138480
ऩ 138401
ऱ्ऱ@@ 138396
तॆ@@ 138392
केंद्र 138317
कीती 138206
खिलाफ 137926
क्कि@@ 137817
लेदु 137783
णे 137592
्या@@ 137564
19 137552
ൻ@@ 137484
मर@@ 137343
ै@@ 137137
चू@@ 137037
पै@@ 136927
करि 136607
यू@@ 136490
फो@@ 136423
काछे 136140
ंलो 136121
न्नि 136071
प्रदान 136046
हतो 136024
कोटि 135425
हल 135302
आई 135295
करेछेन 135164
बताया 135137
अतु 134959
चॆ@@ 134876
क्कुं 134750
वर्@@ 134513
झ@@ 134264
ुम् 134167
व् 134165
मन@@ 133985
एकजन 133932
स़@@ 133787
ट्टु@@ 133776
टो@@ 133627
ष् 133529
दो@@ 133472
टु 133453
ुं 133295
नाऩ् 133140
निल@@ 132917
इदि 132713
सबसे 132032
निर्माण 131504
नेता 131468
ंड@@ 131054
त्तॆ 130877
वाली 130853
था@@ 130845
अत् 130801
ൽ@@ 130702
एम@@ 130658
िल् 130544
राज्य@@ 130495
ण्ट@@ 130466
धा@@ 130247
नरेंद्र 130222
घर 130029
हता 129889
न्ऱॆ 129786
पुर 129709
मत 129589
ज्@@ 129530
केली 129464
टे 129430
मार@@ 129154
मौके 128918
इरु@@ 128735
ट्टि@@ 128604
मामला 128464
देखा 128274
ंग 128064
योजना 127979
तीन 127892
सह@@ 127577
ंच@@ 127575
एटि 127518
आर्थिक 127484
खो@@ 127078
आरओ 126827
उन 126799
ॊ@@ 126663
बै@@ 126659
पार@@ 126277
लोक@@ 126251
शे@@ 126233
च् 125867
सुरक्षा 125670
पट@@ 125652
२ 125651
अति@@ 125577
नरेन्द्र 125147
महिला 125131
भाग 124905
मि 124700
5@@ 124698
ताके 124461
णं 124296
पूर्ण 124030
दक्षिण 123779
लेर 123730
क्कि 123678
ऒक 123449
कू@@ 123043
भू@@ 122872
मंत्रालय 122660
19@@ 122631
मुझे 122627
एकटा 122614
संख्या 122559
ज़@@ 122361
प्राप्त 122342
ची@@ 122063
वै 121854
आर्@@ 121798
S@@ 121600
लेकर 121600
बिजॆपि 121477
ठ@@ 121476
मदद 121466
चो@@ 121026
फ 120974
जीवन 120798
साले 120573
त्@@ 120327
डे 120125
हूं 120059
प्पु@@ 120002
इन्@@ 119994
वागि 119856
करण्यात 119738
यांनी 119596
ङ्@@ 119329
कोनओ 119194
पै 119145
ॆय@@ 118781
दर@@ 118707
8 118580
रॆ@@ 118457
उंदि 118382
च्च् 118371
ओर 118251
तन्नॆ 118244
राहुल 118140
्य 118112
नार 117940
मु 117724
इंडिया 117687
लाभ 117595
रू@@ 117543
एन@@ 117473
खु@@ 117428
जाना 117393
कार्य 117378
पल 117333
ज़ 117277
सੰ@@ 117258
पॆ@@ 117046
तन 116963
शुरू 116954
आयन 116685
डो@@ 116628
एहि 116523
गी 116466
यि 116393
णि@@ 116241
माऩ 116179
हिसेबे 116169
चित्र@@ 116121
पऱञ्ञु 116072
बॆ@@ 116014
कारण@@ 115962
िया 115642
म्प@@ 115097
दर 115097
M@@ 114920
P@@ 114861
दार 114815
हागू 114672
शिक्षा 114463
शु@@ 114414
मौत 114315
वो@@ 114267
दल 114244
हमारे 114191
अवर्कळ् 114183
युटॆ 114036
जिस 113985
मध्य 113886
7 113848
देने 113417
केर 113346
एस 113224
सेवा 113139
दिय़े 112998
एस@@ 112867
ँ@@ 112779
] 112688
ऎऩ 112669
इससे 112484
हते 112192
मत@@ 112144
शुं 112045
भे@@ 112035
स्त@@ 111989
पॊ@@ 111932
है@@ 111928
एम 111917
[ 111569
त्ता@@ 111559
15 111380
इट@@ 111309
ताइ 111187
सूचना 111169
ऐसा 111134
ंना 111120
राज 110883
पॊलीस् 110759
शे 110602
जाएगा 110507
नों 110502
प्रत्येक 110414
स्ट@@ 110337
क्कुन्नु 110321
रै@@ 110227
मੰतरी 110210
अधिकारी 109994
करु@@ 109891
स्थिति 109801
शी 109740
क्ष@@ 109683
आप@@ 109635
कळिल् 109514
िल@@ 109482
प्पा@@ 109076
कारी 109069
कर्@@ 109029
त्तिन् 109006
इसे 108954
देओय़ा 108946
ੰ@@ 108931
ट्@@ 108854
केन 108835
च्चु@@ 108754
50 108603
थ 108230
कांग्रॆस् 108073
क्या@@ 107976
स्थान 107961
सू@@ 107807
वार@@ 107720
पुतिय 107658
पूरी 107469
निकि 107432
टर 107312
वार 107226
ः@@ 107076
ज् 106901
क्कुन्नत् 106842
6@@ 106661
प्रधानमन्त्री 106445
कों 106444
काल 106234
ल्ल 106073
A@@ 105988
ंचारु 105886
दीआं 105738
पड@@ 105563
हय़ेछिल 105479
ंचे 105470
करें 105438
उपस्थित 105369
वर्ष 105357
केन्द्र 105207
बिभिन्न 105006
चेशारु 105001
ध 104886
बहु@@ 104883
इत@@ 104804
मो 104602
कळुं 104363
आइ@@ 104270
अप@@ 104230
12 104206
ून 104204
केले 104116
रुपये 104036
काही 103979
य़ 103963
ओं 103823
छि 103721
ੱ@@ 103670
पल@@ 103649
ऱु@@ 103605
तिरु@@ 103404
विल् 103352
लाख 103264
दर्ज 103158
ताऩ् 103151
य्@@ 103079
इੱक 102999
हमें 102975
ब्या@@ 102916
विशेष 102915
मेरे 102800
केला 102713
गळल्लि 102630
खबर 102582
जैसे 102571
वाला 102159
अनि 102092
छा@@ 101781
प्रकार 101746
विचार 101732
शो@@ 101695
पोलीस् 101649
वाद 101636
पा 101629
िल्ल 101621
त्तिऩ् 101598
राम@@ 101565
कानी 101479
प्रकाश 101478
C@@ 101350
वर् 101336
सामाजिक 101183
परंतु 101022
s@@ 100954
ंब@@ 100923
ड़ 100897
त्या@@ 100853
च्च 100827
द्@@ 100802
अब 100684
भाग@@ 100658
नल्लि 100503
मैन 100160
साठी 100046
ङ्क@@ 99944
अलग 99929
करोड़ 99891
अं@@ 99884
अयिते 99536
हां 99478
इसमें 99358
क्कुक 99316
गुलो 99315
अर@@ 99276
बीजेपी 99267
सर्@@ 99164
ंत 99004
ंद@@ 98998
बैठक 98740
अद्देहं 98707
निर@@ 98601
कार्यक्रम 98465
निङ्ङൾ 98299
हालांकि 98293
दॆ 98276
हर@@ 98238
आपनि 98092
व्यक्ति 97991
नानु 97966
परिवार 97875
दुइ 97865
काफी 97726
यखन 97716
तू@@ 97645
पत्र 97620
चाला 97620
सिनिमा 97590
भूमिका 97548
निर्@@ 97476
त्तिन्ऱॆ 97283
7@@ 97109
कारणे 97053
घोषणा 96858
बेशि 96846
बर्@@ 96778
ड़@@ 96738
एं 96672
ळ् 96650
ऒंदु 96631
न्स 96582
क्कुन्न 96536
निय@@ 96396
य् 96198
ार् 96176
श्री@@ 96086
याण् 96076
e@@ 95943
नतुन 95909
टॆ@@ 95759
अत@@ 95586
िलॆ 95565
मेलुम् 95279
श्@@ 95277
एमन 95180
लै 94988
तार@@ 94920
बिषय़े 94840
ियु@@ 94819
थाके 94811
m@@ 94776
अथवा 94636
ैयुम् 94593
प्रतिशत 94471
ष्ट@@ 94447
अन्त 94266
ड्@@ 94236
तौर 94058
अभि@@ 93887
ऐसे 93887
अनुसार 93838
e 93829
जीत 93721
३ 93537
ंनी 93458
खे@@ 93315
ण् 93259
असे 93245
T@@ 93213
दू@@ 93173
भारतेर 93090
करके 93039
तखन 93030
दूर 92855
इल्लै 92786
अस@@ 92781
मीडिया 92781
नगर 92716
शेष 92629
शर्मा 92618
अट@@ 92589
चुनाव 92569
विविध 92494
अब@@ 92424
अगर 92381
गुलि 92363
वीडियो 92225
िय़ा 92201
9 92200
य़ा@@ 92166
सेर 92138
ऎऩ्ऩ 92068
बग्गॆ 91976
सदस्य 91924
करण 91753
आवी 91739
हाल 91716
8@@ 91640
t@@ 91531
पाल@@ 91484
नाम् 91478
तॊ@@ 91395
क्योंकि 91376
द्द@@ 91297
केंद्रीय 91237
ित 91054
पर्यन्त 91051
ळा@@ 90914
खुब 90903
शक्ति 90862
ारे 90815
णि 90755
चिल 90708
फ़@@ 90683
संबंध 90464
पश्चिम 90302
सामने 90292
100 90289
ओइ 90173
ैय@@ 90097
हार 90026
ग्@@ 89665
नंतर 89626
ारु 89584
30 89573
म्या@@ 89553
आई@@ 89518
ऎल्ला 89406
धि@@ 89382
कपूर 89335
अन@@ 89261
राम 89228
नटि@@ 89189
क्रिकेट 88916
बार@@ 88897
करवामां 88848
कुल 88803
अभी 88781
मोदि 88663
D@@ 88591
र्कळ् 88500
घा@@ 88457
ंदि 88449
कळुक्कु 88428
मुंबई 88388
क्र@@ 88268
य़@@ 88243
सब@@ 88235
चार@@ 88221
कल 88199
ौ@@ 88164
बल 88129
अवर 88123
काय 88108
ङ्कु 88089
कम@@ 88033
षा@@ 88002
पिता 87890
बिरुद्धे 87787
राष्ट्र 87724
पाइँ 87638
R@@ 87562
व्@@ 87516
कृषि 87499
गे 87478
नई 87466
ंची 87454
उच्च 87328
विभाग 87254
त्ति 87252
सर 87250
25 87189
योग 87155
यहां 87141
सेना 87121
p@@ 87010
सहित 86952
ारा 86867
पक्षे 86864
ऒरु@@ 86822
ऱा@@ 86810
५ 86799
ही@@ 86710
ऩ्@@ 86583
च्चि@@ 86571
ख़ुदा 86520
साल 86515
ळ्ळ@@ 86474
ल्ल@@ 86462
अल@@ 86375
सलु 86346
ंच्या 86251
त्यांनी 86164
पता 86117
ियिൽ 86085
अभियोग 85926
न्नु@@ 85916
a@@ 85906
वल@@ 85799
मंदि 85785
हमने 85693
क्कुकयुं 85521
अर्@@ 85479
बैंक 85372
४ 85327
त्या 85294
वतु 85283
भो@@ 85269
तेओ 85229
शा 85169
ख 85084
महाराष्ट्र 84953
उपयोग 84918
भारी 84710
चाल@@ 84636
ंत@@ 84624
चीन 84621
माने 84610
आले 84547
उसकी 84329
ार्@@ 84228
पोलीसुलु 84164
अपना 84146
य़ेर 84094
केउ 84011
त्त् 83748
किऱतु 83568
नावु 83564
उसने 83543
हय़नि 83334
ंचिन 83333
पूरा 83321
यहोवा 83303
अ 83288
्र@@ 83232
केवल 83064
आरोप 83060
दिके 83016
जल 82937
स्व@@ 82937
अ्या@@ 82929
पिटि@@ 82898
दूसरे 82871
चि 82850
तुमि 82832
11 82799
पद@@ 82703
ङ्ङळुं 82642
न्नत् 82595
सचिव 82523
ट्र@@ 82485
जिसमें 82248
ऎऩ्ऱ 82174
कळिऩ् 82092
ट्ट 82090
न्ना@@ 82068
हॆ@@ 82064
दुर्@@ 81799
होगी 81779
पक्ष@@ 81767
ड़ा 81731
उपलब्ध 81636
जॆ@@ 81627
मेर 81602
नै@@ 81472
निन्न् 81463
उपर 81425
नुंचि 81422
हतुं 81256
ब्@@ 81187
गी@@ 81187
ङ्कळिल् 81186
सौ@@ 81177
पुर@@ 81018
इं@@ 81004
इल्ल 80966
द्दु 80918
ैयिल् 80916
9@@ 80908
ओय़ा@@ 80903
मह@@ 80725
तॆ 80583
ङ्ङळिൽ 80503
सार@@ 80495
यॆ@@ 80450
इतर 80449
च्चत् 80439
एल@@ 80370
चर्चा 80319
अधिकार 80266
सम्@@ 80264
माध्यमे 80230
ंस 80217
माण@@ 80181
14 80152
विभिन्न 80096
पति@@ 80094
करेछिलेन 80076
मार्@@ 80043
आली 80012
रिय@@ 79996
फै@@ 79960
गि 79948
फोन 79947
ठा@@ 79892
B@@ 79763
एल 79735
भर 79684
चॆय्य@@ 79673
उळ्ळ 79655
षि@@ 79629
रीते 79557
आम 79550
इन@@ 79502
शी@@ 79457
सिंग् 79436
ग्रा@@ 79422
सरकारी 79417
ट्टि 79409
1@@ 79380
इन्तिय 79312
प्रदर्शन 79298
बन 79094
निर्णय 79063
समस्या 79053
मॊ@@ 79051
करेंगे 78999
आस@@ 78932
जानकारी 78929
आं 78904
वळ@@ 78896
ऎ 78776
ब्यबहार 78746
ड़े 78734
ंचा 78692
प्रश्न 78616
ंट@@ 78585
मार 78527
रो 78493
जबकि 78398
बड़ी 78368
आधार 78161
कळुम् 78157
मतो 78132
स्वास्थ्य 78119
पर्@@ 78092
नीति 78038
इर@@ 77977
ियुटॆ 77954
कोसं 77951
पोलीस 77832
परिस्थिति 77821
बड़ 77765
यारा 77731
अलावा 77687
देशेर 77647
तम 77586
उचित 77578
कला@@ 77435
लक्ष 77369
a 77300
अरचु 77300
पति 77178
नीङ्कळ् 77107
य़े 77103
2020 77010
समा@@ 76954
इसलिए 76928
पद 76847
चित्रं 76817
एफ@@ 76772
आय@@ 76767
ऱ्ऱु@@ 76753
्ट@@ 76600
नेनु 76591
कळिൽ 76527
संयुक्त 76472
लॆ@@ 76470
ळि 76466
तल@@ 76438
पे 76347
क्स 76328
तिय@@ 76328
कॊटु@@ 76230
तहत 76139
तैयार 76113
अर्थ 76070
पुरस्कार 76038
क्षमता 75944
वुम् 75702
क्षेत्रे 75693
प्रो@@ 75657
उनका 75571
ंद 75441
णी@@ 75433
आपनार 75403
दाखल 75356
16 75355
बनाने 75323
18 75282
गण@@ 75280
ऱ्ऱ् 75221
जय@@ 75179
शाह 75090
झाला 75076
c@@ 75054
स्थान@@ 75026
ियि@@ 74915
द्बारा 74893
I@@ 74845
६ 74770
विश्व 74731
स्ट 74708
पार्@@ 74673
त्यांना 74646
दिੱता 74628
ियां 74617
i@@ 74595
ॆयन्नु 74562
रक्षा 74503
ग्रहण 74428
मुम् 74398
टिर 74388
इसका 74314
क्रि@@ 74246
उत्तर@@ 74227
चै@@ 74189
निർ@@ 74181
पण@@ 74152
आपण 74120
ऎं 74080
समूह 74009
भु@@ 73947
राष्ट्र@@ 73936
निक 73882
वरि@@ 73870
झाले 73867
ऩै 73844
मिल@@ 73834
यं 73698
द् 73687
h@@ 73667
सारे 73659
o@@ 73636
मृत्यु 73588
करत 73586
आने 73503
ंट 73466
स्ता@@ 73453
अमै@@ 73398
सन्@@ 73371
दिंद 73370
डॆ@@ 73365
मुख@@ 73357
d@@ 73342
चले 73335
ेन 73322
पिछले 73308
७ 73243
ळु@@ 73214
ङ्कळै 72905
स़ 72903
हार@@ 72891
चॆय्त@@ 72887
बद@@ 72866
सत्य@@ 72770
व्या@@ 72693
मूल@@ 72691
दुनिया 72577
N@@ 72445
जू@@ 72431
दिੱती 72426
य़े@@ 72420
संस्थान 72419
शहर 72407
विल@@ 72333
बेर 72301
साधारण 72239
चेय@@ 72229
ंचिंदि 72229
उळ्ळतु 72150
ढ@@ 72093
करबे 72092
जल@@ 71998
प्रे@@ 71976
ंग् 71965
मुतल् 71942
ियुं 71899
स्त 71830
अवൻ 71821
देशों 71783
विरुद्ध 71727
कम् 71682
तोमादेर 71659
l@@ 71648
बेश 71574
परमेश्वर 71556
८ 71529
समस्त 71520
ट्रा@@ 71510
ऎस्@@ 71483
ताक 71452
ंड 71445
प्रचार 71376
पक्ष 71328
जीव@@ 71278
लोकसभा 71262
कुमार् 71200
होर 71187
नजर 71156
गॆ@@ 71154
असीं 71141
वारु 71130
b@@ 71059
परीक्षा 71054
समर्थन 71017
संबंधित 71006
13 70960
वागिदॆ 70899
कॊण्टु 70881
रात 70869
अमित 70831
दिन@@ 70738
जवाब 70600
सर्व 70582
मौ@@ 70557
रिपोर्ट 70400
स्पष्ट 70309
2019 70298
गळिगॆ 70250
ट्रे@@ 70200
ൾ 70189
तब 70069
थई 70052
एखनओ 69932
मला 69908
चौ@@ 69887
फले 69837
हत्या 69813
क़@@ 69785
ध्यान 69732
तू 69707
स्तर 69661
ल्लि 69654
त्र@@ 69653
सालेर 69614
पड़े 69606
आर् 69519
मूलक 69504
विश्वास 69490
2018 69417
यार 69382
ऩर् 69342
प्रेम 69025
ऎं@@ 68972
िला@@ 68963
ज्यादा 68960
मिक 68953
वरा@@ 68892
भ 68688
आपल्या 68678
मूल 68619
ट्टा@@ 68544
झाली 68429
कंपनी 68375
17 68349
40 68346
स्थित 68327
माड@@ 68322
कभी 68313
होय 68291
कश्मीर 68267
पाठ@@ 68199
झा@@ 68198
एते 68187
गंभीर 68150
नाम@@ 68139
चल 68062
२@@ 68055
आदेश 68000
न्नि@@ 68000
करछे 67996
करती 67890
प्रधानि 67845
करवा 67820
धु@@ 67785
ल्या@@ 67773
जै@@ 67747
त्यामुळे 67742
बड़ा 67729
सामान्य 67672
ऱ्ऱ 67611
भर@@ 67588
माहिती 67500
विऩ् 67496
ऑफ 67493
ऩा@@ 67440
मौजूद 67359
सके 67303
नीवु 67303
लिये 67283
ललो 67262
देखते 67137
पौ@@ 67136
कोर्ट 67129
जाते 67111
प्पो@@ 67096
ar@@ 67066
उण्टा@@ 67063
भाषा 67040
ब्यबस्था 66918
िय़ा@@ 66897
भाष@@ 66878
कळा@@ 66867
भारतीय़ 66827
कादु 66765
ऱ्ऱि@@ 66764
विषय@@ 66745
बर 66689
सेखाने 66668
ण्टा@@ 66662
सकती 66632
क्स् 66631
लाल 66611
बन@@ 66591
ख़@@ 66577
मेलॆ 66558
नर 66465
कौ@@ 66427
0@@ 66403
वात 66376
तमे 66266
्त@@ 66250
बंद 66173
लोनि 66122
अवसर 66117
फी@@ 66078
पत@@ 66055
जनता 66029
आरोग्य 65999
न्तु@@ 65992
कता 65922
पालन 65900
ट्ट् 65870
E@@ 65854
स्ब@@ 65815
विरोध 65805
्यं 65766
अस्पताल 65766
अल्लतु 65696
वरुकिऱतु 65651
छेन 65618
कार्@@ 65583
कोविड 65581
वहीं 65581
आला 65520
अर्थ@@ 65454
भार@@ 65309
ष 65213
भाल 65106
r@@ 65060
इन्त्यൻ 65052
लाग@@ 65032
लू@@ 65031
बछर 65027
जाती 64990
न्स् 64977
य़ा 64969
अदि 64876
प्रि@@ 64810
मिल 64799
पिर@@ 64747
उद्योग 64745
तै@@ 64679
कण@@ 64673
विधानसभा 64624
तोमार 64621
तरफ 64612
पडि@@ 64611
देय़ 64550
ऎन्@@ 64484
वरॆ 64410
टॆ 64382
गर्@@ 64357
हले 64352
दिवस 64314
चर@@ 64302
दिते 64295
t 64284
वरुम् 64281
जहां 64250
बला 64248
िले@@ 64240
ब्रा@@ 64227
िक 64208
९ 64161
मै 64146
राजा 64130
सभा 64124
ञ्च@@ 64061
वय@@ 64058
दान 64021
प्रदेश@@ 63967
रंग@@ 63953
टेस्ट 63914
नगर@@ 63910
यिरुन्नु 63899
अमेरिका 63896
मात्रं 63895
ारा@@ 63814
आशा 63802
सारा 63712
लोकां 63646
तोमरा 63632
अधि@@ 63624
यात्रा 63598
g@@ 63535
मानुष 63533
काय@@ 63445
क्किऱतु 63428
म्म@@ 63411
देन 63390
बाहर 63382
जग@@ 63358
आपको 63314
ष्@@ 63305
वहि@@ 63294
पिरतमर् 63288
वऴि@@ 63284
कमा@@ 63245
टन 63245
ৰ@@ 63244
कां@@ 63230
महत्वपूर्ण 63221
माध्यम 63216
न्या@@ 63164
नल्ल 63126
पु 63121
मारा 63055
ൺ 63049
इतिल् 63018
लं 63013
अळि@@ 63007
वർ@@ 62938
निश्चित 62888
नाय@@ 62850
यो 62832
मल@@ 62814
द्र@@ 62773
ण्ट् 62768
रिहा 62711
गॊ@@ 62703
ियिल् 62699
बाअद 62627
n@@ 62591
तरीके 62579
पहली 62464
ियो@@ 62330
त्रि@@ 62317
देख@@ 62301
परा@@ 62293
चर्@@ 62227
विचार@@ 62200
बिजेपि 62181
स्थ@@ 62141
उत्तम 62109
लगभग 62028
ऎन्न 62013
योग्य 61992
बं@@ 61939
वੱलों 61863
लिआ 61839
मंत्रि 61827
ँ 61809
कं 61809
समिति 61645
ऎऩ्पतु 61596
बना 61579
दिए 61539
पाओय़ा 61425
चित्र 61380
दींतो 61307
24 61295
न्ततु 61237
होंगे 61197
मीरु 61167
अल्लाह 61126
माडि@@ 61096
मत्तिय 61072
नए 61064
विय@@ 61040
प्@@ 61007
यिऩ् 61004
युद्ध 60983
ळ्ळ 60973
वां 60962
गुजरात 60935
सहयोग 60924
अल्ल 60896
2017 60887
त्तिऱ्कु 60862
सु 60834
ंचि 60832
चॆय्@@ 60829
करुन 60816
कं@@ 60759
ॆयुं 60749
सुव 60739
आमाके 60702
चट्ट@@ 60621
गेछे 60586
नम्म 60475
इस@@ 60474
देशा@@ 60454
करेगा 60449
उपयोगि@@ 60434
गळ@@ 60417
ൾ@@ 60412
इन्त्य 60406
तुं 60403
ऑ@@ 60402
मध्य़ 60402
ताँके 60373
बड़े 60333
नर@@ 60331
हमारी 60259
जम्मू 60257
केस 60245
षन् 60231
यावुदे 60215
उन्नायि 60214
द्द 60198
जिल्ला 60178
मं@@ 60165
जातीय़ 60163
G@@ 60133
एखाने 60130
मुटि@@ 60124
वॆ 60112
स़न 60107
अनुमति 60053
मेरी 60053
याबे 60013
ऩि@@ 60012
ब्र@@ 59992
येते 59979
F@@ 59933
ंप@@ 59924
हुं 59915
धन 59827
नीति@@ 59798
हाथ 59777
सिं@@ 59776
धरनेर 59737
1.@@ 59708
क्कुन्न@@ 59678
नुंडि 59658
फल@@ 59610
नू@@ 59604
तायि 59581
राख@@ 59576
बस 59569
ऴ@@ 59493
तैरि 59487
धर@@ 59486
कयुं 59406
मध्य@@ 59390
पत्नी 59377
अम@@ 59302
मुळ्ळ 59247
निर्देश 59236
लुं 59225
धन@@ 59212
कळुटॆ 59184
रां 59135
विट@@ 59075
आए 59044
आग 59033
विटु@@ 59011
अंश 58997
ण्@@ 58972
ष्ट 58970
इसकी 58948
चम@@ 58945
ङ्ङळ@@ 58870
हासपाताले 58866
डर 58845
प्प् 58840
आमॆ 58824
हरि@@ 58807
िय़े 58651
साहाय्य 58633
काम@@ 58618
फर@@ 58558
कडे 58549
िल्ल@@ 58534
बिशेष 58522
काण@@ 58481
व्यक्त 58464
यान 58461
भालो 58436
घे@@ 58396
मैंने 58361
स्टे@@ 58341
तं 58326
कट्ट@@ 58317
गृह 58310
ैयै 58272
अदु 58221
ऱि 58220
अभिनेता 58213
लभि@@ 58201
टर्@@ 58198
शके 58185
पीएम 58162
विजय@@ 58138
रूप@@ 58122
पाट@@ 58113
मन्त्री 58111
i 58068
त्य@@ 58064
जान@@ 58056
सർक्काർ 58039
फु@@ 58015
ंक 58003
िलुम् 57998
मैच 57994
कमी 57983
तदन्त 57922
भाई 57907
ारी 57892
राज्यों 57841
ताँदेर 57755
वानी 57753
कै 57711
ियाण् 57694
चेष्टा 57685
य्क्क् 57652
माऱ्ऱ@@ 57633
500 57632
लक्ष्य 57619
बेकु 57595
लतो 57529
आदि 57526
रण्ट् 57469
ताकि 57459
हॊ@@ 57432
प्ला@@ 57423
नाण् 57370
वर्कळ् 57363
सोशल 57236
लागू 57228
धो@@ 57215
सरकार@@ 57190
द्दारॆ 57165
ियिऩ् 57125
नियम@@ 57114
यु 57105
थिबा 57081
एऱ्ऱवुं 57045
H@@ 57034
प्रक्रिया 57021
20@@ 57018
प्राय़ 56977
माजी 56941
यदिओ 56931
L@@ 56893
जॆ 56836
अधिकारियों 56779
इसी 56767
भूमि 56765
थि@@ 56764
इतिहास 56710
कुऱित्तु 56679
याद 56642
लक्ष@@ 56634
कूटुतൽ 56625
नाहिँ 56624
लों 56565
मिली 56506
त्र 56425
ऐसी 56399
ङ् 56359
ठिक 56324
ंदु 56302
तेल 56299
वामां 56282
ऎऩ् 56265
उप 56248
क्रम@@ 56236
आं@@ 56217
१९@@ 56209
वरै 56194
यहोवाह 56186
y 56151
21 56139
दार@@ 56131
शेषं 56131
खा 56061
ैप् 56000
लिय@@ 55974
सिद्दारॆ 55935
कर् 55930
ारि@@ 55927
१० 55899
कत 55891
सभ 55882
रण@@ 55881
जनक 55871
नव@@ 55818
तरी 55766
बाल@@ 55749
्रा@@ 55715
सीमा 55675
पाणी 55673
अधिकार@@ 55658
अतिरिक्त 55652
णु@@ 55624
व्य@@ 55593
िलो 55572
मक्कळ् 55531
मूलम् 55506
कन@@ 55500
सां@@ 55472
रुपए 55456
साइ@@ 55448
सिदरु 55418
पार 55388
अऱि@@ 55384
धारा 55381
अवरुटॆ 55360
k@@ 55346
आरोपी 55318
उत@@ 55293
भी@@ 55277
उसका 55277
परिणाम 55179
S 55170
खूब 55163
उद्@@ 55148
मीतु 55148
पाल 55122
बस@@ 55115
मनो@@ 55084
क्कॆ@@ 55049
आम@@ 55045
होए 55039
पेर् 55029
िय़ार 54966
मरण@@ 54966
थो@@ 54951
रों 54868
जवा@@ 54830
क्यों 54813
आव@@ 54795
उल्लेख 54699
शन@@ 54690
ल्ला@@ 54688
लेन 54673
कॉ@@ 54655
रन 54603
देते 54556
मुੱख 54534
डॉ 54515
ंगे 54490
ल्प@@ 54480
क्षेत्रों 54431
रेल 54429
धी@@ 54424
माल@@ 54393
बू@@ 54385
दाबि 54373
ंड् 54350
अभिनेत्री 54344
िलुं 54317
पट्ट@@ 54316
फैसला 54273
वॆळि@@ 54264
अन्यान्य 54262
धरे 54241
्ल@@ 54240
िलाण् 54239
er@@ 54236
भूमि@@ 54209
त्तिरु@@ 54209
प्रभुत्वं 54195
ठ 54171
ईश्बरेर 54132
अभियान 54128
मिळ@@ 54110
पੰजाब 54042
सल@@ 53971
धर्म 53945
पटि@@ 53915
छ 53906
तेइ 53894
कुझ 53861
उदाहरण 53857
समाज 53827
ंडि 53822
स्प@@ 53810
स्त्री@@ 53739
करु 53734
सो 53726
इल्ल@@ 53691
्प@@ 53677
सं 53664
एका@@ 53659
तॆलिपारु 53640
गुण@@ 53626
मायिरुन्नु 53621
कारा@@ 53597
साधि@@ 53584
तिन 53575
f@@ 53564
आधारित 53561
मुळे 53559
न्न् 53545
प्पट्ट 53511
कोൺग्रस् 53508
रेर 53492
60 53484
५@@ 53443
तलै@@ 53438
कैसे 53421
जर 53417
सेटा 53355
करेछिल 53354
समान 53346
पिरि@@ 53326
वाद@@ 53288
ळी 53264
गुर@@ 53259
रै 53254
200 53219
उन्न 53174
जानान 53171
नवी 53160
हओय़ार 53158
अथबा 53114
पय@@ 53113
देव@@ 53060
बळ@@ 53034
सवाल 53015
भारत@@ 53008
पांच 52985
डं 52981
वन 52976
प्रस्तुत 52960
एफ 52912
पूरे 52909
उंटुंदि 52882
उद्धार 52855
बन्ध@@ 52838
वधु 52826
इੰ@@ 52791
वस्तु@@ 52755
पारि 52749
झ 52743
कां 52732
ेऩ् 52715
६@@ 52707
फोटो 52707
सिद 52682
बाबा 52678
10@@ 52650
बेन 52650
ऎन्ऱॆ 52637
मांग 52635
बनी 52620
ब्य@@ 52615
आण् 52602
मार्ग 52580
बिहार 52553
प्रधानमन्त्रि 52513
घटनाय़ 52496
येन 52471
कूट्ट@@ 52460
लगा 52424
ंदा 52412
वरिष्ठ 52375
बोर्ड 52362
जाए 52341
ारि 52323
शो 52277
O@@ 52276
कॊण्टु@@ 52269
आपणी 52191
क्कार@@ 52167
ऩाल् 52152
टो 52124
वलिय 52103
नडॆ@@ 52088
छबि 52083
आयोजित 52077
निम्म 52003
गुलिर 52002
वारि 51911
सही 51875
घायल 51870
गार 51860
तेर 51845
सात 51778
पाटु 51764
इय@@ 51739
ुलु 51732
तेने 51704
रॆंडु 51704
क्के@@ 51674
जां 51639
कृत 51606
फ् 51595
औ@@ 51566
इतऩाल् 51562
आवश्यक 51512
प्राथमिक 51456
जिसके 51448
पत्र@@ 51442
18@@ 51433
तुटർन्न् 51429
1,@@ 51420
मऩ@@ 51389
विज्ञान 51380
आलोचना 51333
बन्@@ 51324
आहत 51319
स्तुंदि 51301
लोको 51298
तथ्य 51284
कवुम् 51280
स्त्री 51273
छि@@ 51269
्यु@@ 51265
in@@ 51263
बिश्बास 51241
गर@@ 51220
न्यू@@ 51219
विषय 51170
आम् 51163
अवर@@ 51155
कुटुंब@@ 51128
ओपर 51086
तट@@ 51051
ൻऱॆ 51001
नामे 50993
इन्तिया 50976
दूर@@ 50917
केन्द्र@@ 50898
छो 50875
जात 50875
उੱते 50854
वरु 50840
आता 50804
एहा 50782
इरुक्कुम् 50774
तून 50748
तुम्हारे 50747
ऱ 50730
जिन 50727
सत्य 50726
तन्न 50713
जाएगी 50674
नौ@@ 50671
ज्ञान 50600
अत्यंत 50588
जीबन 50540
ियिरु@@ 50521
समय@@ 50516
युक्त 50473
माऩ@@ 50471
मेरा 50464
ैक् 50460
उत्पादन 50458
ऎटु@@ 50456
सार 50435
at@@ 50430
ल्ला 50376
कुऱै@@ 50358
टिय@@ 50345
चं 50324
यॆ 50321
एका 50317
_ 50314
थाय 50314
न्ड 50305
नागरिक 50296
द्ध@@ 50253
इल@@ 50247
पानी 50245
ऱ्@@ 50207
पंतप्रधान 50190
डो 50173
ननि 50135
त्याला 50109
िलि@@ 50098
मां@@ 50079
हों 50038
एखन 50030
ऱो@@ 50027
ोम् 50005
व्यवस्था 50003
उच्च@@ 50002
नटि 49994
बांलादेश 49987
ियाक 49983
ङ्कि@@ 49949
बन्ध 49940
वाय@@ 49940
मुख्यमंत्रि 49938
विल्लै 49933
वं@@ 49857
ग्रामीण 49851
पैदा 49824
पऱ्ऱि 49772
धी 49763
al@@ 49730
क्कू 49701
जिसे 49697
क्कॊ@@ 49674
‎@@ 49660
ियै 49655
बयान 49651
बहु 49597
कळु@@ 49546
बना@@ 49507
पॊलीसरु 49507
करण@@ 49505
12@@ 49486
जिले 49483
अंग@@ 49467
देखील 49464
अध्यक्ष@@ 49459
ंचु@@ 49444
चेसिन 49440
कੰम 49438
नेर@@ 49410
तपास 49388
धर्म@@ 49376
u@@ 49375
ताहले 49348
कळि@@ 49335
क्स@@ 49319
क्त 49300
ऱिय@@ 49288
मन्त्रि 49279
मरि@@ 49277
ऎन्न् 49254
कदम 49233
इतु@@ 49190
उळ्ळ@@ 49129
लगा@@ 49101
बच्चों 49087
आग@@ 49065
मांथी 49052
सृष्टि 49032
ग्र@@ 48998
ड़ा@@ 48945
इऩ्ऩुम् 48924
कप् 48818
टम् 48805
पॆरु@@ 48779
इरुक्किऱतु 48777
क्ट@@ 48763
नॊ@@ 48710
यांच्या 48693
जानते 48687
ग्राम 48651
वरकु 48633
रह्या 48594
ठीक 48592
ंः 48581
इस्तेमाल 48566
एनु 48544
संगठन 48501
तन@@ 48465
यिहोबार 48462
पछी 48457
पंजाब 48439
राजकीय 48428
रुव 48416
णार 48404
न्ट 48398
उन्@@ 48398
ट्स 48383
दिली 48352
प्पटु@@ 48317
w@@ 48293
देता 48239
गिरफ्तार 48234
बिषय़ 48229
णेर 48213
0 48205
तिर 48185
नेता@@ 48174
होना 48173
अच्छा 48128
वत@@ 48114
कळैयुम् 48086
लेने 48073
कव@@ 48057
ण्या@@ 48031
मिला 48024
कुम् 48013
रुम् 48007
ॆयल्लि 47988
देव 47977
दिल 47974
A 47972
कर्नाटक 47972
आल@@ 47958
22 47950
आगामी 47949
माडु@@ 47927
अन्@@ 47920
्च@@ 47908
खि@@ 47904
वन@@ 47895
याक 47880
वृद्धि 47872
वू 47847
क्कां 47837
जन्म 47834
नुकसान 47774
शेर 47770
निजेर 47768
नार@@ 47763
तॊटर्न्तु 47733
भारती 47682
मानुषेर 47681
रोग@@ 47678
हिस्सा 47666
बाजार 47645
यू 47639
वजह 47607
नोर 47600
जुड़े 47592
रखा 47531
म्हणून 47524
वित्त 47505
इऱ@@ 47497
न्ना 47479
साध्य@@ 47475
मूल्य 47472
कत@@ 47415
कुऱि@@ 47400
शिव@@ 47381
र्त@@ 47368
क्षेत्र@@ 47362
स्तुन्नारु 47328
दलेर 47325
ह्या@@ 47316
ऎनिक्क् 47265
दोन 47263
उल@@ 47207
रह@@ 47203
प्या@@ 47198
देशे 47170
ग्रे@@ 47165
y@@ 47163
स्तु@@ 47155
v@@ 47152
वल्ल 47135
तसेच 47122
अੰ@@ 47097
स्टा@@ 47090
स्वा@@ 47070
छिलाम 47062
तर्वात 47055
वळरॆ 47002
प्रयास 46995
हेगॆ 46981
ॊ 46959
सार्वजनिक 46939
एकइ 46919
C 46913
मजबूत 46895
इरुन्तु 46889
er 46877
टाका 46813
राजस्थान 46809
िले 46792
कर्यो 46775
णु 46744
न्नारु 46739
मनि 46732
लार 46715
तिर@@ 46702
हिसाबे 46686
संभवि@@ 46685
सिदॆ 46674
७@@ 46668
समाधान 46624
प्रश्न@@ 46601
तात 46594
सड़क 46576
,000 46518
करबेन 46516
सृष्टि@@ 46500
अटि@@ 46472
प्रमाण 46467
युव@@ 46454
षा 46427
निङ्ङळुटॆ 46424
दन 46410
उपा@@ 46405
मामलों 46391
रेलवे 46381
पारेन 46376
आयोग 46366
विदेश 46364
चॆय्य 46359
ंतो 46357
गयी 46355
धे 46333
पोतु 46332
सरकारेर 46318
कळॆ 46298
an@@ 46284
समेत 46280
मनुष्य@@ 46260
कुमार@@ 46232
बदल 46193
व्यापार 46189
कൾक्क् 46186
नेओय़ा 46159
ऎऩक्कु 46152
तः 46147
भाव@@ 46102
ल्या 46083
चल@@ 46063
गुरु@@ 46055
निक@@ 46049
ऎतिर्@@ 46049
गू@@ 46029
अतै 46027
शिक्ष@@ 46017
उपरे 46014
ङ्कु@@ 46004
सिन 46001
घु@@ 45996
गल 45982
छाड़ा 45977
न्ड@@ 45935
ञङ्ङൾ 45909
नग@@ 45888
िय़@@ 45868
खास 45863
जान 45813
क्रम 45765
खी 45744
चाहते 45712
शब्द 45705
अरु@@ 45701
स़ा@@ 45697
उद्देश्य 45693
V@@ 45690
स्थापित 45686
कार्रवाई 45683
सिद्धान्त 45678
आरोग्य@@ 45674
ार्कळ् 45668
फल 45662
कुल@@ 45661
ियन्नु 45655
घट@@ 45638
विश्व@@ 45632
लय@@ 45611
तम@@ 45608
ताण् 45557
३@@ 45532
पोलिसांनी 45528
दर्@@ 45526
व्यक्ति@@ 45511
गिदॆ 45497
अंतिम 45495
करदे 45491
प्रकाशित 45471
रहि@@ 45465
बने 45455
मिल्ल 45450
तेमणे 45444
मर्@@ 45429
छे@@ 45415
अदालत 45406
वुदु 45386
पासून 45360
सुरू 45347
पेർ 45328
संघ 45314
निलै@@ 45275
आम्ही 45267
क्कणं 45248
कोर्@@ 45245
वान 45243
धार@@ 45230
सक@@ 45198
थिले 45194
अल्लाहु 45189
छो@@ 45187
संस्था 45177
आवश्य@@ 45169
क्काऩ 45166
बल्कि 45163
पोली@@ 45137
कानून 45128
िला 45118
कारन 45096
रक्ष@@ 45089
इन्हां 45054
थिला 45046
तर्हां 45043
समय़े 44989
गुलोर 44980
तीर्@@ 44977
ड़ 44965
तेनी 44958
सम्मान 44949
ऎन्न@@ 44932
करे@@ 44911
मुख्यमन्त्रि 44876
माल 44850
केन्द्रीय 44823
प्पै 44813
कुऱ्ऱ@@ 44786
तेना 44766
होई 44765
बनाया 44754
णॆ 44730
गठन 44729
इरा@@ 44705
ऱ्ऱु 44703
पालि@@ 44682
१@@ 44673
ियॆ 44664
होत 44657
दिनों 44653
कीभाबे 44617
क्को@@ 44610
सिर्फ 44583
त्यांच्या 44567
ॆय 44557
उन्न@@ 44518
रहने 44516
सारी 44511
घटनार 44507
करीब 44471
चालक 44463
लुगा 44462
श् 44415
रत 44393
निन्नुं 44371
जार 44347
चेसिंदि 44333
खुद 44330
सहायता 44286
उंड@@ 44270
नाङ्कळ् 44251
आया 44243
ज्ञा@@ 44240
नल 44229
ऎला 44186
खेल 44169
ब् 44110
आवे 44082
असून 44056
पेश 44044
न्निल्ल 43990
ऎल्ल@@ 43985
स्टि@@ 43961
सलागिदॆ 43954
संरक्षण 43944
यीशु 43943
मुण्ट् 43943
नाकु 43942
अटै@@ 43929
पथ@@ 43906
विरु@@ 43893
यी 43868
क्काक 43830
मंदिर 43830
माता 43824
कोरोना 43812
चुके 43796
गੱल 43793
१५ 43765
तरु@@ 43761
रॆ 43759
किसे 43752
जिससे 43737
तम्म 43711
अंतर्गत 43705
ऩार् 43703
गल@@ 43699
डिय@@ 43693
ऩै@@ 43684
बद्ध 43640
बलते 43586
नू 43582
टार 43542
मुक@@ 43532
वहां 43519
चर 43517
फा 43505
निऱ@@ 43500
साम@@ 43495
अली 43490
सकल 43468
मक@@ 43456
हमले 43419
पारि@@ 43369
पुलिशेर 43348
िलु@@ 43335
़ 43334
धर 43312
यॊक्क 43286
o 43250
शील 43239
लाम् 43224
80 43212
आधुनिक 43201
ऎन्त 43166
कीते 43148
दें 43146
ऩतु 43081
८@@ 43076
2016 43043
क्किय@@ 43043
उऱ@@ 43009
पं@@ 42988
गाय@@ 42988
जम्मु 42980
कूड 42977
वाढ@@ 42956
ऊर्जा 42953
जरूरत 42944
मानव 42943
केन्द्रीय़ 42941
दरु 42905
सुनिश्चित 42900
कलि@@ 42893
मृत 42891
धा 42879
आज@@ 42842
नदी 42842
रकम 42841
पान 42839
मुक्त 42814
नियम 42800
देख 42792
लें 42785
निते 42764
वाहन 42753
गान 42747
गर 42708
चिल@@ 42688
ऎऴु@@ 42669
टेर 42664
उण 42657
सांसद 42649
प्रणाली 42622
अन्नारु 42620
ग्राम@@ 42618
काणि@@ 42616
यिलॆ 42612
एरपर 42598
मल् 42594
पुनर्@@ 42558
सभ@@ 42541
उ 42536
कला 42528
कारवाई 42518
महि@@ 42511
विजय 42506
मिकवुम् 42486
शासन 42479
सुधार 42462
अन्त@@ 42461
इरु 42445
एक्@@ 42434
पोलिस 42426
नीचे 42423
सुयोग 42413
ंक@@ 42412
आबार 42368
सबचेय़े 42363
कष्ट@@ 42362
अतऩ् 42340
हॆच्चु 42336
त्ते@@ 42329
यही 42300
स्वीकरि@@ 42298
त्मक 42297
२० 42288
सिनिमा@@ 42265
गो 42261
पड़ा 42236
बिषय़टि 42222
जाण 42207
उट@@ 42184
लाइ@@ 42178
थे@@ 42165
पिऩ्ऩर् 42148
क्कम् 42108
it@@ 42100
मात्रमे 42090
दरज 42074
ढा@@ 42052
तम् 42048
स्था@@ 42043
क्रा@@ 42042
मुऱै 42042
तिया@@ 42029
पॊतु@@ 41992
हलो 41982
नाग@@ 41963
गार@@ 41957
पात्र@@ 41941
कॊळ्ळ@@ 41933
दिशा 41927
ंदा@@ 41924
स्ट् 41918
वऩ् 41915
स्थ 41879
यादव 41875
मारे 41868
वध@@ 41867
सांस्कृतिक 41865
वण@@ 41843
स्टो@@ 41816
नाथ 41794
कोहली 41793
इरण्टु 41769
सम्पर्के 41764
वർ 41760
न्ति 41742
रोहित 41730
कल्याण 41724
चॊ@@ 41723
K@@ 41718
फ्र@@ 41717
ऎऩ्ऱुम् 41715
लगातार 41687
ॆटु@@ 41683
प्रवेश 41675
थीं 41673
करिबा 41666
प्रार्थना 41656
जगह 41654
पिन्नीट् 41654
शिक्षण 41633
त्ब 41629
पुत्र 41625
वॆळ्ळ@@ 41599
भारत् 41589
हित 41583
मालि@@ 41580
70 41575
विषयं 41574
ॆयु@@ 41572
हासिल 41560
वच्चे 41553
आट@@ 41538
च्चिट्टुण्ट् 41527
प्रशासन 41511
टऩ् 41494
प्रशिक्षण 41491
लर 41443
ठे@@ 41438
येमन 41434
यिरु@@ 41430
ब्यापारे 41419
संगीत 41413
2.@@ 41413
बिना 41381
हत 41363
ऴु@@ 41352
रक्त@@ 41333
अंत@@ 41331
ैये 41326
रखने 41319
अति 41298
विट्ट@@ 41240
दैव@@ 41230
पाइ@@ 41211
ॊरु 41197
चला@@ 41192
्यो 41192
यात्र@@ 41184
ताँरा 41184
कारणं 41182
नियंत्रण 41167
सहाय@@ 41138
स्थाना@@ 41132
न्याय@@ 41100
वं 41100
हल@@ 41066
ंच 41049
राज् 41024
ळु 41015
इआ 41000
ंट् 40988
कॊळ्@@ 40976
जर्@@ 40970
तिरि@@ 40953
दाख@@ 40922
संसद 40922
कुऱ@@ 40913
प्रय़ोजन 40896
चाइ 40892
रसूल 40877
ताते 40857
ज्या@@ 40853
तै 40853
संपूर्ण 40846
क्षे@@ 40841
ब्ल@@ 40838
त्तिलॆ 40832
स़ुरू 40816
कंग्रेस 40815
िलेक्क् 40811
्लो 40801
ीर 40796
सुरक्षित 40785
किस 40765
आत्म@@ 40750
दिक 40749
मॆन्न् 40738
राज्येर 40730
लैंड 40725
वाल 40720
भय@@ 40712
योग@@ 40701
हेळि@@ 40699
मੰ@@ 40699
किसानों 40695
I 40693
त्तिय@@ 40656
शर@@ 40654
कण्ट@@ 40652
कॊण्टिरु@@ 40643
ॅ@@ 40621
इच्छा 40603
बेहतर 40595
देना 40588
भूत 40584
कॊण्ट@@ 40578
शुधु 40570
९@@ 40544
जनेर 40521
पुरुष 40504
वीं 40498
स्थानीय़ 40485
सलमान 40465
जल्द 40462
हात 40461
न्ति@@ 40459
ओने 40456
प्रभावित 40455
आक@@ 40437
त्ती@@ 40433
लिखा 40425
ट्वीट 40399
प्पटुम् 40386
लगाया 40385
अशी 40360
राजनैतिक 40349
नम्मुटॆ 40338
कट्टु@@ 40332
स्पे@@ 40317
प्रकरण 40315
नही 40308
हूँ 40282
दान@@ 40278
ंमध्ये 40254
ऎंदरु 40253
ंचा@@ 40196
ॉ@@ 40181
बो 40179
ंदि@@ 40166
पक@@ 40134
नाना 40113
रोग 40087
पथ 40079
तॆरिवि@@ 40079
शांति 40071
अतु@@ 40068
मळ@@ 40056
़@@ 40055
चलछे 40051
विमान 40044
वੱख 40015
in 40003
मार्किन 39998
ऎऩ्ऱार् 39988
जीवन@@ 39979
शाख 39972
च्चिरुन्नु 39972
गू 39964
मऱ्ऱ@@ 39964
योगदान 39946
सफल 39936
उनसे 39936
इदे 39935
त्याने 39930
द्बितीय़ 39928
ऩा 39927
ल्लि@@ 39921
वऴ@@ 39907
जानिय़ेछेन 39905
एन 39896
राक 39895
सर्ब@@ 39857
मंड@@ 39846
नः 39840
पोलीसे 39804
४@@ 39799
णो 39794
बॉ@@ 39778
आइन 39768
अच्छी 39764
ण्ण@@ 39753
पुरुष@@ 39753
िलुळ्ळ 39747
विवर@@ 39733
दुटि 39728
इष्ट@@ 39727
येखाने 39723
विट्टु 39722
आपके 39710
लेदा 39693
अवऩ् 39683
गेल 39645
हादसे 39628
ज्यारे 39612
ळे 39601
कॊन्नि 39600
अय@@ 39586
न्द्र 39581
फार@@ 39570
क्त@@ 39569
पुऱ@@ 39530
अङ्ङनॆ 39512
परिषद 39507
हैः 39465
15@@ 39459
मऱु@@ 39449
23 39437
बहुदु 39429
दल@@ 39423
तल् 39421
ननगॆ 39416
3.@@ 39403
रुक्कु 39365
नम@@ 39359
बलेछेन 39356
कर्म@@ 39355
सामना 39348
सम्मेलन 39345
जोईए 39318
बोल@@ 39310
ण्टु@@ 39309
भाजप 39304
त्तार् 39299
अन्वेषणं 39273
कूट@@ 39268
वुदिल्ल 39266
मेंट 39253
घटना@@ 39246
कोशिश 39244
आइ 39236
विराट 39216
िलिरुन्तु 39213
मोबाइल 39210
पाति@@ 39189
समि@@ 39156
परमेस़ुर 39137
तयारि@@ 39133
गुरिंचि 39131
राहुल् 39061
सुविधा 39051
आन्तर्जातिक 39020
याय़नि 39017
प्रेरित 39017
मुलाकात 38967
पनि@@ 38964
असा 38954
कृ@@ 38947
टिंग 38934
पूर्ब 38925
हाजार 38906
जिला 38882
विकसित 38878
कारि@@ 38861
ट्रि@@ 38858
ब्रि@@ 38850
राह@@ 38812
रिगॆ 38805
जरूरी 38801
16@@ 38790
द्य 38788
जोर 38779
०@@ 38772
क्कुप् 38767
ट्टिल्ल 38764
१९ 38757
पोस्ट 38756
कहना 38751
याच्छे 38750
देखा@@ 38746
भार 38746
पटु@@ 38729
निलै 38723
िल्@@ 38710
सुत्तदॆ 38703
वतऱ्कु 38694
000 38690
मय@@ 38673
आयोजन 38655
१२ 38641
गळि@@ 38633
गॊळि@@ 38632
पात्र 38620
गुरुत्बपूर्ण 38599
सुधी 38589
ङ्ङ@@ 38569
द्दरु 38553
तुलना 38550
ञ्ञु 38540
कठिन 38508
वालों 38505
लं@@ 38501
परिबारेर 38489
प्पॆ@@ 38482
पात 38476
त्व@@ 38440
ङ्का@@ 38438
उत्@@ 38419
होइआ 38413
प्ৰ@@ 38403
ळी@@ 38394
कप्तान 38388
उसी 38386
त्तुं 38386
बृद्धि 38383
अंत 38358
इदॆ 38339
हजार 38328
हाइ@@ 38315
अमेरिकी 38312
ळं 38312
सभापति 38301
पहिलां 38299
ें 38298
संघ@@ 38295
स्कूल 38277
क्कॆतिरॆ 38274
महीने 38273
पुरा@@ 38270
अद@@ 38264
लिल्ल 38259
माना 38251
केट@@ 38231
प्रयत्न 38208
लाइन 38204
विजय् 38178
चॆप्पारु 38158
तऩ् 38157
राजा@@ 38146
विचारणै 38127
न्नुं 38109
चु 38103
शिवसेना 38088
तिऱ@@ 38053
बान 38051
जित 38031
तुसीं 38031
इउ@@ 38010
संपर्क 37997
तीव्र 37994
वुक्कु 37993
करिछन्ति 37970
मार्च 37960
तय@@ 37955
कहते 37952
अंदि@@ 37950
आल 37942
जीवि@@ 37940
वरुकिऩ्ऱऩर् 37915
बाद@@ 37886
णॆ@@ 37859
इलाज 37848
हमेशा 37829
or@@ 37818
ियल्लि 37812
एँ 37800
उङ्कळ् 37794
आयु@@ 37789
वृ@@ 37778
ॆगॆ 37758
हाते 37740
इरुन्ततु 37734
च्चा@@ 37718
फिरे 37715
युद्ध@@ 37709
क्कू@@ 37692
कार्ड 37686
च्छ@@ 37655
टुम् 37646
कन्@@ 37640
निवेश 37637
सम्बन्धे 37630
देखे 37602
किऱ@@ 37597
तक@@ 37588
मंजूरी 37587
मल 37575
प्पट@@ 37553
समग्र 37548
लां 37532
नायि 37530
क्कळ् 37526
वट@@ 37518
मोदी@@ 37517
W@@ 37515
तारपर 37514
प्रौद्योगिकी 37510
रिया@@ 37492
समी@@ 37489
` 37466
कैतु 37464
सवा@@ 37444
जेला 37435
दੱसिआ 37426
13@@ 37411
re@@ 37409
टुत्त@@ 37409
ण्टि@@ 37407
क्कप्पट्ट 37403
राज्या@@ 37387
वर्तमान 37386
लाभ@@ 37380
अमे 37366
विभाग@@ 37359
सिൽ 37356
िये 37355
ंतॆ 37353
सकदे 37351
मुताबिक 37349
ध्@@ 37348
कथ@@ 37326
रूपा@@ 37325
चॆय्यु@@ 37325
विध@@ 37310
मण@@ 37278
करेछि 37277
वापस 37276
मृ@@ 37261
क्ष 37245
कळाण् 37242
स्टार 37206
ब्यक्ति 37202
गु 37202
रिया 37193
करछि 37190
अऱिवि@@ 37185
कडून 37181
लाम 37180
गै@@ 37178
करून 37169
उरुवा@@ 37160
अल 37158
जमा 37150
प्पट्टतु 37139
सला@@ 37127
4.@@ 37116
मुऱै@@ 37108
कुलु 37100
सकदा 37091
ऩ्ऱु 37085
पोलीचार् 37067
प्रयोग 37022
नाय 37000
लाव@@ 36994
ल्स 36983
रं 36977
कृष्ण 36971
य़ा@@ 36957
दिनेर 36924
वर्ष@@ 36906
प्राचीन 36905
कर्युं 36903
नष्ट@@ 36894
माय@@ 36883
वൻ 36883
आवश्यकता 36879
वरि 36873
हओय़ा 36867
समारोह 36860
पसंद 36859
वाऴ्@@ 36856
छु@@ 36833
आपी 36816
ट्टुण्ट् 36796
मुख्य@@ 36794
नटत्त@@ 36789
अवधि 36786
कॊत्त 36786
प्रधान@@ 36781
लुम् 36778
सन@@ 36776
मैय@@ 36762
समावेश 36755
सानूੰ 36745
समस्य@@ 36739
परिचित 36732
वाक 36730
प्रत्ये@@ 36726
जु 36725
नवा@@ 36724
र्स 36705
दिय़ेछे 36704
हरियाणा 36699
उससे 36698
अवरिगॆ 36690
इति@@ 36686
थाकबे 36678
पहुंच 36678
त्तारॆ 36676
कटि@@ 36673
कार्या@@ 36640
आरो 36639
त्तॆ@@ 36636
बनाए 36625
आन@@ 36622
अदन्नु 36622
ऴि@@ 36622
राजनीतिक 36613
कोटति 36595
स्ऱ्ऱ@@ 36574
तुम् 36560
न्य@@ 36559
प्रभाव 36559
किऱार् 36532
न्तार् 36525
टर@@ 36498
टुं 36494
वॉ@@ 36492
सूची 36487
लगता 36471
जाति 36456
दूसरी 36453
छात्र 36436
ळा 36435
ीआं 36424
संस्कृति 36421
ৰ्@@ 36407
ग़@@ 36407
गति 36406
जाण@@ 36399
तुले 36398
गिय़े 36382
दै@@ 36360
यिनि 36356
ताओं 36356
जन्ये 36342
गिय़ेछे 36337
लाने 36324
14@@ 36316
वाट@@ 36299
राय@@ 36296
वक्त 36290
ऎल्ला@@ 36280
रह 36269
निरवधि 36259
संभव@@ 36241
याते 36237
मरो 36229
साध@@ 36192
हय़ेछेन 36187
बांलादेशेर 36176
अनुभव 36172
वत 36168
ऴ्@@ 36164
११ 36155
सामे 36154
महिलाओं 36130
ंवर 36091
संशोधन 36080
कॊण्ट् 36074
सुख@@ 36066
ड्र@@ 36057
चॆय्त 36054
गौ@@ 36049
कोट@@ 36040
एच@@ 36027
सुप्रीम 36017
शिकायत 36014
तमाम 36007
केसु 36002
ऎंब 35986
28 35972
पेर 35924
सिं 35914
उठा@@ 35906
बता@@ 35902
जणा@@ 35901
ट्टै 35877
तरा@@ 35869
बास 35851
स्थि@@ 35850
खाद्य 35848
्पा@@ 35839
मुൻ 35815
न्नति@@ 35812
जण 35764
मॊत्तं 35732
35 35720
ृ@@ 35717
| 35690
मट@@ 35675
ह्@@ 35663
प्पिल् 35660
तुम्ही 35635
च्चि 35631
तऱ्पोतु 35619
आव्या 35606
सम्भब 35578
गिर@@ 35578
तलैवर् 35577
त्तुक्कु 35574
करछेन 35568
त्तदॆ 35564
राजधानी 35550
चुकी 35516
पह@@ 35501
विज@@ 35494
ङ्कळुक्कु 35489
ंगी 35483
निऩै@@ 35476
कराया 35472
वाग@@ 35467
ऎऩ्प@@ 35462
सौथी 35459
अवरतु 35453
वेण्टि 35449
१४ 35442
इविटॆ 35439
ड़ी 35428
पॆय@@ 35427
सलाह 35421
फाइ@@ 35418
मोटि 35405
षൻ 35399
समयं 35383
त्तिय 35381
प्त@@ 35378
आरंभि@@ 35374
िय़ान 35371
चला 35361
निज 35359
इल 35357
ट्स् 35354
लॆ 35340
दर्श@@ 35313
26 35311
म्पि@@ 35304
30@@ 35287
आनंद 35287
सेव@@ 35287
दास 35275
मानसिक 35274
वाह@@ 35273
बन्धु@@ 35272
ੰग 35256
रिल् 35255
ठि@@ 35254
अन्नि 35238
तऩतु 35221
एऩ् 35217
निर्मि@@ 35196
लेख@@ 35180
चाहता 35178
लॉ@@ 35175
वच्चु 35175
णॆन्न् 35148
मरु@@ 35140
स्थापन 35106
बृ@@ 35100
धि 35097
एर@@ 35091
य़ार 35079
ड़ि 35073
्ला@@ 35066
ंदु@@ 35058
फ्रे@@ 35041
गड़े 35026
पन 35018
गये 35012
बाइबल 35010
लगे 35006
जनरल 34998
ंचाडु 34997
किसान 34996
छेः 34994
मगर 34988
बंगाल 34979
आसे 34973
रण्टु 34962
स्थानीय 34954
ൻस् 34939
ॆयि@@ 34929
हू@@ 34928
ल्ले 34921
प्प 34910
किछुइ 34910
अतिल् 34905
प्रकारं 34881
सर्व@@ 34869
क्री@@ 34862
छुं 34860
हॊस 34845
तोंदि 34841
प्ले@@ 34839
लिदॆ 34836
करोना 34835
वही 34830
त्ताऩ् 34807
करिथिले 34806
नल@@ 34794
किऱेऩ् 34780
यर 34767
दिय़ेछेन 34751
विदेशी 34744
मना@@ 34736
हरा@@ 34725
ंगा@@ 34723
हालत 34720
देओय़ार 34710
ड़ी 34678
ंचडं 34677
तिट्ट@@ 34675
90 34657
समां 34647
नल्ल@@ 34644
निर्बाचन 34637
थशे 34623
31 34619
फिलहाल 34593
व्यवस्थ@@ 34585
जन्@@ 34584
ङ्ङळॆ 34580
ॆयु 34575
मात्र@@ 34570
त्यानंतर 34563
क्किय 34555
श्रमि@@ 34548
विळ@@ 34530
वें 34523
पल्वेऱु 34517
ण्यासाठी 34505
्लु 34494
ऩम् 34494
क्कप्पट्टतु 34493
वाई 34422
क्ला@@ 34397
ङ्कळिऩ् 34389
पर्यंत 34377
इवर् 34373
मुटियातु 34363
घो@@ 34353
ण्याची 34353
इदन्नु 34348
शास्त्र@@ 34345
पोलॆ 34337
चलते 34336
पूर@@ 34324
मति@@ 34316
क्सि@@ 34314
संस्थ@@ 34285
करू 34283
बॉलीवुड 34282
स्ट्र@@ 34279
आद@@ 34275
गाने 34257
उन्नारु 34250
दिले 34246
वच@@ 34244
धू@@ 34243
ळ्@@ 34233
अटुत्त 34221
सीट 34216
अवु@@ 34205
सहि@@ 34202
केरळ 34196
ण्यात 34191
शेयर 34189
प्पतु 34182
वऴि 34171
महान 34167
ञ@@ 34165
कदेर 34163
मात@@ 34140
विशेष@@ 34123
मल्ल 34121
किऱार्कळ् 34097
टिक 34093
2014 34083
बलि@@ 34082
कीमत 34057
अगले 34053
सभा@@ 34047
अदे 34041
अना@@ 34020
टू@@ 34020
ङ्कळ@@ 34020
सफ@@ 34015
सुर@@ 34015
त्यारे 34008
अने@@ 33986
थइ 33957
तेचिय 33956
आർ@@ 33930
अमित् 33919
परिबार 33909
अफ@@ 33891
सर्कार 33874
इतै 33873
शक@@ 33869
त्याच्या 33864
कोट्लु 33852
साफ 33824
काले 33823
सरि@@ 33818
मंचि 33813
पूर्वी 33801
सद@@ 33794
डानिकि 33793
फोटो@@ 33786
किंवा 33778
समु@@ 33777
यिहोबा 33771
बादी 33748
कम्प@@ 33746
तेमना 33729
मिले 33725
P 33717
नमोदु 33717
300 33692
ण्ट 33671
जना@@ 33668
जारि 33661
तल 33658
प्रवർत्ति@@ 33655
इद@@ 33653
ऎन्नि@@ 33648
आफ् 33647
बातचीत 33646
निर्दिष्ट 33632
मून्न् 33630
U@@ 33616
प्रस्ताव 33611
तुल@@ 33596
होइ@@ 33596
वरुं 33589
तृ@@ 33583
सबाइ 33551
राय 33551
मनं 33550
क्कविल्लै 33538
येत 33537
ंडि@@ 33527
क्षण 33511
शक्त@@ 33507
रिऩ् 33502
क्लि@@ 33488
संजय 33476
भाइ 33471
ੰदर 33456
वल 33455
नटत्ति 33433
रहिछि 33428
स्वी@@ 33423
हाई 33406
साक्ष@@ 33402
आय 33402
तुलु 33391
न्नू 33387
ऎल् 33364
नेतृत्व 33352
ञ्ञ@@ 33344
यात 33343
पोस्ट@@ 33335
ठी 33327
तिक 33323
शीर्ष 33318
संस्था@@ 33311
भिडिओ 33310
नम्म@@ 33291
अपील 33290
पोऩ्ऱ 33288
तेज 33285
ञ्@@ 33283
काजे 33277
पहचान 33268
निंद 33268
पद्धति 33248
बाल 33235
किट@@ 33232
मर 33227
प्पोൾ 33221
कभाबे 33211
ऱिൽ 33209
25@@ 33204
निजी 33194
विधि@@ 33182
नन 33174
पीछे 33155
आपणा 33151
छन्ति 33139
ट्च@@ 33128
त्तिलाण् 33127
ग्रेफतार 33124
सम्पर्क 33117
अऱियिच्चु 33117
h 33103
दौ@@ 33092
अध्ययन 33081
रॆड्डि 33077
ङ्ङळुटॆ 33077
त्रा@@ 33066
क्टर 33060
ऐतिहासिक 33052
स्वयं 33051
न्यायालय 33041
घोषित 33040
कुं 33039
केल 33037
रंग 33034
प्पट्टु 33027
दरकार 33012
ळॆ 33012
ग्री@@ 32992
मार्ग@@ 32984
सक्षम 32979
परीक्ष@@ 32972
सेन 32954
हीन 32942
न्नॆ@@ 32934
राखा 32932
केइ 32931
गिन 32925
पडु@@ 32915
अपराध 32903
तीसुकु@@ 32902
निलैयिल् 32892
करो@@ 32886
परियोजना 32886
ईमान 32883
2015 32866
असर 32864
माझे 32859
त्तुक् 32844
सർ@@ 32837
काणु@@ 32827
स्पष्ट@@ 32826
थेकेइ 32809
अक@@ 32791
ैत् 32790
मुख 32788
मळी 32768
ज़ि@@ 32763
आव्यो 32756
चॆल@@ 32736
मणि@@ 32734
चाइ@@ 32731
दावा 32729
दश@@ 32726
सेना@@ 32725
खाली 32717
कह 32710
हेळिदरु 32709
नालु 32707
प्ल@@ 32696
आध्यात्मिक 32694
चिकित्सा 32690
नीर् 32685
द्या@@ 32673
ट्रेन 32665
75 32663
नागरि@@ 32659
ंदनि 32635
तमिऴ् 32632
बिल 32629
क्कवुम् 32628
भर्ती 32625
किये 32606
जर@@ 32591
फ़ 32587
हॊर@@ 32576
बर्तमाने 32563
निच्चयमाक 32550
अवसरं 32545
जिल्ला@@ 32540
आद्य 32538
तीർच्चयायुं 32536
बाधि@@ 32534
सम्प@@ 32526
स्थापना 32525
अवरन्नु 32520
ूर् 32517
आण@@ 32508
चरण 32499
महाराष्ट्र@@ 32493
तळ@@ 32479
खुबइ 32478
ऎऩ्पतै 32477
छोटे 32475
स्कू@@ 32454
व्यवसाय 32448
बाड़ि 32444
पटेल 32440
ऩि 32428
ऎन्ताण् 32410
फॆ@@ 32409
भविष्य 32403
कुटि@@ 32396
कुन्न 32380
7.@@ 32370
सिद्ध@@ 32368
स्थिति@@ 32367
वर्ग 32353
राजनीति 32349
छोट 32332
27 32331
बच्चे 32324
ब्रे@@ 32318
चेसि 32304
चरि@@ 32301
ण्ड@@ 32284
निहत 32276
तुम्हें 32275
पोताना 32268
ऎऩवे 32246
एलाकाय़ 32243
कौर 32243
उत्त@@ 32234
चुका 32229
बता 32222
दॊ@@ 32219
नेताओं 32188
कऴि@@ 32178
करदा 32175
तेमने 32168
ऱ्प@@ 32160
प्रवा@@ 32158
्युं 32153
सूचि@@ 32150
चेर्@@ 32145
गागि 32145
जोवा 32144
राहत 32138
चंद्र@@ 32136
इनमें 32125
ऎम् 32119
ल्ट@@ 32107
निर्धारित 32101
० 32097
मारा@@ 32089
तव@@ 32086
17@@ 32085
पोर्@@ 32076
चॆंदिन 32068
उम्मीद 32066
2,@@ 32051
ॎ@@ 32047
जेमां 32046
निൽ 32035
करनी 32027
चालु 32016
ऎप्पटि 32009
चॆप्प@@ 32000
त्तैयुम् 31999
रं@@ 31997
लपै 31990
लने 31983
शरीर 31983
ऎङ्ङनॆ 31976
प्रमाण@@ 31952
6.@@ 31951
नाय़ 31931
ic@@ 31927
बिषय़@@ 31924
प्रचार@@ 31923
थाकते 31919
ऎफ् 31915
आशुपत्रियिൽ 31878
अधीन 31869
लौ@@ 31857
कौन 31855
बढ़ 31831
नुळ्ळ 31830
घरे 31828
ऩु@@ 31816
कक् 31799
हवाई 31782
ग् 31772
इन्तप् 31766
मतदान 31758
गीत 31750
स़ामल 31723
जेल 31708
एऱ्प@@ 31700
कह्युं 31694
ऋ@@ 31690
न्द@@ 31688
मुण्टा@@ 31684
गेले 31680
ळर् 31680
निर्वहि@@ 31673
अबस्थित 31666
ताल् 31653
उठ@@ 31647
संबंधी 31646
डै@@ 31630
निङ्ङൾक्क् 31624
गण 31614
छीए 31610
पहला 31603
भारते 31593
मुद्दे 31588
टिके 31586
छात्र@@ 31580
तन्ऱॆ 31571
जरूर 31569
्रि@@ 31560
ष्टा@@ 31557
दरम्यान 31545
कोर@@ 31544
an 31518
वुमायि 31513
दित 31502
चार्@@ 31492
साह@@ 31483
बोलि 31475
पॆरिय 31466
d 31463
उनमें 31460
काङ्किरस् 31442
ण्टु 31436
गेर 31416
ंटि@@ 31410
तुंदि 31405
पॆट्ट@@ 31402
दीपिका 31398
बिजली 31388
रुं 31380
पटै@@ 31378
लिल् 31378
श्र@@ 31372
वंटि 31371
म्पु@@ 31355
es 31335
मिशन 31332
जन्म@@ 31331
शक्ति@@ 31318
ममता 31318
कॊळ्ळु@@ 31316
पाया 31315
नारी 31314
ल्लां 31290
करेगी 31265
अवरॆ 31263
पुतु@@ 31257
प्रबंधन 31255
तमा@@ 31254
पुल@@ 31254
प्री@@ 31252
न्तिरु@@ 31241
१८@@ 31239
ट्रो@@ 31234
मॊदल 31231
नाहीत 31229
चेय़े 31225
१६ 31223
विट 31218
इन्त्य@@ 31217
देशीय 31205
ज़ा@@ 31201
प्रमाणे 31201
राइ@@ 31189
विराट् 31188
दिव@@ 31180
तकवल् 31169
िलॆ@@ 31166
अल्ल@@ 31162
रोजगार 31149
पूर्ति 31135
संख्या@@ 31122
मारी 31096
सੱ@@ 31096
प्रया@@ 31085
नायक 31075
नर्@@ 31074
ीदेर 31049
कॊल्ल@@ 31048
तेमनी 31044
पऱ@@ 31044
वाहन@@ 31039
कॊण्ट 31035
याव 31028
मिकच्च 31028
लिन 31018
रह्यो 31012
किटै@@ 31010
खूप 31003
सांगितले 30992
म्हणाले 30991
हॊंदि@@ 30986
पणि@@ 30984
धार 30976
जानि 30971
शिक्षा@@ 30967
बौ@@ 30963
कारु@@ 30963
वादी 30955
रुप@@ 30946
ंदुकु 30945
छात्रों 30938
जाणकारी 30936
टां 30931
ऎन्नु 30931
इंका 30917
सना 30914
खर@@ 30907
जार@@ 30890
१३ 30886
खान् 30884
काव@@ 30880
बिल@@ 30859
लिमिटेड 30847
आश@@ 30847
बरा@@ 30842
हिंदी 30825
करण्यासाठी 30812
ङ्ङൾक्क् 30797
टाटा 30790
मरा@@ 30790
तीव्र@@ 30759
न्नायि 30759
अपेक्षा 30750
सारि 30747
ऎरडु 30747
सरकारि 30736
त्तो@@ 30734
विमान@@ 30716
पर्यटन 30715
शिक्षक 30710
द्रुत 30703
यन 30703
दाय़ित्ब 30698
ियुम् 30697
ऱ्ऱि 30688
फोर्@@ 30685
ंडा 30680
विरोधी 30677
निजेदेर 30671
तं@@ 30664
प्रजा@@ 30645
त्ता 30645
आकुम् 30631
सने 30626
प्रश्@@ 30626
ऱु 30615
प्पट्ट@@ 30606
यांना 30602
टाइ 30595
गळिंद 30585
यिरिक्कुं 30583
केस् 30576
स्टेशन 30559
तर्@@ 30553
बार्@@ 30552
थाका 30536
स्वीकार 30513
्येर 30504
अंद@@ 30503
क्यू@@ 30496
गांधी@@ 30494
अऩैत्तु 30484
रुन्नु 30483
अंश@@ 30474
माना@@ 30459
फर्@@ 30458
नൽकि 30449
32 30444
ड़े 30424
सोबत 30412
विडुदल 30410
विवाद 30405
ारेर 30397
जदों 30378
अक्ष@@ 30376
खे 30371
उभ@@ 30370
त्य 30362
पूजा 30345
इद्दरु 30330
0.@@ 30328
कूऱिऩार् 30324
धार्मिक 30319
देस़ 30315
आल्लाह 30310
भेज 30303
अच्छे 30295
इणै@@ 30294
पासे 30287
हि 30278
स्ते 30277
त्तिൻऱॆ 30274
कोट्ल 30265
सार्@@ 30252
ब्ब@@ 30250
मुटियुम् 30240
5.@@ 30234
अतऱ्कु 30228
संभवं 30222
भिन्न 30221
बेटे 30214
ठा 30209
स्को@@ 30204
खाते 30197
अशा 30192
भारतद 30190
गति@@ 30187
विश्वविद्यालय 30182
प्रभु 30180
शव 30179
माइ@@ 30164
कूऱु@@ 30144
लता 30139
जिसका 30137
त्ततु 30136
शातं 30135
सबेकु 30125
पाकिस्तान@@ 30124
नाळ् 30107
मानिल 30096
ऎण्ण@@ 30083
खर्च 30072
ॆय्@@ 30058
क्कൽ 30050
आकाश@@ 30047
न्याय 30046
ड़ा 30039
टिते 30038
त्तिर@@ 30032
ियतु 30024
साय@@ 30013
क्के 30007
तेव्हा 30004
अर 29998
विजयं 29982
यार@@ 29979
कौशल 29977
नवी@@ 29977
ऱॆ@@ 29966
पाक 29958
क्ल@@ 29934
लू 29919
फार्@@ 29908
ड़@@ 29886
नाइ 29884
कॆलवु 29882
सिर@@ 29876
माडि 29876
जरि@@ 29867
45 29855
अळ@@ 29847
कर्त@@ 29843
ङ्ङु@@ 29837
अवർक्क् 29832
व्यापक 29803
स्तारु 29799
पॆरुम् 29780
चाहीदा 29749
लेखक 29731
ॆयिंद 29714
कू 29701
वैश्विक 29698
परिस्थि@@ 29693
संदेश 29693
अमैच्चर् 29693
सल 29691
यहाँ 29688
तादेरके 29686
चन्ति@@ 29683
मिक@@ 29681
पूर्व@@ 29678
स्तुन्न 29677
8.@@ 29674
उपचार 29659
क्कळ@@ 29658
मधील 29650
कोविड् 29648
त्तिनु 29638
हय़तो 29632
कटन्त 29631
टं 29621
कीऴ् 29621
द्य@@ 29619
ध्या@@ 29617
कथा@@ 29613
कूट 29608
प्रस्ता@@ 29603
बरु@@ 29597
दिੱली 29597
वीर@@ 29590
हमारा 29566
तेन 29563
वाच@@ 29557
गांव 29556
रस 29552
प्रसाद 29547
युवा 29544
उੱ@@ 29539
आकिय 29527
बढ़ाने 29524
तेम 29520
मेऱ्@@ 29513
१७ 29503
शुल्क 29498
कवे 29498
देवा@@ 29490
सेबा 29488
एड@@ 29486
प्पटुत्त@@ 29482
तेजी 29472
माता@@ 29468
किर@@ 29464
3,@@ 29459
वर्त@@ 29458
यावेळी 29454
लेल्या 29453
ऎऩ@@ 29440
भय़ 29425
दृष्टि 29424
कोण 29418
मुत@@ 29397
नम्@@ 29390
अधिनियम 29386
गत@@ 29384
पदा@@ 29379
तुन्न 29373
ां 29369
कळैप् 29357
रॊ@@ 29344
तिय 29338
नया 29322
निൽ@@ 29322
एसब 29315
नियमि@@ 29310
पूर्ण@@ 29295
E 29289
बाइबेल 29289
विळि@@ 29282
29 29275
संख्य@@ 29268
उण@@ 29260
चॆल्@@ 29259
अभ@@ 29251
क्कुकयाण् 29250
ॆन्न् 29241
दन@@ 29237
राहुൽ 29224
य्य@@ 29220
मति 29216
बाकी 29208
ण्याचा 29207
अऴै@@ 29207
काछ 29201
शोध 29197
जेलार 29170
सिर 29166
फाइल 29159
प्रभा@@ 29159
परामर्श 29152
पद्ध@@ 29151
टिया@@ 29134
विधायक 29131
जिल्ल@@ 29128
घड@@ 29122
कट 29121
बचा@@ 29115
पोरा@@ 29110
ताना 29105
उद्यो@@ 29094
विकेट 29094
ब्रिटिश 29091
अह@@ 29052
आरोपि@@ 29050
प्रभुत्व 29041
संभवत्तिൽ 29041
फैसले 29038
सरे 29027
रवि@@ 29025
कांगरस 29025
शेष@@ 29023
इतऩ् 29023
वੱ@@ 29010
पदक 29006
निज@@ 29001
मिलने 29000
अभिनय़ 28999
k 28996
इतऱ्कु 28996
प्रती@@ 28992
लनि 28991
त्तिदॆ 28987
आधार@@ 28980
याओय़ा 28979
भावना 28973
अऱस्ऱ्ऱ् 28955
टल 28933
दरू 28919
ट्या@@ 28910
स्थल@@ 28907
अण@@ 28901
अप्प@@ 28894
बंद@@ 28894
कूटि 28883
ैच् 28865
अबश्यइ 28860
बोध@@ 28858
पेर@@ 28851
ंदी 28836
मुक्किय 28832
मास 28831
उॎ@@ 28827
न्तऩर् 28814
ताङ्क 28808
ol@@ 28798
एन्@@ 28787
नय@@ 28783
पातुकाप्पु 28782
परु@@ 28775
पाशापाशि 28774
त्तुळ्ळतु 28768
पॊऱु@@ 28754
नियुक्त 28748
सांग@@ 28733
यथा@@ 28721
st@@ 28714
दिल@@ 28710
उन्नत 28705
जनके 28701
लागत 28684
अबस्था 28679
दाम 28670
तॊट@@ 28663
पोयि 28656
बय@@ 28646
चॆय्तु@@ 28636
अरचियल् 28631
सहज 28627
भाषा@@ 28623
उनको 28619
अड@@ 28618
नें 28607
ऱुं 28607
३० 28602
ज्ञ@@ 28596
परिबर्तन 28596
प्रशंसा 28594
बैठ@@ 28587
व्यक्त@@ 28585
फर 28569
ङ्कळुम् 28564
भवन 28546
ढाका 28545
कुरितु 28542
रम@@ 28534
पटम् 28534
त्ब@@ 28533
कर्मी 28531
राशि 28526
विश्वसि@@ 28526
वाई@@ 28521
गुरुतर 28521
केवी 28521
el@@ 28517
स्थळ@@ 28505
काढ@@ 28500
पऱयुन्नु 28492
देण्यात 28491
पाव@@ 28483
मौजूदा 28479
मीद 28471
चित 28469
मुऴु@@ 28466
नंबर 28464
अभ्यास 28463
on@@ 28461
अम्म@@ 28453
भर्ति 28445
देरके 28441
किंग 28437
म्हणजे 28429
हिंदू 28423
कन 28417
धारणा 28411
कखनओ 28403
डॉलर 28395
प्राकृतिक 28388
50@@ 28379
जोके 28376
न्त् 28375
केरळ@@ 28374
कनिपि@@ 28350
स्तोंदि 28344
इतुवरॆ 28336
समीक्षा 28335
विद्या@@ 28322
रच@@ 28315
ज़ा 28315
्यू@@ 28293
ing 28279
वऴङ्क@@ 28279
पूर्@@ 28270
करब 28269
लट्चम् 28268
अग@@ 28263
चिकित्स 28260
चक्र@@ 28259
फिल्@@ 28254
मेन्ट 28252
बेटी 28242
निऱुवऩ@@ 28239
पिऱकु 28236
बलि 28223
क्का 28214
वारी 28212
ंदे 28200
ल्लु@@ 28199
किताब 28198
नायक@@ 28192
कॊडु@@ 28183
इदरिंद 28183
मऱ@@ 28178
ऱिप्पोർट्ट् 28177
राजनाथ 28171
अबश्य 28167
१८ 28163
प्पटुकिऱतु 28159
कॊळ्ळ 28156
वित्तीय 28153
टर् 28150
न्ता@@ 28148
कोण@@ 28144
करी@@ 28130
थया 28130
धीरे 28127
कमि@@ 28119
सीबीआई 28115
फू@@ 28107
निष्@@ 28099
प्त 28097
नीरु 28095
केंद्र@@ 28092
बिक 28087
देण 28085
दिला 28084
बदला@@ 28081
कळैक् 28075
इलाके 28074
am@@ 28071
आदमी 28070
प्रकार@@ 28069
मतलब 28045
आवशे 28014
परिवर्तन 28014
त्व 28009
कुटुंब 28007
कर्ता 27999
199@@ 27994
पक्षा@@ 27989
भाव 27983
हेळु@@ 27971
लੱ@@ 27969
फीसदी 27964
भाषण 27961
पिऱ@@ 27955
र्या@@ 27954
मऱ्ऱॊरु 27940
प्पुडु 27940
सनी 27922
प्पॆटु@@ 27922
न्नाडु 27921
रिक्कुन्नु 27911
सरा@@ 27908
न्स@@ 27897
डन 27894
ंचे@@ 27894
उद्घाटन 27887
कार्यालय 27885
क्षि@@ 27884
ऎऩ्ऩ@@ 27874
इतिൽ 27870
ङ्कर 27859
नये 27859
क्कप्पट्टुळ्ळतु 27856
स्थिर 27837
इरुप्प@@ 27830
इव्@@ 27829
प्रकटि@@ 27826
ल्स् 27823
समझ 27816
मदत 27807
च्चे@@ 27800
कलेज 27800
सदस्यों 27798
किऩ्ऱऩ 27798
षे@@ 27797
तङ्कळ् 27785
धारा@@ 27784
केट 27780
ंडा@@ 27779
ताप@@ 27765
सध्या 27764
प्पिच्चु 27763
घर@@ 27758
शं@@ 27754
किय 27754
इनकार 27740
आरम्भ 27735
कयायिरुन्नु 27732
गठित 27730
चरित्र@@ 27729
अंतर्राष्ट्रीय 27729
फि 27726
प्रार्थ@@ 27726
गृह@@ 27721
शै@@ 27706
आसि@@ 27700
चलच्चित्र 27690
अन्य@@ 27688
फिल्म@@ 27680
घटे 27676
करायाइछि 27674
िय़े@@ 27671
झो@@ 27670
ऎऩ्ऱ@@ 27667
एसे 27665
जरिगिंदि 27661
माध्यम@@ 27660
कण्@@ 27658
कस 27655
विट्टतु 27643
माർ@@ 27642
अभिवृद्धि 27623
सुं 27622
पऴ@@ 27618
्रे@@ 27611
ऩा् 27607
कप 27604
वेष@@ 27604
प्रियंका 27601
श्य@@ 27594
m 27588
ऎन्नॆ 27582
R 27564
संबोधित 27563
व्या 27558
विधि 27558
तें 27554
मुला@@ 27531
पठि@@ 27529
वेल 27524
हेळिद्दारॆ 27523
नटत्तु@@ 27521
राज्यपाल 27520
समाचारं 27520
कय़ेक 27486
मद@@ 27486
करतो 27484
महे@@ 27475
लक्षल 27469
अनिल 27465
फेर 27463
जार्@@ 27461
जून 27460
हवे 27453
अनुरोध 27448
पात@@ 27438
दिखा@@ 27434
शरू 27434
अवनु 27431
ध्य@@ 27430
होणार 27426
ा् 27411
सीमा@@ 27408
हम@@ 27395
धरा 27392
उम्मीदवार 27387
चॊल्ल@@ 27386
मुंबै 27385
टका 27383
अतिक 27350
चिन्ता 27345
स्टी@@ 27344
तन्नॆयाण् 27341
ंचडानिकि 27339
अनेक@@ 27338
क्ट 27324
इला 27320
रहते 27318
en@@ 27306
वातावरण 27302
ऩुम् 27300
मैनूੰ 27289
पदक्षेप 27283
ऩ्प@@ 27277
प्रिय@@ 27276
कालीन 27266
कुट्टि@@ 27265
क्कागि 27255
सॊ@@ 27251
तिळि@@ 27250
बੰ@@ 27245
ंचि@@ 27238
येथे 27234
क्कुत् 27226
लग@@ 27222
साडे 27220
# 27219
मती 27217
बाँ@@ 27197
सन् 27197
कड@@ 27196
पाप@@ 27195
फ्या@@ 27195
दॆ@@ 27188
हमला 27187
निया@@ 27185
इल्लि 27173
याचिका 27162
तेथी 27162
समाज@@ 27159
ारनि 27158
स्बास्थ्य 27151
मों 27150
उयर्@@ 27130
मृत्यू 27112
लन 27103
अफ 27102
आपल्याला 27101
स़ि@@ 27093
जरिए 27053
कऩ@@ 27052
५० 27046
रहे@@ 27045
क्षा@@ 27036
हत@@ 27027
कल्@@ 27026
पुस्तक 27023
अੱ@@ 27023
मनस्@@ 27011
विर@@ 27004
त्याचा 27003
ुल 26998
स्वतंत्र 26996
ट्टिल् 26992
मॉ@@ 26991
लक्ष्य@@ 26986
संभव 26986
किलोमीटर 26963
शिशु@@ 26959
ीय 26959
कुऱित्त 26949
रोक 26930
पवित्र 26930
पणे 26921
वंतॆ 26920
कळे 26914
अनि@@ 26910
सुमारु 26909
क्रे@@ 26905
उळ्ळऩ 26877
आलोच@@ 26871
तिरु 26869
राव 26866
ज्ञान@@ 26862
करणे 26852
फिलि@@ 26848
बाइ@@ 26843
अनुयाय़ी 26841
ष्य@@ 26819
पक्षॆ 26816
बछरेर 26808
ियुळ्ळतु 26806
विल्ल@@ 26798
नष्ट 26794
थयो 26792
केरल 26784
क्रो@@ 26780
नक@@ 26774
यांची 26767
नटु@@ 26763
पिता@@ 26759
करीने 26750
सोनिया 26742
निभा@@ 26736
केसिൽ 26732
शास्त्र 26719
पुलीस 26715
नेशनल 26714
एकमात्र 26711
al 26704
एके 26700
दीप 26700
ंतर 26697
कुमाർ 26681
स्या@@ 26679
कहीं 26679
निति 26675
अवरुक्कु 26673
ॎ 26666
कोथाय़ 26656
तमारा 26645
अत्यन्त 26639
ळ्ळि 26639
शू@@ 26632
श्रेष्ठ 26624
भाब@@ 26622
गान्धि 26619
इन्नू 26608
आटक 26596
निर्ण@@ 26596
इदक्कॆ 26595
हसपताल 26585
ट्टिरु@@ 26584
नाथ@@ 26581
केजरीवाल 26579
ण्ड 26576
मुळ्ळ@@ 26573
पाकिस्तानेर 26566
शाल 26562
स्वागत 26560
कॆलस 26560
स्पि@@ 26537
सक्रिय 26534
वानो 26526
स्तान 26525
आർ 26508
प्रगति 26503
्यात 26500
एखनो 26499
१९८@@ 26490
मुकाबले 26483
ङ्ग@@ 26480
हुੰदा 26479
D 26468
उइ@@ 26462
अरि@@ 26456
इव@@ 26455
सिन्ऱॆ 26455
ंद्र 26452
ऩ्ऱ@@ 26449
अम्@@ 26443
वेलै@@ 26439
ङ्ङि 26433
ठाकरे 26422
विल्ल 26422
िलूटॆ 26410
अन्नु 26407
भरोसा 26404
अंतरराष्ट्रीय 26402
अनुसंधान 26399
क्कप्पटुम् 26396
जानिय़ेछे 26385
T 26378
,@@ 26368
इळ@@ 26364
& 26363
उद@@ 26343
वेऱु 26330
पथे 26328
स्टार् 26325
ऊपर 26324
अनुमान 26321
तेबे 26320
ऩिऩ् 26315
दृश्य@@ 26313
तीत 26313
विस्तार 26307
इൻ@@ 26307
कराने 26303
अन्न@@ 26292
ङ्ङൾ@@ 26289
शि 26286
स्य@@ 26284
लेखा 26284
रखते 26283
बढ़ावा 26277
नेताव् 26276
लाक 26271
आरोपी@@ 26254
रिय 26245
पॆद्द 26243
मुर@@ 26236
9.@@ 26231
नीड@@ 26228
बिश्बेर 26225
कुन्नु 26224
क्किऱार् 26218
ऎൻ@@ 26217
l 26208
यार् 26203
यिरि@@ 26200
चिऱु@@ 26200
सप्ताह 26198
गन 26197
मुൻ@@ 26195
कर्मचारी 26193
अवर्कळुक्कु 26190
पॊरु@@ 26185
त्तिलुं 26185
सामग्री 26182
पड़@@ 26169
तरुवात 26165
ऋण 26159
जाना@@ 26154
बाबत 26152
विक@@ 26143
दोष@@ 26134
ऎंदुकु 26132
पीठ 26131
तानु 26117
स्री 26113
आत@@ 26111
प्पट्टुळ्ळतु 26106
त्तुव@@ 26100
वीण्टुं 26099
लिखित 26095
बदलाव 26088
वकैयिल् 26087
गुण 26081
मन्त्र@@ 26080
वार्@@ 26073
सिंग 26069
बुझते 26063
वायरस 26062
क्कुक् 26059
एर्@@ 26050
राम् 26049
ऎनि@@ 26048
हिंसा 26018
बेहद 26009
कयाण् 26009
ऩ्ऩ@@ 26006
वॆऱ्ऱि 26000
परिगणि@@ 25994
पऱञ्ञ@@ 25994
मक्कळ@@ 25990
इंदुलो 25989
डोनाल्ड 25986
प्रेसिडेन्ट 25985
भेजा 25982
+ 25981
J@@ 25974
षण@@ 25974
तॆलिसिंदे 25973
औद्योगिक 25967
वायु 25966
ंपु 25963
क्कुकयायिरुन्नु 25956
निवे@@ 25953
ङ्ङि@@ 25947
देखने 25943
संप@@ 25943
चेरु@@ 25939
जांदा 25938
खिलाड़ी 25935
वानुं 25932
प्ट@@ 25931
198@@ 25924
संभावना 25922
is@@ 25893
झु@@ 25890
अधिकांश 25874
किऩ्ऱऩर् 25871
टीवी 25867
लय 25865
रय़ेछेन 25860
समर्थ@@ 25834
नाटु@@ 25833
परीक्षण 25832
कीय 25828
मोहम्मद 25825
मूऩ्ऱु 25825
पातुका@@ 25817
कान 25814
बੱ@@ 25811
करिछि 25804
हार्@@ 25800
गां@@ 25796
षि 25789
ारु@@ 25786
कय़ेकटि 25780
घणा 25763
आरोपियों 25762
अङ्कु 25760
नुसार 25758
तऩ@@ 25756
क्कलाम् 25754
्लि@@ 25752
धित 25749
ञा@@ 25746
दरमियान 25745
विधान 25742
नज़र 25741
तॆर@@ 25738
ख़िलाफ़ 25737
तरि@@ 25730
ियुळ्ळ 25729
षो@@ 25722
अमरीका 25703
रल्लि 25701
धर्@@ 25699
अरब 25699
यामुळे 25699
यी@@ 25698
निर्भर 25697
ब्यांक् 25697
हारा@@ 25689
पुन@@ 25680
सुतरां 25678
असते 25675
बाबु 25662
योगी 25661
असेल 25654
वरून 25648
कൾ@@ 25648
अटक 25645
निर्मित 25639
णे@@ 25638
शासित 25636
स्थाप@@ 25635
युळ्ळ 25626
कूऱ@@ 25626
ऱे@@ 25625
ऎति@@ 25624
ंपै 25622
विधान@@ 25616
प्पॆट्टु 25613
गं@@ 25610
शपथ 25601
सॆक्रट्टऱि 25592
़्या@@ 25591
खो 25589
ट्लु 25587
याओय़ार 25586
न्यू 25586
अवर्@@ 25584
प्रसिद्ध 25566
दृष्टि@@ 25565
नन्न 25565
तॆलुगु 25561
अतिൽ 25554
काळ@@ 25551
लिख@@ 25550
कागा 25545
चिंता 25544
कोल 25542
नाइ@@ 25533
तय 25529
उरु@@ 25528
अप्पोतु 25528
कृष्ण@@ 25527
अवरै 25526
150 25522
आरा@@ 25512
योगा@@ 25507
बदले 25506
वायरल 25506
ईश्बर 25503
मॆंट् 25499
केबल 25494
un@@ 25493
आना 25489
बराबर 25488
होईल 25482
त्यात 25479
पुत्र@@ 25468
खेला 25464
विट्टु@@ 25463
कालं 25461
समस्या@@ 25457
पोयिंदि 25457
वों 25455
अवकाश@@ 25452
लेख 25437
विल 25437
शिल्प 25422
ऱै@@ 25408
००० 25407
वास@@ 25404
देय़ा 25399
ৱ@@ 25389
विश्वास@@ 25382
जेर 25379
il@@ 25377
ल्कळ् 25373
ऎൻऱॆ 25371
चॊल्@@ 25364
महिला@@ 25363
बिश्ब@@ 25353
निदेशक 25352
अंगे 25348
पलि@@ 25335
तੱक 25333
पतिवु 25325
वल्ल@@ 25322
पाय@@ 25317
घटन 25316
चीज़ 25316
नवीन 25313
अमॆरिक्क 25311
ग्रि@@ 25297
मिलेगा 25292
ज्ञ 25287
धरती 25284
ৰा@@ 25280
उयिरिऴ@@ 25276
नाथ् 25272
ed 25271
लना 25269
नात 25266
j@@ 25261
त्यां 25259
कोच 25252
गं 25252
सहायक 25251
आगु@@ 25242
तमिऴ@@ 25235
400 25232
केओ 25231
पाई 25231
संस्थान@@ 25228
ऑस्ट्रेलिया 25219
र्त्त@@ 25214
शादी 25210
सेल 25207
कॊनि 25186
ङ्ङळाण् 25185
हॉ@@ 25177
संगति 25176
बच्चन 25168
शुरुआत 25167
म्पा@@ 25166
दानि 25150
ीने 25149
जैसी 25147
डेटा 25139
गुलिते 25134
चॆय्या@@ 25127
जैसा 25123
षण 25121
त्तवॆ 25119
नके 25115
निन 25112
साहित्य 25110
फ्रा@@ 25108
ियम् 25107
नेन 25104
वाल् 25104
वरील 25097
निका@@ 25095
ट्चि 25095
हृदय@@ 25093
सुप्रीं 25088
वम् 25074
माजि 25073
ताय़ 25070
इलावा 25068
मग 25059
भग@@ 25055
उद्य@@ 25037
जवान 25032
ण्टो 25030
वऩ@@ 25030
शेख 25029
नॆय 25029
पिरा@@ 25020
पर्यावरण 25018
ऎन्त@@ 25012
वेण्ट@@ 25002
होइछि 24993
तप्पि@@ 24991
कळुक्कुम् 24990
प्रेक्ष@@ 24988
वॆटि@@ 24985
खराब 24984
चोदि@@ 24983
काश्मीर 24971
अवि@@ 24963
कर्या 24963
इतुवरै 24962
यॆहोवा 24960
घटा@@ 24948
बाब@@ 24943
कळाक 24940
बळिक 24938
दॊड्ड 24929
पाकिसतान 24902
लागे 24896
हृद@@ 24895
पारा@@ 24895
शारीरिक 24890
अर्थव्यवस्था 24886
ऩिल् 24880
सेन्@@ 24876
ढ़@@ 24874
तला 24874
ऱ्ऱा@@ 24874
उसमें 24872
गरम 24856
कौणसि 24854
अदर 24850
चॆय्युं 24848
मुतൽ 24846
ेइ 24839
जीव 24837
मेल@@ 24826
खाने 24825
माडलु 24818
पाकिस्तानी 24808
मानि@@ 24802
इनि 24802
भुगतान 24802
क्कं 24793
बाळ@@ 24790
वरिगॆ 24781
निल 24780
मात्रा 24775
ंश 24774
शिल्प@@ 24772
पेय़े 24767
कुटुम्प@@ 24758
किछि 24753
@ 24748
करशे 24746
सफलता 24745
बीर 24745
कल्प@@ 24743
ur@@ 24736
ीरा 24728
भोजन 24722
पाय़ 24717
शिशु 24716
सङ्@@ 24713
ऒव्वॊरु 24699
हाज़र 24697
छोड़ 24692
ൺ@@ 24691
अऩुमति@@ 24689
मऱ्ऱ् 24688
पनि 24672
स्ऱ्ऱ् 24669
वारिकि 24667
विൽ 24666
लिक 24665
बावजूद 24665
सिटी 24662
कੰ@@ 24659
एसेछे 24647
ट्ल@@ 24643
अतिकरि@@ 24642
दाखलि@@ 24640
मुक्ति 24637
जाएंगे 24635
प्रतिनिधि 24631
घ 24629
मीण्टुम् 24627
वेल@@ 24626
ऎन्नी 24615
मन्@@ 24605
मेल 24585
कोवि@@ 24573
संसारि@@ 24567
पाकिस्ता@@ 24563
स्थानिक 24560
एंड 24556
छेले 24549
पेट्रोल 24549
विति@@ 24539
तंड@@ 24531
सेरि@@ 24519
काश्मीर@@ 24516
जिनमें 24490
पारटी 24482
ळै 24482
फरार 24475
इन्तियाविल् 24474
पवार 24466
समुद्र@@ 24465
राखते 24464
पोलि@@ 24461
पੱ@@ 24457
जमा@@ 24445
आग्रह 24443
निर 24438
पॆट्रोल् 24426
फायदा 24412
भुल 24408
जनरु 24405
सचि@@ 24404
दिखाई 24403
झि@@ 24402
ंटा@@ 24398
भार्य 24397
p 24391
असलेल्या 24386
इक्कड 24385
कालि@@ 24383
यारु 24382
२५ 24381
मुख्यमन्त्री 24377
संघा@@ 24372
न्ऱ@@ 24366
होकर 24362
तुऱै 24361
ion 24360
निरापत्ता 24357
प्पॆट्ट 24356
पानि 24355
बाइरे 24354
क्कुळ् 24354
किन 24351
हलेन 24343
कय@@ 24339
अवरुटैय 24339
समूह@@ 24328
छेड़े 24327
रहेगा 24324
सिनिमालो 24323
पार्टी@@ 24316
शं 24315
सीएम 24311
आरो@@ 24305
इव्वाऱु 24292
शानदार 24291
अंटे 24282
हॆच्चिन 24280
सान 24279
एगिय़े 24278
पटि 24273
एत 24268
बिजॆप@@ 24261
प्पॆट्ट@@ 24251
अविटॆ 24245
कुऴु@@ 24240
पोयि@@ 24233
पाक् 24231
वैरस् 24225
द्देनॆ 24223
ऒन्नुं 24223
न्ने 24217
समाप्त 24213
प्रण@@ 24195
मुन्न@@ 24195
प्रेम@@ 24190
बधाई 24189
कही 24177
द्रा@@ 24175
हिं@@ 24172
अटु@@ 24153
रक्त 24145
सुत्ति@@ 24144
सिद्दरु 24143
मध्य़रे 24143
क्कै 24142
फी 24139
कत्त@@ 24139
हेतु 24135
मूडु 24134
वेळ 24125
भाइ@@ 24122
मुँ 24118
्पु@@ 24117
अक्क@@ 24112
ङ्कुम् 24110
भव@@ 24109
काजेर 24097
कान@@ 24096
प्रतिक्रिया 24092
बह@@ 24090
सहोदर@@ 24085
राव@@ 24081
संविधान 24078
अऴि@@ 24073
रओ 24069
नൽकु@@ 24066
टैय 24060
हेब 24058
परिवहन 24058
कंपनियों 24057
दुर्घटना 24055
स्थाने 24052
लगाने 24045
चिन 24036
सल्लि@@ 24032
गठबंधन 24026
जापान 24023
आत्महत्या 24008
सिंदि 24008
रिक 23992
युब@@ 23989
मळशे 23984
ङ्कि 23981
मैया@@ 23981
ळ्ळत् 23979
तमने 23977
दों 23976
आৰु 23975
शास@@ 23962
शुद्ध 23959
ंग्@@ 23954
अबस्थाय़ 23953
समुदाय 23942
नन्नु 23935
पारबे 23932
२१ 23931
विचारि@@ 23929
मोडी 23927
ट्रंप 23924
योगायोग 23923
सत्ता 23922
व्यक्तिगत 23921
ॆगळु 23918
गैर 23915
ज़ी 23912
काँ@@ 23909
वधारे 23905
इन्त्ययुटॆ 23905
अलागे 23897
नाट@@ 23895
टों 23888
क्कप्पट्टु 23887
नने 23885
बास@@ 23873
फोन् 23869
ऎलांटि 23861
कार् 23857
वू@@ 23857
न्द 23854
उपयोग@@ 23853
बंने 23848
ंद्र@@ 23843
सतत 23840
जावेगा 23832
ग्राह@@ 23829
मोड@@ 23828
त्तल् 23828
ियु 23825
ri@@ 23821
अग्र@@ 23820
आँ@@ 23818
बारिश 23804
सेरा 23800
नीय 23797
ऩ्च@@ 23797
मॊद@@ 23795
डिग्री 23794
त्याची 23783
ra@@ 23776
समय़ेर 23771
शान्ति 23764
न्द्र@@ 23761
वुकळ् 23759
संख्य 23758
पेरु@@ 23757
गलत 23755
राह 23748
सैनिक 23742
आदि@@ 23741
२४ 23739
गैस 23734
वकु@@ 23726
आवेदन 23723
प्पा 23721
पं 23713
चेस्तुन्नारु 23712
रहमान 23709
्त्त@@ 23702
गुत्तदॆ 23686
विष@@ 23685
मृत्युर 23684
मांग@@ 23682
ट्रंप् 23682
इमरान 23661
कहिछन्ति 23659
हैदराबाद् 23657
नमगॆ 23649
स्ति@@ 23644
दिल्लि 23641
गिरुव 23638
मिलेगी 23637
राओ 23635
मूसा 23635
जीबी 23632
कमेटी 23627
सीटों 23626
44 23624
स्थल 23620
वद@@ 23620
मं 23617
गिद्दु 23608
बाहिनी 23600
वचन 23593
आपवामां 23592
समुद्र 23587
सदी 23587
ro@@ 23580
ारो@@ 23578
जिन्होंने 23576
ल्ड 23572
बद्दल 23568
मिल्ल@@ 23567
M 23563
क्कै@@ 23561
मुंदु 23560
वार्कळ् 23555
जों 23546
विवरि@@ 23540
त्यांची 23527
विश्वा@@ 23522
खेती 23515
पती 23514
वर्षों 23508
मते 23503
कॅ@@ 23503
ग्या@@ 23501
इल्ला@@ 23497
ऊ 23493
संग्रह 23492
स़ी 23491
डॉ@@ 23488
इदर 23486
शत@@ 23483
विवा@@ 23478
श्या@@ 23477
कारु 23468
ंडी 23465
बललेन 23458
आंध्र 23450
पाने 23449
मृत्यु@@ 23448
नेरि@@ 23446
घरेलू 23443
दिने 23441
द्देवॆ 23437
१९७@@ 23436
भरण@@ 23428
कप@@ 23425
हैदराबाद 23418
रोहित् 23416
सीबी@@ 23414
हाज@@ 23408
इप्पटिके 23407
मट्टुमे 23404
क्शन 23397
िरु@@ 23385
कके 23379
तॆरिवित्तार् 23378
चन्द्र@@ 23373
चमूक 23372
शारु 23359
टार्@@ 23357
अनुष्ठित 23353
विन 23343
रास्ता 23328
अक्षय 23319
33 23316
L 23312
ർत्थ@@ 23310
मरिच्चु 23309
कार्यं 23301
लगी 23300
नटत्तिय 23297
अणि@@ 23294
उर्@@ 23290
ियिरुन्नु 23289
n 23271
अमिताभ 23271
लिंग 23270
बाड़िते 23264
त्वं 23260
दर्शन 23257
आव्युं 23255
मानिल@@ 23250
कऴिञ्ञ 23249
पाँच 23245
अन्तर्गत 23243
लेइ 23235
ऒरे 23233
जिसने 23226
चित्रपटा@@ 23225
मीटर 23224
तॊटर्पाक 23218
विशिष्ट 23216
कठोर 23214
ङ्ग 23212
इन्तियाविऩ् 23208
संबंधिंचिन 23205
तॆरि@@ 23202
पुढे 23200
त्रण 23182
वाणिज्य 23180
चिऱ@@ 23180
रीति 23179
आण्टु 23176
वड@@ 23174
नेते 23169
ंदर 23160
फार 23153
खुशी 23153
निधन 23152
रान 23143
कड़ी 23143
खरी@@ 23137
मनुष्य 23136
रिंद 23133
जरु@@ 23132
पुत्त@@ 23131
सुरु 23129
प्राय@@ 23129
लर् 23128
कह@@ 23127
चाहे 23118
नामक 23114
टार@@ 23110
फक्त 23110
भविष्य@@ 23110
करणं 23109
धीन 23107
म्हण@@ 23106
षी@@ 23097
अन्यतम 23090
सत्र 23083
दूसरा 23082
घेतली 23082
चम्पवम् 23071
48 23069
तने 23067
रोड 23062
र्ड 23061
ओർ@@ 23059
3:@@ 23039
वागु@@ 23037
क्षति 23032
रख@@ 23029
चिन्ति@@ 23023
शने 23013
कार्यक्रम@@ 23011
रोजु 23010
संक्रान्त 23006
इऴ@@ 23005
नीय़ 23001
तोमाके 22996
पराति 22987
तऩि@@ 22981
उङ्कळुक्कु 22974
ष्टि@@ 22964
सत@@ 22961
अल्प@@ 22961
ओरो 22958
एइ@@ 22957
नस@@ 22950
न्नदि 22947
ज़रूरी 22947
फिर@@ 22943
क्य@@ 22940
दारी 22938
प्यार 22936
त्यांच्या@@ 22933
खान@@ 22926
वॆंटने 22918
दुआरा 22912
कले@@ 22892
पाटु@@ 22892
व्यवहार 22882
es@@ 22881
पिन्नॆ 22879
द्दा@@ 22878
अप्रैल 22876
ात 22872
तुऱै@@ 22870
पाहिजे 22856
नओ 22850
विदॆ 22849
दिवसं 22849
धरि@@ 22848
पट्टि@@ 22848
निया 22847
तारं 22844
होवेगा 22842
सकूल 22841
अतनु 22837
गोल@@ 22832
प्रत्या@@ 22830
यिसू 22830
ज़िआदा 22829
निर्देश@@ 22826
मानङ्कु 22825
परवरदिगार 22813
ताकवुम् 22812
कवि@@ 22811
सिन् 22807
कർ@@ 22804
मोट 22803
दिवस@@ 22799
थाकार 22796
रन्नु 22793
कारा 22792
लीग 22788
ऒळ@@ 22780
क्वा@@ 22777
ङ@@ 22773
ियिट्टुण्ट् 22771
करलेन 22770
भा 22762
कलन्तु 22756
यांच्या@@ 22744
बिश्ब 22743
ियन 22741
24@@ 22740
प्पुकळ् 22734
काले@@ 22730
दृश्य 22722
क्षा 22721
उणर्@@ 22721
वळर्@@ 22718
उൾ@@ 22717
गोवा 22716
लेला 22713
तिळिसिद्दारॆ 22713
पुलि@@ 22711
आळु@@ 22708
टरी 22705
नारा@@ 22693
पाड@@ 22684
मिलकर 22683
अप्पोൾ 22682
नमां 22679
370 22678
ऎऩ्@@ 22673
हेले 22671
ॆये 22671
म्य 22667
नियमित 22657
मत्तॆ 22652
शरीर@@ 22648
जिन्हें 22648
प्रवർत्त@@ 22646
ऎल्लां 22640
ओय़े@@ 22638
मॆडिक्कൽ 22638
निकट 22636
मौसम 22634
्ऱ@@ 22633
कारेर 22630
ंचुकु@@ 22629
वेग@@ 22628
पडॆ@@ 22628
समान@@ 22620
सदस्य@@ 22618
किवें 22614
ियो 22606
होतो 22605
:@@ 22589
प्रभाब 22588
तॆलि@@ 22588
त्तिल्ल 22588
प्रका@@ 22585
करवानी 22583
लोकोने 22575
त्ताल् 22570
वेलै 22569
जीबनेर 22565
समय़@@ 22562
सात@@ 22558
२२ 22557
यत् 22554
लक्षं 22551
जाति@@ 22549
ख्@@ 22547
यायि 22545
कारि 22541
प्रसिडन्ऱ् 22539
अऱियि@@ 22538
न्ते 22530
बिन 22524
अर्जन 22521
साबका 22520
ंड्@@ 22520
2:@@ 22517
न्ऱ् 22516
तॆरिवित्तुळ्ळार् 22515
धोनी 22511
ण्यास 22510
निर्देशक 22509
टक 22506
वरुटॆ 22502
वरॆगॆ 22497
ळ्ल@@ 22495
य़न 22492
सर्वोच्च 22492
कारे 22487
पर्याप्त 22484
वजों 22484
िल्लै 22484
लੰ@@ 22484
जातीय 22483
क्किल्ल 22481
ड़ि@@ 22476
ळर्कळ् 22476
बांग्लादेश 22474
ओनी 22467
फिलम 22466
साबित 22465
पॆण्@@ 22458
इन्त@@ 22452
अऱ@@ 22452
माट@@ 22447
भाषाय़ 22444
र्य@@ 22438
ण्टि 22434
ण्ण 22420
शर्@@ 22418
आसले 22413
टॆयाण् 22410
आमा@@ 22408
पुलस 22405
गुन्हा 22403
टाइ@@ 22398
ड्रा@@ 22385
तिट्टम् 22384
बजा@@ 22383
स्कुल 22381
बिचार 22380
उन्नय़न 22374
आधिकारिक 22374
पॊली@@ 22374
कुरि@@ 22372
पऱयु@@ 22364
पैसे 22361
हळ@@ 22360
मेल् 22360
मॊदटि 22360
पूർ@@ 22358
अवൾ 22355
स्थापि@@ 22354
शक्तिशाली 22347
यत 22346
ंडु@@ 22335
डिजिटल 22334
वास्तव 22329
कोल@@ 22328
निऱुवऩम् 22316
मृति 22302
निन्नु 22298
आड@@ 22296
आपनाके 22294
याचा 22294
विरोधात 22287
फेसबुक 22285
उयർ@@ 22277
कੱ@@ 22276
रोल 22269
भाजप@@ 22269
क्ट् 22263
मेमु 22262
एकटु 22259
क्किऱ@@ 22255
तेवै@@ 22252
ोटु 22249
आहार 22248
परिकल्पना 22240
पार्ट@@ 22235
यात्री 22234
आईसी@@ 22230
तुहानूੰ 22230
माहिति 22219
कृत्य@@ 22216
वन्त 22214
यिल्ल 22212
सुधार@@ 22210
निग@@ 22204
दुर@@ 22202
हर्@@ 22195
धान 22194
of 22194
तॆलंगाण 22190
जुन 22189
नटवटिक्कै 22188
पोतानी 22187
च्या@@ 22183
प्रतिनिधि@@ 22177
सुवुदु 22175
हिन्दु 22173
वारि@@ 22172
बाकि 22161
गड@@ 22155
वच्चिंदि 22155
छह 22152
कळाल् 22152
वारिनि 22132
ർक्क् 22131
पङ्कु@@ 22129
क्काण् 22124
शक 22123
अध्यक्षता 22119
इरुन्त@@ 22115
प्रारंभि@@ 22112
चान 22105
माझ्या 22101
वापर@@ 22094
मानङ्क 22093
मोटी 22077
आकार 22076
टॊ@@ 22072
पक्क@@ 22069
दरॆ 22061
कुटुंबा@@ 22061
काबू 22059
बाध@@ 22056
हिन्दु@@ 22054
तॆलु@@ 22052
बरामद 22034
सरकारने 22029
हेळ@@ 22029
नर् 22027
चिऱन्त 22023
मऱ्ऱ 22007
काळ 22002
कलिसि 21998
एऱॆ 21997
वली 21991
ताङ्कु 21985
राजि@@ 21982
समाचार 21980
काबट्टि 21972
अल्लाह् 21969
याची 21964
थयुं 21963
परिचालक 21958
पुन्हा 21957
बिमान 21949
इला@@ 21948
अंदु@@ 21947
ंटे 21946
पर्या@@ 21943
चीफ् 21933
मंत्रि@@ 21929
आत्मा 21927
सदर 21927
एबार 21926
कत्तिल् 21923
माऱु@@ 21915
स्वि@@ 21911
शोध@@ 21907
36 21906
त्तम् 21906
१९६@@ 21904
अञ्च@@ 21902
योजन@@ 21902
तुम्हाला 21902
सहाय 21900
आफ्रि@@ 21899
तुऱ@@ 21899
तरलिंचारु 21895
et@@ 21888
देह@@ 21887
पाठानो 21886
स्टर 21883
मेडिकल 21880
कथित 21878
मारुति 21878
पहुंचे 21878
पिल्ल@@ 21875
इन्न@@ 21875
तुन्नारु 21870
अंगीकरि@@ 21869
उण्ट् 21868
ऒप्पि@@ 21867
न्नुण्ट् 21867
जड़ित 21864
दिआं 21864
एमिटि 21862
सिक 21857
ॊंदिगॆ 21852
ऎल्ल 21845
इप्पोൾ 21844
हिरासत 21838
इरुक्क 21835
चॆय्तत् 21831
रित 21828
गोल 21823
ज़मीन 21822
कालु 21820
ग्रस्त 21819
आण्टु@@ 21818
सूत्र@@ 21815
एमनकि 21812
मारु@@ 21812
श्रम 21810
पत 21804
क्कप्पटु@@ 21797
वेबसाइट 21788
पोलुं 21782
काज@@ 21778
बिभाग 21776
च्@@ 21775
रक्षि@@ 21775
65 21771
इसलाम 21767
मुस्लिम 21766
ठेव@@ 21764
दय@@ 21762
ੱट 21759
प्रॊ@@ 21758
आउट 21757
मनी 21757
इन्नु 21753
तुन्नायि 21752
तुर@@ 21740
भद्र@@ 21737
आशा@@ 21733
हरा 21733
क्कण@@ 21726
रात्रि 21725
निलैय@@ 21716
तिनटि 21715
मुऩ्ऩ@@ 21715
पिऩ् 21706
केमन 21699
संविधानं 21696
4,@@ 21693
लग 21686
संघर्ष 21684
पणिया@@ 21674
तिൽ 21674
मार्च@@ 21672
एगा 21668
जीवित@@ 21665
निऱु@@ 21656
वॆळियि@@ 21653
मऱ्ऱु 21646
शनेर 21645
वला 21641
कारणमाक 21637
मत्त@@ 21634
नमुक्क् 21633
मुऩ्ऩाळ् 21631
धिकार@@ 21626
सन्तान 21625
निन्ऱॆ 21618
ष्टु 21615
प्रभु@@ 21613
रौ@@ 21613
देशं 21604
उंटायि 21600
कैय@@ 21599
तिੰन 21599
धिकार 21594
क्कुळ्ळ 21588
होक 21587
हण 21582
निराकरि@@ 21577
शत्रु@@ 21568
मुल@@ 21563
लभ्य@@ 21563
कळुटऩ् 21561
सहायं 21558
प्रवक्ता 21552
सिनेमा 21541
िय़ाय़ 21536
अऩै@@ 21527
आल्लाह् 21525
थाक@@ 21521
ऱै 21518
जानानो 21516
न्ने@@ 21516
लोने 21512
मुखी 21505
वैज्ञानिक 21501
कारं 21498
रहेशे 21491
वीटु@@ 21486
प्रत्यक्ष 21483
संसाधन 21482
शिकार 21481
स्तू 21479
उपयुक्त 21478
कात 21474
प्रशं@@ 21471
दीनिकि 21471
प्पॆटुत्तु@@ 21469
जखमी 21467
सिंग@@ 21463
जरिगिन 21462
ऒऩ्ऱु 21459
ऒरुवर् 21452
बाग@@ 21451
साक्षि@@ 21443
आक्रमण 21442
जीवितं 21435
ऩ्ट@@ 21430
वੱध 21425
कुर@@ 21421
सबੰधी 21419
पाठ 21412
महामारी 21412
पदे 21411
नकर@@ 21408
नम् 21404
इक्कार्यं 21398
धिक 21391
त्तुऱै 21390
पुष्टि 21380
स्ती 21378
किउं 21375
दरेक 21373
बंदि@@ 21371
कहे@@ 21370
खारिज 21366
चाय़ 21351
सहायि@@ 21348
डिंग 21347
चॆय्युम् 21345
कारीदेर 21341
बजट 21336
साझा 21332
टॆयुं 21331
वलि@@ 21330
बिरोधी 21320
छड़िय़े 21316
कपूर् 21316
नीडि@@ 21309
पॉ@@ 21299
स्टेट 21296
पाप 21294
सागर 21292
फाय@@ 21288
ियत् 21285
पॆऱु@@ 21285
डार 21280
तापमान 21279
प्रयत्नि@@ 21279
निरा@@ 21276
चेस्तु@@ 21272
पृथ्वी 21270
चित्रत्तिൽ 21268
चॆयल्प@@ 21268
F 21264
वतै 21264
त्याचे 21258
पहुंची 21257
ेल 21256
१९९@@ 21252
संबाद 21242
अनुष्का 21238
िल्ला@@ 21237
अर्जुन 21237
हेर 21236
भारे 21234
पोल 21234
उलक 21231
मैयाऩ 21230
परबर्ती 21227
नियों 21223
2013 21214
अभिन@@ 21210
ऱ्कु 21207
सामरिक 21206
आछेन 21204
गुलोते 21201
कत् 21201
केटलाक 21201
वीर 21198
अज@@ 21195
ऑनलाइन 21188
इंग्लैंड 21187
मरणं 21174
नेत 21170
ऐस 21165
ओफ् 21162
नुक@@ 21161
वीडियो@@ 21152
ऱ्कुम् 21149
तॆन्न् 21147
6,@@ 21145
प्रतिदिन 21145
दुःख@@ 21135
मित 21126
पड़ 21123
रचना 21121
O 21108
वले 21102
देवेंद्र 21099
ङ्ङळिलुं 21099
कार्यवाही 21098
कॊंडु 21095
दिला@@ 21094
कर्म 21093
त्तिलुम् 21090
अशोक 21087
ङ्ङळु@@ 21086
ब्यां@@ 21085
उत्पन्न 21084
परे@@ 21079
मेय़े 21078
लया@@ 21071
म्पोൾ 21071
पलु 21070
ढिल्ली 21066
ੱक 21065
आग्रहि@@ 21061
रल 21056
कुरु@@ 21045
भिन्न@@ 21044
बिज्ञान 21040
ीन 21039
हालात 21034
समझ@@ 21030
अनुवदि@@ 21030
मरिंत 21030
विस्त@@ 21026
यम् 21025
विदिआरथीआं 21019
प्रोत्साहन 21015
ळ्लु 21013
नाल् 21009
ऒळि@@ 21008
कप्प@@ 21007
समयंलो 20999
मारि@@ 20992
गयो 20989
ंचालि 20987
अवकाशं 20985
िलो@@ 20983
लागिदॆ 20981
रूपे 20980
काർ@@ 20976
कल्पि@@ 20974
कॊंडि@@ 20971
मित्र 20966
ac@@ 20962
जिस@@ 20960
तङ्ङळुटॆ 20959
आफ@@ 20954
सूर्य@@ 20952
लेदनि 20950
नीडु@@ 20948
सैन्य 20945
हिंदु@@ 20942
प्रतिष्ठित 20941
एछाड़ाओ 20939
रता 20939
महिळा 20939
जीबन@@ 20938
B 20927
बागा 20927
इप्पटि 20927
खाराप 20924
पेक्षा 20922
संदर्भ 20916
श्रे@@ 20915
सिੱ@@ 20914
थानाय़ 20911
नीय@@ 20906
as@@ 20905
संकट 20904
अंदर 20904
नूतन 20898
खुश 20890
चर्यलु 20886
कोंग्रेस 20874
बरी 20873
ৰे 20870
क्कुन्नति@@ 20869
इवർ 20865
दोन्ही 20865
ार्थ 20863
दनु 20863
टिं 20856
रणबीर 20852
रोज 20852
चन 20844
संक्रमण 20840
सर्वात 20833
किऱोम् 20827
निगॆ 20824
कळिलुं 20814
/@@ 20810
मक्क@@ 20809
त्तुटऩ् 20805
कंप@@ 20804
खोज 20796
मायि@@ 20795
दੱ@@ 20794
28@@ 20792
मास@@ 20791
शहीद 20791
एब@@ 20790
मऱै@@ 20789
नइ 20786
व्यक्तमा@@ 20784
ट्टम् 20781
असं 20780
बाकु 20776
रेखे 20774
प्रधानमन्त्र@@ 20772
201@@ 20772
मरि 20772
राइ 20765
दीर्घ 20764
कने 20759
भार्य@@ 20758
लोड़ 20757
पर्य@@ 20749
कारक 20743
सिनिम@@ 20741
नायि@@ 20730
बहन 20728
वाना 20727
दाय़ेर 20726
इरुन्त 20725
शहरेर 20722
एटाइ 20719
मॆन्नुं 20719
साधारण@@ 20718
कांना 20713
आठ 20712
वार्षिक 20708
खर्@@ 20705
अർ@@ 20703
असल्याचे 20703
घेतला 20701
रचि@@ 20698
न्नानु 20696
प्राण@@ 20692
निर्मला 20683
कुं@@ 20681
बन्धु 20677
श्रद्धा 20677
पोल@@ 20676
क्रिकॆट् 20670
पाल् 20669
च्चॆ@@ 20669
दां 20668
मन्तब्य 20662
सेट 20656
रिक्कुन्नत् 20652
मात्रमाण् 20652
द्ध 20651
शब्द@@ 20651
चॆय@@ 20651
बुद्धि@@ 20649
गाँव 20646
तयार 20645
वुलु 20641
स्तो@@ 20639
प्रशा@@ 20635
मायुं 20629
ऱिन्ऱॆ 20623
पित 20622
यौन 20621
कखनो 20618
संस्@@ 20617
ऱिय 20615
कळिलुम् 20613
कन्नड 20608
मना 20607
सचिब 20607
वेळॆ 20607
अवर्कळै 20607
मेरकु 20595
चॆऩ्ऩै 20594
ग्रुप 20591
खंड@@ 20590
सर्वा@@ 20590
आगुन 20588
पऱञ्ञुः 20587
ऎटुत्तु@@ 20584
क्कानुळ्ळ 20582
विवाद@@ 20581
आद्य@@ 20577
काने 20572
उपराष्ट्रपति 20569
वर्गा@@ 20563
वद्द 20560
केट्@@ 20559
प्रजलु 20559
बांध@@ 20558
राष्ट्रा@@ 20556
जिन्हां 20555
g 20548
सलि@@ 20545
वർष@@ 20538
क्षमा 20537
ठर@@ 20536
कया@@ 20534
ओर् 20533
नाव 20531
निगरानी 20528
प्रवेशि@@ 20528
बोर्@@ 20527
अनुष्ठाने 20516
ियुळ्ळ@@ 20511
स्थानं 20510
मोह@@ 20507
लित 20502
कल्पना 20501
प्रथमे 20500
लमां 20499
अणि 20498
क्किऱार्कळ् 20492
जास्त 20491
मक 20488
हाकि@@ 20486
ियिंद 20478
हिमाचल 20472
पुस्त@@ 20469
स्वामी 20460
बर्तमान 20457
निकऴ्@@ 20456
दौरा 20451
ार्थ@@ 20449
डेर 20448
कॊंड@@ 20444
बहार 20439
निगम 20433
कोट 20433
ियाऩ 20432
अहीं 20424
शहरी 20422
ऎन् 20420
ियाँ 20419
बाईबल 20418
मालिक 20417
्ति@@ 20413
त्तिनुं 20409
शोक 20405
बिय़े 20402
पारी 20401
त्यांचे 20399
अळविल् 20393
बड@@ 20392
बिश्बबिद्यालय़ 20390
मुऴुवतुम् 20390
अधिकारुलु 20389
काँग्रेस 20388
महत्व 20386
आबेदन 20382
याऩ 20369
दोषी 20365
रद्द 20365
चॆय्युन्नत् 20365
अऩु@@ 20360
ऎरि@@ 20359
दुःख 20357
चॆय्याൻ 20353
प्राक्तन 20348
न्नताण् 20326
अहम 20323
कार्यङ्ङൾ 20321
महात्मा 20319
येसु 20314
जोरदार 20312
पाह@@ 20310
प्राण 20309
ॆयू 20309
अनुसरि@@ 20308
ओए 20303
श्वर 20303
रहेंगे 20303
कित 20301
भारती@@ 20300
पोषण 20297
मीर 20297
अतिनाൽ 20286
चारि@@ 20276
ंचालनि 20274
ारी@@ 20272
परस्पर 20271
प्पट 20270
हवा 20268
विधेयक 20262
याइ@@ 20261
रम् 20261
काट्टु@@ 20259
थाकेन 20258
मोत 20247
िये@@ 20247
ॆयुळ्ळ 20245
ियागि 20242
ऱिया@@ 20241
गड़@@ 20235
ताम 20233
यॆकोवा 20229
कोलकाता 20228
ऱॆ 20224
कष्ट 20223
कॊल@@ 20220
केवलं 20219
पाजक 20219
मोठ्या 20214
राय़ 20204
जाय 20200
मुऩ्@@ 20197
मासे 20196
क्कुन्नुण्ट् 20196
शाहरुख 20195
बारि 20194
and 20189
रब 20183
वर्कळुक्कु 20176
सुनील 20173
यां@@ 20171
मण 20170
नहि 20167
ऒप्पु@@ 20166
१९४@@ 20165
पुरी 20164
कल्वि 20164
ञ्च् 20163
चॆय्युन्नु 20160
फे 20156
इंत@@ 20154
माऩतु 20154
एदेर 20153
तकർ@@ 20153
टॆस्ट् 20144
खेतर 20143
मई 20137
कर्मचारियों 20137
एऱ्ऱु@@ 20137
कारणम् 20135
सम्पूर्ण 20128
बिजेपिर 20123
बनने 20117
सवार 20115
अभिया@@ 20112
ियॆ@@ 20109
दीर्घ@@ 20106
समन्@@ 20105
यानी 20099
प्पऱ्ऱि 20099
फ्@@ 20097
क्कियत् 20096
बातें 20090
नना 20088
अध्यक्षुडु 20086
वरॆ@@ 20083
विअकती 20080
विੰदर 20071
क्कप्पॆटु@@ 20068
वास 20059
बोध 20055
ग्रेप्तार 20055
म्स् 20052
तुल 20047
जीएसटी 20045
स्वच्छ 20026
नमु@@ 20024
चेसुकु@@ 20017
द्दानॆ 20015
नोट् 20011
भरा 20005
चीनी 20001
्ताऩ् 20001
रुग्णालयात 20000
विचारण 19997
ऎंतो 19996
पैपिळ् 19996
वकील 19986
क्ति 19980
अप 19980
कार्यकर्त@@ 19980
क्कानुं 19976
गांधि 19974
त्री@@ 19973
पोल् 19973
नेट 19971
प्पॆटुत्त@@ 19971
कपू@@ 19968
लाई@@ 19967
यितु 19965
विषयी 19964
आतंकवाद 19962
दारा@@ 19959
ट्विटर 19955
वर्षा@@ 19955
झालेल्या 19953
तॊलि 19951
याद@@ 19942
बर्त@@ 19940
मार्क 19938
शुभेच्छा 19937
ऎल्@@ 19937
ंचंडि 19936
बीजा 19932
कऴिञ्ञ@@ 19929
बिष@@ 19924
सां 19923
ation 19920
रस@@ 19918
55 19916
कार्यदर्शि 19915
नेट@@ 19911
हस्त@@ 19911
पार्त्त@@ 19905
अप्पटि 19902
तोरि@@ 19894
त्यांचा 19884
मुद्दों 19879
शाह@@ 19878
न्तिर 19877
पऱ्ऱिय 19876
गरि@@ 19874
34 19873
घन@@ 19871
अबस्थान 19871
वोम् 19863
ील 19860
मानी 19857
बारा@@ 19854
पाद@@ 19851
विदेश@@ 19844
मौका 19844
ीत 19841
अन 19841
दारि 19841
पहिली 19838
कूऱि@@ 19833
घटेछे 19832
ष्ठ 19828
नेतृत्व@@ 19821
युवा@@ 19819
संदर्भंगा 19819
पुੱ@@ 19814
प्रसाद् 19813
गम 19811
ढ़ 19804
ख् 19798
नवा 19794
प्पि 19791
कामना 19789
ॆङ्किलुं 19787
सुंदर 19782
प्रतिष्ठान 19774
िलेये 19767
करीए 19766
यायिरुन्नु 19766
म्य@@ 19758
नाटु 19756
एर्पाटु 19755
रूस 19750
१७@@ 19748
अवै 19746
शकतो 19742
माग@@ 19738
इऩ्ऱु 19736
अतनि 19732
नेर्@@ 19731
धरी 19730
$ 19725
अमरीकी 19724
भावि@@ 19722
भगवान 19711
फडणवीस 19702
अन्तर्भुक्त 19689
37 19689
लोकि 19689
परियोजनाओं 19686
मुसलिम 19685
सिहत 19678
शायद 19677
आदालत 19676
सगळ@@ 19675
साथी 19668
तमिऴ्नाटु 19668
बरं 19666
बनाव@@ 19666
ारो 19662
स्य 19656
कले 19654
क्किऩ्ऱऩ 19649
अतिकार@@ 19647
आपकी 19646
तालिका 19642
परेइ 19642
लकर 19639
वन्त@@ 19632
ୱ@@ 19631
च्चिट्टिल्ल 19629
कंगा 19628
रूपाय् 19621
पाशे 19610
अनुसारे 19609
सारा@@ 19603
झे@@ 19598
सेवाओं 19596
श्रीलंका 19593
असम 19590
वून 19586
त्रि 19583
िल्लॆन्न् 19583
पॊतु 19581
०० 19580
अड्@@ 19579
त्तर 19570
यांचा 19570
पॊलिसार् 19569
ऎत्ति@@ 19568
तुटङ्ङि 19563
नेरत्तॆ 19562
ੱल 19559
कॊण्टा@@ 19558
उतवि 19558
ad@@ 19557
पूर्बे 19555
पॆण् 19551
तच 19550
योग्य@@ 19549
बलेछिलेन 19544
शाला 19542
करल 19541
नॆय@@ 19541
व्यक्तमाक्कि 19536
टुत्त 19530
42 19525
जानेन 19519
दिय़ेछिलेन 19518
वाऩ 19516
विरैविल् 19512
पुरो 19502
मनस्सिला@@ 19501
यहोवा@@ 19498
ऐलान 19493
एकाधिक 19491
फ्ल@@ 19491
महसूस 19482
हित@@ 19478
दर्याप्तु 19474
ൽनिन्न् 19466
वतिल्लै 19464
बांला 19461
हक 19460
भाबेइ 19460
ऒऴु@@ 19457
वैद्य@@ 19456
मानेर 19455
दीनि 19454
डिकि 19451
डू 19449
ण्याचे 19437
मैयै 19437
पौर@@ 19434
संग@@ 19433
विजे@@ 19432
२३ 19427
यादेर 19426
गाड़ि 19425
मऱि@@ 19425
ंटु@@ 19421
ड्ड@@ 19420
१५@@ 19414
गुलोके 19408
जिन@@ 19405
सम्पन्न 19403
केसु@@ 19401
कटवु@@ 19400
विशे 19398
सोच@@ 19396
तकनीकी 19391
वलों 19390
कलिगि 19386
चॆय्युन्न 19384
त्तैक् 19384
पेർक्क् 19383
कलु 19381
जणे 19379
चाला@@ 19378
मूल्य@@ 19373
चेर्न्त 19373
इतैयटुत्तु 19370
विवाह 19369
तारु 19366
गिरु@@ 19365
अला 19361
नॆतिरॆ 19359
बले@@ 19356
माम@@ 19354
कऴ@@ 19352
बंध@@ 19351
वायि@@ 19351
अद्याप 19349
किल 19346
देगा 19346
वार् 19339
यॆकोवाविऩ् 19339
सहा@@ 19336
एप्रिल 19334
मानना 19329
वरी 19326
केल्या@@ 19322
पट्टण@@ 19322
ऎऩिऩुम् 19319
मैदान 19314
वागि@@ 19314
्ले@@ 19310
मोहन 19307
चले@@ 19295
किलो 19293
झा 19291
बुझ@@ 19287
सुरੱखिआ 19284
क्काർ 19275
पूर 19271
नत 19270
संगीतं 19268
तॊऴिल् 19264
इय़ा@@ 19262
गुजरा@@ 19262
रह्युं 19260
मेने 19259
१०@@ 19256
ञ्च 19255
ह्याँ 19248
तिन@@ 19245
कॉलेज 19236
सूच@@ 19234
कट्चि 19234
जमीन 19233
ऎन्तु 19231
पत्@@ 19222
बदल@@ 19221
पशु@@ 19219
गुरु 19218
बिबेचना 19213
उपरांत 19213
ङ्कळु@@ 19212
अतिर्@@ 19203
निर्धारण 19200
वेळी 19200
अमॆरिका 19199
ऱ्ऱिൽ 19198
अदक्कॆ 19197
अभियुक्त 19196
वाऩ@@ 19190
x@@ 19188
नट्लु 19186
म्ब@@ 19182
छेले@@ 19181
सों 19179
वंत@@ 19179
त्तिलुळ्ळ 19179
प्रभावी 19177
प्रदेश् 19177
ट्टं 19176
रहता 19173
सफर 19169
डिस्@@ 19168
दल्लि@@ 19161
घੱट 19159
चना 19156
मोटा 19149
लागि 19147
तेर्तल् 19138
सठिक 19135
तला@@ 19132
मुनु 19132
रिपोर्@@ 19130
तൻऱॆ 19129
सीसी 19126
शौ@@ 19125
चिकिॎसा 19123
लिय 19123
दीप् 19122
नेपाल 19121
उय@@ 19120
क्कൾ 19119
पिन 19100
अलुवल@@ 19099
राजु 19094
सिस 19094
सदा@@ 19092
करतेन 19091
प्रयोग@@ 19087
पैसा 19086
तप्प@@ 19083
संघटन@@ 19080
रेल@@ 19080
हलवु 19078
बधा 19072
ड्स 19071
ज़रूरत 19071
आल्लाहर 19070
सोश्याल 19064
पूरण 19061
देवर 19055
निङ्ङळॆ 19045
मुख्यमंत्र@@ 19041
एत@@ 19038
गिद्दारॆ 19037
जऩ@@ 19031
ch@@ 19030
देशद 19029
फुट@@ 19028
त्तैप् 19025
टस 19023
सोच 19023
पिछ@@ 19021
प्रकरण@@ 19020
मन्त्रि@@ 19018
यों 19017
मध@@ 19012
भ्र@@ 19010
घटनास्थले 19005
िय़ेछे 19000
भेट 18992
ियायि 18990
उपकरण 18988
इङ्ङनॆ 18988
य़ु@@ 18986
क्केण्ट@@ 18983
मिल्ला@@ 18977
यादव् 18974
नाटक 18971
निन्नुळ्ळ 18966
अप्पटि@@ 18965
सभाय़ 18964
शिखर 18962
सीमित 18961
ळर्@@ 18960
गोटा 18959
हान 18958
सज्@@ 18958
सिल@@ 18948
लड़@@ 18948
इतना 18944
एशिया 18939
तेमां 18938
मट्टुम् 18937
क्लिक 18935
कैयिल् 18935
यौ@@ 18933
नीर@@ 18933
पाए 18932
वलु@@ 18929
तिरिच्च@@ 18928
रवा@@ 18926
िय़ाम 18923
इयेचु 18916
पक 18915
तग्गि@@ 18905
ञङ्ङळुटॆ 18903
भागीदारी 18898
इंडियन 18898
प्रती 18897
पहेला 18894
चिय@@ 18893
तेमज 18891
दृ@@ 18890
मान्@@ 18888
माकुम् 18888
प्पट्टिरु@@ 18887
डल 18885
स्तायि 18880
तनिखॆ 18878
ियल् 18878
परिमाण 18876
सेस 18870
चॆऩ्ऱ@@ 18870
बादल 18869
ऎक्कुव 18869
प्रदर्शित 18868
वस्तु 18864
क्किऱेऩ् 18863
th@@ 18861
त्याग 18857
ब्यब@@ 18855
सेन@@ 18846
ंटारु 18845
काउके 18842
ऎൻ 18840
लिऩ् 18832
किरदार 18831
इतिन् 18821
बाह@@ 18819
प्रेस 18816
खत्म 18814
टेलि@@ 18813
अंक 18813
लिൽ 18806
मसीही 18796
तटु@@ 18795
आसान 18791
5,@@ 18786
सोषल् 18780
म्म 18778
देबे 18778
तिन् 18777
अध्या@@ 18768
प्रकृति 18767
करीना 18767
अंतर 18762
47 18759
स्नेहि@@ 18758
गरीब 18751
ञ्चि@@ 18748
स्पा@@ 18740
मुगि@@ 18738
अथ@@ 18731
आवे@@ 18731
सीरीज 18731
गिद्द@@ 18729
रजि@@ 18728
रिन 18726
विळै@@ 18719
विੱचों 18718
सिस्टम 18716
200@@ 18715
चॆय्ति@@ 18713
मूरु 18707
घटनॆ 18706
छिलो 18705
रिक्कुन्न 18704
देंगे 18701
चोद्यं 18701
फरी 18699
इद्द@@ 18686
गित्तु 18684
ियाय 18683
याबाबत 18682
तुंबा 18679
नोट 18674
सचिन 18672
दौरे 18672
पत्रि@@ 18667
सम्पादक 18666
श्रेणी 18666
तेव@@ 18663
खी@@ 18659
कपिल 18652
ञ्ञु@@ 18652
वोट 18648
x 18647
वॆऱु@@ 18646
बां@@ 18645
बचाव 18640
राजे@@ 18638
संस्थ 18638
पोकु@@ 18636
राजीव 18633
स्ता 18626
ंपु@@ 18625
जाय़गाय़ 18622
नदी@@ 18619
मुखे 18613
कार्यक्रमा@@ 18611
काट्ट@@ 18607
विन्ऱॆ 18606
आनन्द 18603
बीमा 18599
आकाश 18598
लेले 18594
फ्ट 18593
जस्टिस 18590
क्कायि 18588
उम्मीदवारों 18585
सिन@@ 18581
न्ट@@ 18575
2011 18569
पुणे 18569
कण्ण@@ 18568
काश्मी@@ 18566
अस्बीकार 18564
चट@@ 18560
सैन्य@@ 18559
हानि 18559
काय़ 18558
प्रतिपक्ष 18558
पाल्गॊन्नारु 18556
निकल 18554
आरंभ@@ 18552
उंटा@@ 18548
बइ 18547
जाओ 18544
च्चिरिक्कुन्नत् 18544
टेल 18540
मुंबई@@ 18540
उटൻ 18540
ताहा 18538
बेळे 18536
गबेषणा 18534
पाटील 18531
ङ्गा@@ 18525
दूरी 18525
वितरण 18516
तेणे 18514
बित 18512
गरज 18512
वऴक्कु 18512
197@@ 18509
संपर्@@ 18504
सित 18503
करणार 18498
अनंतरं 18495
मंदि@@ 18492
क्कॊळ्ळ@@ 18492
तोटॆ 18488
बज@@ 18485
घरा@@ 18485
परिचालना 18482
उऱु@@ 18482
आत्@@ 18476
वाय 18475
पहे@@ 18473
ननी 18470
टेड 18466
आलोचि@@ 18466
चोण 18461
समोर 18456
दम 18453
संभा@@ 18453
सम्प्रति 18450
ताൻ 18450
वाक्कु@@ 18449
बिभागेर 18446
नम्मൾ 18445
दीनिपै 18445
रॉ@@ 18443
तिक@@ 18440
अरुण 18440
अवतरिप्पि@@ 18440
प्पटुत्तु@@ 18438
यिशु 18436
शाखा 18433
ब्रिटेन 18432
रस्त@@ 18432
पॆरुगु@@ 18430
बासी 18429
चाप 18428
सुख 18421
रण्टां 18416
डाय@@ 18414
पऱ्ऱ@@ 18412
कुऴन्तै@@ 18412
चेർ@@ 18395
बसे 18394
संकेत 18391
आय्@@ 18389
अनुसरण 18387
विषया@@ 18384
कटवुळुटैय 18382
मेला@@ 18381
यिरुन्न 18380
गम@@ 18378
लढ@@ 18376
ट्ल 18373
आइन@@ 18372
ऒरा@@ 18372
हटा@@ 18369
ज़्यादा 18365
ऩे 18365
ऩ्स् 18365
स्बीकार 18363
नन्@@ 18360
जानता 18360
द्विपक्षीय 18352
दरि@@ 18350
जिसकी 18350
समझौता 18343
सुन@@ 18340
मिट@@ 18340
नदि 18337
माने@@ 18335
मनमोहन 18335
मात 18327
देवी 18325
संशोध@@ 18318
य़ेल 18316
मानु@@ 18313
वन्तु 18313
ीए 18312
इत्यादि 18311
बੱचिआं 18308
आयुक्त 18302
जनऱൽ 18302
सुबिधा 18299
सर्कार@@ 18296
आती 18286
X@@ 18283
वस@@ 18283
ढ 18280
बद्ध@@ 18277
सम्मानित 18277
विधा@@ 18277
च्छे 18272
ताय@@ 18272
चर्वतेच 18272
थाना 18270
पऱयुन्नत् 18268
2012 18265
टिव 18257
तिरञ्ञॆटु@@ 18255
करोड 18254
आंदोलन 18252
तीने 18248
क्कुच् 18248
राते 18244
चयन 18241
विभागा@@ 18240
वർक्क् 18234
पकु@@ 18228
संचार 18228
ठिकाणी 18228
विळैया@@ 18220
लेते 18216
हस्ताक्षर 18211
लेंगे 18199
बाहिनीर 18196
बेका@@ 18190
बहि@@ 18182
प्रबेश 18172
फिल्मों 18171
अतिन् 18171
प्रस@@ 18161
अफ्रीका 18161
तुट@@ 18156
च्छ 18154
निङ्ङळ@@ 18153
ऎतुवुम् 18151
आलादा 18142
प्रकरणी 18137
साबेक 18134
ङ्कळैयुम् 18134
्लो@@ 18132
करेनि 18131
नेय़ 18130
हॊंदिदॆ 18130
ईन्@@ 18129
निमगॆ 18129
ऩ्मै 18127
यिलाण् 18123
मिलियन 18122
विमाऩ@@ 18118
तान@@ 18111
तनु 18108
आहोत 18107
बान@@ 18104
अश्@@ 18104
कारो 18103
भागा@@ 18101
शीघ्र 18100
विकल्प 18100
रानी 18094
बरे 18094
देह 18091
परिचालित 18088
इतऩै 18078
साव@@ 18076
जाम 18075
नेटवर्क 18073
्र 18070
आंतरराष्ट्रीय 18067
दारों 18067
न्य 18064
निजेके 18061
चीफ 18058
नाकि 18057
धारण 18056
रक्षा@@ 18046
किराम@@ 18045
वयस्@@ 18044
वर्ल्ड 18042
मॆ 18037
ब्ला@@ 18036
म्स 18036
करण्याची 18035
ब्यक्ति@@ 18034
नज@@ 18030
एजेंसी 18028
लेट 18026
काणा@@ 18025
बहळ 18025
ॊन्नुं 18022
ओना 18021
em@@ 18019
प्रख्यापि@@ 18017
पूर्वक 18014
दिल्ली@@ 18013
अष्ट@@ 18013
येणार 18004
ऒऩ्ऱ@@ 18004
ब्यबहृत 18003
सृ@@ 17999
बेशक 17997
नागरिकों 17997
पूछ@@ 17996
पेरॆ 17996
अरविंद 17994
9,@@ 17992
शास्ति 17991
जिलों 17988
ष्ठ@@ 17987
अजय 17986
लत 17984
चिन्न 17979
लाया 17979
देशि@@ 17977
उत्पाद 17976
उसको 17974
शर्म 17973
गुणवत्ता 17971
पद्धति@@ 17970
चित्रपट 17970
हौ@@ 17967
पड़ेछे 17966
यागिदॆ 17964
कऴियु@@ 17961
हरे 17960
मऴ@@ 17956
अलि@@ 17942
कट्टि@@ 17940
नरे@@ 17936
कृत@@ 17933
चेन्नई 17931
बॆळ@@ 17928
मून्नु 17927
ळ्ल 17926
आउ 17920
गुव 17920
नरेन्तिर 17920
हतां 17918
नेओय़ार 17916
सीन 17915
तमिलनाडु 17904
नदेर 17895
दृष्ट@@ 17892
असा@@ 17889
म्हटले 17889
ट्टॆ 17887
सिग@@ 17886
ൾक्क् 17885
सुद्धा 17882
लाश 17877
आकवे 17877
जू 17874
प्रयाणि@@ 17873
सहा 17872
क्कॊळ्@@ 17870
दर्शा@@ 17869
रणवीर 17869
सिकॊळ्ळ@@ 17867
चिकिच्चै 17864
चेयडं 17864
यिक 17861
फिल्ममां 17861
चौधरी 17856
उग्र@@ 17855
डब्ल्यू@@ 17854
सत 17853
असतात 17852
ळिൽ 17852
लोकांना 17852
क्कुक@@ 17851
श्रम@@ 17849
वੱडी 17845
प्रचुर 17844
निर्माता 17839
ंडे@@ 17839
आघात 17838
संस्थानों 17838
अच्च@@ 17833
तॊटर्@@ 17833
सेवा@@ 17832
इतुकुऱित्तु 17832
राजि 17826
तुम@@ 17825
उठे 17824
क्षु@@ 17821
राज्यसभा 17820
ऎक्@@ 17819
दारि@@ 17814
शाल@@ 17812
मळे 17812
1:@@ 17804
नमतु 17804
अवसर@@ 17802
जनवरी 17801
ओरा 17800
पौलुस 17797
कता@@ 17793
सोशियल 17792
शक्य 17788
बालीवुड् 17788
कॊड@@ 17785
वतऱ्काऩ 17785
अवन 17784
नटपटि 17776
डाल 17775
कुमा@@ 17762
स्मरण 17760
di@@ 17758
40@@ 17758
अमॆरि@@ 17758
भोट 17757
अऱिय@@ 17757
आदर्श 17754
पटत्तिल् 17754
उळि@@ 17752
क्कप्पट्ट@@ 17752
तंत्र 17751
व्व@@ 17749
अतऩाल् 17744
तैनात 17743
१४@@ 17741
V 17739
तलाश 17739
कॆल@@ 17739
ॆटुत्तु 17739
क्कुन्निल्ल 17737
जने 17736
सർ 17736
चरित्र 17735
एसपी 17734
एलाका 17730
तॊकु@@ 17729
एने 17728
पाक@@ 17728
250 17726
तियों 17722
डॉक्टर 17720
चुमार् 17718
स्क 17717
नैतिक 17715
पेर्कॊन्नारु 17715
कৰा 17705
38 17702
आक्रान्त 17692
वात@@ 17691
सरळ 17688
गार्@@ 17687
पर् 17685
बिर@@ 17674
कंपनी@@ 17668
वनु 17668
अल्लॆङ्किൽ 17667
रक्षण 17666
ऐੱ@@ 17662
बाहेर 17661
पो 17659
षित 17658
ऎन्निव 17654
हीरो 17653
ीओ 17651
कळॆ@@ 17651
सिबिऐ 17648
आनंद@@ 17647
बंग@@ 17646
सर्बोच्च 17644
इन्तक् 17643
यासाठी 17639
शिक्ष 17635
सूत्र 17634
ऎन्नाण् 17633
196@@ 17631
क्वि@@ 17629
पन@@ 17625
प्रतियोगिता 17625
चमू@@ 17623
इंड@@ 17623
डू@@ 17618
कराई 17613
आयिरुन्नु 17613
विरि@@ 17611
सिन्हा 17610
कर्मकर्ता 17607
गळिवॆ 17606
मता@@ 17602
हशे 17602
परन्तु 17601
ऎन्नु@@ 17598
न्नी 17589
नट 17578
पेरु 17576
स्मृति 17575
बण 17575
लगाए 17575
अभिप्राय@@ 17574
३ः@@ 17572
ऎत्त@@ 17572
माला 17569
मट्ट@@ 17569
शुभ 17568
आमिर 17568
क्षेत्रीय 17568
अडि@@ 17564
परमाणु 17564
पयऩ्पटुत्त@@ 17562
पॆट्टु@@ 17561
अवർ@@ 17560
स्ना@@ 17558
आपूर्ति 17556
रोजु@@ 17554
पुस्तक@@ 17552
ंटू 17546
कथ 17539
वॆळिया@@ 17539
संबंध@@ 17537
काना@@ 17535
पॊरुळातार 17532
सिद्ध 17531
णां 17528
तीरुमान@@ 17527
वाർ@@ 17523
ऒऴि@@ 17520
ऩ्ऱु@@ 17519
नवीं 17518
दत्त 17517
न्यायमूर्ति 17517
चुनौती 17516
मंडल 17514
शतांश 17513
तीसु@@ 17510
द्धा@@ 17509
सतर्क 17509
नकु 17504
ङ्किलुं 17504
मुंदॆ 17502
इते 17497
रेख@@ 17495
त्तऩर् 17495
माडिद्दारॆ 17492
आसा 17490
माऱि 17488
खाना 17485
ठि 17484
पार्क 17482
आणखी 17481
मज@@ 17479
यत@@ 17477
बादेर 17476
उळ्ळिट्ट 17476
बार्ता 17475
ओमां 17475
अतिन्ऱॆ 17471
विधंगा 17471
बिरु@@ 17464
मैंबर 17462
पाർट्टि 17462
होऊ 17460
सिद्द@@ 17453
ंडु 17452
स्वतंत्रता 17442
तिऩ@@ 17441
इट 17440
ंसाठी 17439
id@@ 17433
कण्टि@@ 17433
सकारात्मक 17432
कूटातॆ 17432
जावे 17430
व्यक्तं 17427
ङ्का 17425
अनुभवि@@ 17425
माडुव 17425
समझौते 17424
अनुभव@@ 17422
पाइ 17421
राज्ये 17421
क्रिकेट@@ 17420
ट्रै@@ 17417
रेट 17409
कायम 17408
नेवाले 17406
जुलाई 17405
निन्न@@ 17403
एकता 17401
मत्सर@@ 17400
मग@@ 17390
वाळ@@ 17384
प्रमुख@@ 17380
साधारणत 17378
बाधा 17377
बाध्य@@ 17377
विया@@ 17376
वाने 17375
जय 17372
एक्स@@ 17369
निलि@@ 17369
ऎൽ 17365
प्रकल्प 17364
प्पतऱ्कु 17364
ईश्वर@@ 17362
अभिनयि@@ 17357
आगिदॆ 17355
चिन्न@@ 17352
परिसर 17350
घा 17344
दं 17343
चार्ज 17343
वाड@@ 17342
तरी@@ 17338
कत्तिऩ् 17338
मिनि@@ 17335
ऎन्निव@@ 17334
ंलोनि 17333
ंडे 17327
देब 17321
मातृ@@ 17320
केळि@@ 17319
अनुमोदन 17316
फौ@@ 17316
पाल्गॊ@@ 17316
टीं 17315
ർथ@@ 17313
क्कुमॆन्न् 17313
गिणती 17313
माहि@@ 17307
्टि@@ 17306
लोकेदेर 17306
सबार 17304
म्ः 17302
पडे 17300
उदाहरण@@ 17299
ियू 17298
वरुकिऩ्ऱऩ 17298
याळ@@ 17290
तियन्नु 17288
प्रारंभ 17287
राखे 17281
5:@@ 17278
विऴु@@ 17278
ोने 17271
मैन@@ 17269
३ः 17265
4:@@ 17265
ट्टुं 17265
गंगा 17264
G 17261
कर्तृक 17259
कॊटुत्त@@ 17259
मीकु 17258
सप@@ 17257
आतंकी 17257
अक्कड 17256
मुटिवु 17256
वार्ता 17251
नमो@@ 17247
रख 17238
संबन्धिच्च् 17235
त्तोटॆ 17235
मੱ@@ 17230
परिजनों 17229
चित्रंलो 17228
जाहेर 17226
तस्वीर 17225
ीके 17222
स्बामी 17216
खुँजे 17214
कारओ 17213
ञ्चा@@ 17208
घणी 17208
स्था 17207
on 17207
तकव@@ 17207
र्थ@@ 17205
छबि@@ 17203
स्पंदि@@ 17201
यॆकोवा@@ 17201
तुरंत 17200
बिल्ल@@ 17198
बिश्@@ 17197
शेषे 17197
स्ୱ@@ 17197
करले 17190
परिशीलि@@ 17189
संबंधों 17189
द्वारे 17188
बाजी 17187
आस्ट्रेलिया 17177
आपनादेर 17175
हुੰदी 17173
हइ@@ 17172
स्थानों 17161
लैंगिक 17160
उळ्ळऩर् 17160
पळ्ळि@@ 17156
नൽकिय 17155
तीसरे 17154
आम्@@ 17148
तारा@@ 17144
विलै 17144
वेण्टिय 17143
चोट 17142
मिय@@ 17140
मुऱैयिल् 17139
एयर@@ 17134
ंति 17133
नॆगॆ 17129
ऱ्ऱ्@@ 17123
व्यापार@@ 17122
लाल@@ 17121
तुम्हारी 17121
तीय@@ 17116
न्यायाधीश 17115
मुकाबला 17111
चाल 17110
नाळ@@ 17105
भाइराल 17103
सुना@@ 17100
वन्ततु 17099
आगेइ 17098
ग्रामे 17097
ऎफ्@@ 17097
चित्रत्तिन्ऱॆ 17092
वॆळ्ळं 17091
पाठा@@ 17088
स्ट्रा@@ 17082
कऴु@@ 17079
१ः 17075
बेरॆ 17075
ळॆ@@ 17070
दंड 17066
बिहार@@ 17058
ग्रहि@@ 17057
करिबाकु 17057
मੰग 17054
शूटिंग 17051
चिक्क@@ 17050
ंचलेदु 17047
पव@@ 17046
पेरे@@ 17045
दाय़ 17043
जय़ 17043
नारा 17043
बुल 17040
अल्@@ 17037
ड्रै@@ 17032
ig@@ 17029
निर्णयि@@ 17029
ऴै@@ 17028
जेटली 17027
ईटु@@ 17027
समर@@ 17020
तमारी 17020
शुद्ध@@ 17018
शक्यता 17018
सर् 17016
नाल्@@ 17015
निर्यात 17014
मुक्किय@@ 17014
ञ्ज@@ 17012
अवन्ऱॆ 17008
कणि@@ 17006
नौ 17002
प्रस्ताब 16998
लख@@ 16997
क्रू@@ 16996
बदु@@ 16996
कोणा@@ 16995
पबित्र 16991
त्रु@@ 16989
निय़@@ 16985
च्चाण् 16976
अङ्ङ@@ 16970
पहल 16969
यावर 16968
52 16966
ज़ी@@ 16965
रिलीज 16963
स्लो 16960
उल्लंघन 16960
बंदी 16959
च्चिल्ल 16956
कच् 16953
मणि 16952
पट 16952
सारि@@ 16947
षॆ@@ 16947
्ता@@ 16945
कुंडा 16944
हॆच्चि@@ 16941
चेस्तुंदि 16940
केवळ 16933
ताल 16930
बिश्बबिद्यालय़ेर 16927
म्याच 16927
लेना 16923
लॉन्च 16921
डिनि 16918
चलेछे 16915
ोमां 16915
वाटिनि 16914
27@@ 16913
एजे@@ 16912
इंरेजि 16912
मॆन्ऱ् 16912
खरीद 16906
बस्तु@@ 16903
याग@@ 16900
इੱ@@ 16900
निंग 16898
सभ्यु@@ 16898
कोरट 16897
मोदि@@ 16891
बातों 16891
दानिकि 16889
पैगा 16888
निर्माण@@ 16882
यश@@ 16882
चिङ् 16881
स्पी@@ 16876
कुन्नारु 16875
नडुवॆ 16868
यहोव 16867
झे 16866
क्काना@@ 16864
‎ 16861
आद्दरिंद 16859
कोइ 16857
र्य 16856
णाऱ्या 16856
साई@@ 16847
> 16845
तॊटर्पाऩ 16845
विवाह@@ 16843
आय़@@ 16841
सजा 16837
आक्रमण@@ 16837
दर्शक 16833
परिणत 16831
ईल 16830
एहाकु 16822
प्रांता@@ 16819
विचारण@@ 16815
थी@@ 16814
परिवार@@ 16814
प्य@@ 16813
इटैये 16813
शरद 16812
आते 16811
प्पत@@ 16811
ar 16810
खुले 16810
39 16809
एं@@ 16807
क्को 16804
आश्चर्य@@ 16804
खरे 16802
नाश@@ 16800
करॆ@@ 16792
ॊरु@@ 16789
ख्रि@@ 16784
इन्त्ययिൽ 16782
मिन@@ 16776
ऎन्निवർ 16776
रहो 16774
ग्रह@@ 16773
निन्न 16772
मरुत्तुवमऩैयिल् 16769
चूंटणी 16766
धन्यवाद 16764
बरोबर 16764
ऎऩ्ऩै 16764
पढ़ें 16760
मेळ@@ 16759
बॊ@@ 16757
कळुक्काऩ 16756
मुश्किल 16754
खुदा 16753
लग्@@ 16752
जीबने 16750
रहती 16750
उद्धव 16743
नाश 16742
किंग् 16741
हिसाब 16738
मॊदलु 16737
देखो 16734
सिय@@ 16733
निशा@@ 16731
एकत्र 16731
मुट@@ 16730
प्रेरणा 16727
सकੱतर 16719
टने 16718
्री@@ 16717
कः 16715
पणि 16715
यला 16713
गिय़ेछिल 16709
१९५@@ 16708
छबिते 16708
जनसंख्या 16707
जोडा@@ 16705
कारोबार 16702
चित्त@@ 16700
द्र 16700
१६@@ 16699
शको 16699
कार्यकारी 16699
अभिषेक 16697
माऱ्ऱि 16697
कळिटम् 16694
कहानी 16693
नस 16692
मान्यता 16691
कൻ 16691
शार@@ 16689
तीआं 16688
लीला 16683
उद्देश@@ 16677
अधिनाय़क 16675
सिलि@@ 16673
एछाड़ा 16672
ul@@ 16663
मृत@@ 16661
प्रमा@@ 16653
माव@@ 16653
बॆंगळूरु 16653
चॆल्लि@@ 16650
तेर्वु 16648
एनसी@@ 16645
भि 16643
मुम्प् 16641
बढ़कर 16633
परइ 16632
गुप्ता 16631
पॆऱ्ऱ@@ 16631
ड़्@@ 16630
प्रशासनिक 16628
भूषण 16628
सैनि@@ 16627
यहू@@ 16626
विरुद्ध@@ 16620
स्वस्थ 16616
ऎन्ता@@ 16616
साल@@ 16615
तिआर 16615
परिचय़ 16607
न्नट्लु 16606
उक्त 16605
विवरं 16605
दाद 16600
कान्ति 16598
आमि@@ 16595
खाबार 16591
व्हा@@ 16591
वीट्ट@@ 16590
अवर्कळुटैय 16590
मऴै 16586
मोद@@ 16585
यांचे 16585
निलविൽ 16585
नियो@@ 16584
6:@@ 16580
कल् 16579
पॆरि@@ 16579
दायक 16578
लाए 16578
्रो@@ 16576
जमि@@ 16572
ऎम्@@ 16570
चेर 16569
मांड@@ 16564
मिळा@@ 16564
गौर@@ 16563
क्रमे 16562
रवी@@ 16561
छोटी 16561
सौदि 16557
हीगॆ 16554
म्पोतु 16554
झारखंड 16551
त्तिला@@ 16550
अन्वेषण@@ 16549
भेटि 16548
निर्बाचित 16548
होइथिला 16548
फेले 16547
नां@@ 16545
चोरी 16545
चेसे 16542
निलयिൽ 16539
हाँ@@ 16538
लम 16535
आउण 16533
लघु 16530
श्रमिक 16529
ोट् 16529
र्कळुक्कु 16527
कण्टुपिटि@@ 16526
न्तर 16524
उस@@ 16520
अऩ्प@@ 16520
विनॆ 16518
ञ्ञ 16514
दर्शकत्वं 16514
नमू@@ 16513
क्कप्प@@ 16512
रिक्कुकयाण् 16512
यहो@@ 16509
अला@@ 16508
कोटि@@ 16507
झाल्या@@ 16507
साधन 16506
अवनॆ 16505
मस@@ 16504
थाए 16499
सारवार 16497
बिराट 16495
पीडि@@ 16495
ੰद 16493
इंडिया@@ 16492
इङ्कु 16491
श्रीमती 16487
37@@ 16486
मुखर्जी 16486
चिऱप्पु 16485
तिरुवनन्तपुरंः 16484
इतोटॆ 16483
केൾ@@ 16481
प्रदर्श@@ 16480
आयि@@ 16479
ब्यक्तिर 16476
वाग 16474
प्रतिरोध 16472
क्कुकया@@ 16471
मैंदि 16471
तालि@@ 16470
अभ्य@@ 16466
मिऩ् 16464
यन्त्र@@ 16460
सीऎं 16460
जॆय@@ 16457
43 16456
स्वർ@@ 16456
चक 16455
प्रपंच@@ 16454
ॉ 16450
मुस्लि@@ 16446
पारबेन 16443
कारणा@@ 16441
वास्तविक 16440
भारतीय़ 16440
सिब्बंदि 16438
म्पो@@ 16436
विस्तृत 16436
पੰ@@ 16435
दिੱते 16435
काർ 16433
वित्त@@ 16432
ब्य़ा@@ 16432
लोके 16431
दावी@@ 16429
ऴ्च@@ 16428
युक्त@@ 16426
होण 16426
गर्भ@@ 16424
याइ 16424
वडाप्रधान 16424
अज़ाब 16423
संवाद 16422
तंगा 16422
केर@@ 16420
डर@@ 16420
मोठा 16419
प्रधानमंत्रि 16417
इप्प@@ 16415
न्तुळ्ळतु 16415
म्मि@@ 16414
मुं@@ 16413
ऱൺ@@ 16407
बिधा@@ 16406
आरम्पि@@ 16405
सेरिदंतॆ 16404
ट्टो 16403
ईरान 16403
मंग@@ 16402
म्यू@@ 16401
भक्त@@ 16398
ल्ट 16398
कमिटि 16395
तहित 16394
मुंदिन 16394
भ्रा@@ 16393
वहाँ 16391
श्च@@ 16389
गृहमंत्री 16384
रिൽ 16384
ब्यक्तिगत 16380
जीवित 16380
नं@@ 16376
त्तुळ्ळ 16375
मथि 16371
सिनेमा@@ 16371
ंता 16371
लिखे 16366
आपका 16366
कूटिय 16363
केम 16362
पला@@ 16361
हाई@@ 16361
विषयंलो 16354
डनी 16348
समृद्ध 16345
गतिविधियों 16342
ऎळि@@ 16340
ईरा@@ 16335
क्षित 16334
नब@@ 16333
अर्थनैतिक 16330
इस्ला@@ 16329
आफ्रिका 16328
नम्प@@ 16328
जॊतॆगॆ 16324
योजना@@ 16319
नाट्टिऩ् 16315
w 16314
घन 16313
प्रयासों 16310
मिळि@@ 16307
आपले 16304
रक्षिता@@ 16301
बनाई 16301
स्पो@@ 16300
ब्य़@@ 16300
हद 16296
त्वा@@ 16296
घटणा 16293
स्थिर@@ 16291
टुत्त् 16290
इता@@ 16286
साकष्टु 16285
कहने 16281
मोच@@ 16279
तृतीय़ 16278
बंधि@@ 16272
सूत्रों 16271
अतःपर 16269
समें 16266
मृतदेह 16264
जानी 16261
ूरु 16254
प्रतिषेध@@ 16250
ियर् 16249
अऴ@@ 16249
ऱुम् 16248
शिष्य@@ 16246
स्तु 16246
तनि@@ 16240
स़ी@@ 16237
मसीह 16234
बंध 16233
आवास 16230
एयर 16229
बालि@@ 16228
णम् 16226
संतोष@@ 16223
मेऱ्कॊळ्ळ@@ 16223
संचालन 16218
युक्तराष्ट्रेर 16215
भीतर 16215
ർत्त@@ 16214
टैय@@ 16213
आकॆ 16213
शुभ@@ 16212
लैन 16212
त्बेर 16211
२८ 16210
कृषि@@ 16206
ut@@ 16205
आबे@@ 16205
परो@@ 16199
लेक 16194
ठाकुर 16193
निऱै@@ 16192
स्थाय़ी 16191
साहिब 16191
ंज@@ 16190
२०@@ 16186
ंडर 16183
नायडू 16182
मुतल्वर् 16181
परि 16179
ूർ 16176
ईआं 16175
उद्ध@@ 16173
मित्र@@ 16173
कलै@@ 16170
प्रसारण 16168
मिक्क 16168
ंसी 16161
हाउस 16160
जणाव्युं 16158
खंड 16158
लाय़ 16156
नॉ@@ 16156
गढ़ 16155
अद्भुत 16154
वरुकिऱार् 16154
इतिहास@@ 16153
उपाध्यक्ष 16148
देस़ां 16146
एक्ट्रेस 16145
99 16144
स्क्री@@ 16143
सीपी@@ 16143
आन 16142
करिबे 16141
जिम्मेदारी 16135
ियन् 16134
णै@@ 16133
डोक्ट@@ 16132
ट्चि@@ 16129
चित्रानिकि 16129
ठे 16127
अऱियु@@ 16127
कोൺग्र@@ 16124
00 16121
सिੱखिआ 16121
क्किऩ्ऱऩर् 16121
दादापु 16121
जागतिक 16119
पोस्टमार्टम 16118
नडॆयु@@ 16117
मागणी 16114
बु 16111
हलेओ 16108
शहरे 16106
51 16101
डॆ 16101
नेटि 16099
यल 16099
आगळ 16099
माർ 16094
येईल 16093
N 16090
अय्य@@ 16087
ऩ्पटि 16086
64 16083
मिला@@ 16081
गड़ 16079
8,@@ 16078
क्कुऱि@@ 16078
पहिले 16075
00@@ 16064
प्रसार 16064
गिद्दरु 16064
घरों 16060
ननु 16058
पेस़ 16058
प्पॆट्टि@@ 16057
सिङ् 16054
आस्पत्रॆगॆ 16053
उत्पत्ति 16049
पाकिस्ताऩ् 16049
क्किल् 16048
उदाहर@@ 16047
गभीर 16046
लेखा@@ 16045
कटि 16043
संस्करण 16043
कोरि@@ 16043
विटा@@ 16040
निधि 16039
रार 16039
अव्@@ 16039
टिन 16037
नाने 16036
पहिला 16033
खर 16030
जेट@@ 16027
दौर 16025
तैयारी 16023
इन्तिया@@ 16021
प्रै@@ 16019
स़रमा 16019
बाज@@ 16016
वीट्टु@@ 16016
बाध्य 16011
अपकट@@ 16005
यथेष्ट 16004
त्तेनॆ 16004
रखी 16001
धर्मीय़ 16000
यॊ@@ 16000
चोपड़ा 15998
मिसाल 15997
काला@@ 15996
वेद@@ 15996
पंच@@ 15996
सामूहिक 15994
इसरा@@ 15993
वश@@ 15989
भाज@@ 15983
बणा@@ 15983
चम्पव@@ 15982
आसा@@ 15981
आसछे 15981
आलिया 15979
यात्रियों 15979
बणाउण 15979
चेशाडु 15978
निःसन्देह 15977
र्स् 15966
आरुं 15966
जना 15963
कोर 15963
देती 15961
णित् 15959
गुरू 15953
इब्बरु 15953
वण्यात 15953
दिना@@ 15951
प्रतिष्ठा 15950
नोटिस 15947
56 15946
मानं 15945
सौ 15941
मानुष@@ 15937
ओडि@@ 15937
टर्स 15932
ट्वीट् 15931
त्तिरुव 15928
दूत 15926
चॊऩ्ऩ@@ 15923
नोक्क@@ 15917
गीआं 15911
बिज@@ 15910
स्बाभाबिक 15910
उम@@ 15908
मिश्रा 15896
शकाय 15896
आठ@@ 15894
एथिरे 15893
कार्यों 15888
नॆरु@@ 15888
कूट्टु@@ 15885
किसानां 15884
समू@@ 15883
धिआन 15882
नॆल@@ 15881
हिੱसा 15881
काश@@ 15880
अंदा@@ 15879
बीमारी 15879
पकुति@@ 15877
त्तुम् 15876
नोक्कि 15875
तुम्@@ 15874
सहयोगी 15873
जरग@@ 15873
चित्रान्नि 15870
ओठे 15869
रुन्तु 15865
जर्मनी 15860
माक्कि 15859
कहे 15857
लां@@ 15857
= 15855
प्ले 15855
आमे 15854
विरुम्पु@@ 15854
उण्@@ 15852
मेट्रो 15851
क्कॊण्ट@@ 15850
दोष 15848
इनके 15845
प्रार्थी 15842
रखना 15840
उपाय 15839
कालत्तिल् 15839
स्कर 15838
तिरिगि 15836
क्किट@@ 15833
आरु@@ 15831
पैकी 15831
ङ्कळिलुम् 15830
मिल्लै 15828
आसपास 15827
ൻड् 15824
कॊण्टऩर् 15822
उद्योगस्थ@@ 15821
नोय् 15818
पूർत्तिया@@ 15817
आनु@@ 15816
मोर्@@ 15815
मावट्ट 15813
जाइ@@ 15812
प्रय़ोजनीय़ 15812
ठाणॆयल्लि 15810
एलाकार 15807
ग्ल@@ 15806
ओय़ार 15805
यंत्र@@ 15805
तही 15804
पठा@@ 15803
ार्ड 15801
ड़ों 15800
ियुळ्ळार् 15800
नागरिकता 15798
दाँड़ा@@ 15795
विक 15791
लाईन 15789
कालम् 15783
ीङ्क 15783
ारॆ@@ 15780
बस् 15779
एमि 15776
ऩार्कळ् 15773
अतेसमयं 15772
ऱ्कु@@ 15770
ୱा@@ 15770
चർच्च@@ 15767
लोकप्रिय 15766
णात 15765
सत्ता@@ 15763
लर्@@ 15763
ट्री 15763
आतंकवादी 15759
सिंह@@ 15758
पारेनि 15758
बल्लेबाज 15758
ड्या@@ 15754
अॅ@@ 15753
प्रपंच 15753
लग्न 15751
राज्य़ 15751
रां@@ 15744
भ्रष्टाचार 15744
त्तिनायि 15742
खरच 15739
पोर्ट 15737
सुलभ@@ 15736
प्रतिबंध 15732
त्तुळ्ळार् 15732
कानि 15728
सर्वाधिक 15723
कडिमॆ 15720
कैमरा 15717
बिर 15712
स्बर्@@ 15708
खुशि 15708
सामा@@ 15707
स़्री 15703
निकाल 15700
पेचु@@ 15699
तल्या 15699
ic 15698
थि 15698
अत 15695
वेत 15692
जिनके 15691
साम्पत्तिक 15691
भाल@@ 15689
सभ्य@@ 15687
देखुन 15682
वायु@@ 15679
फॉ@@ 15679
वेत@@ 15675
फ्ला@@ 15674
्ये 15673
शासक 15672
प्रदा@@ 15672
फाँ@@ 15672
िलायिरुन्नु 15672
यालु 15671
कना@@ 15667
्यु 15667
आया@@ 15665
मनोहर 15665
नयि@@ 15664
दोघा@@ 15664
टॊप्पं 15664
एऱ्ऱ@@ 15664
डाला 15662
परेर 15661
पॆऱ्ऱु@@ 15661
परीक्षा@@ 15659
शतमान@@ 15659
माऱु 15658
अथच 15657
करीत 15656
ओके 15652
विवाहं 15650
सर्वश्रेष्ठ 15649
तय्याऱा@@ 15644
वाൻ 15644
lo@@ 15641
आति@@ 15638
मेय़े@@ 15638
49 15636
ट्रम्प 15636
बंगा@@ 15636
कवु@@ 15633
वित 15632
मർ@@ 15630
कारों 15629
शत 15627
आला@@ 15626
सिस्ट@@ 15626
कൾक्कुं 15624
मेक 15622
सम्भाबना 15622
अटुत्त@@ 15622
यामध्ये 15619
वर्कळै 15617
अरचिय@@ 15617
अधिकृत 15616
शहरों 15616
समर्पित 15613
टुकळ् 15612
मुऩ् 15609
विरो@@ 15608
फिल@@ 15606
मिर@@ 15605
ऩुक्कु 15597
कड़ा 15595
ऎतिराक 15595
पढ़@@ 15594
मय़ 15587
तुव@@ 15586
नुंदि 15585
रेखा 15583
प्रत्यक्ष@@ 15579
तम्मिൽ 15577
वताक 15577
अणु@@ 15576
होसेन 15576
लुक्कु 15575
प्रयोजन@@ 15574
क्टो@@ 15573
ताओ 15572
इव्व@@ 15571
मुद्र@@ 15566
ऒप्प@@ 15564
ऎन्निकल्लो 15562
कोर्टे 15560
सोष्यൽ 15558
ऎऩतु 15553
प्रतीक 15552
तिळिसिदरु 15550
एहार 15549
दना 15548
लोका@@ 15548
करोड़ 15548
ठारु 15547
मीडीआ 15545
य्क्कु 15544
हेउछि 15543
कानूनी 15542
बढ़ा 15540
सक 15539
नन@@ 15538
केलेल्या 15537
पाओय़ार 15536
न्तो@@ 15533
दिदॆ 15531
बैठके 15527
नार्@@ 15523
बढ़ा@@ 15522
मुद्दा 15518
पेट 15517
मॆन्@@ 15516
ओफी@@ 15511
जानाय़ 15510
बर्णना 15510
माऱ्ऱु@@ 15509
उं@@ 15506
व्यो 15505
भरपूर 15503
जयि@@ 15501
पेते 15500
नाद 15499
कृति 15498
कोन@@ 15498
विला@@ 15498
उण्टु 15498
दखल 15493
ङ्ङळा@@ 15493
कोह@@ 15490
क्षण@@ 15489
रण्टु@@ 15489
इप्पुडु 15487
छबिर 15483
अगत्य@@ 15483
लाई 15481
च्चिरिक्कुन्नु 15480
नड@@ 15477
राखार 15471
गृ@@ 15470
फसल 15470
किय@@ 15467
मिड@@ 15467
त्तिलु@@ 15467
पुऱत्तिऱ@@ 15466
आउ@@ 15465
तिला 15465
दश 15464
किरा@@ 15464
बुनियादी 15457
मुख्य़मन्त्री 15457
सुरक्ष@@ 15453
अनुकूल 15450
क्टि@@ 15447
घाट 15445
लक्ष्ये 15444
मुख्यमन्त्र@@ 15441
ec@@ 15441
प्रत्य@@ 15441
अवकाश 15440
सुन्दर 15438
निरु@@ 15438
त्तुप् 15434
कहि@@ 15432
मनी@@ 15432
ळ्ळु 15432
मॊत्त 15431
आसार 15426
द्दॆ 15426
कोवडं 15425
कॊट्टि@@ 15421
कान्@@ 15420
उहनां 15415
परत 15414
काउ@@ 15408
अੱज 15399
घोष@@ 15397
नटन्न 15396
उयि@@ 15394
ट्टुळ्ळ 15392
निलु@@ 15391
पहा@@ 15389
नियमों 15386
रोकने 15382
पुनः@@ 15381
देकर 15381
खुलासा 15379
अवळ् 15378
त्तिद्दारॆ 15375
तन्न@@ 15373
आभार 15373
नज़@@ 15371
वेणं 15366
आइनेर 15363
वतिल् 15360
सच 15358
फिर्यादु 15358
खेला@@ 15357
निश्चय़इ 15356
कळैत् 15355
चित्रा@@ 15353
भारतमां 15353
ॊक्कॆ 15353
अभ्यर्थ@@ 15349
ल्नि 15348
अरचिऩ् 15348
्ता 15346
ञ्ञि@@ 15346
जला@@ 15345
प्रयुक्ति 15343
नीटि@@ 15343
मुद्रा 15340
सकें 15340
मन् 15338
युवक 15338
कोने 15337
मेन 15337
मुलु 15334
कोटी 15334
रीतिय 15334
स्ऱ्ऱा@@ 15330
सिपि@@ 15329
ओफ 15329
सरदार 15328
दुष्@@ 15327
होइ 15326
समाधान@@ 15325
अब्@@ 15323
पिआर 15323
घायलों 15323
ब्याख्या 15322
अनुच्छेद 15321
तेमन 15321
वतऱ्काक 15321
सिटि 15320
फेर@@ 15319
राद 15315
बय़@@ 15314
स्टु@@ 15313
वल् 15312
वुदन्नु 15312
केंदर 15308
ऎन्निकल 15308
निर्बाचने 15307
लड़ाइ 15306
वेण्टाम् 15306
घटने@@ 15302
म्पु 15301
मुੱ@@ 15300
अञ्च् 15298
न्लु 15295
कहता 15293
कोभिड 15292
लड़ाई 15292
क्रैस्त@@ 15288
वचन@@ 15287
वां@@ 15282
२६ 15278
पट्टु@@ 15278
मुटियविल्लै 15277
देखे@@ 15276
ताजा 15276
प्रकारे 15268
विखे 15267
फ़ा@@ 15265
शतक 15263
संसदीय 15263
ञ्ञ् 15261
सुनवाई 15260
दुल 15250
इवर्कळ् 15250
िर 15249
तेच@@ 15247
न्नाण् 15244
किउंकि 15244
पडि 15242
मॊत्त@@ 15241
शतमानं 15240
गौरव 15237
चेसु@@ 15236
न्तर@@ 15226
गोप@@ 15225
सूपर् 15224
दया@@ 15223
णॆन्नुं 15222
दस 15221
अन्वेषि@@ 15221
क्टर् 15220
ंस@@ 15217
निय़न्त्रण 15208
आवेला 15208
सेटि 15206
नागा@@ 15204
क्कुम्पोൾ 15204
तुम्हारा 15203
भागं 15202
ब्यापक 15201
लके 15201
्य़ 15201
चकोतर@@ 15199
परिणा@@ 15198
उटल् 15197
तीरुमानं 15196
अस्@@ 15195
मंच 15194
शाली 15191
इलाकों 15191
नामेर 15188
पुनरा@@ 15187
वॆळ@@ 15185
ल्लाह 15184
तीनों 15180
विवरङ्ङൾ 15180
ऩ्ऱि 15179
हजु 15173
आसते 15169
प्रतिटि 15166
ज्या 15166
पेच@@ 15164
अत्यधिक 15159
ळ्ळतु 15159
ॆङ्किൽ 15158
स्त्र@@ 15157
मेह@@ 15155
मॆन्नाण् 15155
मानते 15154
माझ@@ 15154
पहोंची 15154
संकल्प 15150
बाङ्क् 15148
बइ@@ 15147
पोलीसुलकु 15146
क्कप्पट्टिरु@@ 15144
आसबे 15142
ऒब्ब 15140
याइछि 15140
काश 15137
अपरा@@ 15135
हासल 15135
निश्चय 15135
प्रवेश@@ 15134
मांस 15131
सितु 15131
ऴ्च 15129
अऩैवरुम् 15126
वर्कळिऩ् 15122
हागॆ 15121
बलार 15117
ർक्कुं 15117
केंद्रा@@ 15114
पृथिबीर 15112
लीआं 15111
तब@@ 15110
कळ्@@ 15104
देशंलो 15103
केसुलु 15093
रैली 15092
व्यक्तियों 15092
यान्नि 15090
तिल् 15090
जॊतॆ 15085
मध्यम 15084
नऩ्@@ 15084
क्रिय@@ 15083
नोंधा@@ 15081
पूर्वोत्तर 15079
मान्य 15077
नडु@@ 15076
सोड@@ 15076
प्रकाश@@ 15075
अफ़@@ 15074
सबहुदु 15072
सलाहकार 15071
यर@@ 15070
कॆय 15070
पुऱत्तु@@ 15069
एश@@ 15063
असाधारण 15063
धवन 15061
चॆऱु@@ 15060
वऴङ्कु@@ 15060
जावेगी 15058
आस 15057
पड़्@@ 15055
घि@@ 15053
आगा@@ 15051
नॆगळु 15051
तान 15050
सका@@ 15049
बेड़े 15049
यश 15048
नलु 15048
बुरी 15047
रिकॉर्ड 15047
संदर्भदल्लि 15043
गॆलु@@ 15043
स्बा@@ 15039
सौर 15038
घटन@@ 15037
वॆऱ्ऱि@@ 15035
ir@@ 15033
चै 15032
क्काൾ 15028
संगीत@@ 15025
टू 15022
नियु@@ 15021
बाक्य 15020
निर्देशन 15019
अद्देहत्तिन्ऱॆ 15019
मिश्र 15015
प्पॆटुत्ति 15015
दूजे 15012
एकॆ 15012
अख@@ 15011
किभाबे 15011
राष्ट्रीय@@ 15011
मुंब@@ 15005
दरा@@ 15002
स्वामि 15002
चुक्ति 14999
मृत्य़ु 14997
नाओ 14994
वर्ती 14994
क्रै@@ 14986
आयात 14985
इक्क@@ 14982
बोल 14981
छत्तीसगढ़ 14981
क्रिक्कऱ्ऱ् 14980
काय्@@ 14977
प्पटविल्लै 14976
नाट्टु@@ 14974
चॆय्तिरु@@ 14973
इੱथे 14972
मॆन्न 14971
GB 14969
करण्या@@ 14966
ल्कळै 14964
आदित्य 14963
घ्या@@ 14961
जबाब 14958
ममां 14955
तीर@@ 14953
ळ्ळार् 14953
अवൻऱॆ 14952
मज़बूत 14949
प्रारंभ@@ 14945
आख@@ 14944
साक्षी 14941
जस@@ 14940
गिरावट 14938
प्रदेशेर 14936
स्पॆ@@ 14936
इसला@@ 14935
हिमा@@ 14930
तना 14928
मीडियालो 14926
सिकॊळ्ळु@@ 14924
मंद@@ 14923
षे 14922
प्रधा@@ 14921
चॆय्युक 14918
साध्य 14917
लेओ 14913
असं@@ 14912
ख़ु@@ 14912
संपत्ति 14912
कोय@@ 14912
कनि@@ 14911
न्तेऩ् 14911
किंबा 14909
सहकारी 14905
अल्लाह्@@ 14905
मले@@ 14904
एबे 14903
निर्वा@@ 14902
ट्टुम् 14902
निवडणूक 14900
मऩित@@ 14900
ढु@@ 14898
हय़ेछिलेन 14896
ऩैकळ् 14893
ेओ 14892
अदा@@ 14890
अनुरूप 14887
अनेके 14886
केंदरी 14886
लीन 14885
पाർ@@ 14884
लेकपो@@ 14880
दर्शकुडु 14880
रक@@ 14877
मधु@@ 14874
सद 14874
अधिकारि@@ 14874
चूड@@ 14873
वापर 14871
द्वि@@ 14869
विषयान्नि 14869
इरुवरुम् 14867
स्ट्री@@ 14866
ठार 14865
कुलदीप 14863
रइ 14860
कारो@@ 14859
पाळ@@ 14859
अवरु@@ 14859
किऴ@@ 14859
सरकारों 14855
उद्देशि@@ 14854
वॊ@@ 14853
तारीख 14848
प्रयत्@@ 14847
लॊ@@ 14847
दीपक 14846
काग@@ 14843
प्रिय 14843
कश्मी@@ 14840
मिलता 14840
बजाय़ 14839
स्वच्छता 14839
ओय़ा 14835
अल्लि 14834
रण 14833
प्पट्टऩ 14830
बडि 14829
मध्येइ 14829
किऱ 14829
600 14828
नौसेना 14824
कुंटु@@ 14824
नका 14822
सभॆ 14822
नमक्कु 14819
नम्पिक्कै 14819
राष्ट्रंलो 14818
ट्टुळ्ळ@@ 14815
ऎङ्कळ् 14807
दिर 14806
लोकेरा 14805
दबाव 14803
दाओ 14802
तॊलै@@ 14802
जहाँ 14797
कोर्ट् 14794
om@@ 14792
करवुं 14789
दिल्लीः 14786
अऱिया@@ 14785
पुनरु@@ 14784
स्क्रि@@ 14781
चेया@@ 14778
अमे@@ 14777
कुंदि 14777
मृतदेहं 14777
मय़@@ 14776
निർम्मि@@ 14775
शब्@@ 14772
क्कुन्नु@@ 14767
उपासना 14765
मन्दिर 14764
चंद्र 14762
मौलिक 14760
रास़टरपती 14760
मरण 14759
परिशोधि@@ 14759
आण्टिल् 14758
एक्स 14757
सिनिम 14757
धे@@ 14756
पछन्द 14756
दाखिल 14749
पूर्ब@@ 14749
ताङ्कर 14749
विका@@ 14745
अंतरिक्ष 14744
पवर् 14741
अन्न 14738
शों 14738
ൽप्प@@ 14736
व्यवहार@@ 14735
प्राची@@ 14734
पछ@@ 14733
चन्ते@@ 14731
रੱखिआ 14731
आज्ञा 14729
बिक्री 14725
46 14723
माहौल 14723
में@@ 14722
टिप्पणी 14721
नूऱ्ऱा@@ 14719
ब्यापार 14716
मूर्ति 14712
इतिन्ऱॆ 14712
आकियोर् 14709
लक्षलु 14705
जनप्रिय़ 14704
कांग@@ 14700
पाच@@ 14698
मिडिय़ाय़ 14698
येला 14696
हुडु@@ 14696
मेऱ्कॊण्टु 14695
त्तिऱ्कु@@ 14695
दुः@@ 14694
मॉडल 14694
पिरच्च@@ 14694
मस 14690
उरि@@ 14690
चॆल्ल@@ 14682
बिल्@@ 14681
मुल 14678
भट्ट 14676
ऒऴिवा@@ 14676
्ट् 14674
नारायण 14670
गेला 14668
चं@@ 14667
प्रतिष्ठा@@ 14666
क़ 14666
नोट@@ 14664
ताजागा 14662
लंड@@ 14661
सुत्तारॆ 14658
चेयडानिकि 14658
मंत्र@@ 14652
पयिऱ्चि 14650
शक्तमाय 14649
उत्पादों 14648
सरकारे 14645
ऩ्कळ् 14645
बाद् 14644
वाटि@@ 14644
ट्टो@@ 14643
त्तॊ@@ 14643
95 14642
तेनो 14642
तेरे 14637
ੰड 14627
54 14626
आन्@@ 14622
गुरि@@ 14622
तीർ@@ 14622
त्तिनु@@ 14616
आरोप@@ 14615
um@@ 14614
विजयि@@ 14613
ल्य@@ 14612
नटिकर् 14612
दोस्त 14609
नशि@@ 14606
ओदेर 14604
खिलाड़ियों 14603
लट्च@@ 14601
ॊंदु 14598
्तु@@ 14597
विवरण 14596
लेली 14594
धिकं 14592
्कळ् 14592
आह@@ 14591
किछु@@ 14589
संबाद@@ 14589
मका@@ 14589
तंत्र@@ 14587
संगठनों 14584
मोदीए 14583
सीऱ्ऱु@@ 14583
टिक् 14579
स्वल्प 14577
दंतॆ 14574
नൽ@@ 14574
करतात 14574
किमी 14572
पड़ता 14570
कार्प@@ 14568
लंबे 14568
हृदय 14567
त्ताൻ 14567
तलैमै 14566
जय़@@ 14565
प्रस्तुति 14564
परिणाम@@ 14564
ाऩ् 14564
स्तरीय 14562
गठ@@ 14561
निय़ा 14559
अगस्त 14558
ंचेंदुकु 14558
बाबा@@ 14556
िल्ले 14555
सिनॆ 14555
वकुप्प् 14555
उत्ते@@ 14554
बांला@@ 14553
निय़ेछे 14547
राष्ट्रवादी 14547
ङ्किय 14546
ऴ 14545
सबु 14541
ताकत 14540
एच 14538
पत्रिका 14537
पश्चिमी 14536
शान 14534
स्र@@ 14533
पङ्कॆटु@@ 14531
le 14530
ऎच्चरि@@ 14529
प्रवास 14527
ईने 14526
41 14523
इम@@ 14519
य़क 14518
सका 14518
अतिकारिकळ् 14518
निजे@@ 14517
ओडिशा 14517
तुटङ्ङिय 14517
२९ 14516
दबा@@ 14514
षन्@@ 14514
व्यक्ती@@ 14508
चों 14506
ऐक्य@@ 14505
ंदो 14505
परम@@ 14504
बनाना 14504
क्करुत् 14504
Name 14503
साहित्य@@ 14503
ईए 14500
कॊट्ट@@ 14498
उत्पाद@@ 14497
कडा@@ 14496
बॅ@@ 14493
दर्शकत्वंलो 14493
ब्यक्तिदेर 14492
अम्म 14492
मित@@ 14491
तॆळि@@ 14490
शांत@@ 14483
तविर 14482
बिषय़क 14480
दीन 14480
त्ती 14480
ङ्गा 14478
सफ़@@ 14477
सुरे@@ 14476
वट्ट@@ 14476
आदालते 14475
उतवि@@ 14475
पॆण्कळ् 14473
ओय़@@ 14468
इवै 14466
आत्महत्य@@ 14464
पणिकळ् 14464
ताने 14463
छाड़ाओ 14462
रोहि@@ 14461
पऱञ्ञत् 14461
अतिथि 14460
u 14459
चरि 14456
दिवा@@ 14454
आजि 14453
बिकाश 14451
आंतरिक 14449
याय 14448
कोप@@ 14447
माडिद 14447
उज@@ 14443
चुੱ@@ 14437
सुबह 14434
कांनी 14432
खुन 14430
वेरिय@@ 14427
दुइ@@ 14422
कॉन्@@ 14422
क्ता@@ 14420
घेऊन 14417
निमि@@ 14414
इरुवरुं 14414
चली 14412
मामलार 14411
काफ़ी 14411
संरक्ष@@ 14410
तनी 14410
सत्यि 14408
अका@@ 14407
हीगागि 14406
लते 14405
दरा 14405
चाली 14404
नेरम् 14397
युवाओं 14396
इणैय@@ 14396
तल्ल 14393
तॆरञ्ञॆटु@@ 14393
काओं 14391
रक 14390
सिकॊंडि@@ 14389
टाल 14388
विन@@ 14388
महा 14384
माऱ्ऱि@@ 14384
उद्योग@@ 14383
गां 14383
परिष्@@ 14380
ईगागले 14380
In@@ 14379
लव@@ 14378
यॆहो@@ 14376
मिथ@@ 14374
ट्यू@@ 14374
गान्धी 14373
बदला 14370
अञ्चले 14368
सहाय़ता 14366
गडकरी 14366
्य़@@ 14363
वागित्तु 14358
अर्थात 14355
ऩ्ऩ 14355
ंश@@ 14351
अग्नि@@ 14351
किशो@@ 14350
द्वीप 14348
देखें 14348
गमनि@@ 14348
रमेश् 14348
प्रश्नि@@ 14345
नेतृ@@ 14341
आश्र@@ 14341
सेवक 14341
अवर्कळु@@ 14339
केन्@@ 14337
कहा@@ 14337
ईडी 14335
रियर 14334
चिर@@ 14333
क्लो@@ 14332
द्रो@@ 14330
कुति@@ 14330
तथ्य@@ 14326
चम्प@@ 14324
कूर्@@ 14322
आम्हाला 14322
जेनारेल 14321
ड्राइ@@ 14321
आद्यं 14321
वादं 14320
ऐदु 14319
श्रद्धा@@ 14318
योहन 14310
स्टर् 14310
आतर@@ 14309
जाय़गा 14308
रज@@ 14307
पकुतियिल् 14306
स्बाधीनता 14304
पत्रकार 14304
किंद 14302
ण्टॆन्न् 14302
उटऩटियाक 14301
स्टार@@ 14300
करेननि 14300
करमाय 14299
लैण 14299
बिडुगडॆ@@ 14297
पऱया@@ 14297
ट्राम्प 14296
विद्याർत्थि@@ 14294
85 14292
धन्यबाद 14289
करू@@ 14288
आपला 14288
मंत्रिमंडल 14287
ब्य 14285
किटैयातु 14280
उन्नति 14278
होम 14277
वाढ 14275
उभय़ 14272
इंडियन् 14271
४० 14269
अव 14268
करदिआं 14268
इंटरनेट 14266
ৱा@@ 14263
कालाव@@ 14259
ऒ 14257
हलवारु 14256
टिंग् 14253
अरचाङ्क@@ 14253
घटनास्थल 14250
नൽक@@ 14250
ap@@ 14248
पडी 14248
उंदनि 14247
द्दि@@ 14245
ताहा@@ 14244
ग्रामेर 14244
पग@@ 14240
पाणी@@ 14240
वच्चिन 14239
बैंकों 14237
द्ୱारा 14236
एटले 14235
सहमति 14234
ढि@@ 14233
नौकरी 14233
द्दीन 14229
ंदन्नारु 14229
लिस्ट 14228
ल्सि 14227
यातॊरु 14227
स्मार्ट 14222
ीकरण 14218
ऴ्स् 14218
पुरो@@ 14215
अन्या@@ 14213
कल्या@@ 14213
तमिऴक 14211
दनि 14210
दळ 14208
विस़व 14204
पिऩ्ऩ@@ 14203
तमिऴ्ना@@ 14202
यहोवयुटॆ 14198
शकत 14197
जेना 14197
होवेगी 14197
ंज 14195
कमां 14194
प्रो 14191
चॆऩ्ऱु 14191
रੱ@@ 14188
शिरो@@ 14186
रहना 14186
उणवु 14186
ऱ्ऱർ 14185
तुणै 14183
फोൺ 14178
इवरॆ 14174
ब्रो@@ 14168
यां 14167
नुन्न 14167
मण्डल 14166
खों 14166
7,@@ 14165
चिह्@@ 14164
केट्ट@@ 14161
राहीं 14160
उल्लेखयोग्य 14159
योज@@ 14154
ष्य 14154
पक्षद 14154
ह्य@@ 14150
नोडि@@ 14149
येथील 14146
क्कप्पटुकिऱतु 14146
कलाकार 14145
उपजेला 14142
कंटे 14142
स्री@@ 14140
उठा 14139
वैद्यकीय 14139
कना 14138
निङ्ङൾ@@ 14136
सत्यिइ 14135
बारेर 14134
अते@@ 14134
गेल्या 14134
ऐस@@ 14132
ऒऱ्ऱ@@ 14131
इटै@@ 14130
कमे@@ 14129
सेगुलो 14125
बन्धप्पॆट्ट् 14125
पतिल् 14124
कूऱियुळ्ळार् 14121
अहमद 14114
ळुं 14113
पक्षं 14113
वർधि@@ 14112
कलकाता 14109
थर 14109
गीर 14108
ॆन्नाण् 14108
देशना 14107
पांडे 14106
स्वतः@@ 14101
भित्तिक 14094
कोटतियिൽ 14091
मान्य@@ 14089
याहा 14089
वित@@ 14089
वैत्तु 14086
सोने 14083
प्रकट@@ 14082
स्मार्टफोन 14080
सिया@@ 14080
सीसीटीवी 14080
ab@@ 14079
अनुभ@@ 14077
तन्त्र@@ 14075
ारे@@ 14074
बँ@@ 14073
तॊटङ्क@@ 14072
अधिकारिगळु 14067
कवऩ@@ 14067
त्री 14066
अतुकॊण्ट् 14063
us@@ 14059
कुऱिप्पि@@ 14058
तियाक 14058
इटङ्कळिल् 14058
हार्दिक 14057
बारदु 14055
विट्टार् 14054
बलों 14053
मुम्प@@ 14052
वन्नि@@ 14051
नल्@@ 14050
ऎटुत्तु 14050
कटवुळ् 14049
अटिप्पटैयिल् 14049
सार्लु 14048
तेज@@ 14046
एगुलो 14045
विन् 14044
चालिय़े 14041
ल्लाम् 14041
उप्पु 14040
पॆऱ्ऱ 14040
गमन 14039
फळ 14030
पदार्थ 14029
हामलार 14029
पोराट्ट@@ 14027
कुऱिच्च् 14025
पूछताछ 14024
अधिकारीआं 14023
बुल@@ 14022
खेडू@@ 14022
भित्ति 14021
वैरल् 14021
भरा@@ 14017
मीआं 14013
चिह्नित 14012
पञ्चा@@ 14011
पिन्न@@ 14011
पुट 14007
आचरण 14007
आदित्यनाथ 14005
समे@@ 14003
सुपर 14003
सुरक्षित@@ 14002
नटन्तु 14002
कोस़िस़ 14001
रहस्य@@ 13998
आपनारा 13996
विद्यार्थी 13996
काइ@@ 13995
त्ते 13994
काट@@ 13994
राजीनामा 13994
विद्यार्थि@@ 13994
वॆलु@@ 13994
परिशोधन@@ 13992
अमि@@ 13991
चेय़ारम्यान 13991
चॆय्तिरुन्नु 13990
प्पिൽ 13989
ल्सिन 13988
विधेय@@ 13987
खू@@ 13985
भाग्य@@ 13983
संघं 13980
सूचित 13974
सकदी 13974
पाबे 13972
मुक्त@@ 13971
सत्त्बेओ 13970
सामान 13967
योजनाओं 13967
पड़े@@ 13964
इस्@@ 13960
वेतन 13959
तुहाडे 13958
उऱ्पत्ति 13957
याह 13956
टॆलि@@ 13955
शांत 13954
क्किऱोम् 13953
चुऱ्ऱु@@ 13952
करॆ 13949
वळर्च्चि 13948
जहा@@ 13943
कालो 13943
ॆगळन्नु 13943
निरंतर 13942
चालू 13941
आदरू 13940
मिलि@@ 13939
काला 13936
ियिलॆ 13936
पेरिൽ 13934
कदे 13931
२७ 13930
झी@@ 13930
टीका 13928
वाचि@@ 13928
युग 13923
प्रतिरक्षा 13922
लक्षण 13917
कण्टु 13913
कॆप्टॆन् 13913
ल्लातॆ 13912
परिबेश 13908
द्दे@@ 13907
ट्टा 13906
रहा@@ 13906
करुं 13905
डिन 13904
टिवि 13903
क्कियि@@ 13903
टिकट 13895
अयाൾ 13895
बाप 13894
न्तिर@@ 13893
४ः@@ 13889
भारता@@ 13888
आधी 13886
रखता 13884
मके 13873
दिल्ही 13869
कूटातु 13868
फ़ि@@ 13866
हिੰ@@ 13864
वादि@@ 13863
शैक्षणिक 13862
एक्टर 13861
ऎत्तु@@ 13859
ष्ठा@@ 13858
किट्ट@@ 13854
शख्स 13852
स्बास्थ्य@@ 13851
लागा@@ 13851
बेड 13850
बिचार@@ 13847
तुरु@@ 13847
माफी 13847
संबंधिंचि 13847
भय 13846
मऩु@@ 13845
जाकर 13842
च्छे@@ 13840
ष्टि 13839
बहा@@ 13839
ऎक्स् 13839
आसेन 13838
क्षति@@ 13837
होनी 13837
देशी 13836
सट 13836
ताइ@@ 13833
पौल 13832
हरी@@ 13828
बੱचे 13827
गणना 13826
घटनाटि 13824
तेल@@ 13823
शिख@@ 13823
वेगळ@@ 13823
चुरु@@ 13822
कलु@@ 13821
समीप@@ 13819
अचानक 13815
नामा 13814
नित 13812
यूपी 13808
अध्यक्षൻ 13808
ण्णा@@ 13805
इन्डिय़ा 13803
औष@@ 13799
हत्य@@ 13796
स्ऱ्ऱि@@ 13796
लिमि@@ 13794
निउ 13794
सलायितु 13794
पडिंदि 13794
स्क@@ 13793
खाता 13793
कॊण्टि@@ 13789
माइक्रो@@ 13788
रुल 13780
होत्या 13780
साडी 13779
मीटिੰग 13778
अक्सर 13775
चाहती 13774
प्रकरणा@@ 13774
भेङे 13772
मॊऴि 13771
मरुत्तुव 13771
सरासरि 13767
ऎन्नुं 13766
क्षमता@@ 13765
श्रृंखला 13763
अज्ञात 13761
णीय 13761
तीय 13759
अनिवार्य 13759
हੱ@@ 13759
उल 13758
भोग 13753
लस 13753
निൻऱॆ 13752
मिथ्या 13750
तियै 13747
बातिल 13744
२ः@@ 13744
बली 13743
जगत 13742
संस्कार 13741
२ः 13739
मुऱि@@ 13738
सराहना 13737
मुहम्मद् 13737
आल्लाह्र 13735
आरोपण@@ 13734
बरॆ@@ 13734
यनि 13731
चेस्ता@@ 13731
फाइनल 13731
इन्हें 13731
ऎक्कुवगा 13731
प्रवർत्तन@@ 13729
पोषि@@ 13726
मार्गा@@ 13725
प्पिऩ् 13725
चैन@@ 13724
ऒक@@ 13724
कोड 13722
युद्धेर 13712
गुप्त@@ 13710
प्पॆट्टत् 13710
ववामां 13705
बने@@ 13703
ent@@ 13702
सेवि@@ 13702
करवा@@ 13702
ग्रां 13702
कऴियुं 13702
दाता 13701
दल्ले 13699
उपलब्धि 13695
इटु@@ 13695
ऎऴुत@@ 13695
रन् 13693
ण्याच्या 13693
दान्नि 13693
चर्चि@@ 13692
उठाए 13690
भे 13689
मेൽ 13688
भ्या@@ 13685
ऊऴिय@@ 13685
्रा 13684
पेय़ेछे 13682
जल्दी 13682
कटुम् 13682
तले 13681
देबेन 13681
जक 13680
सन्तोष@@ 13680
नीडिद्दारॆ 13679
उपाय़ 13674
बायो@@ 13672
सम्पद 13670
ऎन्त् 13670
अ्यान्ड 13667
गोयल 13667
चन्त@@ 13666
} 13665
चिं@@ 13665
गें 13664
वेण्टु@@ 13662
बत 13661
बक्तब्य 13661
दक्षता 13658
करण्याचा 13658
वुटऩ् 13656
आपल्या@@ 13655
नाल@@ 13654
ॆन्नुं 13654
मधून 13651
न्लो 13650
खुँ@@ 13648
्लि 13643
सीटें 13643
तह@@ 13642
निः@@ 13642
मुऱ@@ 13640
इते@@ 13639
पळ्ळि 13639
धरपकड 13638
ot@@ 13637
गळा@@ 13637
३१ 13636
वासि@@ 13635
जुलाइ 13634
पंद्य@@ 13633
अप्@@ 13632
ृ 13631
गाँ@@ 13630
दलों 13630
घेत@@ 13629
नद@@ 13626
चर् 13624
डिजि@@ 13623
चङ्क@@ 13623
प्रोत्साहित 13620
रामनाथ 13619
मक्कळु 13619
57 13616
ताँ@@ 13614
गोष्टी 13614
शाख@@ 13613
अंतर@@ 13613
ङ्ङिय 13611
डौ@@ 13608
प्पे@@ 13605
पाच 13604
य़ि@@ 13602
होगु@@ 13602
वॆळ्ल@@ 13600
बीजी 13598
यूनि@@ 13595
चॆय्तऩर् 13590
मद 13586
अंटू 13586
ऊर्@@ 13584
जाय@@ 13578
देशात 13578
हाजर 13577
पूछा 13576
हिंदॆ 13575
प्रतिनि@@ 13572
योचि@@ 13571
खोला 13570
सब्@@ 13570
इटि@@ 13568
न्यूनतम 13566
क्यु@@ 13565
टॉ@@ 13564
आपण@@ 13563
वाण् 13563
जर् 13562
रहेगी 13562
अदा 13560
किं@@ 13559
बाड़छे 13558
सरो@@ 13558
ध्बंस 13557
हामला 13554
तॆलिय@@ 13550
जोड@@ 13549
व्यू@@ 13547
निवा@@ 13545
तिने 13541
आय्कॆ 13541
नबी 13538
दृढ़ 13535
गले 13535
चित@@ 13535
लोजी 13535
करेछिलाम 13534
ऐੱस@@ 13534
ियुटऩ् 13534
अप्पो@@ 13533
U 13529
परिश्रम 13529
उमर 13528
फ्ट@@ 13527
सदा 13524
परिष@@ 13522
तेर्@@ 13520
मैचों 13520
गणि@@ 13517
भक्ति 13516
अर्ध@@ 13514
मध्यप्रदेश 13512
स्टै@@ 13512
प्रीति 13510
सञ्च@@ 13509
तन्त्र 13509
ज़िੰदगी 13509
निम@@ 13508
चॆन्नै 13508
प्रवासी 13507
भीषण 13506
ർट्ट् 13505
टक@@ 13504
हय़े@@ 13504
आजे 13504
ग्रं@@ 13503
कुर्@@ 13502
वैद्य 13501
कंडु@@ 13501
ज़रूर 13501
द्दी@@ 13500
आरंभ 13500
केश@@ 13499
चिलर् 13496
कच@@ 13495
नानी 13494
संघटन 13494
हवा@@ 13494
आराध@@ 13493
ट्रक 13492
टात 13491
निपटने 13491
रुक्कुम् 13490
मनोज 13487
ल्लिरुव 13485
साध्यत@@ 13484
रात्र@@ 13483
नाऩ्कु 13478
खार 13475
नटपट@@ 13475
ताक्कु@@ 13475
कथापात्र@@ 13473
र्कळिऩ् 13468
नीर 13464
ंडी@@ 13463
क्की@@ 13460
गों 13458
क्रिस्त@@ 13457
मेल्@@ 13456
ट्टाण् 13456
अप्पुडु 13453
समय़रे 13451
पत्त@@ 13449
कारणंगा 13445
घटि@@ 13443
एभाबे 13443
सुरेश 13440
डिसेम्बर 13439
ंबर् 13439
ंगि@@ 13438
सामेल 13438
नीतिमऩ्ऱम् 13435
याला 13434
मूवी 13434
X 13429
अक्रम@@ 13429
वराण् 13429
लोक्@@ 13428
कुळ@@ 13427
स्त्र 13425
बळ 13424
ऩाक 13422
शासन@@ 13421
कवागि 13421
58 13420
कमिशन 13417
हुੰदे 13415
मऩि@@ 13415
चट्टम् 13415
पॊंद@@ 13412
चिकित्सॆ 13410
कॊलै 13410
ऎण्णिक्कै 13408
* 13403
कय़ेकजन 13402
पेज 13401
भारतात 13400
देत 13399
पोस्ट् 13398
पहुੰ@@ 13398
प्रधानमन्त्रीर 13397
मऩै@@ 13397
बाई 13395
आत 13395
दूध 13395
योग्यता 13394
ऱ् 13393
गुर्ति@@ 13392
साला 13390
वेळ@@ 13390
मही@@ 13388
ർच्च@@ 13388
जानिय़े 13387
स्वतः 13386
कीलक 13383
दारुण 13381
अन्यदेर 13376
नेओ 13375
ऒक्क@@ 13373
ख़ा@@ 13372
रष्टु 13372
माझ्या@@ 13370
आपे 13369
उंडालि 13369
पिन्तुण@@ 13368
आयिर@@ 13366
सन्देह 13365
कधी 13363
अयिना 13362
त्तेवॆ 13361
मूलत 13360
कस@@ 13359
इंटर@@ 13359
भाई@@ 13358
मावट्ट@@ 13354
कट्टुप्पा@@ 13354
कब्जे 13353
मारुं 13350
पीएम@@ 13349
कस़मीर 13347
59 13344
ऎक्स्@@ 13344
im@@ 13343
तृणमूल 13343
रेड 13340
800 13339
यॆहोवन 13339
स्ति 13335
नॆर@@ 13335
द्दु@@ 13331
2000 13330
अगली 13330
स़ु@@ 13329
पोलिसा@@ 13329
ुलकु 13326
वना@@ 13325
चेर@@ 13324
जोलि 13322
वुद@@ 13321
पक्षरु 13321
एना@@ 13319
किरु@@ 13319
शील@@ 13318
चित्रद 13316
os@@ 13315
मन्त्रक 13315
लाण् 13315
करवाइआ 13315
सेइ@@ 13313
अब्रा@@ 13312
चालै@@ 13310
ऎल्लावरुं 13309
प्रतीक्षि@@ 13308
लੱख 13308
वज@@ 13306
डाक 13305
असतो 13304
वुकळै 13304
विलिय@@ 13303
प्रदेस़ 13303
अभियुक्त@@ 13302
त्तिलिरुन्तु 13302
वैय@@ 13301
पॆयर् 13301
अफि@@ 13299
चनि@@ 13298
खां 13298
लक 13296
अरचु@@ 13292
प्रमाणात 13292
बिक्षोभ 13291
बर्ती 13291
निनक्क् 13290
ध्यक्ष 13288
पुष्@@ 13287
बलछे 13285
60@@ 13284
मोठी 13284
याप्रकरणी 13283
धान@@ 13282
तुन्न@@ 13279
उं 13278
महत्व@@ 13277
उर@@ 13274
अवि 13274
संयोग 13273
बिद्युॎ 13272
दूरु 13268
गुलिके 13266
जुड़ी 13265
मशी@@ 13264
सौकर्य@@ 13264
टल् 13262
कण 13261
करुत@@ 13261
उपकरण@@ 13259
ऱ्का@@ 13258
देखभाल 13257
त्ताण् 13257
शुधुमात्र 13256
कॆलस@@ 13253
साहि@@ 13252
ईश्वर 13251
किता@@ 13248
आबादी 13247
उडा@@ 13245
पुरेर 13242
देइछन्ति 13240
चौहान 13238
नील 13236
बिशिष्ट 13234
ियऩ् 13234
किना 13232
अजित 13231
प्पाऩ 13231
षक 13230
त्वरलोने 13229
फळरे 13227
बੰद 13225
मरे 13223
जनर 13223
वाय्प्पु 13222
चिन्@@ 13220
टियाक 13220
प्पिर@@ 13218
राज्@@ 13217
वनडे 13217
हർ@@ 13216
उङ्कळु@@ 13216
दला@@ 13215
आपने 13214
डलु 13211
साब@@ 13209
तवण 13208
वेऩ् 13208
नौजवान 13205
पॊंदु@@ 13204
इदरल्लि 13198
सർक्कारि@@ 13197
ऐप 13196
मिटार 13195
टुत्तत् 13194
अञ्चलेर 13192
चिन्ता@@ 13191
पहिल्या 13190
मेन्@@ 13187
बड़@@ 13187
इत्तरं 13186
पटत्तिऩ् 13182
अमैच्च@@ 13182
टेक 13177
दाखलागिदॆ 13177
ताऩ@@ 13177
निजे 13176
कंग्रेसेर 13176
अऱिवु@@ 13176
अवर्कळिऩ् 13175
डिग्रि 13174
न्ऱॆयुं 13172
मुऴु 13172
नता 13171
ग्य@@ 13168
आमादेरके 13167
प्पाक 13166
माडबेकु 13166
नडॆद 13166
2010 13165
सुरक्षा@@ 13162
ट्टे@@ 13162
क्रिया@@ 13162
प्पुम् 13161
अक्टूबर 13160
शां@@ 13159
जिर 13158
ऒरिक्कलुं 13158
डिप@@ 13156
चऩ् 13155
अध्यापक 13152
दिग्गज 13152
हरी 13152
करिगॆ 13152
तॆय 13151
संदर्भ@@ 13150
इक्कार्यत्तिൽ 13147
बिचारपति 13146
य्क्कुं 13144
मुतलिल् 13144
टाके 13143
त्तिया@@ 13143
डिजाइन 13142
निषेधि@@ 13142
परिबार@@ 13141
सिल्ल 13141
ऒकटि 13141
स्ऱ्ऱे@@ 13140
गिंदि 13140
खड़े 13139
स्मि@@ 13138
समस्यार 13138
ज्ञापन 13137
टीडीपी 13136
रूम 13133
मर्या@@ 13132
न्नो 13131
कॉर्@@ 13131
शकते 13129
शान्ति@@ 13123
जण@@ 13123
निय 13121
न्तऩ 13121
मीडिया@@ 13120
सेज 13119
छोड़कर 13119
जन् 13116
मोहन् 13115
अन्तप् 13115
पट्टा@@ 13114
िलेक्कु 13112
चन्द्र 13109
बुरा 13106
ट्टिऩ् 13103
विपक्ष 13102
मक्कळुक्कु 13101
मिलते 13100
रालु 13100
क़ा@@ 13097
त्तेक्क् 13096
ख्या@@ 13093
लेनि 13092
वयतु 13092
इन्तत् 13092
स्रा@@ 13091
शनल 13091
सूबे 13090
कवऩि@@ 13090
पिणऱायि 13087
डनि 13086
हासपाताल 13084
एक्सप्रेस 13080
इउनिय़न 13078
वुन्न 13078
आहार@@ 13077
गोली 13077
उऱुति 13077
ऐੱस 13076
छोटा 13075
विवरालु 13075
कार्यक्रमों 13074
or 13071
जेथी 13070
मुऩ्प@@ 13069
सथा@@ 13068
मार्गदर्शन 13068
निन@@ 13066
ड्डि 13066
षू@@ 13066
125 13065
संविधान@@ 13064
हिन्दि 13063
नाचा 13063
विद्युत् 13063
मात्रमल्ल 13063
बलल 13060
आय्वु 13058
गला 13057
ऎण्णं 13057
वधी 13055
भित्तिते 13054
केंद्रित 13053
इन्तिय@@ 13052
न्ता 13047
रिक@@ 13042
वन्तु@@ 13042
दळ@@ 13038
बहुमत 13034
फरवरी 13034
प्रसिड@@ 13033
अवा@@ 13033
बानी 13032
अतएब 13030
ऱाण् 13028
पाटि@@ 13026
हास@@ 13026
विक्र@@ 13024
णॆगॆ 13024
ज्य@@ 13023
पर्याय़े 13023
अधीने 13022
स्थापन@@ 13021
us 13019
ईन 13019
इरि@@ 13018
जवळ 13017
नित्य@@ 13016
आका@@ 13014
बौद्ध 13011
ण्टायिरुन्नु 13010
जारि@@ 13009
ज़ख़मी 13008
निन्नॆ 13008
वीट्टिൽ 13007
सिद्दु 13004
वर्मा 13001
यारुम् 12999
चेवै 12999
मद्य@@ 12996
सेवाएं 12994
ऎवरु 12993
शकता 12992
लड़की 12991
कार्यत्तिൽ 12990
क्कुन्नतिन् 12989
देवुनि 12986
ag@@ 12985
छा 12982
गुला@@ 12982
उम्र 12982
इंतह 12982
सर्कारद 12982
चेयालनि 12981
इलांटि 12981
प्रकट 12980
आट्च@@ 12979
तिकळ् 12978
तीविर@@ 12978
धू 12977
नॆयुं 12977
आय़ोजन 12976
नोडि 12975
डियो 12975
चेयालि 12975
पवन् 12974
सत्यं 12973
विषा@@ 12972
अतिकम् 12970
याब 12969
दाग 12969
कोवा@@ 12969
निर्णयं 12967
स्वकार्य 12966
सीधे 12965
ॆयो 12965
सुशांत 12964
वैत्तिरु@@ 12964
बिलकुल 12962
दृष्टिकोण 12961
एमि@@ 12958
सुरुवात 12956
तनाव 12952
किती 12952
हिस्से 12951
साफ़ 12949
चिह्न 12948
पड़ते 12948
आलं 12948
य़ार@@ 12947
वाऩ् 12947
सख्त 12941
मास्क 12940
पोटी 12940
इकाई 12935
कर्मियों 12932
कॊंड 12932
वश्य@@ 12931
यिरुन्निल्ल 12931
देइथिले 12931
बिला@@ 12930
मीडियावर 12930
शहर@@ 12928
झी 12926
बुद्धि 12925
लोकतंत्र 12925
ऎंबुदु 12924
४ः 12923
पोरेशन 12923
पिळ्ळै@@ 12923
ंचु 12921
मुयऱ्चि@@ 12921
गाव@@ 12920
आईपीएल 12920
कुऴु 12914
होवे 12913
ङ्कळैप् 12913
हंत@@ 12912
यात्रा@@ 12910
सिनिमाकु 12910
हस्तक्षेप 12909
केत 12908
इस्तीफा 12907
अमी@@ 12905
जेट 12905
आलो@@ 12902
उपस्थिति 12893
स्नातक 12891
राल 12891
डेल 12889
राज्यत्तॆ 12889
घटणास्थळरे 12889
िलायि 12888
त्तिलेक्क् 12886
कৰ@@ 12884
टिय 12883
शाखा@@ 12882
किटैक्कुम् 12881
चुनावों 12880
इंटर्@@ 12878
फुटबल 12877
ोर 12877
गिल्ल 12876
पुनः 12870
भीकर@@ 12869
वडंतो 12869
प्रापत 12868
स़हिर 12867
मन्दि@@ 12865
अजिहे 12865
बर्ण@@ 12862
एकदम 12860
सम्पा@@ 12860
इले@@ 12858
सीपी 12856
बाढ़ 12855
कुऴन्तैकळ् 12852
चेतावनी 12851
नन्नायि 12850
मृतदेह@@ 12849
चർच्च 12846
गला@@ 12845
दैनिक 12844
अटिय@@ 12844
उन@@ 12841
पुढील 12841
मेला 12837
राहु@@ 12837
निरीक्ष@@ 12837
पेट्रोलियम 12837
कसे 12836
दवा@@ 12834
मायाण् 12831
ंचायि 12831
इरुक्किऱ@@ 12830
एरा 12828
विडियो 12828
तप्पु 12828
खिआ 12824
शरी@@ 12822
मला@@ 12821
अभ्यर्थि@@ 12821
त्तुळ्ळऩर् 12820
एवी 12819
्तो 12815
अन्न् 12814
विटुम् 12814
अंदुलो 12814
प्पट्टुळ्ळऩ 12807
जटिल 12805
चूपि@@ 12805
क्कॊण्टिरु@@ 12804
फ्रांस 12802
मुग्गुरु 12801
मलै@@ 12798
केळ्वि@@ 12797
मक्कळिऩ् 12797
सुप्रिम 12796
जाईल 12790
्यायि 12789
क्य 12785
रुग्णा@@ 12779
गुप्त 12776
संस्कृत 12776
चोद्य@@ 12776
आयि 12772
आछि 12769
ंदरॆ 12769
पॆऱ्ऱो@@ 12769
ड्यू@@ 12768
नेरॆ 12768
न्नतिन् 12767
कून 12766
यूनिवर्सिटी 12765
अंड् 12764
तेवै 12763
य़क 12761
पूर् 12759
गल्प 12758
संतोष 12758
डोर 12757
खंडि@@ 12757
ऎंत 12756
धिकारी 12755
पडॆदु@@ 12755
अजिहा 12755
राजीव् 12754
अद्@@ 12753
दारु@@ 12753
करुत्तु@@ 12753
येहेतु 12750
पालिय़े 12749
ग्राहक 12748
न्तुम् 12747
मानुषके 12746
मेडि@@ 12744
सुपर@@ 12744
मुंबै@@ 12744
संश्लिष्ट 12743
शिवाय 12741
तियिल् 12741
कुऱिप्पिट@@ 12741
कोणत्याही 12741
कैगॊळ्ळ@@ 12740
ऎत्र 12733
आरे 12729
रंगा@@ 12729
टक्के 12729
द्या 12724
तिनॆ 12723
ैन 12721
पिक 12720
निय़न्त्र@@ 12720
अनेकेइ 12720
गणित 12712
थां 12710
पेरि@@ 12708
तालु@@ 12705
माർग@@ 12705
एऱ्पट्टतु 12704
सत्या@@ 12702
ंटि 12702
कमायि 12702
क्कुऱिच्च् 12702
लक्षण@@ 12699
भावना@@ 12699
ऱुकൾ 12699
च्छा@@ 12696
पट्@@ 12695
शार 12695
गेट 12694
सम्भबत 12694
जरी 12694
टै 12694
विशाल 12692
नोंद@@ 12692
ंदर् 12691
दिस@@ 12690
अटल 12687
तन्@@ 12686
रहें 12686
घेत 12684
चिन्त@@ 12681
आईटी 12681
ंचुको@@ 12681
ज़िल्हा 12680
तळ्ळि@@ 12680
ৱा 12675
श्रद्धि@@ 12675
प्रदूषण 12674
माण 12673
शैली 12673
ंचिन@@ 12673
शहरा@@ 12671
प्राथमिकता 12671
तेलंगाना 12671
चलच्चित्र@@ 12670
द्वी@@ 12669
मञ्च@@ 12668
पुल 12668
वाऴ्क्कै 12667
माणवर्कळ् 12667
आहमेद 12666
टके 12666
स्तुन्नायि 12666
प्रदेशा@@ 12665
पृथिबीते 12664
केशन 12663
मरी 12663
सदन 12661
निशाना 12660
ऩाऩ् 12660
प्रथम@@ 12658
परिष्कार 12658
म्यान 12656
ार्ः 12656
आशि@@ 12654
द्बि@@ 12653
वरन्नु 12653
पिੰड 12653
िलिरु@@ 12650
असल 12648
आऱु 12648
सिनिमानु 12647
क्की 12646
परिच@@ 12644
इटम् 12644
तत्त्@@ 12642
गुलो@@ 12642
णालु 12640
तरुण 12639
निम्न 12638
विस़ेस़ 12638
पल्कलैक्कऴ@@ 12638
ढे@@ 12633
प्रीत 12633
ओटि@@ 12633
तॊटर्पिल् 12633
आपली 12630
अंग्रेजी 12626
पैन 12625
कटै@@ 12625
ऒट्टु 12623
अध्यय़न 12621
अतॆ@@ 12621
इयक्क@@ 12621
चक्र 12616
रवि 12615
इप्पोऴुं 12615
परिशोधन 12614
बलेओ 12610
बडि@@ 12610
विश्वासं 12610
प्रसं@@ 12606
गेछेन 12606
िय़ेछिलेन 12605
िल्लॆन्नुं 12604
टानिकि 12604
f 12603
बुक 12599
समस्याओं 12598
ळ्ळऩ 12598
छूट 12597
म्पटि 12596
मिलती 12596
माडिदॆ 12596
साहस 12595
पशुपालन 12595
्प्प@@ 12594
विक्क@@ 12594
आत्मा@@ 12593
एवुं 12590
तलॆ@@ 12590
्तु 12589
ऴ् 12588
व्हि@@ 12584
पुरा 12583
स्वरूप 12583
तॆगॆदु@@ 12583
फरियाद 12582
िलॊ@@ 12581
माकुन्नु 12581
53 12580
कर्त्त@@ 12579
बाइबेलेर 12577
तैक् 12577
सिरुव 12576
गिद्द 12576
धमकी 12575
त्यासाठी 12573
डൽहि 12571
लोके@@ 12570
आतन 12569
जरुरि 12568
असल्या@@ 12566
ळे@@ 12566
पावर 12564
कट्च@@ 12563
कुन्न@@ 12562
कॆळ@@ 12562
तुटऩ् 12562
स्थायी 12560
ऒदगि@@ 12559
बर्ग 12558
पॆऱ्ऱु 12558
क्कळै 12558
तॆरकॆक्कि@@ 12555
कोल्@@ 12554
पॆऱ@@ 12553
वरुट@@ 12553
दवरु 12551
गलि@@ 12550
क्ले@@ 12549
नाट्ट@@ 12548
वॆळिये@@ 12547
सहयोगिता 12546
मुख्य़ 12542
तलु 12541
प्रकृत 12540
हालमां 12540
आएंगे 12539
शेतकऱ्या@@ 12538
स्वर@@ 12537
ंडर् 12536
वापसी 12535
रखि@@ 12534
१ः@@ 12532
कायदा 12531
चॆबु@@ 12526
करुणा@@ 12525
न्नॆ 12524
उठाया 12522
लागुत्तदॆ 12522
जाहीर 12519
कैद 12518
ह्या 12517
एंगे 12517
रहिण 12516
ॆनु 12514
छू@@ 12513
पोयारु 12513
थों 12512
is 12511
कारिय@@ 12511
लम् 12510
मलि@@ 12509
जॉ@@ 12507
सभॆयल्लि 12504
कट्चि@@ 12504
दिखाया 12502
मल्ल@@ 12501
ॆयॆ@@ 12501
बांलादेशे 12496
वरला@@ 12494
हू 12493
रने 12493
मामला@@ 12492
कूटॆ 12492
कुऱिप्पिटत्तक्कतु 12492
ੱध 12489
तीव्रंगा 12489
लीय़ 12488
खण 12487
मिश@@ 12485
वीरि@@ 12485
द्व@@ 12484
हिन्दी 12483
मुसलमान 12480
इतिमध्येइ 12479
विरोध@@ 12479
ऱू@@ 12474
कർ 12474
नियुक्ति 12471
निट@@ 12469
कनी 12469
कर्तृपक्ष 12468
पुकार् 12467
क्र 12466
सशस्त्र 12465
निർम्@@ 12465
दुनिया@@ 12463
मायिरु@@ 12461
आप्यो 12459
ओर@@ 12458
बिशाल 12456
दले 12455
od@@ 12454
क्काल@@ 12454
कौश@@ 12452
चेशा@@ 12452
घेतले 12452
स्रोत 12451
तैप् 12451
स्नेह@@ 12449
परिहार@@ 12449
ेऱ्ऱ@@ 12449
चूड़ान्त 12448
बाला@@ 12447
अनेदि 12446
उल्लेख@@ 12445
दिशा@@ 12445
पेरुं 12444
आब@@ 12443
ियाद 12442
क्कल् 12442
कळैच् 12442
कॊलपातक@@ 12441
नऩ्ऱि 12440
रें 12439
बेडि 12438
ंदागि 12438
अनुष्ठान 12436
१०० 12435
गीत@@ 12434
लुः 12433
विൻऱॆ 12432
पीड़ित 12431
अल्ला@@ 12428
निर्वाचन 12428
उळ@@ 12428
उत्तरा@@ 12427
संसार 12427
सभार 12426
नीनु 12426
नालु@@ 12424
ट्टिൽ 12424
इरुक्क@@ 12422
बंदिदॆ 12419
रह्यां 12418
अनू@@ 12416
पुरस्@@ 12415
अकाली 12415
उतर@@ 12414
सुझाव 12414
ल्ड् 12413
िली 12413
महासचिव 12413
वरुन्न 12408
दाँ@@ 12407
उनि 12407
ज़े 12406
मॅ@@ 12406
सें@@ 12404
वाल@@ 12402
रिंग 12402
लाल् 12401
ळ्ळि@@ 12399
पडशे 12398
अतऩै 12398
पिऩ्प@@ 12397
अपर 12395
वरॆगू 12393
जाल@@ 12389
उत्तम@@ 12387
पायि@@ 12386
वच्चे@@ 12386
बला@@ 12385
रेन 12383
वाह 12383
तत्काल 12382
पणं 12382
काल्@@ 12381
महिळ@@ 12380
समाधानं 12380
देखि 12379
कोल्पो@@ 12378
पञ्च@@ 12377
यद 12377
प्रतिकरि@@ 12377
करमैन 12376
काकुंडा 12376
सूक्षि@@ 12375
भू 12374
चारी 12372
देशमां 12371
प्ति@@ 12369
चौकशी 12369
महत्त्वा@@ 12368
वर्षीय 12367
जम@@ 12364
स्को 12363
यिट@@ 12363
रेल्वे 12360
स्वयं@@ 12356
क्कॊळ्ळ 12350
तङ्क@@ 12349
प्पिच्च 12348
नजर@@ 12347
त्याच्या@@ 12346
वरैयुम् 12344
कोरिया 12341
अयि@@ 12338
जद 12338
पोक्कुवरत्तु 12334
नोटि@@ 12332
ब्यू@@ 12332
क्ति@@ 12331
सुकु@@ 12330
कालंलो 12330
परी@@ 12329
किऩ्ऱतु 12329
इंस्टाग्राम 12326
सथान 12324
कटर 12322
समये 12319
जरिगि@@ 12319
सम्पर्कित 12316
सबु@@ 12316
संगी@@ 12314
ज्योति@@ 12314
2022 12314
कळाय 12313
सूक्ष्म 12310
त्तिൽ@@ 12305
पट्ट 12302
रॆंडो 12301
उद्दिन 12298
उऱुति@@ 12298
नटप्पा@@ 12297
आदा@@ 12292
प्पी@@ 12292
अञ्चल 12289
मोर 12289
ज्यां 12287
बन्धं 12287
वधारो 12286
K 12282
ळुक्कु 12281
बलछेन 12280
मण्ड@@ 12276
तुताऩ् 12275
op@@ 12274
द्धि@@ 12269
फलि@@ 12269
वन्नू 12267
वरतों 12266
अफगानिस्तान 12264
रल् 12264
य्यारु 12262
ओय़ार्@@ 12261
वस्त्र@@ 12261
क्कर@@ 12260
करुतु@@ 12260
ूर@@ 12259
जिੱ@@ 12258
कब 12256
बीसीसीआई 12256
कुऱु@@ 12256
अवरि@@ 12254
आह्बान 12253
मऱुपटि 12253
न्त्र@@ 12252
गरी@@ 12252
टीमि@@ 12252
गोटिए 12252
र्कळै 12252
आक्@@ 12251
तुटङ्ङिय@@ 12251
चॆय्युन्न@@ 12251
c 12250
अर्जुन् 12248
तियां 12246
साहेब 12244
जाया 12241
किऩ्ऱ@@ 12241
देरओ 12240
वास्तव@@ 12238
निंदा 12236
नम्मुटैय 12236
अपाय@@ 12234
सित्तु 12234
क्कणमॆन्न् 12231
हैक्कोटति 12231
ध्रु@@ 12230
अतिशय 12229
गौरव@@ 12228
गईआं 12225
तॆरियविल्लै 12224
दूसरों 12223
न्याया@@ 12222
स्स@@ 12219
आहे@@ 12218
समाधा@@ 12218
रसू@@ 12218
सिरि@@ 12217
तुमच्या 12214
बिषय़टा 12210
सम्मति@@ 12208
लूक 12205
the 12205
किछुटा 12205
गळू 12203
बछरे 12202
पकुतिकळिल् 12202
बॆलॆ 12200
सेंटर 12198
विद्युत 12197
माൻ 12197
टम 12196
मनुष@@ 12196
नाच्या 12196
गिरि 12194
क्ता 12193
और@@ 12192
ऎक्क@@ 12190
राजपूत 12188
इन्ड@@ 12187
गाल 12186
आलि@@ 12184
कैबिनेट 12184
मॊऴि@@ 12183
निम्नलिखित 12179
सलागुत्तदॆ 12177
क्कैयिल् 12177
मराठी 12175
टीसी 12174
विरुੱध 12174
वॆल्ल@@ 12171
त्तिऩर् 12171
संबन्धिच्च 12169
z@@ 12168
डेट 12167
वारं 12167
सुषमा 12166
मोहाम्मद 12166
कटु@@ 12165
अल्प 12164
निति@@ 12164
पयि@@ 12162
ारॆ 12162
दांतो 12161
जस्ऱ्ऱिस् 12161
ताब्यात 12160
मुऴुवൻ 12155
बृष्टि 12153
रेकर्ड 12153
जोशी 12153
बिद्यालय़ 12152
कल्ल@@ 12152
दूत@@ 12151
वळि@@ 12150
तक्रार 12149
चेक 12148
मेघ@@ 12148
दिलेन 12148
धारी 12147
आरब 12146
ऎल्लाम् 12145
प्रादेशिक 12144
क्रिकेटर 12144
कैंसर 12144
दिय़ेछिल 12143
कक्ष@@ 12139
षु@@ 12139
ोनी 12139
कारी@@ 12137
सूर्य 12136
गੰभीर 12135
डिगा 12133
तसवीर 12132
कण्टु@@ 12131
अभिज्ञता 12130
घटनास्थळी 12130
प्रीति@@ 12128
जिज्ञेस 12126
ळ्ळऩर् 12126
करायाइथिला 12125
सामान्य@@ 12124
शिव 12124
केलं 12123
संग 12121
ंब 12119
रजिस्ऱ्ऱർ 12119
पलर् 12119
भरे 12116
्ली@@ 12114
त्यावर 12112
य़नि 12108
कइ 12106
वन् 12101
ल्ले@@ 12096
दुसर@@ 12096
लीगेर 12094
बाही 12093
उंदा 12091
मण्डल@@ 12088
कोथाओ 12087
सकी 12087
चॆऱिय 12086
बोले 12084
करतां 12083
ढांचे 12083
विद्याർथि@@ 12083
हाँ 12082
कर्ताओं 12082
मत्सरि@@ 12081
सहभागी 12080
पुर्@@ 12078
अतडु 12077
खुश@@ 12076
पराजय@@ 12075
बारि@@ 12072
ल्लिन 12070
डार@@ 12069
रमेश 12069
मऩित 12069
डैन 12067
एने@@ 12063
आटो@@ 12063
निर्धार@@ 12061
बीज 12059
विऱ्कु 12059
ठो@@ 12057
मट्टु@@ 12057
ङ्ङൾक्कुं 12057
वർषं 12055
नालुगु 12053
ओवर 12052
ण्णु@@ 12051
विपत्तु 12051
कॆयन्नु 12049
हवाले 12047
तस्वीरें 12046
जगा@@ 12045
वासी 12044
ऎन्नो 12043
करुछि 12043
ट्वि@@ 12042
डाउनलोड 12041
ऴा@@ 12041
भक्@@ 12039
कन्या 12038
रੱख@@ 12037
चॆलु@@ 12035
दशक 12034
आचर@@ 12034
समक्ष 12034
भारतदल्लि 12034
62 12033
चारों 12032
स़ां 12031
उत्तराखंड 12030
च्चुं 12030
लोकोनो 12029
गुल@@ 12026
चॆय्त् 12025
एइच@@ 12023
चार्य 12023
वकै@@ 12022
बर्ष@@ 12021
मिश्रण 12021
निऱैय 12021
कॆगॆ 12020
पात्रलो 12018
पोलीसु@@ 12017
शाहिद 12014
प्रभुर 12013
जियो 12013
बेइ 12011
ञ्ज 12009
डीजल 12006
हाजरा@@ 12005
चऩ@@ 12005
अतः 12004
हाल@@ 12003
अत्याचार 12003
परमाय 12003
यिलुं 12003
न्ताल् 12002
ंबर 12001
दानि@@ 11999
पार्ल@@ 11999
पट्टु 11998
होणा 11995
दम@@ 11992
जेम 11991
तलु@@ 11990
साक्षि 11989
पारम्प@@ 11988
करवानो 11988
समज@@ 11986
कलन्तु@@ 11985
दिग्@@ 11983
कार्ट@@ 11983
मागे 11983
युटऩ् 11983
स्ट्रि@@ 11982
स्ती@@ 11981
मेहनत 11978
डाटा 11976
डाइ@@ 11976
दायर 11974
ऩ्मै@@ 11974
फंड 11972
गुरुत्ब 11971
क्कळुं 11971
दानेर 11970
चिकित्स@@ 11970
आद 11970
चूऴ्@@ 11970
आगेर 11969
वरॆयुं 11969
अनुकूल@@ 11966
य्य 11966
कर्नाटक@@ 11966
मानव@@ 11966
गेंद 11962
उण्मै@@ 11962
माथा 11959
पिंग 11959
कऱ्ऱु@@ 11959
बस्@@ 11958
बाज़ 11958
अनुमति@@ 11956
रेड्डी 11954
वाहनों 11952
IC@@ 11948
उड़ा@@ 11947
कावा@@ 11947
b 11946
बाइक 11945
हैंः 11945
इटीवल 11944
तीब्र 11943
मॊऴ@@ 11943
अंदुके 11941
ब्यु@@ 11940
आर्टि@@ 11939
त्तानॆ 11938
इप्पटि@@ 11938
पौँछे 11936
टॆल्लि 11936
अध्य@@ 11935
म्भ 11932
सज़ा 11932
ट्टुळ्ळत् 11931
मकिऴ्च्च@@ 11929
हाकि 11927
निकट@@ 11924
लाना 11924
ल्लू 11924
ष्टे 11922
नम 11922
काळजी 11922
विधायकों 11921
वेय@@ 11919
राजमार्ग 11918
सिविल 11918
स्तुन्न@@ 11918
ताप 11917
कद 11917
फलं 11916
तात्@@ 11915
कें 11913
घू@@ 11912
मासेर 11912
प्रेमि@@ 11912
अर्थाॎ 11911
120 11911
नद 11908
एकदिन 11908
एർ@@ 11907
चेत 11905
आदर 11905
डां 11904
केटे 11902
तमि@@ 11901
स्ऱ्ऱർ 11901
शय@@ 11900
ञ्चु@@ 11900
ब्बर 11898
साध्यविल्ल 11898
क्कप् 11895
कोनो@@ 11894
अद्देह@@ 11893
पतनी 11892
भीड़ 11891
कच्चे 11889
सिन्@@ 11886
माध्यमिक 11884
इरुन्तार् 11884
हारा 11883
कोविंद 11882
सख@@ 11879
तोड़ 11879
नृत्य 11878
जाहा@@ 11878
विलु@@ 11878
चीना 11877
ऱिप्पोർ@@ 11873
आकां@@ 11869
न्डार 11869
इड 11868
सुस्थ 11868
टमिरुन्तु 11868
80@@ 11865
होस्पिटलमां 11865
बिग 11864
सास 11864
नतीजे 11864
माणॆन्न् 11862
्यू 11861
हुण 11861
लोड 11860
मेखल@@ 11860
ग्ग@@ 11854
गुन्@@ 11854
ख़ास 11854
स्थानंलो 11853
कर्णाटक 11852
जॆडिऎस् 11850
पुरे 11849
छबिटि 11847
काळात 11846
चैना 11844
हण@@ 11843
च्चाൽ 11843
अमेरिक्कൻ 11841
बछ@@ 11840
पू 11840
नव्हते 11840
पाँच@@ 11839
गिरफ 11839
तरे 11836
एकबार 11836
आपणने 11835
तिल्लै 11835
ंच् 11833
मुखोमुखि 11833
विश@@ 11833
ऎव्वाऱु 11832
रोमा@@ 11831
किरी@@ 11831
कायमटै@@ 11831
लिं@@ 11830
स्पीड् 11830
पहुंचा 11827
67 11826
रੱखण 11824
लोनू 11823
नटैपॆऱ्ऱु 11821
कद@@ 11820
ल्यान्ड 11820
खतरा 11819
ल्याने 11818
रुत् 11816
en 11814
ित@@ 11814
जताई 11811
अंशग्रहण 11810
कालज 11810
नटै@@ 11809
कालेर 11808
सरि 11808
स़ण 11808
शुभकामनाएं 11806
तिच्या 11805
ताकुम् 11805
क्षतिग्रस्त 11803
जिय@@ 11802
उत्तरी 11802
अंते@@ 11802
तपास@@ 11801
co@@ 11800
अमेरि@@ 11798
विषे 11798
क्षी@@ 11795
प्रीमिय@@ 11793
तोने 11792
बॉक्स 11792
प्रतिनिधित्व 11790
अली@@ 11789
विनियो@@ 11789
बोन 11788
नीण्ट 11784
परिचाल@@ 11782
विवे@@ 11782
नव्@@ 11782
पशु 11780
टेक्@@ 11780
सुविधा@@ 11778
पोट्टियिल् 11778
वनुं 11776
गोष्ठी 11773
अया@@ 11773
दिद्दारॆ 11771
कार्यकर 11769
दरु@@ 11769
अंदुकु 11769
चलता 11767
विजेता 11767
स्वप्@@ 11767
दास@@ 11765
प्राप्त@@ 11765
दैवं 11765
पिक्@@ 11764
जाणी@@ 11764
देवु@@ 11764
राज्यद 11764
अक्टोबर 11762
डिया 11762
क्कॊण्टु 11759
अन्ना@@ 11758
गुजरात् 11757
सुल@@ 11756
रावु 11755
िय्@@ 11754
व्यवसा@@ 11754
अमैच्चकम् 11753
वरकू 11753
एन्ड 11752
2009 11752
झू@@ 11752
छय़ 11751
छाड़@@ 11751
सरल 11751
व्ही@@ 11751
तकनीक 11749
अमॆरिक्का 11749
तॆरञ्ञॆटुप्प् 11747
पोष@@ 11745
श्रा@@ 11745
पॆरुम्पा@@ 11745
णगे 11741
षूटिंग् 11741
जीता 11738
कूल@@ 11735
मऩ्ऩि@@ 11735
मूर्@@ 11733
दूरे 11733
कलिगि@@ 11732
तॆन्नुं 11730
बजाय 11728
निको@@ 11724
कमिटिर 11723
नुन्नारु 11722
उठाने 11721
वस्तुओं 11721
र्लु 11719
वच्चि@@ 11718
पिऩ्@@ 11718
पट्ल 11717
कत्ति@@ 11717
प्रमादं 11717
जेलाय़ 11716
ुर 11715
पाർट्ट@@ 11714
तियु@@ 11713
वरै@@ 11711
बढ़ती 11711
Ch@@ 11707
मकि@@ 11707
सिक्कि@@ 11704
चौधुरी 11703
तरलि@@ 11703
मसू@@ 11702
खेले 11702
बरे@@ 11702
राज्यात 11701
तावतुः 11701
लीय 11700
अंतर्जातीय 11697
रलिल्ल 11696
चैन 11695
रूपये 11693
वऱ्ऱ@@ 11691
विप@@ 11689
इतनी 11689
वाक्य@@ 11688
समस्यॆ 11688
बस्तु 11686
पेच्चु@@ 11686
हस्ता@@ 11685
तद@@ 11684
करुत्तु 11684
पूर्तिगा 11684
नंबि@@ 11681
वास्ते 11678
ൻसि@@ 11678
उदा@@ 11677
यात्र 11675
कोर्ट@@ 11672
पारब 11672
आज्ञा@@ 11670
्त 11670
63 11670
लॉकडाउन 11665
तोल्@@ 11665
कुऴ@@ 11664
डिमांड् 11663
न्यूडൽहिः 11660
बच@@ 11659
उंटु@@ 11659
कायम् 11658
निं@@ 11657
पुऱत्ता@@ 11657
उॎपादन 11654
हत्या@@ 11654
सबूत 11654
ऎन्निवराण् 11654
पाहा@@ 11653
नीरि@@ 11650
गोष्टी@@ 11650
अभिषिक्त 11648
पिरतेच@@ 11648
खेल@@ 11645
आस्पत्रिकि 11645
बॆंगळू@@ 11644
दिसंबर 11641
तुमसे 11640
एकेबारे 11639
लवकरच 11639
ग्लो@@ 11637
मेऱ्पट्ट 11637
लाही 11636
एरि@@ 11636
साइड 11634
नेरत्तिल् 11634
ताम@@ 11633
ऱियु@@ 11632
शाही 11631
रखें 11631
वाडु 11630
वੱल 11630
साधन@@ 11627
अमर@@ 11626
दुर 11625
संबंधा@@ 11624
अमेरिक्क@@ 11623
कोष 11619
गॊंडि@@ 11619
अजि@@ 11618
किस्@@ 11618
संबोधन 11618
ब्यर्थ 11617
प्पॆटुन्नु 11617
माणित् 11616
कामा@@ 11614
मान् 11613
विज्ञा@@ 11613
छतां 11612
चिव@@ 11611
प्पिक्काൻ 11611
अटिस्थान@@ 11611
स्तुन्नाडु 11611
कार्यकर्ताओं 11610
दीनि@@ 11609
इणैन्तु 11609
स्मिथ 11607
संत@@ 11607
बाग 11605
सरबराह 11605
बिल्कुल 11605
फुल 11600
प्रचलित 11600
पिन्नालॆ 11600
रवाना 11599
स्थगित 11598
शियल 11598
न्माർ 11598
le@@ 11596
स्पोर्@@ 11594
आईए@@ 11592
कोर्टु 11592
अक्@@ 11589
सैफ 11589
अंदाज 11589
हिरिय 11588
पर्यट@@ 11583
शनि@@ 11582
सीए@@ 11582
अन्य़ 11582
बाड़@@ 11581
कोरु@@ 11581
रालेदु 11579
वੱडा 11576
ist@@ 11575
गुलि@@ 11574
ॆगळ 11574
हल्@@ 11573
न्या 11573
मोश@@ 11571
गोष्ट 11570
तेति 11570
िलै 11568
किशोर 11567
िय 11567
किं 11566
समागम 11564
अधिकृतർ 11564
देइ 11561
च्चिरु@@ 11561
बाबे 11559
कालु@@ 11559
पुरि@@ 11559
क्षेत्रा@@ 11559
लक्ष्यं 11557
किरिक्कॆट् 11557
कारणों 11556
पोलिस् 11556
जाणार 11556
चरित्रे 11555
सिवा 11555
ter@@ 11554
आयनकु 11554
पोर् 11552
ळो 11551
मेगापिक्सल 11549
नൽकियि@@ 11549
प्पटुकिऩ्ऱऩ 11549
शिप 11547
ग्रन्थ@@ 11545
उमेदवार 11545
भेद 11544
{ 11542
नावा@@ 11542
पणम् 11539
सुप्रीं@@ 11537
पहुँ@@ 11537
भरी 11536
दृढ़@@ 11535
स्ट्रे@@ 11533
हबेन 11531
फ़ैसला 11531
जिबि 11528
भेजे 11528
वंश@@ 11528
सॉ@@ 11528
यारू 11528
सीईओ 11527
तॆलिपिंदि 11524
इताण् 11523
तली 11522
सुत्तेनॆ 11522
कॊंडिद्दारॆ 11520
मॊबैल् 11520
याकॆ 11519
५ः@@ 11518
दुजन 11517
आरोपों 11515
त्ৰ@@ 11513
प्रतिबाद 11513
पेशा@@ 11512
उपयो@@ 11512
ऎत्र@@ 11512
इंट@@ 11508
टीआं 11508
ट्वी@@ 11507
ay@@ 11501
उठेछे 11499
तियाऩ 11498
२०११ 11497
क्कूटिय 11497
य़ी 11495
मऱ्ऱुळ्ळ@@ 11493
ऩ्ऱुम् 11491
बीएस@@ 11489
हिस्सों 11489
मानो 11487
ढी 11487
नेइ@@ 11483
उम्म@@ 11481
तीर्कळ् 11481
ड़ाय़ 11480
साम्@@ 11479
ity 11479
खतिय़े 11478
नभेम्बर 11478
भाङ@@ 11475
दोवें 11475
इथे 11474
तॆलुङ्कु 11474
अत्य@@ 11473
बल्@@ 11471
29@@ 11468
रीत 11468
1.5 11468
अल्लाहु@@ 11466
ऒंद@@ 11466
स्वन्तं 11466
कोवडानिकि 11466
खिला@@ 11465
पृथ्वी@@ 11463
चोणां 11463
मुताबक 11460
यूनीवरसिटी 11460
ड़ने 11458
ङ्कळा@@ 11458
भौतिक 11455
उपयोगी 11455
ंलोने 11454
मरिच्च@@ 11453
हेठळ 11451
वन्न 11451
पटा@@ 11448
प्रवेशिप्पिच्चु 11448
मकൻ 11447
ऒऩ्ऱु@@ 11446
गोपाल 11443
कारीरा 11443
न्यूजीलैंड 11443
ऎष्टु 11443
वागुत्तदॆ 11443
जप्पा@@ 11443
सपा 11442
ङ्किൽ 11442
सिबि@@ 11438
निमित्तं 11438
कमे 11437
जनं 11437
त्वरलो 11437
हाईकोर्ट 11436
डंतो 11436
नेपथ्यंलो 11433
वण 11432
ect@@ 11429
कॊण्टाण् 11429
सीतारा@@ 11428
बिमान@@ 11427
शून्य 11427
श्रद्ध@@ 11427
नटपटिकൾ 11427
ak@@ 11425
चाह@@ 11425
शुरूआत 11423
परुक्के@@ 11418
तिरुवनन्तपुरं 11417
निय़मित 11415
च्यु@@ 11414
तण्णीर् 11414
वधीआ 11414
वटि@@ 11413
पळ्ळ@@ 11410
भेद@@ 11408
अब्दु@@ 11407
इऩ@@ 11407
वंत 11406
विमर्श 11406
किह@@ 11405
बेँचे 11402
गिरि@@ 11401
कनत्त 11401
ऒतु@@ 11401
विद्यार्थियों 11400
माऱ्ऱम् 11400
िय़ेछेन 11398
भरि@@ 11397
अऩ्ऱु 11395
तेर्तलिल् 11395
हिंसा@@ 11393
सद्य 11392
फ्लि@@ 11392
तिंग@@ 11391
खेळ@@ 11391
पॊलि@@ 11390
टॆक्@@ 11387
रनी 11386
अधिक@@ 11384
आराम 11384
वर्ण@@ 11384
चेसुको@@ 11384
प्पटि 11382
72 11381
बाबु@@ 11381
कीऴ@@ 11381
इऱा@@ 11379
दुख 11377
बिस्@@ 11374
चोटु 11373
चिऱु 11373
आमेरिका 11371
ङ्ङा@@ 11368
करदी 11366
मिन 11365
अनुदान 11364
मुंद@@ 11361
लिह@@ 11358
परिवारों 11358
चलने 11357
सीनियर् 11357
ऎदुरि@@ 11356
मऴ 11356
पुऱत्त् 11355
सम 11352
लुक 11351
तीरुमानि@@ 11350
सिदनु 11349
क्षम@@ 11347
मंत्रियों 11347
सहमत 11345
वर्ग@@ 11345
चॆप्पु@@ 11345
३५ 11342
गईं 11342
कीतीआं 11340
ऎऩ्ऱाल् 11337
शेय़ार 11335
सबाइके 11334
ट्रिक 11333
कुटुंबं 11332
याचे 11330
तुले@@ 11330
नियंत्रित 11330
विफल@@ 11328
बोली 11327
प्राधिकरण 11326
औसत 11325
इनियुं 11324
वसू@@ 11323
जिंग 11321
वऴिय@@ 11320
जाव@@ 11319
ैया 11319
आगू 11319
कूऱिय@@ 11319
जागा 11318
ब्यबहार@@ 11318
नयी 11318
खेलते 11317
शाम 11316
काळा@@ 11315
इऩ्ऩ@@ 11314
माडलागिदॆ 11311
सबसमय़ 11309
प्रकटन 11309
बिद 11308
नाला 11307
इल्लि@@ 11306
आळुकൾ 11306
चम्पव 11306
उपभोक्ता 11305
व्यस्त 11304
भौ@@ 11303
िलि 11301
रखे 11299
जलवायु 11298
भळि 11297
किलोमी@@ 11295
पृथक 11294
नीत 11293
स्टू@@ 11293
पलि 11292
गुना 11292
ऎवर@@ 11291
हारि@@ 11290
लेस 11289
अतिनॆ 11289
भुक्त 11286
शब्दों 11286
पिल्ललु 11286
कर्मीदेर 11285
भाजपना 11282
रत्@@ 11281
बिडुगडॆ 11281
चॆय्तार् 11281
हानी 11280
अभिवृद्धि@@ 11280
कृष@@ 11279
ट्टी@@ 11277
तॆयन्नु 11277
68 11276
कस्ट@@ 11275
इरुक्किऩ्ऱऩ 11274
परिस्थिति@@ 11270
दोवां 11267
भारतना 11263
पांच@@ 11262
तिथि 11261
त्तॆयुं 11261
PM 11260
न्यु@@ 11259
ब्यांक 11259
हेबा 11259
निवास 11259
घटनाओं 11259
मिर 11258
ियिल्ल 11258
जित@@ 11257
उऱुप्पिऩ@@ 11256
नेतलु 11253
ौर 11252
णिआ 11250
दिबस 11248
अवसानि@@ 11248
राज्यमंत्री 11246
चॆय्ततु 11246
यिल् 11245
खून 11242
आत्महत्य 11241
ड़े@@ 11240
आसमान 11239
शिक्षि@@ 11238
गंट@@ 11238
इच्छा@@ 11236
क्कट@@ 11236
घट्ट@@ 11235
II 11234
उण्मै 11234
मेडिकेल 11233
पास@@ 11233
प्पं 11233
षऩ् 11232
त्तोळं 11231
यॆहोवा@@ 11230
ठोस 11229
निऱैवे@@ 11227
उल्लेखनीय 11225
हारिय़े 11224
नकार 11220
असलु 11219
10.@@ 11217
हाद@@ 11216
समीपि@@ 11216
संगठ@@ 11213
कावल् 11213
युक्तराष्ट्र 11212
क्रेडिट 11210
माध्य@@ 11208
तोला 11208
प्रावधान 11208
जऩातिपति 11208
इस्रा@@ 11207
प्पटुत्त 11207
जांदी 11206
ङ्ङळिलॆ 11205
ड़िय़े 11203
म्हणा@@ 11203
विऩ@@ 11202
परिहार 11200
तरीका 11200
सिऎं 11200
बनाम 11199
इउ 11196
चन्तोष@@ 11196
संस@@ 11194
स्मारक 11194
तुटङ्ङ@@ 11194
जमी@@ 11193
मज़@@ 11193
स्थळ 11193
वुदागि 11191
कण्णु@@ 11190
निवडणुकी@@ 11190
परिस्थिती 11189
ऱां 11189
लोन 11188
इमार@@ 11188
परेशान 11188
व्यवस्थ 11186
कथाय़ 11185
व्यक्@@ 11185
ओय़ान 11184
उपभोग 11183
चारा@@ 11181
श्रीनगर 11181
तॊटर्पु@@ 11176
बरो@@ 11175
सुलु 11175
चक्ति 11175
ऩुटैय 11173
वृत्त@@ 11172
प्रश्नं 11172
नाट्टिल् 11172
कर्ना@@ 11171
अब्याहत 11169
व्यावसायिक 11169
ऎप्पटि@@ 11169
नरी 11168
सभयिൽ 11168
उळ्ळार् 11168
नटपटि@@ 11167
पालिका 11166
चॆय्ति 11166
बाणी 11161
कॉल 11160
वाळ्ल@@ 11158
अत्या@@ 11154
आवड@@ 11153
शताब्दी 11152
कार्यक्रमंलो 11150
नटत्तिय@@ 11149
इयाൾ 11149
ट्टतु 11148
सिसि 11145
लियो@@ 11145
जेवा 11144
कर्ज 11142
बेस्ट 11140
वलन 11140
धीर 11139
कुण@@ 11137
वॆच्चु 11137
केळ्वि 11134
सेप्टेम्बर 11129
हता@@ 11128
टक्कर 11128
नक्की 11128
1000 11126
उइकेट 11124
आइए 11122
५ः 11121
स्ने@@ 11119
सथिती 11119
राने 11118
दण्ड 11116
कुणा@@ 11116
गञ्ज 11115
प्स 11115
मुय@@ 11114
इप्पोतु 11114
ढी@@ 11113
बैबिൾ 11112
त्तिल@@ 11111
ूर 11110
नजी@@ 11109
नियाय@@ 11109
पाला@@ 11108
ियान 11108
कुठ@@ 11107
जिवें 11107
बिबाह 11106
रीआं 11106
St@@ 11105
पयऩ्प@@ 11104
लड़@@ 11100
कऴिञ्ञु 11098
अऱिवियल् 11098
याके 11097
इंदिरा 11097
बाळको 11097
चੰ@@ 11096
ऎऩ्ऩुटैय 11096
व्यव@@ 11095
सुवंतॆ 11094
शक्@@ 11093
जिं@@ 11093
बढ़ने 11092
हेठ 11091
प्रेरि@@ 11087
अधिकतर 11087
पन्@@ 11086
प्रणा@@ 11086
श्रद्धांजलि 11086
तरां 11085
संधी 11085
चाँ@@ 11083
.@@ 11080
औरत 11078
परिषेबा 11076
क्षन् 11076
ब्यबस्थार 11075
मार्कॆ@@ 11075
वित्तियाच@@ 11075
फेल@@ 11074
मोटर 11074
करिब 11073
मुर्@@ 11073
मिश्र@@ 11072
लीड 11071
मामलाय़ 11069
इयक्कु@@ 11069
दिये 11067
कशा@@ 11064
आरु 11064
टाई@@ 11064
अती@@ 11062
फिक 11062
तदन्तेर 11062
परिबर्ते 11062
नवंबर 11062
सीजन 11059
शिवसेने@@ 11059
जेडी@@ 11058
तवि@@ 11057
आसानी 11054
प्राइ@@ 11052
मुक्कियमाऩ 11049
पोते 11048
वजन 11048
नष्टं 11048
क्षणि@@ 11045
मारि 11045
निषेध 11044
res@@ 11044
राधा@@ 11042
वृद्ध@@ 11040
नण्प@@ 11040
टिस 11039
अयिन 11039
चोख 11038
पॆऱ 11035
किल् 11033
अतिनु 11032
बण@@ 11030
अळवु 11030
दाऊद 11027
कहिथिले 11026
मर् 11025
चेसुकुंदि 11024
पेराण् 11023
प्रोगराम 11021
तारे 11018
पिआ 11018
चर्च 11018
स्थिरीकरि@@ 11018
वियै 11018
रियल 11017
तक्कुव 11017
प्रतिक्रिय़ा 11014
इंजन 11012
फरा@@ 11010
ज़ो@@ 11010
ुगा 11010
चेर्त्तु 11008
चारटि 11007
नेल 11005
किलो@@ 11005
जाऊ 11003
निश्चित@@ 11002
प्रक्रिय@@ 11002
स्ୱा@@ 11002
तीसुको@@ 11002
फाई@@ 11001
क्किर@@ 10997
नाडु 10996
डीओ 10996
लाद 10995
युद्धं 10993
रूपॊंदि@@ 10992
धैर्य@@ 10991
ियाना 10991
सितंबर 10991
प्रवाह 10990
तप्पु@@ 10989
वय्@@ 10988
वऩ्@@ 10986
मय 10983
परिकल्प@@ 10982
लंबी 10982
राज्य़@@ 10981
सभ्युलु 10974
कृष्णा 10973
वादा@@ 10972
आवाज 10972
त्रॆ 10972
शिक 10969
हु 10968
प्रशस्ति 10968
आशीर्@@ 10964
तैय@@ 10959
उळ्ळि@@ 10958
टाइम 10957
नटन्त 10957
निऱुवऩङ्कळ् 10956
प्रचंड 10955
मियों 10955
तॊऴि@@ 10954
बेठक 10953
लईने 10950
लगाई 10950
देशर 10947
मोटरसाइ@@ 10944
गੱलबात 10944
देवरु 10943
निश्च@@ 10942
याचि@@ 10942
बय़स 10940
पाट 10939
आओय़ामी 10939
ङ्के@@ 10938
सकल@@ 10936
दिल्लिर 10936
पदार्थ@@ 10935
खड़ा 10935
दंप@@ 10934
कळिलॆ 10933
नटൻ 10933
तेच 10932
भले 10931
तट्टि@@ 10931
ओप@@ 10929
बाणिज्य 10926
साउथ 10926
तिरैप्पट@@ 10925
पड़ि@@ 10923
परामർ@@ 10922
सीनीअर 10922
इतर@@ 10919
वॆल्लु@@ 10918
विद्य@@ 10916
बास्त@@ 10915
अतिपर् 10915
कहां 10914
इउरो@@ 10913
चाहीदी 10913
टुकिऱतु 10913
दुष्ट@@ 10912
वाहि@@ 10912
गुरुतर@@ 10911
क्कप्पॆ@@ 10911
मनु@@ 10910
लयों 10910
बिक्षोभ@@ 10908
वर्कळा@@ 10906
NW 10903
निन्नु@@ 10902
येशु 10901
गौतम 10900
ग्रह 10899
ताऴ्@@ 10899
कण्काणि@@ 10899
सिरफ़ 10897
नारे 10896
संख्यॆ 10894
and@@ 10893
अवस्थ@@ 10887
अधिकतम 10885
बैठे 10885
कार्य्य़@@ 10884
क्किऩ्ऱ@@ 10883
ग्रु@@ 10881
प्राय़इ 10880
ऐपि@@ 10880
विनो@@ 10879
शेअर 10878
व्यवहरि@@ 10878
सफेद 10877
तोड@@ 10877
तथापि 10875
कॊण्टार् 10874
लास़ 10873
सांबादिक 10871
कटा@@ 10871
मवु@@ 10869
निश्चय़ 10868
पिൻ@@ 10867
बिपक्षे 10866
ढो@@ 10866
थाने 10866
बजे 10866
स़ा 10866
सामर्थ्य 10865
निय़न्त्रणे 10865
जीतने 10865
ੱट@@ 10865
नम्बर 10863
क्किൽ 10863
क्षेत्ररे 10863
काउन्@@ 10859
य़देर 10859
आन्दोलन 10858
2008 10858
अमल 10858
वाटि 10858
कुळि@@ 10858
कोशि@@ 10857
गॊंडिदॆ 10857
लिद्दारॆ 10856
पहञ्चि 10856
राऩ 10856
इवि 10855
ॉर्@@ 10853
तड@@ 10848
एऱ्पटुत्त@@ 10848
आकियवै 10847
विवचायिकळ् 10847
लार@@ 10844
वाहना@@ 10844
पडॆयु@@ 10843
तिरै@@ 10843
खेलार 10842
तमिळ 10842
इयाळॆ 10842
इङ्ङ@@ 10842
बताते 10841
चेत@@ 10840
कूडदु 10840
ऎण्णि@@ 10840
वाहतूक 10838
ऩ्पोतु 10838
म्याचे 10837
त्मक@@ 10836
आऩालुम् 10836
जुर 10834
मनि@@ 10833
ऎंबुदन्नु 10833
२०१४ 10832
कॊह्लि 10832
66 10831
बाड़िर 10831
विचारणैकळै 10828
पारेननि 10826
ंटर 10825
बृह@@ 10824
आयो@@ 10824
अस्ति@@ 10823
गिर 10823
दग्@@ 10822
विश्लेषण 10821
Y@@ 10819
टर्लु 10819
अछि 10816
महानिदेशक 10815
धो 10814
प्रभाव@@ 10811
सर्वेक्षण 10811
वाट 10809
अभिनय 10808
जरिये 10808
सूत्रे 10807
जिंदगी 10806
पंजाब् 10806
सफळता 10804
जेव्हा 10804
कृति@@ 10803
बसपा 10803
पहुੰच 10803
सेटाइ 10802
लाभा@@ 10799
वॆल्लडिंचारु 10799
सुत्तिद्दारॆ 10798
इप्पो@@ 10797
परिवर्त@@ 10797
बल्लेबाजी 10796
धोनि 10795
युमायि 10795
मेले 10794
ड्रो@@ 10793
ब्रु@@ 10792
तुं@@ 10792
स़ो@@ 10791
ऒक्क 10791
मुसा@@ 10790
सम्पर्@@ 10789
आळ@@ 10789
एट@@ 10788
होइथिबा 10788
काब@@ 10785
गेंदबाज 10784
साहचर्य@@ 10783
त्तर@@ 10782
वाग्@@ 10782
ऎञ्चि@@ 10782
कानूੰन 10782
पिय@@ 10781
न्नुवॆ@@ 10781
किऱाऩ् 10781
वासियों 10779
आक्रमि@@ 10778
पादुकोण 10776
नाते 10775
घेण्यात 10773
असॆंब्ली 10772
ऎंत@@ 10771
ऎनिक्कु 10771
01 10770
प्रक्रिय़ा 10770
डुव 10769
भूरि@@ 10767
शंकर् 10766
धुलु 10765
समർ@@ 10765
जिला@@ 10764
ंदलू 10764
पुनराय़ 10761
बढ़@@ 10760
हिँ 10759
स्ऱ्ऱो@@ 10757
ऎङ्कळुक्कु 10757
लिखे@@ 10756
अवैध 10756
आश्चर्य 10753
संस्थानत्त् 10753
लागले 10752
मातम् 10752
पङ्कॆटुत्तु 10751
किऴक्कु 10751
३२ 10748
कोट्ल@@ 10747
फ़िलम 10746
कङ्कळ् 10746
प्रवे@@ 10745
वॆच्च@@ 10745
जनगणेर 10744
गुज@@ 10742
होंगी 10742
एकसङ्गे 10741
मुं 10741
वऱ्ऱै 10741
स्कूलों 10739
माडुत्तदॆ 10738
पिक@@ 10737
एनएस@@ 10737
इंसान 10736
निय़म 10735
कॊटुत्तु 10735
घोष 10734
प्रतिय@@ 10732
वारे 10732
वराक 10732
मक्कळ 10732
कोणतीही 10731
दुष्ट 10730
बिन@@ 10730
लज्@@ 10730
टूर्नामेंट 10727
अऴु@@ 10727
चूऴ@@ 10726
वॆल्लडि@@ 10726
con@@ 10725
ूक 10725
वळा@@ 10724
कार्य्य़ 10724
अरचाङ्कम् 10724
ऩिय 10724
प्रसि@@ 10723
शीलता 10721
र्ति@@ 10720
भारताच्या 10718
असली 10715
परिपूर्ण 10714
क्केण्ट 10714
याज@@ 10713
ंगाने 10713
बिस्तारित 10712
स्टाफ 10709
टकु 10709
नियमं 10708
to 10707
आस्था 10706
युलु 10706
ट्टर् 10706
निवारण 10703
अखिल 10702
पीपी@@ 10702
्रे 10700
स्थळक्कॆ 10699
ञङ्ङൾक्क् 10699
शित 10698
मुटिया@@ 10698
वुदरिंद 10698
मासिक 10695
भारतर 10695
ऎडि@@ 10695
इन्त्ययिलॆ 10693
नൽकियत् 10692
तॊऴिल@@ 10691
धरलु 10691
श्रील@@ 10689
सटे@@ 10689
अल्लदॆ 10687
हें 10684
हाइ 10683
बुद्ध@@ 10683
ऎतिर्प्पु 10683
निर्बाचनेर 10682
टाळ@@ 10680
उद्देश्ये 10679
तिळ@@ 10678
आफ 10677
sh@@ 10675
फिरिय़े 10674
कुर 10674
हाय@@ 10674
ट्लो 10673
ॆन्नु 10672
मर्यादा 10670
अरॆस्टु 10670
दक 10667
माऱ@@ 10667
नीतिमऩ्ऱत्तिल् 10667
आसन 10666
चॆय्तिट्टुण्ट् 10666
राग 10664
हारे 10663
ऎतिराऩ 10661
मरी@@ 10660
रघु@@ 10659
लागु 10658
विद्यार्थ@@ 10658
डः 10657
कमजोर 10657
ण्णि@@ 10657
िय़न 10656
बन्धि@@ 10656
ऎङ्किलुं 10656
किल्ल 10655
ब्याज 10653
ऎन्ना@@ 10653
पकुति 10652
जिते@@ 10650
कोळ@@ 10649
आत्मह@@ 10648
द्दरू 10648
यत्@@ 10647
अदुपुलोकि 10647
आय्कॆ@@ 10646
उमे@@ 10645
सेमाने 10645
राकुल् 10642
वलियुऱु@@ 10642
पैपि@@ 10641
कवलै@@ 10641
षनु@@ 10640
ङ्कळैक् 10640
गੱलां 10639
रिश्ते 10638
श्रेणी@@ 10637
केन्द्री@@ 10636
बेला 10635
आमच्या 10634
चॆप्पा@@ 10633
पੱधर 10633
युवति 10631
तथ@@ 10630
ङ्क् 10630
पৰ@@ 10628
नेवाला 10628
मुस्लिं 10628
उणा 10626
मुना@@ 10625
प्रश्नेर 10625
नटवटिक्कै@@ 10624
जिੱथे 10623
काही@@ 10622
वेऱु@@ 10621
अमैप्पु 10618
हं 10617
न्तुळ्ळऩर् 10617
पৰि@@ 10616
हुक्म 10616
करवो 10615
प्पॊ@@ 10615
चॆयल्पा@@ 10615
श्रद्ध 10614
तेनुं 10614
नीआं 10614
मूलं 10613
क्रिया 10612
विस्तार@@ 10610
लंदन 10610
करण्यास 10610
ल्ड@@ 10609
ऒन्नि@@ 10609
आईपी@@ 10605
वट 10605
िली@@ 10604
कटऩ् 10602
अंग 10599
लीधी 10599
येटा 10597
विकॆट् 10597
युण्ट् 10597
टिम 10596
वरसा@@ 10596
म्च@@ 10595
३३ 10594
प्रस्तु@@ 10594
सुन 10594
स्ट्रो@@ 10594
नाट्टु 10594
युव 10594
दीन्नि 10593
लाय 10592
भद्रता 10590
परीक्ष 10589
खर्चु 10589
म्ताऩ् 10589
ंदर@@ 10588
जांदे 10587
टाने 10583
कोह्ली 10582
२०१८ 10581
स्कुले 10581
जागरूकता 10581
घंटे 10581
साझेदारी 10580
न्वित 10579
करोना@@ 10578
पड़ा@@ 10578
विस्तरि@@ 10578
नटत्ति@@ 10576
बाक्@@ 10575
चर्य@@ 10575
सुविधाओं 10575
उयर् 10575
बेसरकारि 10574
टेली@@ 10570
तुमको 10570
अर्थं 10570
भलाई 10568
तऩ्ऩ@@ 10567
जेने 10566
पौँछा@@ 10566
एऱ्पटुम् 10566
प्रभाबित 10564
ढा 10561
वੱडे 10561
नितिन 10560
प्रतिरोध@@ 10559
कपो@@ 10558
स्वरू@@ 10558
युक्ति@@ 10557
तुला 10557
तुर्@@ 10556
इव्वा@@ 10555
त्त्@@ 10554
स्वीकार@@ 10554
बालिवुड् 10554
घटक 10552
प्पू@@ 10551
इवर्@@ 10551
त्यारबाद 10550
ववा 10549
छिले 10548
टुकु 10548
वेण@@ 10547
आरि@@ 10545
वायितु 10545
आकियो@@ 10545
वार्त्तै@@ 10545
धारणा@@ 10544
उत्तरं 10544
सू 10543
श्वर@@ 10542
पॊरुत्त@@ 10542
तौ@@ 10539
त्तियत् 10539
अताण् 10538
ent 10537
पूर्ण्ण 10535
आओताय़ 10534
तयारी 10534
यॆहोवनु 10533
वाज@@ 10532
at 10531
प्रभार 10531
पड़ेन 10530
इरण्टावतु 10529
तेओने 10528
फ्लो@@ 10527
ट्रान्@@ 10527
माझा 10527
स्फो@@ 10525
पावसा@@ 10524
गौर 10522
गामना 10522
जनों 10522
पश्चा@@ 10520
माथाय़ 10520
न्नां 10520
ऎच् 10520
किउ@@ 10519
पल्@@ 10519
ज़ोर 10519
नव्हती 10518
मासं 10516
पडुतुंदि 10516
दृष्टान्त@@ 10515
निवार@@ 10515
बाहु@@ 10513
r 10513
पैकि 10513
केरळत्तिൽ 10513
नीर्@@ 10512
मायुळ्ळ 10510
आउट@@ 10509
फरी@@ 10509
पोऩ्ऱ@@ 10507
कॊनसागु@@ 10505
असंख्य 10504
शस्त्र@@ 10503
चुर@@ 10503
वऴक्क@@ 10503
निध@@ 10502
तुमने 10502
वेगं 10502
समयत्त् 10501
शुक्र@@ 10500
आपदा 10500
ੰद@@ 10499
दंड@@ 10498
जळ@@ 10497
बारी 10496
हेला 10495
सारीआं 10494
तऩियार् 10494
अऱु@@ 10493
चित्रपटात 10492
अभिने@@ 10491
दने 10491
विद्@@ 10491
वेण्ट 10491
टाൻ 10490
मैंट 10489
नीतीश 10488
माडिकॊळ्ळ@@ 10488
सुर 10486
ऱ्काऩ 10486
तुलनु 10485
परिचु@@ 10483
जाग@@ 10482
कैपटन 10482
कळ्ळ@@ 10482
तत@@ 10480
ऎरडू 10480
सुबि@@ 10479
100@@ 10478
पड़ी 10478
एलि@@ 10474
वखत 10471
लिया@@ 10470
परस्प@@ 10468
चुना 10468
क़ौम 10468
आमदार 10468
कांत 10466
२०१९ 10463
एदिके 10463
किम 10462
सिपि 10462
बनर्जी 10462
अवचियम् 10462
प्रदर्शन@@ 10461
आपस 10461
णीय़ 10460
बिक्रि 10459
प्पॆटुन्न 10459
मावट्टम् 10459
वान@@ 10454
मिक्क@@ 10454
यल् 10454
परिहरि@@ 10453
एकत्रित 10451
सोम@@ 10450
मकऩ् 10449
कमल 10448
बेर@@ 10444
तंत्रज्ञान 10444
स्टार्@@ 10443
माकु 10442
मेऱ्कु 10441
पयऩ@@ 10440
मोटा@@ 10438
साली 10438
नीती 10438
कৰि@@ 10437
ियुङ्कळ् 10435
वरिऩ् 10434
म्प 10433
यिऩर् 10433
करवी 10431
मुजब 10430
नव्हता 10430
पंचाय@@ 10429
संस्कृ@@ 10428
वाणी 10427
ट्रां@@ 10426
बेहतरीन 10421
त्तित्तु 10421
कानूनु 10420
साथे@@ 10419
बाप्तिस्@@ 10418
वास्त@@ 10418
रास्ते 10418
वर्कळाक 10418
ट्प@@ 10417
परमेश्वरा@@ 10417
प्रय़ो@@ 10416
स्पर्ध@@ 10414
ण्डेर 10413
बाहरी 10412
ट्टुळ्ळतु 10410
मऩैवि 10409
क्कൻ 10408
तिनाൽ 10408
जिते 10407
साग@@ 10406
बिजेपि@@ 10405
जिक 10404
अंता 10404
तंड 10404
एदिन 10403
ङ्कार 10403
तरा 10403
रिपोरट 10403
िय़ाल 10402
मोदीर 10402
वाय्@@ 10402
सोस़ल 10402
तियुं 10401
पुकैप्पट@@ 10401
दप्तर 10400
नदीर 10399
अयोध्या 10398
वर्ति@@ 10397
पुराने 10394
12.@@ 10393
तुलनाय़ 10392
बलात्कार 10392
माट 10391
अंग्रे@@ 10390
भूम@@ 10389
जीब@@ 10388
जाग्र@@ 10388
संख्यक 10387
विश्वविद्या@@ 10387
तायुं 10387
पोतिलुम् 10387
सकलेर 10386
ऎंदिद्दारॆ 10386
नडि@@ 10385
कळॆद 10385
शता@@ 10384
रुचि 10384
गॆलि@@ 10383
कळॆयुं 10383
निजस्ब 10382
फेले@@ 10381
कॊरोऩा 10377
प्रबंध 10376
मुयऱ्चि 10376
न्नुमिल्ल 10375
कलम 10373
कंई 10372
दॆहलि 10372
न्यायालयाने 10371
अन्यदिके 10369
रेखे@@ 10369
रोगि@@ 10369
ुलनु 10369
संस्थार 10367
उण्टायिरुन्नु 10367
गान@@ 10366
याइथिला 10366
नाट्@@ 10364
सोना 10364
फ़ो@@ 10363
विൻ 10363
क्षी 10362
हरिआणा 10362
किंमत 10361
बेकॆंदु 10361
स्थायिलो 10359
सिੰ@@ 10357
मानब 10356
किट 10355
माय़ेर 10352
प्पिटि@@ 10351
जोड़ा 10350
मन्नारु 10350
त्तैच् 10349
प्रबल 10348
निर्मा@@ 10348
वैन 10348
ाൽ 10348
दिवसा@@ 10346
शृ@@ 10345
एलाका@@ 10344
प्पटुत्तुम् 10344
नरिੰदर 10342
गामी 10341
तर्क 10341
गूगल 10341
त्तिऱ्कुम् 10341
दीनिनि 10339
प्राणी 10338
व्य 10338
तिऱऩ् 10338
निय़ार 10335
देखी 10335
अभियोगे 10333
प्रमाणित 10332
फस@@ 10332
ियुळ्ळऩर् 10332
समालोचना 10330
इस्राएल 10330
अलांटि 10330
पाते 10329
ह्रास 10329
यावु@@ 10329
देवाच्या 10329
एगी 10328
आपवा 10328
न्डेर 10327
चिरि@@ 10327
सड़क 10327
केसॆ@@ 10325
त्तिर 10323
क्कർ 10320
ऱद्दा@@ 10320
रोगं 10319
ऎवरि@@ 10318
पृष्ठ@@ 10317
चालै 10317
वङ्कि 10316
मळ्ली 10316
प्रक्र@@ 10315
ेत 10312
तिरुमणम् 10309
गुल 10307
तत्@@ 10307
तेवैयाऩ 10305
सिखा@@ 10304
मंदिकि 10304
ऱिन् 10302
डिं 10301
करायिब 10301
मैयाक 10301
ंग्ल@@ 10300
लनी 10299
am 10298
ऎव्@@ 10298
र्कळुम् 10298
अरे@@ 10296
मनकु 10294
ळै@@ 10292
छु 10291
रैलु 10291
एभळि 10290
प्रदेशों 10289
बडु@@ 10288
वच्च@@ 10288
बर्ष 10287
खासदार 10286
निराश 10285
धूम@@ 10283
सेखान 10283
इत्त@@ 10283
तामसि@@ 10283
तिरञ्ञॆटुप्प् 10283
राजकुमार 10282
्री 10280
पटत्तै 10280
समस्य 10278
अबस्था@@ 10277
वीडीओ 10277
मटै@@ 10275
गता@@ 10274
रक्षक 10274
विद्या 10274
आईएस@@ 10272
नटैपॆऱ्ऱ 10271
श्त 10270
होटल 10270
वङ्क@@ 10269
तम्मिलुळ्ळ 10268
काट 10267
दिरि@@ 10266
घटनलो 10266
लागि@@ 10264
व्हायरल 10263
अदर@@ 10262
रास्ताय़ 10261
चिया@@ 10259
पीसी 10259
द्धि 10258
बच्च@@ 10257
सोनम 10257
रुत्तदॆ 10257
गर्व 10256
ङ्ङൾक्कु 10256
रहीआं 10256
उੱथे 10256
चॆय्यप्पट्ट@@ 10255
कृष्ट 10254
ड्ड 10254
वरे 10252
निकल@@ 10251
त्रा 10250
जयंती 10250
दुका@@ 10246
केसुलो 10245
आश्वासन 10244
तिनिइ 10243
ड़ेर 10242
जोडि@@ 10239
एव@@ 10238
युद्धे 10237
ंति@@ 10237
मालूम 10237
मुतल्@@ 10237
कुऴप्प@@ 10236
तरं 10235
फ्रि@@ 10234
सॆस् 10234
उत्तरवादि@@ 10233
iv@@ 10231
स्थलं 10230
अमुक 10229
आदर@@ 10229
अलि 10228
एना 10228
महेष् 10228
अत्युत्तम 10227
ब्यबहारेर 10227
प्रभुत्व@@ 10227
ङ्ङ् 10225
चुकातार 10225
एपी 10223
चुनावणॆ 10222
कांच्या 10222
प्रकाश् 10221
पार्टि 10219
साइट 10219
टुक@@ 10219
निरीक्षक 10218
भर्त्ति 10218
ण्टॆन्नुं 10218
कोऴिक्कोट् 10218
ग्रहणेर 10217
कार्मि@@ 10217
कोटिय@@ 10217
प्रोजेक्ट 10216
बेस 10215
आർक्कुं 10214
वन्तिरु@@ 10214
अङ्क@@ 10213
अपर@@ 10213
अल्लाहुवि@@ 10213
तंद@@ 10211
वखते 10209
ग्रो@@ 10208
दोबारा 10207
प्रमादंलो 10207
सना@@ 10205
क्रमा@@ 10204
च्छेन 10204
कंगना 10203
अङ्कि@@ 10203
प्पोम् 10203
चाहुੰदे 10203
प्रशास@@ 10200
सेमानङ्क 10200
चੰगी 10200
शरीफ 10199
काल्प@@ 10197
जिल्हा 10197
बन्द 10196
बनाकर 10196
प्रकल्पेर 10195
सिवाय 10195
सकले 10194
माट्लाडुतू 10193
सिद्धांत 10191
पूर्बरु 10191
पॆट्रो@@ 10190
२०१२ 10189
लिखेछेन 10189
जाएं 10188
राणा 10187
पार्प्प@@ 10187
वैयुम् 10186
अगत्य 10183
वळि 10182
हथियार 10181
शैतान 10181
यिशुर 10180
ख्यात 10179
वेरि@@ 10178
विचारों 10178
कहती 10177
अधिकारी@@ 10176
केल्या 10175
ർन्नु 10175
काना 10174
जन्यइ 10172
संभ@@ 10170
आवश्यं 10170
पाटि 10169
दुइटि 10169
दिल्ल@@ 10169
वकै 10169
तारिखे 10168
हासान 10168
बंधन 10167
भक्त 10166
राजस्व 10166
टुत्तु 10166
तबुओ 10163
चलबे 10163
पङ्कु 10162
सीसी@@ 10161
डीआं 10161
अनुसूचित 10160
देशातील 10159
करन्तु 10158
वणि@@ 10157
वचि@@ 10156
ॆया@@ 10155
चोदिच्चु 10155
तंड्रि 10153
हां@@ 10152
जेरे 10152
ऎन्तुकॊण्ट् 10152
वैसे 10150
विक्कऱ्ऱ् 10150
आईसीसी 10149
निरीक्षण 10147
बेशी 10144
उत्तरे 10143
चॆय्यप्पट्ट 10143
पल्ल@@ 10142
बेशिरभाग 10142
प्रव@@ 10141
पारछि 10140
सेतु@@ 10138
सच्चाई 10138
700 10137
सहियोग 10137
मोटो 10136
ज़न 10136
दिले@@ 10133
वੰ@@ 10133
माऱ्ऱं 10131
्यां@@ 10127
चुनाव@@ 10127
ऊन 10126
त्तं 10125
पातुकाप्पु@@ 10125
ऍ@@ 10123
इੰडीआ 10123
चेस्तुन्न 10123
नेय़ा 10122
जानुय़ारि 10122
बाह 10121
पोता@@ 10120
अनुप@@ 10119
स्कोर 10117
सॎ@@ 10116
गवाह 10116
बेकि@@ 10114
विमर्@@ 10113
युक्ति 10111
कविल्लै 10111
ऩैयुम् 10111
अनुग्रह@@ 10109
अस्त्र 10105
करावी 10105
हीरोयिन् 10105
प्पुऱ@@ 10105
६० 10104
णीत 10104
मुकेश 10104
इटत्तिल् 10104
नक 10100
उड़ान 10100
चॆय्यप्पट्टुळ्ळतु 10099
करावा 10098
बम 10097
पेंशन 10097
य़रे 10097
इस्पात 10095
सफाई 10094
उपस्थितरिद्दरु 10094
ाल् 10094
पुरु@@ 10093
ऩे@@ 10093
सड़@@ 10091
परबर्तीते 10090
सट@@ 10090
दीधी 10090
जातो 10088
याओ 10087
समझा@@ 10087
ब्यबसा 10085
एरकम 10083
जोड़@@ 10083
ऒंदे 10083
कळो 10082
लेवु 10082
आभ्यन्तर 10081
थोडा 10081
दुसऱ्या 10081
गिन@@ 10080
सैनिकों 10080
विरुप्प@@ 10079
स़ाह 10078
इलङ्कै 10078
मुऩ्पु 10077
तेरा 10076
अतिक@@ 10076
रॉय 10076
डेविड 10075
सन्दർशि@@ 10075
ंचं 10074
घात 10073
69 10073
लिगॆ 10072
इंतजार 10071
et 10070
बाज 10070
र्त्तु@@ 10069
कालेदु 10069
चतवीतम् 10068
शिल्पी 10067
िलु 10067
अरॆस्ट् 10067
प्रशिक्ष@@ 10066
टुत्तु@@ 10066
परीक्षार 10064
संशय@@ 10064
तळ्ळ@@ 10064
राज्यत्त् 10064
सिबिआइ 10063
ंदिन 10063
वीर्कळ् 10063
तऩ्ऩुटैय 10063
सटा@@ 10061
वरिൽ 10061
प्रोग्राम 10060
वर्ध@@ 10060
पिरच्@@ 10060
शिक्षार 10059
क्कॊळ्ळु@@ 10057
मिळेल 10057
बेल 10056
शाळा 10056
पहुंचने 10055
ट्टाऩ् 10054
किरि@@ 10051
ंथी 10050
ठिका@@ 10049
मजा 10048
पोट्ट@@ 10048
सीआं 10048
हिल 10046
जं 10046
ैकळ् 10045
हात@@ 10044
न्सि@@ 10044
जाल 10044
एटी@@ 10044
युळ्ळ@@ 10044
इंदुकु 10043
कार्यकला@@ 10042
राज्यं 10041
दिक@@ 10040
वाड 10040
मुतिർन्न 10040
ऒप्पुतल् 10040
पाला 10039
गयुं 10039
सिपिऎं 10038
आवश्यप्पॆट्टु 10038
लोको@@ 10037
मातु@@ 10037
ऱ्ऱुं 10037
जोई 10034
लप@@ 10033
सुलभ 10032
चतु@@ 10031
सून 10031
लिआं 10030
मंत्री@@ 10027
चॊल्ल 10027
स्टोरेज 10026
गॊप्प 10025
तुटरु@@ 10025
़्या 10024
आगस्ट 10023
विरै@@ 10023
इवॆ 10023
सुत्तिदॆ 10023
चत्तिय@@ 10022
जवानों 10021
कार्यान्वयन 10020
रैल्वे 10019
पहेलां 10017
त्तुळ्ळ@@ 10014
मसजिद 10012
विआह 10012
भितरे 10010
जातिर 10010
हृ@@ 10008
हागागि 10008
ियुमायि 10008
नटिकै 10008
तदितरुलु 10008
नान 10007
पारित 10007
वैपु 10007
चरम 10006
कन्न@@ 10005
आदान 10003
संरचना 10003
सुव@@ 10003
नेमे 10002
अप्पट@@ 10002
अमैप्पु@@ 10002
सेखानेइ 10001
हय़@@ 9998
इनि@@ 9998
सुपार 9998
कशी 9998
पन्त@@ 9997
स्वे@@ 9997
बिधानसभा 9996
माँ@@ 9996
नियर 9996
गन्@@ 9995
ट्स@@ 9995
२०२० 9993
संशोधित 9993
मेय़ा@@ 9993
शिक्षण@@ 9991
सौंप 9991
प्रसारित 9990
पेरा@@ 9990
ॆगळल्लि 9990
उलक@@ 9989
अम 9988
लगने 9985
लीधो 9984
ऒक्@@ 9984
फत 9983
अंच@@ 9983
नाल्कु 9983
हॆच्चा@@ 9983
पङ्@@ 9982
बाड़ि@@ 9981
हट@@ 9980
लिखी 9980
पुरातन 9979
चीनेर 9976
उलकम् 9976
अतावतु 9976
जिम्मेदार 9975
नरा 9974
वागिल्ल 9974
आवुं 9973
वता 9973
ंचनुन्नारु 9973
समयदल्लि 9972
रीति@@ 9969
ळित 9968
स्बरूप 9967
सिद्धार्थ 9966
गिरफ्तारी 9966
आकिय@@ 9966
अभियोग@@ 9965
भूल 9963
शकीए 9963
मॆगा@@ 9963
उण्मैयिल् 9963
बिभागे 9962
मुख्यालय 9962
पंपि@@ 9961
अटुत्तु 9961
आधारंगा 9961
जमकर 9960
विपरीत 9959
ऐक्किय 9959
चलन@@ 9958
चो 9958
पत्नी@@ 9957
वारिलो 9957
दिग@@ 9956
लेता 9955
सागु@@ 9955
दागिदॆ 9953
२०१३ 9952
विनोद 9952
ौ 9951
अक्टो@@ 9951
भूमिय@@ 9951
वुमाय 9950
चित्रदल्लि 9949
विपक्षी 9946
चर्चा@@ 9945
याल् 9945
टीमों 9944
अद्देहत्तॆ 9943
य़ो@@ 9942
महाराष्ट्रा@@ 9941
यिहो@@ 9940
प्रधानमंत्रीए 9938
संचालित 9938
पीसी@@ 9937
स्तुन्ना@@ 9936
क्सी 9935
बचा 9934
वरू 9934
रना 9933
किळ@@ 9933
पॆऱ्ऱतु 9933
बलो 9930
एमी 9930
वालिआं 9930
61 9929
वॆळियिट@@ 9929
उल्ट@@ 9928
इन् 9927
ർत्थि@@ 9927
न्नत 9926
तुटർन्नाण् 9923
हिੱ@@ 9923
इन्टार@@ 9922
पुलवामा 9922
धरे@@ 9921
नुहेँ 9921
पाർल@@ 9920
युबक 9919
पत्नि 9918
समृद्धि 9917
रੰ@@ 9917
डिൽ 9916
पिछने 9915
क्कुमॆन्नुं 9915
आसक्ति@@ 9912
तदन्ते 9912
जवळ@@ 9912
मानक 9909
किरण 9908
७० 9907
तुटർ@@ 9907
मुख्या@@ 9906
कामां 9906
बेटा 9905
याव@@ 9905
आरंभिच्चु 9905
आपरे@@ 9904
नम्पु@@ 9904
ट्रेलर 9903
आट 9901
कीमतों 9900
मलिक 9899
पूर्त@@ 9897
ऎंबु@@ 9897
मक्कळि@@ 9897
यें 9896
नेपा@@ 9895
पोर@@ 9894
तेओ@@ 9892
घरी 9891
ऩ्ऱाल् 9890
साथी@@ 9889
आतरवु 9886
पण्य 9885
पच्च@@ 9885
स्बाधीन 9884
न्याशनाल 9884
उज्@@ 9883
कितना 9883
नडॆदिदॆ 9883
इन्निलैयिल् 9882
निंदितु@@ 9882
संश@@ 9881
आ्य@@ 9881
बर् 9879
आपसी 9879
आरम्प@@ 9879
तीर्माऩ@@ 9878
त्रिपुरा 9877
सद्@@ 9876
२०१५ 9876
हत्याका@@ 9875
ऱ्च@@ 9874
91 9873
जमि 9871
जनरिगॆ 9870
ताय् 9870
ग्ला@@ 9869
77 9869
अनुग्रह 9869
ण्टा 9868
यिट्टिल्ल 9867
ड्रे@@ 9866
निचे 9866
बिआन 9866
महेंद्र 9865
उऩ् 9864
उपर@@ 9863
र्त्ति 9861
चंद्रबाबु 9861
सः 9858
नरे 9855
अधिकारि 9852
जं@@ 9849
क्कत् 9848
बोझा@@ 9847
लिन् 9846
ओळख@@ 9846
वरण@@ 9846
रुजु 9845
मंद 9845
सड़कों 9844
चिय 9844
ऎरडने 9844
अवळुटॆ 9844
स्ट्या@@ 9843
मानता 9843
रुख 9843
तळ्ळि 9842
इत्तर@@ 9841
थानार 9840
आवा@@ 9840
परम्प@@ 9837
ओपन 9836
साउ@@ 9835
णारे 9835
अत्यार 9835
पॆद्द@@ 9835
तॆलियजे@@ 9835
लक्@@ 9834
दवा 9833
ळाण् 9832
क्य़ा@@ 9832
अन्तर्@@ 9830
हिर 9830
आन्त@@ 9827
पालु 9827
पदों 9827
स़ाइद 9826
टिओ 9825
भागे 9825
कर्णधार 9825
सिले@@ 9824
सहो@@ 9823
विश्रा@@ 9823
स्वर्ण 9823
महिन्या@@ 9823
लोकां@@ 9822
पर्य्य़न्त 9820
मनाया 9817
दॆः 9816
चाळ@@ 9815
माऱि@@ 9815
तेटि 9810
मुकदमा 9810
बरेर 9809
आखिरी 9809
ट्विट्टर् 9807
वाർत्त 9807
प्रणब 9804
क्रिस 9803
रुवुदु 9803
न्ऱे@@ 9803
लेवा 9802
दल्लिरुव 9802
नंब@@ 9800
अनुकू@@ 9799
वकि@@ 9799
एह@@ 9798
लीटर 9797
फट@@ 9796
अमेरिके@@ 9796
पेचि@@ 9795
तिट्टत्तिऩ् 9795
निस्@@ 9793
वादि 9792
ज़िले 9791
हिडि@@ 9791
तारिख 9789
किलोमिटार 9789
ङ्ङळि@@ 9789
डीपी@@ 9788
ऎदु@@ 9788
उङ्कळै 9787
बन्या 9786
मेगा@@ 9785
दिय़ेछि 9784
व्युं 9784
वर्त्त@@ 9784
कुमारस्वामि 9781
होग@@ 9780
हराया 9780
इबा 9779
देखकर 9778
ंद् 9778
पेय़ेछेन 9777
गाया@@ 9777
विद्यालय 9777
फायर 9777
www 9776
जॆट् 9776
दाने 9775
ङ्ङळॆ@@ 9775
सबेका@@ 9773
गृहीत 9772
सिसि@@ 9772
सीएस@@ 9771
नंतर@@ 9771
उट्प@@ 9769
ट्री@@ 9768
तरफथी 9767
ल्यानंतर 9767
तालिकाय़ 9766
आस्पत्र@@ 9765
लागित्तु 9764
नान्नि 9763
जन्मदिन 9762
उभय़ 9762
ण्य@@ 9761
आऱु@@ 9760
इरुप्पिऩुम् 9758
उॎस 9757
तुरੰत 9757
षी 9756
किर 9756
अहमदाबाद 9756
हीं 9756
जिੱत 9756
मिकुन्त 9755
आह्वान 9754
य़र 9753
मूळ@@ 9752
ःप् 9751
सावु 9750
रद्दु 9750
बल्ल@@ 9749
समस्त@@ 9749
राश@@ 9749
माझी 9748
अऱिक्कै 9748
चार्न्त 9747
आतार@@ 9745
ऎन्तु@@ 9745
य़ाल 9744
सिद@@ 9744
विऱ्पऩै 9744
फ्री 9743
कूटुतल् 9743
पना 9741
आमेरिकार 9741
वाർत्त@@ 9740
विभागं 9740
ർत्ति 9738
जनङ्ङൾ 9738
हानि@@ 9736
अपि@@ 9736
तोलार 9734
दिच्छे 9733
सिरी@@ 9733
पोतु@@ 9733
णॆङ्किൽ 9733
नटन्ततु 9732
ख़बर 9731
अपराध@@ 9728
ताम् 9728
र्लो 9728
गुंड@@ 9728
क्रिकॆ@@ 9726
भक्षण@@ 9725
ऱी@@ 9725
बॆळॆ@@ 9723
डाक्टर् 9720
विमाऩ 9720
निजा@@ 9718
बण्ण@@ 9717
मानिलत्तिल् 9716
ञान@@ 9714
य़ान 9713
पश्चि@@ 9713
गॊंड 9713
अग्@@ 9712
६ः@@ 9712
ৰि@@ 9711
ड़ो 9711
बन्धप्पॆट्ट 9710
रिजर्व 9707
मऩ् 9706
पादन 9705
सफळ 9705
कनु@@ 9704
स्क्रीन 9704
मुलगा 9703
दृढ@@ 9701
सॆ 9701
इळि@@ 9701
पोहो@@ 9698
इंग्ल@@ 9698
भल 9697
ध्व@@ 9696
न्यायालय@@ 9696
ेक 9695
दह@@ 9695
मकसद 9695
नशिप 9694
इडी 9694
विय 9694
ऎण्@@ 9694
उच्चतम 9691
साड़ा 9691
तिवारी 9691
हॆच्@@ 9691
क्कणक्काऩ 9691
नटुडु 9691
कंपॆनी 9691
पयण@@ 9690
आढळ@@ 9690
टुइट 9689
नाच 9688
शीघ्रइ 9688
गिय@@ 9688
साहमणे 9687
टेन@@ 9686
सेक्टर 9686
मारो 9686
इवर@@ 9686
तॆरिय@@ 9685
लिन्ऱॆ 9685
मन्द 9682
सम्प्रदाय़ेर 9682
मनेर 9682
चारु 9682
त्तिलॆ@@ 9681
वर्णन 9680
खेतमजूरी 9679
पश्चात 9678
आमंत्रित 9678
उयर@@ 9676
क्किऱ 9675
रागि 9674
ब्यय़ 9673
ष्या@@ 9673
रुप 9673
गौड 9673
सक्रिय़ 9672
कॆट्ट@@ 9672
तॊलगि@@ 9671
निलॆ 9671
पिऱ 9671
मैकळ् 9671
इवरुटॆ 9670
दिवशी 9668
प्रतिभा@@ 9667
इंग्लीष् 9667
च्चा 9666
याकुम् 9666
घे 9661
टका@@ 9660
न्दा 9660
आण्@@ 9660
माय् 9660
अगदी 9660
प्राप्ति 9659
त्तोटु 9659
सन्तान@@ 9658
संक्रमित 9656
णॆय 9656
घाटी 9655
नते 9655
अन्वेषण 9655
पदवि 9655
ढंग 9654
माह 9653
शेख@@ 9653
टिੰग 9653
हैदराबाद्ः 9652
पिऴ@@ 9652
मंजूर 9650
जੰ@@ 9648
माकवुम् 9647
इप्पट@@ 9647
ंका 9642
उपजेलार 9642
वीटि@@ 9641
पिरतम@@ 9640
कट्चियिऩ् 9639
साक्षी@@ 9638
योगि 9638
वाक@@ 9638
चॊल्लु@@ 9637
लिंक 9636
इविट@@ 9635
रास़टरी 9634
ओर्@@ 9633
ऎव्वळवु 9633
माडिदरु 9632
सिद्द 9629
अनुया@@ 9628
ज्यादातर 9628
गੱ@@ 9628
झूठ 9627
नन्नन्नु 9627
130 9626
तमिल 9625
आइआ 9625
न्टा@@ 9624
द्रि@@ 9624
जनि@@ 9623
मुका@@ 9622
गेली 9622
भागंगा 9622
सेलि@@ 9621
ऎच्च@@ 9621
त्यावेळी 9621
विव@@ 9619
लखनऊ 9617
मरणि@@ 9616
लीटर् 9616
२०१० 9615
वायि 9615
जेकर 9613
ियागिदॆ 9613
सुत्त@@ 9611
हक्कु@@ 9611
वाग्दानं 9611
दिसत 9611
चलाचल 9609
ंबु@@ 9608
ऐन्तु 9608
पुरस्कार@@ 9607
नेवाली 9606
टुळ्ळ 9606
पॆൺ@@ 9606
लेगा 9601
औरतां 9600
करायला 9599
भ्रमण 9598
महिलाएं 9598
सभ्य 9597
प्पिच्चत् 9597
निउ@@ 9596
लक्ष्मी 9596
बेरिय़े 9594
शकतात 9594
रम 9593
ुन 9591
सुवुदिल्ल 9591
प्रोफेसर 9589
मुली@@ 9587
कळो@@ 9587
आंदोल@@ 9586
घाल@@ 9585
ऎल्लि@@ 9584
तॆरिवित्तऩर् 9584
वॆच्च् 9582
अतिकमाक 9581
ऎण्णॆय् 9581
नात्मक 9579
थोड़ा 9579
स्पीड 9578
दिवसे 9577
नानक 9576
जोखिम 9576
हमेस़ा 9575
oc@@ 9574
धैर्य 9574
प्रॆ@@ 9574
स़र@@ 9574
महिळॆय@@ 9574
सहकार 9572
तिळिदु@@ 9572
निजेइ 9571
आओ 9571
मूत्त 9571
कोरोना@@ 9566
ऒराൾ 9566
णिक 9565
परिमा@@ 9565
जायेगा 9565
नृ@@ 9564
उत्तेजना 9563
टिप्प@@ 9563
ऒलि@@ 9563
कुडु 9561
कूट्टत्तिल् 9561
ठाण्यात 9561
बाय@@ 9559
इरुन्तालुम् 9559
नन्दि 9558
अरचा@@ 9558
भरती 9557
वाऴ्त्तु@@ 9557
मिळाली 9557
कूट्टा@@ 9556
समाचार@@ 9555
क्किंत 9555
मय़नातदन्तेर 9553
वीटु 9553
पाता 9552
वरद@@ 9552
चीज 9551
पक्षों 9551
वॆऱ्ऱ@@ 9551
कर्मीरा 9550
अपार 9550
मुसलमानों 9549
प्रकल्प@@ 9547
निषिद्ध 9547
आंध्रप्रदेश् 9547
सुभाष 9546
रीर 9546
हं@@ 9545
सक्@@ 9543
श्वास 9543
मुऱैयाक 9543
सदु@@ 9540
नोड@@ 9540
िल्ला 9539
गानु 9539
सेल@@ 9538
रेइ 9538
समूहों 9538
पवन 9536
भाषार 9534
परपर@@ 9534
कांग्रॆस्@@ 9534
एला@@ 9533
गेंदबाजी 9532
नेस 9531
वेण्टिय@@ 9531
शॆट्टि 9530
क्कप्पॆट्ट 9530
तॆरियुम् 9530
तुलते 9528
वैस् 9528
आजाद 9527
रोगी 9527
चाप्पि@@ 9527
एकाडे@@ 9526
पोलीसार् 9526
िलूटॆयाण् 9525
देशटिर 9524
णिൽ 9524
संग्रह@@ 9523
सुहृत्तु@@ 9523
समावेशंलो 9522
जुओ 9521
पंचायत 9521
परिस्थितिर 9520
अगवाई 9520
कॊंदरु 9520
तियुटॆ 9520
एऱ्कऩवे 9519
चॆल्ल 9518
प्रसार@@ 9516
हटा 9515
चिऱिय 9515
विद्यार्थिगळु 9514
ऩेऩ् 9514
अनुवाद 9513
रोड@@ 9512
og@@ 9511
आस्प@@ 9511
समर्पण 9510
अंड@@ 9510
वन्@@ 9509
मेजर 9508
आवृ@@ 9508
जिल्लालो 9508
मिलिय़न 9507
ंगु@@ 9507
शीख@@ 9507
हाथों 9507
कसा 9506
ऎत@@ 9506
फोर्स 9505
आखिर 9505
प्रग@@ 9504
एनी 9503
निमित्त 9502
सिल्@@ 9502
र्जा@@ 9501
येशु@@ 9501
रूपिया 9500
करनगे 9500
म्मा 9498
आचिरिय@@ 9498
74 9497
वाय्प्प@@ 9497
अनंत@@ 9495
टत्तिल् 9495
नीतिमऩ्ऱ@@ 9495
अकसर 9494
लागला 9493
घ्या 9492
वैयिल् 9492
राब@@ 9491
सिकॊंडु 9491
करावे 9490
एंट@@ 9490
बीजेपी@@ 9489
अवळ@@ 9489
वाचा 9489
केंद्रं 9489
नसी@@ 9488
ऒब्ब@@ 9488
दोस़ी 9487
खोँज 9485
मुंदुवरि@@ 9485
नॆयाण् 9485
ंटुंदि 9485
ओळख 9484
स्तरे 9483
सॆൻ@@ 9483
क्रो 9482
नेहरू 9482
जवाब@@ 9482
वडं 9482
आर्मी 9481
चेयरमैन 9481
अर्त्त@@ 9481
पन्नु 9479
आऴ@@ 9479
कदा 9478
सुरेष् 9477
फ्रंट 9476
खतरे 9475
ऩ्ऩा@@ 9475
कलै 9474
अतऱ्काऩ 9473
ia 9471
व्ही 9471
कटुत्त 9471
पाबेन 9469
सरिय़े 9467
हून 9467
चुੱके 9467
कृतज्ञ@@ 9466
350 9466
ह्र@@ 9465
च्चिंदि 9465
साण् 9464
य़ात 9463
लाच 9463
होइछन्ति 9462
सिटी@@ 9458
ऩ्ऩि@@ 9457
मन्त@@ 9456
ार्थी 9456
ह्यु@@ 9456
पळ@@ 9456
संबन्धि@@ 9456
परीक्षि@@ 9455
नदि@@ 9453
पाർट्टि@@ 9452
विस़@@ 9452
तीला 9451
करियर 9448
जलदी 9447
हक़ 9447
10,000 9446
पक्षेर 9445
करिनि 9445
इन्टारनेट 9445
प्पताक 9445
हाजिर 9442
लोकोना 9442
खेलों 9442
पऱय@@ 9442
अनुभब 9441
ऎल्लरू 9440
उऱप्पा@@ 9440
मੰतराले 9440
निवासी 9439
योगं 9439
परिबहन 9438
कोले@@ 9438
माँ 9438
माऩ् 9438
ऎन्टीआर् 9438
जिनका 9433
चॆय्वतु 9432
सीतारमण 9431
पौरत्व 9431
बितर्@@ 9429
व्यत्यस्त@@ 9429
बिश्ୱ@@ 9429
सेमि@@ 9428
कोंग्रेसना 9428
मोबाईल 9426
कवर 9426
अद्भु@@ 9425
मनवि 9425
जाम@@ 9424
दादा 9423
प्रतिभा 9423
वीने 9423
एनसीपी 9422
क्कैयै 9422
आप्युं 9421
हाय़@@ 9419
औषध 9419
हौदु 9419
इऱैव@@ 9419
होणगे 9418
चालित 9417
तोटु 9417
१२@@ 9416
शिय@@ 9416
चंद@@ 9416
असताना 9416
नाटुकळिल् 9416
मुद्रा@@ 9415
किऱा@@ 9415
छੱ@@ 9415
कट्टा@@ 9414
बासी@@ 9413
गिल@@ 9413
ड्स् 9413
पलिया@@ 9413
मण्ट@@ 9412
सिवल 9411
लागुवुदु 9411
चटङ्ङिൽ 9410
भारतनी 9409
ऑफिस 9408
वेट्पा@@ 9407
आकर्षण 9406
इरुव 9405
टुत्ति@@ 9405
देब@@ 9404
सके@@ 9404
ऎप्पोतुम् 9404
महारा@@ 9403
अप्पा@@ 9403
कार्यकर्ता 9402
थु@@ 9401
हनु@@ 9400
नकर् 9399
कर्मचार@@ 9398
त्तैत् 9398
कूटिय@@ 9397
कुक 9395
हसि@@ 9394
ओस्ट्रेलिय@@ 9393
ऎळुप्प@@ 9393
दिलीप 9392
गान्ध@@ 9392
केळ@@ 9390
ङ्कळाक 9390
इमारत 9388
सोसाइ@@ 9387
नटन्नत् 9387
दिल्ल 9386
तीच्या 9385
बिख्यात 9384
नाक 9383
आशय@@ 9383
बेडि@@ 9382
होंडा 9382
सपै@@ 9382
तियिൽ 9382
ळम् 9381
गळाद 9381
कुऴन्तै 9380
धिकारि 9378
अंदुबाटुलो 9378
अभिनंदन 9377
मुग्@@ 9376
चैनल 9376
चिठि 9375
84 9375
सेक्स 9375
समुद्री 9375
बाजार@@ 9374
प्रभारी 9373
त्तिद्द@@ 9373
करणेर 9371
□ 9365
हरि 9364
चय@@ 9363
लिंग@@ 9362
ण्डे 9361
ग्रामा@@ 9361
खाता@@ 9360
य़ो@@ 9359
प्रांत 9358
दुटो 9357
भालोबा@@ 9356
मिऩ्च@@ 9356
उद्या@@ 9355
नीडि 9353
86 9351
पुरोपुरि 9351
ऎण् 9351
वर्कळुम् 9351
अछन्ति 9350
तुः 9349
राफेल 9349
लयं 9349
अधिकं 9349
अंशा@@ 9348
बाड़ा@@ 9347
\ 9347
प्रोटो@@ 9344
इनकी 9343
मेलतिक 9343
बट@@ 9342
२०१६ 9338
अजित् 9338
ग्रहण@@ 9336
2007 9336
अभ्यर्थि 9335
सांकेतिक 9334
भाजपचे 9332
कळा 9331
करताना 9331
वारा@@ 9330
गुलु 9329
वक@@ 9329
ऩालुम् 9329
एहा@@ 9328
खेर 9328
5,000 9328
नपिये 9326
कंड@@ 9325
रिक्क@@ 9324
तॆलुसु@@ 9324
आसुपत्रिकि 9322
त्यांच्यावर 9321
आह्@@ 9319
कापुर 9319
आलय@@ 9319
फलाफल 9318
वेस्ट 9316
साक्ष्य 9315
वर्षा 9315
ताव@@ 9314
आविष्@@ 9314
ൾड् 9312
करिथिला 9312
ऊർ@@ 9311
प्रक्रिय 9310
मन्त्रकेर 9309
शर्त 9309
स्थळे 9309
य़ी 9309
णै 9307
तॊकै 9307
यकीन 9306
प्ति 9305
नप@@ 9304
मऩ्ऱ@@ 9303
इवरु 9302
उंदे 9301
कोट्ट@@ 9300
मोठे 9300
ർत्तु@@ 9300
वादा 9299
मुक 9298
लेवामां 9297
दिय़े@@ 9293
हालाँकि 9293
पङ्के@@ 9293
चाकरि 9292
निक् 9292
योजनॆ 9292
काൻ 9292
झटका 9291
ज़ार 9289
राल् 9288
परिचालन 9287
ൻड@@ 9286
दनी 9285
मरा 9284
सूर@@ 9284
जाधव 9284
बिस्फो@@ 9283
पङ्कॆ@@ 9283
६ः 9282
जट्टु 9282
दाबाद 9281
नाटुकळ् 9280
स्वराज 9279
तमिळ@@ 9277
दाय@@ 9276
आशीर्वाद 9275
विषयत्तिൽ 9275
विपत्तिल् 9275
आब्@@ 9274
आचार@@ 9274
ङ्कळाल् 9274
प्रकटिंचारु 9274
मरीजों 9273
प्रतिबेदन 9270
लाइट 9270
संरक्षित 9270
साद 9269
टाकार 9267
000@@ 9266
तेर्त@@ 9266
सदस्यदेर 9265
सलागित्तु 9264
पंड@@ 9262
धाने 9261
चुनावणॆयल्लि 9261
निष्पत्ति 9260
अट्ट@@ 9260
जानो 9259
क्षुद्र 9259
हिन्@@ 9259
हॆसरु 9259
रिटी 9258
अधीन@@ 9257
एज@@ 9257
सता@@ 9257
गिल 9256
एनएस 9256
पेർ@@ 9256
एवा 9255
ट्टिय 9253
प्रदरस़न 9253
इतुताऩ् 9253
अग्नि 9251
प्रारंभिक 9251
एकूण 9251
वरण 9250
म्प् 9247
पुरिन्तु@@ 9247
ब्यस्त 9244
प्रश्ना@@ 9244
आपत्ति 9243
अंबा@@ 9241
तुंदनि 9240
राखी 9239
राजेश 9238
छिलेनः 9237
बिहारी 9237
ाक 9236
खानेर 9236
इरुक्किऱार् 9236
अऩुप्पि 9236
कुश@@ 9235
गळन्नू 9235
78 9233
कळ 9232
अगा@@ 9230
गतकाल 9230
सामिल 9230
स्का@@ 9228
जेवी 9227
रण्टा@@ 9226
सർक्कारिन्ऱॆ 9226
म्याच@@ 9223
ंलोकि 9223
इच्छुक 9222
देखार 9222
प्रताप 9221
नगरा@@ 9221
नारायण@@ 9221
मेट 9220
कर्मी@@ 9220
कय़ेक@@ 9220
पराजित 9219
ूप 9218
नकारी 9218
नेषनल् 9218
हैदराबाद@@ 9217
जगतेर 9216
फ्त@@ 9216
करण्याचे 9216
ुडु 9214
जत 9213
76 9213
21@@ 9212
दरजा 9207
काणाൻ 9206
भाब 9205
थाणा 9205
तत्व 9205
खेलने 9205
सकेगा 9202
विद्यार्थ्या@@ 9202
फेब्रुय़ारि 9201
रायि 9199
कते 9198
साफल्य 9198
टेकनो@@ 9198
qu@@ 9197
संक्षिप्त 9197
ओनो 9196
▪ 9196
नात् 9196
इन्तच् 9196
महत्वा@@ 9195
ल्ट् 9193
कब@@ 9192
थान 9190
द्रोह 9190
मणिपुर 9190
मॆय@@ 9190
पुलिशके 9188
कट्टॆ 9188
निटॆ 9188
81 9187
लोर 9186
समावे@@ 9186
गुस्@@ 9185
संबं@@ 9185
मनोयोग 9184
ऎस्पि 9184
तुक 9183
पोट्टि 9182
लः 9181
लागु@@ 9181
ऐम 9180
नीडिदरु 9180
सीम 9179
एनेइ 9179
आटो 9177
स़े@@ 9176
सुत्तेवॆ 9175
त्तिऱ्काऩ 9175
धरणेर 9174
च्छेद 9173
उठते 9173
अडु@@ 9172
फोर्ड 9172
णीआं 9172
्स् 9171
श्रो@@ 9168
गोवि@@ 9168
तट 9167
वेले 9167
क्कुन्नतिൽ 9167
ट्टർ 9166
दिखा 9165
हब 9163
घोषि@@ 9163
ंचवच्चु 9163
मुगा 9162
विरासत 9162
सम्मेलने 9161
ऒरुमि@@ 9161
नच 9160
समाजवादी 9160
महत्त्वपूर्ण 9160
शु 9159
बलेछे 9159
दरवा@@ 9159
मॆच्च@@ 9159
संदर्@@ 9158
तॊऴिल्नुट्प@@ 9158
धृ@@ 9157
त्यार 9157
ऱुण्ट् 9156
द्यंत 9152
ऱ्ऱुकൾ 9152
ज्य 9149
गिरी@@ 9149
अकाउंट 9149
पता@@ 9147
बैबल् 9147
नीटि 9146
अऱस्ऱ्ऱ@@ 9146
क्कुन्नताण् 9146
अभिनन्दन 9144
चेस्तारु 9143
क्ट्र@@ 9142
अफ्@@ 9141
भागात 9141
धेर 9140
अमरिੰदर 9139
जैन 9138
करलाम 9138
द्धा 9137
वैर@@ 9136
आदालतेर 9135
उद्यम 9134
माराय 9134
बढ़ोतरी 9133
बहाल 9131
चित्रत्तिलॆ 9130
घटनपै 9130
डीसी 9128
ऒन्नां 9128
्यावर 9128
टाक्टर् 9127
इतॆ@@ 9126
सेवन 9124
एथिपाइँ 9124
भित्ति@@ 9123
प्रस्तावित 9122
डॊ@@ 9122
प्रिय़ 9121
समे 9121
H 9120
मिडिय़ा 9120
Sh@@ 9119
डम 9119
नॆया@@ 9119
निर्देशित 9118
ऒरुपाट् 9118
मिता 9117
तुंब 9117
मुहैया 9116
वेऱ@@ 9116
प्रतिक्र@@ 9115
ओप्प@@ 9115
केटायि@@ 9115
वेनु 9114
समयमां 9113
चिदंबरम 9113
71 9112
वृत्ति 9112
ब्रह्@@ 9111
तदेर 9111
तेर्न्तॆटु@@ 9109
तकवल्कळ् 9109
हरिया@@ 9108
मानङ्कर 9107
क्कप्पट 9107
नीरिन 9106
पैमाने 9102
क्कुकൾ 9101
मांगी 9100
मुलज़म 9099
सरत 9098
भक्षणं 9098
सफल@@ 9097
संरक्षि@@ 9097
बलिउड 9096
आऱ् 9096
माർक्क् 9096
खरेखर 9095
खाൻ 9095
सूचन 9094
ळळ 9094
वङ्कि@@ 9093
ब्रिटि@@ 9092
दाय़ी 9091
काठामो 9091
प्रचेष्टा 9091
ऴ्त्त@@ 9091
पॅ@@ 9090
वन्न@@ 9090
रिस 9087
इउनि@@ 9086
वेळा@@ 9084
इङ्के 9084
सुकൾ 9083
होतं 9082
एडि@@ 9080
हैछे 9078
ईमान@@ 9077
ीय़ 9076
महीनों 9076
मॊत्तम् 9076
काठ@@ 9075
पारंपरिक 9075
कळुहि@@ 9075
लीआ 9074
असेही 9074
त्म@@ 9073
परामरि@@ 9073
ट्टत्तिल् 9073
लाते 9072
घटक@@ 9072
अरुणाचल 9072
ियिट्टिल्ल 9072
दरि 9071
पोलीसाा् 9071
उत्साह 9070
सुना 9070
बाहिनी@@ 9068
मरने 9068
चुनौतियों 9068
कितनी 9067
आऩ@@ 9066
अमर्@@ 9065
ताक्कुतल् 9065
पल् 9063
मुन्नो@@ 9063
तरफे 9062
षिक 9060
हल्ल@@ 9060
पस 9059
ोना 9058
अयो@@ 9057
त्तिरि@@ 9057
भाजपने 9057
तेणु 9057
संस्थापक 9056
चोखे 9055
आत्म 9053
जॉन 9053
णिय@@ 9050
पंजा@@ 9050
गिंत 9050
शह@@ 9049
धील 9048
ऩो 9048
कॆट्टि@@ 9047
इम्@@ 9046
येभाबे 9046
लड@@ 9045
डॉक्टरों 9045
म्हणाला 9045
हंचि@@ 9044
ay 9043
संक्षे@@ 9042
तूने 9042
जੱ@@ 9042
अबि@@ 9041
भावनाओं 9040
वർद्धि@@ 9040
73 9039
ियत 9039
सटी@@ 9039
भारि 9036
ऎङ्ङ@@ 9035
बैक् 9033
तिरुम्प@@ 9033
भरो@@ 9032
ीर्कळ् 9031
2006 9030
जखम 9029
वेण्टुमॆ@@ 9028
सूचकांक 9027
वेगा 9026
मिकप्पॆरिय 9026
कीजिए 9025
न्नायिरुन्नु 9024
चॆय्यप्पट्टतु 9024
gov 9020
पोवु@@ 9020
सहकरि@@ 9019
ोर् 9018
एजेंसियों 9018
ov@@ 9017
82 9017
डायरेक्टर 9017
ऒप्पन्त@@ 9017
न्यास 9016
डिफे@@ 9015
वैप् 9014
एमसी 9013
ज्ञात 9012
चारा 9012
चिंत@@ 9012
सल्मान् 9012
तॊटर्पु 9012
तत्व@@ 9010
मुऱैय@@ 9008
प्रय़ोग 9007
गीतसंहिता 9007
मंत 9007
नास 9005
चट्टा@@ 9005
मजु@@ 9004
कुऱिप्पिट्ट 9004
कऩ्ऩ@@ 8998
मक्कळु@@ 8996
क्केण्टत् 8996
चुकातार@@ 8996
मरुत्तुवमऩैक्कु 8995
संक्रा@@ 8993
तिल@@ 8993
निरापद 8992
क्कैय@@ 8992
नटित्तु 8992
रमे@@ 8991
ताच 8990
ऎऴुत्तु@@ 8990
तन्नॆया@@ 8989
दानिनि 8989
भूत@@ 8988
मुख्यमैन 8987
शालॆ@@ 8986
लक्षात 8986
ग्रू@@ 8985
तभी 8985
11.@@ 8984
नत्तिൽ 8983
बिलि@@ 8982
हत्यार 8982
बंगाळ@@ 8982
महेश 8981
शेट्टी 8980
डैरॆक्टर् 8980
नॆलकॊ@@ 8979
पटना 8978
फॉर्@@ 8978
चित्रङ्ङൾ 8978
नेम@@ 8977
ब्यक्तिके 8977
बाबार 8977
सੰबੰ@@ 8976
रिस़@@ 8975
बहे@@ 8974
भवि@@ 8974
लंटे 8972
वൽ 8972
वाइ@@ 8970
एऱ्@@ 8968
इस्राय़े@@ 8967
ख्रिस्ती 8967
नाज़िल 8967
प्रबੰ@@ 8967
कৰिब 8965
पिलु@@ 8965
तटै 8965
ताक@@ 8964
तम्म@@ 8964
तंडद 8964
दुः 8963
मूल्यांकन 8962
येटि 8961
्चि@@ 8958
निय़@@ 8958
गिवॆ 8957
गोला@@ 8956
त्तिऩ@@ 8955
इंरे@@ 8953
घिरे 8951
प्रयत्न@@ 8951
डीए 8951
सेवन@@ 8951
जनरल् 8951
राजस्थान@@ 8949
प्रतिभट@@ 8947
कोवालि 8947
जब@@ 8945
थाकले 8945
भागवहि@@ 8945
चुम@@ 8943
चੱल 8942
ड़ीआं 8940
निय़ोग 8939
कोंग्रे@@ 8938
ऐसि@@ 8938
पार्क्क 8937
88 8936
तपा@@ 8935
मुन्निൽ 8935
दाँड़िय़े 8933
रहि 8933
बदलने 8933
म्ब 8932
ओँ@@ 8931
तिरिच्चु@@ 8931
ंतर@@ 8930
कॆय@@ 8930
उँ@@ 8929
आरोक्किय@@ 8929
माला@@ 8926
ूर्@@ 8926
आरएसएस 8926
ंडगा 8925
राजस्था@@ 8924
70@@ 8924
एराळमाऩ 8924
lin@@ 8923
96 8923
विचारणॆ 8923
एनआर@@ 8921
वरे@@ 8921
पार्श्@@ 8920
मिस 8920
ऩैत् 8920
ेछे 8919
च्छि@@ 8917
प्रस्तुतं 8917
च्पि 8916
मारुटॆ 8916
अऩुप्प@@ 8916
किऱिस्त@@ 8916
999 8915
आदम 8914
83 8914
प्पोऴ@@ 8914
जाणा 8913
शुरु@@ 8912
हवामान 8912
विभागों 8912
योगत्तिൽ 8912
अऩुमति 8912
धाराळं 8911
तियि@@ 8910
अभ्या@@ 8909
षेर 8909
एकमे@@ 8908
ज़िंदगी 8907
भार्@@ 8906
ळ्ळु@@ 8906
कवन्नु 8906
चांगले 8906
माध@@ 8905
तीय़ 8905
पयणम् 8903
टिकि 8902
पक्कम् 8901
स्थानीय़ 8900
पॊरुळ् 8899
सम्मान@@ 8898
केरा 8896
सरा 8895
एकदा 8894
दियों 8894
हिट 8892
कॊंडरु 8892
97 8891
बेछे 8890
दुनीआ 8890
अपमान 8889
ताक्कल् 8889
क्कूटातु 8889
शुने 8887
इब्ब@@ 8887
ऩैक् 8887
आटके 8886
टिभि 8884
अवरिൽ 8884
कैमरे 8883
रस्तॆ 8883
इतने 8882
अम्च@@ 8880
मानसि@@ 8879
2021 8879
पॊलिचार् 8879
गोष्ठ@@ 8877
मसी@@ 8877
ऑपरेशन 8877
उतवु@@ 8877
किੰ@@ 8876
द्वार 8875
य़ित 8874
शत्रु 8874
फ्रॆ@@ 8874
India 8872
पिलि@@ 8872
नीडिदॆ 8872
कांत् 8872
पोर्टल 8871
डीने 8871
मोड 8870
ർच्च 8870
फिट 8869
निस 8869
बाजू@@ 8869
वलै@@ 8868
लायितु 8868
निർमि@@ 8867
सुखी 8866
नय़@@ 8866
मुरु@@ 8866
सरी 8866
अस्ट्रेलिय़ा 8865
मैनदि 8865
निरूपि@@ 8863
मकൾ 8863
गोल्ड 8861
हरेक 8861
नेटिय 8861
बलात्@@ 8860
त्तिद्दरु 8859
वनिता 8858
कबे 8857
एसी 8857
वाल्@@ 8856
वचति 8856
ड़ार 8855
क्कॊप्पं 8854
शिष्ट 8853
फर्म 8853
परेशानी 8853
तीसुकुन्नारु 8853
यूरोपीय 8852
सुधी@@ 8851
रिकार्@@ 8851
भला 8851
ंदले 8850
वाळ्लु 8849
श्य 8848
निय़ेछेन 8846
देइ@@ 8844
av@@ 8843
रेप 8843
संगठित 8841
देखानो 8839
कम्प्यू@@ 8839
इदॊंदु 8839
ऎटुक्क 8837
सिवॆ 8836
लभ्यमा@@ 8836
बासीदेर 8835
परिसर@@ 8835
दरअसल 8835
ळ्ळिൽ 8835
शिकाय@@ 8833
कमाई 8833
वॆळु@@ 8833
श्रमं 8832
क्षेत्रात 8827
थित 8826
ed@@ 8826
रणनीति 8826
मैसू@@ 8826
आलो 8825
बादे 8824
तना@@ 8824
भालबा@@ 8824
माटे@@ 8824
पाल्प@@ 8824
अंबानी 8824
उरिय 8824
पकरं 8824
स्यार 8823
लेकुंडा 8823
जरा 8821
किआ 8821
च्छि 8820
सिरफ 8820
स्वच्छ@@ 8819
निम्म@@ 8818
गारि@@ 8818
दुरु@@ 8818
टुन्न 8818
वीटियो 8818
पोटी@@ 8817
आतनु 8817
वधार@@ 8816
अंतर्@@ 8815
टीमिंडिया 8815
सहे@@ 8813
पुलिश@@ 8812
नोडु@@ 8812
दिव्या@@ 8811
अतऱ्कु@@ 8811
गाड़ी 8810
फुटेज 8810
ൽनिन्नु 8810
बिज्ञा@@ 8806
बान्@@ 8806
टेबल 8806
इटम्पॆ@@ 8806
नटिस्तुन्नारु 8805
कानू@@ 8804
अंदरू 8804
Z@@ 8803
मृतक 8803
अपना@@ 8803
मिशन@@ 8802
इव 8802
चॆप्पि@@ 8802
हाद 8800
गिय़ेछिलेन 8800
सुजुकि 8800
हठाॎ 8799
म्याच् 8799
आमिओ 8797
ताहार 8797
वीरर्कळ् 8797
तेथे 8796
कात्तिरु@@ 8795
भाष 8794
समाजेर 8794
कली 8794
ख़ुद 8794
मन्ड@@ 8792
पड़ेगा 8792
जता 8791
वाया 8791
मगु@@ 8790
जाहिर 8790
क्षक 8789
डियो@@ 8789
पोट्टियि@@ 8789
पदेर 8788
स्टेडियम 8788
तात्कालिक 8787
प्रजल 8787
चंडीगढ़ 8786
शॉ@@ 8786
पॊलिस् 8785
मून्नां 8785
आदाग्यू 8783
केमि@@ 8782
यातना 8781
वऴक्कु@@ 8781
पाय 8780
जव@@ 8780
वऱ्ऱिल् 8780
आट्चि 8779
भाषण@@ 8778
डिंग् 8778
त्तन्नॆ 8778
ह् 8776
आगि@@ 8776
मुहूर्ते 8776
निन्दा 8775
मत्स्य@@ 8775
आचरि@@ 8775
अयिंदि 8775
बेह@@ 8773
परिबे@@ 8772
मध्ये@@ 8772
दिवसां@@ 8772
मुंदुकु 8768
कुशल 8766
चेसि@@ 8766
वाइरस 8766
प्रश्नङ्ङൾ 8766
तमां 8765
लाऩ 8765
रहस्य 8764
इरलिल्ल 8764
ब्य़ब@@ 8764
सैतं 8764
जाहाज 8763
ब्ध 8763
तस@@ 8763
व्हिडिओ 8763
अबाक 8762
ट्टुक् 8762
अन्तक् 8762
ङ्गे 8761
मेने@@ 8760
हेर@@ 8760
निऱुवऩत्तिऩ् 8760
बाई@@ 8758
गुनो 8758
प्पुकൾ 8758
मुतली@@ 8758
दिवसीय 8756
डान 8755
नामा@@ 8754
काँग्रेसचे 8754
विडि@@ 8753
रोज@@ 8752
प्रभ@@ 8752
योटॆ 8752
मुखा@@ 8751
प्रबे@@ 8751
तॆलुसु 8751
वधि@@ 8748
गळॊंदिगॆ 8748
निकऴ्च्चियिल् 8748
पुऱमॆ 8747
क्कप्पटविल्लै 8747
कॊर@@ 8745
अवऱ्ऱै 8745
मिर्@@ 8744
कोणी 8744
दर्शकों 8744
बितर्क 8743
अधिकारिक 8743
वैयक्तिक 8743
णात्मक 8741
पेर्@@ 8741
ऩैय@@ 8741
कॉम 8740
बाब 8739
प्रदर्शि@@ 8739
लण्ट@@ 8739
म्कूट 8739
उट्पट 8736
बाम 8735
स्थिरता 8735
साठी@@ 8735
मारिंदि 8735
ंस् 8734
जंग@@ 8734
बिएनपिर 8733
्स 8733
मील 8733
हिंद@@ 8733
चेयु@@ 8733
पोलीसु 8732
मलया@@ 8730
कुन्नत् 8730
त्तिले@@ 8729
सण्ण 8728
उळ्ळट@@ 8728
निरीक्षि@@ 8727
प्रतिभटनॆ 8727
पोस्ऱ्ऱ@@ 8725
ऩैप् 8725
निलो 8724
कॊलै@@ 8723
ंटन 8722
राष्ट्रपती 8722
नॆगळन्नु 8722
इय़@@ 8721
ललिता 8721
परथी 8721
अंदरॆ 8721
चॆल्लुम् 8721
अऩैवरुक्कुम् 8721
पितर 8719
प्रचरि@@ 8719
मू 8717
काहीच 8714
विअकतीआं 8714
विषयों 8713
ऱुत्त@@ 8712
ऎवरू 8712
नाथी 8711
बोझा 8711
बढ़े@@ 8710
इळैञ@@ 8710
इय़े@@ 8708
धनी 8706
एऴु 8706
पयऩ्पटुत्तु@@ 8706
कोर्टेर 8705
नाराज 8705
कृपया 8705
राज्यदल्लि 8705
ंशी 8704
अडच@@ 8704
मेय@@ 8703
पूंजी 8703
87 8701
छाया@@ 8701
तमारे 8701
दक्षिण@@ 8700
चरियाऩ 8700
92 8699
स्वन्त@@ 8698
गेम 8697
प्रजलकु 8697
स्फोट@@ 8696
वॆय@@ 8695
करेइ 8694
तनकु 8694
प्रथ@@ 8693
कुमारी 8693
आऱ्ऱ@@ 8693
काऴ्च@@ 8691
एशियाई 8689
लागेल 8688
उंडे@@ 8688
चीऩा@@ 8688
संत 8687
विजयൻ 8687
इयक्कुनर् 8687
एँ@@ 8686
बाजारे 8686
नൽकुन्न 8686
विवकार@@ 8686
मात्रा@@ 8685
साक्षा@@ 8684
िलू@@ 8684
राघ@@ 8683
निवड@@ 8683
सिने@@ 8682
एनडी@@ 8681
निभा 8680
रिसर्च 8680
तॆगॆदुकॊळ्ळ@@ 8680
रॆंड@@ 8680
निन्नाण् 8677
वुल 8675
जमानत 8673
ऴुं 8673
फ्ट् 8672
चॊऩ्ऩार् 8672
रीतियल्लि 8671
ऩ्ऱ 8671
हस@@ 8670
तिते 8669
वरुण 8669
कुटिय@@ 8669
एसएस@@ 8668
चुकु@@ 8668
सलागुवुदु 8666
समालोच@@ 8665
बल् 8665
ग्राहकों 8665
पिन्निൽ 8664
पने 8663
सैनिक@@ 8662
पऱयाൻ 8662
आप् 8661
आतंकवादियों 8659
प्पिक्कुन्नु 8659
उन्नय़नेर 8658
मुखं 8658
न्यायालया@@ 8658
नाऩुम् 8658
अप् 8655
उੱतर 8655
दिनं 8654
बडिन 8654
कटौती 8654
दया 8653
अल्लि@@ 8653
बेकिदॆ 8653
चੱ@@ 8653
यिऩ@@ 8653
लिटी 8652
एहापरे 8652
मूर्ति@@ 8651
येशू@@ 8651
सच्चे 8651
विकास@@ 8651
वेर्@@ 8651
कात्तिरि@@ 8651
ൻऱ् 8650
आलेल्या 8650
खोल 8649
परिध@@ 8649
गीता 8648
2005 8648
वरुन 8648
वरैय@@ 8648
क्कप्पट्टुळ्ळऩ 8648
ंकि 8647
मऱुपट@@ 8647
वॆळि 8647
पड्डारु 8647
टिभ 8646
माक@@ 8645
क्याल 8645
पौर 8645
परम्पर@@ 8644
कविता 8644
र्र@@ 8643
थता 8640
च्चुळ्ळ 8640
्रि 8639
98 8637
इंडिय@@ 8637
प्रतिबद्धता 8637
वाय्प्पु@@ 8636
सिंधु 8635
कैफ 8634
गाड़ि@@ 8633
बर्षा 8633
कार्बन 8632
लुकൾ 8631
पटे@@ 8630
ion@@ 8629
काटा@@ 8629
भूकंप 8629
पत्रा@@ 8628
अधीक्षक 8627
स्टाग्राम 8627
करवानुं 8625
मुलो 8624
नौकर@@ 8624
काहीही 8623
प्लि@@ 8621
माळ@@ 8620
बिद्याल@@ 8619
होण@@ 8618
नम्पि@@ 8618
क्षमि@@ 8617
दर्द 8616
वाहक 8616
वेडु@@ 8616
जर्स 8614
च्चिय@@ 8614
IPL 8613
बिय़ेर 8612
पिला@@ 8611
टॆस्ऱ्ऱ् 8611
बट्ट@@ 8610
तिट्ट 8610
बोळिवुड् 8610
रुटॆ 8610
इचैयमै@@ 8610
परुगुलु 8610
ate 8608
मीडिययिൽ 8608
खतरनाक 8607
द्दरॆ 8607
सिੱख 8607
पड़ार 8606
शिया 8606
विस्@@ 8606
ब्राह्@@ 8605
तकु@@ 8604
तिनजन 8603
यारि@@ 8602
भय़@@ 8601
चट्ट 8600
वुंदि 8600
लास 8599
निआ@@ 8599
नटवटिक्कैकळ् 8599
बुझा@@ 8598
रद 8598
करेल 8598
पायलट 8598
नाइटेड 8596
तेनाथी 8596
बलेछिलेनः 8595
पठ@@ 8594
लेज 8594
अबशेषे 8594
पाया@@ 8594
इवरतु 8593
वळर्च्चि@@ 8593
अनिल् 8592
सादा 8591
रचिकर्कळ् 8591
IS@@ 8589
पुढ@@ 8589
स़िकाइत 8588
आशङ्का 8587
निशान 8587
कार्यरत 8587
इसको 8586
निर्द्@@ 8585
क्कळा@@ 8585
त्तेऩ् 8585
निष्ठ@@ 8584
पलुवुरु 8584
कन् 8583
पाशेर 8582
यिलेक्क् 8582
प्पटुत्ति@@ 8581
नऩ्कु 8581
निർवहि@@ 8580
वती 8577
तॆलुसुकु@@ 8577
पहेली 8576
इन्न् 8576
सन्तो@@ 8575
कारां 8575
इलाखॆ 8575
ब्ले@@ 8574
हओ 8574
रियल् 8574
ण्य 8573
बेल@@ 8573
कवि 8573
२००९ 8572
डलार 8572
फ़िल्म 8572
त्तुट@@ 8571
इरुक्किऱार्कळ् 8570
बिधि@@ 8569
जशे 8569
वरसाद 8569
डिजिटाल 8568
बणाइआ 8568
च्चुवॆ@@ 8567
वरुक्कुम् 8567
बृद्धिर 8566
भूति 8565
दरे 8565
लालू 8565
ख्रीष्ट@@ 8564
संहिता 8564
नव्या 8564
यानंतर 8563
कർष@@ 8562
थाकि 8561
मनॆ 8561
बिसि 8560
पॊतुमक्कळ् 8560
अभाब 8558
समय़ 8558
तीविर 8558
इय़ेर 8556
आल्@@ 8555
इटली 8554
एके@@ 8553
इम्रा@@ 8553
मऱ्ऱॊ@@ 8553
कऱि@@ 8553
स्बी@@ 8552
पूर्बतन 8552
राण् 8552
भारतदेशं 8552
अर्थनीति 8549
एमएस 8549
धर्मा@@ 8548
गणा@@ 8547
माणस 8545
अंत्य@@ 8545
व्यू 8544
क्कूटुम् 8544
ण्टाय 8543
वुदक्कॆ 8542
मायिरि@@ 8542
मेऱ्प@@ 8541
ब्यतीत 8540
मस् 8540
अधिकारों 8540
नेबे 8539
प्रेरण 8539
ऩिया 8539
वॆब्सै@@ 8537
ट्टाल् 8537
न्यायालयात 8537
दिओ 8536
नेह@@ 8536
छात्रछात्र@@ 8536
आण्ट@@ 8536
छोट@@ 8535
प्रतिबद्ध 8535
दस्तावेज 8534
तेज़ 8534
चेयंडि 8533
विद्याभ्यास 8532
अक्कौ@@ 8531
भागी@@ 8530
प्राणी@@ 8530
जोलि@@ 8529
देखना 8529
वरवेऱ्प@@ 8529
रचना@@ 8528
तॆगॆ 8528
ओफि@@ 8527
चाय@@ 8527
कम्@@ 8526
गुरुति@@ 8526
डोळ@@ 8526
३४ 8525
अग्रणी 8525
अतिथि@@ 8524
स्रो@@ 8524
कार्तिक 8524
फेस्बुक्क् 8524
पकड़ 8523
प्पतिल् 8523
पीड़िता 8522
राजकी@@ 8520
लती 8520
वरदि 8520
अमलु 8520
ीर्कळा 8520
कन्या@@ 8519
रीना 8518
्त् 8516
भाषाओं 8516
प्रश्नॆ 8516
कोणत्या 8516
हइ 8514
सौर@@ 8514
नीडिद 8514
ङ्गि@@ 8513
उरैया@@ 8513
बसबास 8512
सङ्गीत 8512
महो@@ 8511
चेर्न्तु 8511
सॆल@@ 8510
ज़ु@@ 8509
कॊन@@ 8508
शर 8507
जोइए 8507
टरੰप 8507
प्शन 8506
वळ 8506
िलुळ्ळ@@ 8505
तामु 8504
चंद 8504
जानाइ 8503
बृहत्तम 8502
सपे@@ 8502
थांब@@ 8501
कोयला 8501
परस्परं 8501
सुइ@@ 8500
सद्य@@ 8499
ऎन्नत् 8499
दिसून 8499
परेओ 8498
प्रभावं 8498
ड्यु@@ 8497
दुർ@@ 8497
कॊण्टुळ्ळतु 8497
बाबू 8496
इंजीनियरिंग 8496
अन्ताराष्ट्र 8496
आपन 8495
ओळ@@ 8495
ऒरि@@ 8495
जिल्ह्या@@ 8495
अऱिमुकम् 8493
समूहेर 8492
जाळ@@ 8492
जते 8491
चतुर्@@ 8491
वैत् 8491
नेंदुकु 8491
मळ्यो 8490
दർ@@ 8490
बाधित 8488
ऊऴ@@ 8488
गिक 8487
तीचे 8487
त्रुटि 8486
चपै@@ 8486
तोൽ@@ 8485
मൻ 8485
नटैपॆ@@ 8485
11@@ 8483
मंडळ@@ 8483
जनु@@ 8482
यिंदि 8482
पॆऱुम् 8482
पराज@@ 8481
रयिल् 8480
नों@@ 8479
इवु@@ 8479
सुसमाचार 8478
गुं@@ 8478
ऎंपिक 8478
इच्चिन 8478
किय़े 8477
मॊरु 8477
वॆळ्लि@@ 8477
भाइरास 8476
जानाते 8476
इसने 8476
स्वाधीनं 8476
हज@@ 8475
राज्यना 8475
सुझा@@ 8474
ऎनिक्क@@ 8474
गल्प@@ 8473
यारु@@ 8473
चलो 8472
बचत 8472
अब्दुल्ला 8472
दशा 8471
मुन 8471
कहिले 8471
भारताने 8470
आलम 8469
रावत 8468
जीवൻ 8467
उंडदु 8466
समर्थ 8464
ऎन्ता 8464
हिट् 8463
नेतृत्ब 8462
खाद्य@@ 8462
डार्@@ 8462
अजी@@ 8462
संविधायकൻ 8461
चुनावी 8460
गलती 8459
चिलർ 8459
च्चिट्टु@@ 8458
नेतृत्बे 8457
साइट@@ 8457
बादी@@ 8456
सप्ताहे 8453
तीसरा 8453
ण्णं 8453
वुमाण् 8453
ऎन्निट्ट् 8449
माफ 8448
आशंका 8447
हफ्ते 8447
ऎंपी 8444
सर्बाधिक 8443
शुभारंभ 8442
बाजों 8441
कालत्त् 8441
बिൽ 8441
जानु@@ 8440
धरम 8440
लागली 8440
अंदिंचारु 8440
आरोग्यं 8439
वतऩ् 8439
अनुभूति 8436
कलॆ@@ 8436
कॊंत 8435
व्यय 8434
सालां 8433
निभाई 8431
करणा@@ 8429
प्पतै 8429
तावतु 8429
२००८ 8428
el 8427
गड 8427
पों 8427
नायिरुन्नु 8426
छेर 8425
कारोबारी 8425
राय् 8425
समन्वय 8424
मंत्रालया@@ 8424
ङ्कै 8424
पारिब 8423
बेडकर 8423
खनन 8422
सेवॆ@@ 8422
बांलार 8421
प्राधान्य@@ 8421
इस्राये@@ 8421
पोस्ऱ्ऱ् 8421
याब@@ 8420
्लोनि 8420
आकर्ष@@ 8417
त्वरित 8417
ऒत्त@@ 8417
चॆयल्पटुत्त@@ 8415
संघटि@@ 8414
एआई 8414
चेर्न्त@@ 8414
लाखों 8412
लोकजन 8410
ईसु 8410
नकारात्मक 8410
ऎदुर्कॊ@@ 8410
पटेल् 8409
हैक्कोट@@ 8409
कौं@@ 8408
कलीसिया 8408
बेओ 8407
हबार 8407
लोड् 8406
ऎतिർ@@ 8406
राव् 8405
धम@@ 8404
चॆंदि@@ 8404
बिप्ल@@ 8403
धियों 8403
क्रु@@ 8402
चेसुकुन्न 8402
लात 8401
ेला 8401
प्रवि@@ 8401
स्तू@@ 8400
्यांनी 8400
उपहार 8399
इयों 8398
शनं 8398
आकर्षित 8397
राखो 8396
बचाने 8396
ऎतु 8396
सला 8394
10,@@ 8394
भർत्ता@@ 8394
89 8393
दिलेल्या 8393
vs 8392
लड़ने 8392
आवा 8391
रहीं 8391
ग्यास 8390
आधारे 8389
सदस्@@ 8389
बधा@@ 8388
माट्टार्कळ् 8388
नियू@@ 8387
पनुलु 8387
कळै@@ 8387
करुछन्ति 8386
येसब 8385
पऱयुकः 8385
उतव@@ 8385
लੱग 8385
नाटक@@ 8383
मेइ 8382
पारिनि 8381
यहूदी 8381
अर्जि 8380
काक 8379
पड़ुन 8379
समर्@@ 8378
मळॆ 8378
कराय@@ 8377
ऎऩक् 8377
आराण् 8376
चॊल्लि@@ 8376
कूट्टिच्चेർत्तु 8375
नटैमुऱै@@ 8375
ऊँ@@ 8374
व्यवस्था@@ 8374
वेणु@@ 8374
व्यवस्थॆ 8374
प्रतिषेधं 8374
तलै 8372
दक्षिणी 8372
ऎल्लावർक्कुं 8372
50,000 8371
पहो@@ 8371
पॆळ्लि 8371
चतुर्थ 8370
कूटुत@@ 8370
मता 8369
लौट 8369
बुध@@ 8367
दर्शन@@ 8366
लोकेर 8366
अल्लाह्विऩ् 8366
ःपि@@ 8363
अप्पु@@ 8363
इच्चारु 8363
चੱल@@ 8362
अस्त्र@@ 8360
जोड़ी 8360
याच्या 8360
वन्तार् 8360
रहित 8359
गतंलो 8359
अवश्य 8358
शेतकरी 8358
गੰ@@ 8358
रेश@@ 8357
पोयायि 8356
गतभाबे 8355
वऴङ्कुम् 8355
डीआर@@ 8354
लोकं 8354
भजन 8353
ङ्ङनॆ 8353
उपलब्@@ 8352
राज्यमां 8352
सचेतन 8351
मनोभाब 8351
तुइ 8349
कमिटी 8348
प्लान 8348
प्रदर्शनी 8348
आचार 8348
विरूद्ध 8348
चेർन्न् 8348
it 8347
इरान 8346
ब्लि@@ 8345
तीर्पु 8344
निवडणुकीत 8344
संप्रदा@@ 8343
लुन 8342
णों 8342
म्बे 8341
व्र@@ 8341
मुख्यमंत्रि@@ 8341
तॊकुति@@ 8340
गुज़@@ 8339
आईसी 8337
कितने 8337
कमान 8335
अस्पतालों 8334
अवनिगॆ 8334
याच्छि 8333
विरा@@ 8332
वाकऩ@@ 8332
कतै 8331
समझने 8331
il 8330
सरकारङ्क 8330
कल्याण@@ 8329
उपस्थि@@ 8329
क्कळॆ 8329
भाबना 8328
युरो@@ 8328
पश्चिमबङ्ग 8327
यत्न 8326
पाउ@@ 8326
चरण् 8326
आश्रयि@@ 8326
आनते 8325
स्पू@@ 8325
कुट्टिकൾ 8324
टेलिभिशन 8323
ृत 8322
बागु@@ 8321
भरात 8321
स्व 8321
विमाना@@ 8321
पूछे 8320
परिक्केऱ्ऱु 8320
दीप@@ 8319
२०१७ 8319
अपहरण 8319
ऊर@@ 8319
मानवा@@ 8318
क़यामत 8318
वർक्कुं 8318
नीतिर 8317
आधिकारि@@ 8317
मुड़ 8317
मलयाळ@@ 8314
पिरच@@ 8313
संतो@@ 8313
रॊम्प 8312
पिरिवु 8311
पोलिसांना 8309
दाइ@@ 8308
संबंधि@@ 8308
जिनकी 8308
ർड् 8308
सकाले 8307
नकर्@@ 8307
बगॆ@@ 8307
ळिऩ् 8307
लनु@@ 8306
उत्तർ@@ 8306
उऩ्ऩ@@ 8306
कम्मि@@ 8305
अच्चु@@ 8305
श्रीलं@@ 8301
गढ 8301
सीए 8300
पीठ@@ 8299
सूक्त 8299
बीसीसी@@ 8298
ड़ाते 8296
शीघ्र@@ 8296
टैक्स 8296
ज्येष्ठ 8295
याने 8295
बोला 8294
इतिहा@@ 8293
ph@@ 8293
2.0 8293
शॆ@@ 8293
मॆन्नु 8293
निर्मिस्तुन्नारु 8293
निर्बाही 8290
रमां 8288
निऱुत्त@@ 8288
मिऩ्ऩ@@ 8288
धर्मेर 8287
वेळा 8287
त्कार 8286
कूडले 8286
लागबे 8285
अजय् 8285
क्याप्ऱ्ऱൻ 8284
फय@@ 8283
तनिख@@ 8283
पुरस्कारं 8283
छी@@ 8282
नाइट 8282
वॆंदु 8282
पੰज 8281
कृषक 8280
तीर 8280
व्हाय@@ 8280
पञ्चाय@@ 8280
जिनिस 8278
v 8277
विश्वासि@@ 8277
ियाल् 8277
माकवे 8277
पार्त्तु 8277
बाज़ी 8276
लाय@@ 8275
निय़ा@@ 8274
टिक्स 8274
शिक@@ 8273
नाची 8273
कुतियिल् 8273
जੰमू 8273
कूट्टणि 8273
चामच 8272
शिशुदेर 8272
शाळा@@ 8271
कुनि 8270
मीडिय@@ 8269
प्पुकळै 8268
ब्लू 8267
ऱायि 8267
वचू@@ 8267
प्पिच्च@@ 8266
पयणि@@ 8265
टास् 8264
उऴै@@ 8264
कुटियरचुत् 8264
८० 8262
बाथ@@ 8262
च्चे 8262
दॊंदिगॆ 8262
दुनीआं 8262
भाग्य 8261
जहाज 8261
सिनिमालु 8261
नड्डा 8260
इब्रा@@ 8257
लहान 8257
घटणार 8257
विंग 8257
एकक 8256
सत्@@ 8256
बरी@@ 8256
माई@@ 8256
पारिबारिक 8255
सों@@ 8255
पुस्तकं 8255
मुटियात 8255
खरा 8253
बंदिल्ल 8253
डौन् 8253
रूपयाण् 8253
ا@@ 8252
बनावी 8252
ne@@ 8251
कर्मसूचि 8250
सबइ 8249
लक्ष्@@ 8248
Re@@ 8248
प्रशांत 8248
जदकि 8248
सरी@@ 8247
याൽ 8246
ॆयलु 8245
राज्यातील 8245
चॊन्त 8242
देशभर 8240
क्यो 8240
चेसुकुन्नारु 8240
बिड@@ 8238
एऱ्पट्टुळ्ळतु 8238
आबदुल 8236
बीते 8235
कार्याल@@ 8234
उण्टायिरु@@ 8234
ञाऩ@@ 8234
डिओ 8233
आतङ्क@@ 8233
पारे@@ 8233
बळि 8231
मध्य़@@ 8231
मिकप् 8231
तुटरुकयाण् 8230
उतवुम् 8230
पाकिस्ताने 8229
प्रजा 8229
तुझे 8229
य़ा 8229
बिश्बका@@ 8228
प्पटिकी 8228
निर्धार 8227
गेलेन 8226
अत्र@@ 8225
अशा@@ 8224
पोरे@@ 8224
चमीपत्तिल् 8224
दिੰदा 8222
विचुवाच@@ 8222
मिळत 8221
पृथिबी 8220
अजून 8220
इल् 8219
क्करु@@ 8219
आमॆनु 8219
परमेश्वर@@ 8218
कायद्या@@ 8218
ओबामा 8217
काल् 8217
विभा@@ 8217
क्कुरिय 8217
निर्देशों 8216
नॆट् 8215
लोकोनी 8214
स्थिती 8214
जाहेरात 8213
ऎऩवुम् 8213
पटुत्त@@ 8212
शरि@@ 8210
उधर 8210
वच्चि 8210
पोय@@ 8209
णिय 8209
बिमानबन्@@ 8208
शोना 8207
स्पेस 8206
यातायात 8204
माडुवुदु 8203
कारणेइ 8202
सामर्थ्य@@ 8201
जागृ@@ 8201
णर्@@ 8201
पट्टि 8200
न्यायिक 8200
मंत्रित्व 8200
ेय 8198
चढ़@@ 8198
यहोव@@ 8197
त्ୱ 8197
न्डे 8196
भड़@@ 8195
वायुसेना 8195
इल्लिदॆ 8195
मातना@@ 8194
नंद@@ 8194
बलछि 8192
तीय़ 8190
लिक@@ 8190
लिर 8190
जुड़ा 8190
कडि@@ 8190
स्क् 8190
एमां 8190
तल्लि 8190
मिलिआ 8190
धता 8189
बाहित 8188
व्याधि 8188
ड़्ह 8188
आल्या 8187
एक्शन 8186
म्मा@@ 8185
बलेइ 8185
अदरल्लि 8185
दुलु 8184
1/@@ 8183
हർजि 8183
मिने@@ 8181
अൽ@@ 8181
आराय्च्चि 8181
वणी 8180
ऎटुत्त@@ 8180
लोक्सभ 8177
pl@@ 8176
मनोनीत 8175
दक्षिणाफ्रि@@ 8175
वरुकिऱार्कळ् 8175
माट्ला@@ 8175
आपणीआं 8174
बरण 8173
गोलीबारी 8173
किलोमीऱ्ऱർ 8173
चप@@ 8172
कार्मिक 8172
2004 8172
वडील 8171
द्वितीय 8171
बीसी 8171
शराब 8170
ळिगॆ 8170
आएगा 8169
माडबहुदु 8169
राखेन 8168
करणाऱ्या 8168
टेयुं 8167
मेम्पा@@ 8166
टाप् 8166
सलिदॆ 8166
इन्निंग्@@ 8166
क्ली@@ 8165
ख्रिस्टा@@ 8165
चौथे 8164
अवरॆ@@ 8164
अक्षय् 8163
नय़ादिल्लि 8161
रेडियो 8161
लागुत्तिदॆ 8161
गवर्@@ 8160
ऎल्लो@@ 8160
मकान 8159
निर्णय@@ 8157
कंग्रे@@ 8156
देवर@@ 8156
चम्पन्त@@ 8156
देवालय@@ 8155
युऎस् 8155
चलाने 8154
येउँ@@ 8154
उलकिऩ् 8153
िलाम 8152
माक्क@@ 8152
प्रधानमंत्र@@ 8152
खेले@@ 8151
तिट्टमि@@ 8151
त्तॆक्कुऱिच्च् 8150
इरुक्कलाम् 8150
विलुम् 8150
इमे@@ 8149
स्बप्न 8149
अपकटत्तिൽ 8147
अंशी@@ 8146
न्टि@@ 8146
हाट 8145
ऒतुक्कीटु 8145
त्तिनुळ्ळ 8144
काण 8143
मत्तियिल् 8143
संवत्सरा@@ 8143
सहाइता 8143
वाथी 8142
नल्लि@@ 8142
कॊण्टतु 8142
शीर्षक 8139
कम्पनि 8139
ऎंजिन् 8139
मार्ट@@ 8138
दर्जा 8138
ऎंपि 8138
तॊलि@@ 8138
मुळ@@ 8136
लेखन 8135
अद्देहत्तिन् 8135
आकर 8134
किरि 8133
नल् 8133
समुदाय@@ 8133
यूरोप 8133
नेർ@@ 8133
तोपाटु 8133
थन 8132
नावि@@ 8132
ताः 8131
तऱ्कु 8131
कळॆदु@@ 8130
मैप्पु 8130
वटै@@ 8129
ढे 8124
शർ@@ 8124
चुप 8123
्च्च@@ 8123
दुर्घटनाय़ 8122
क्कुन्नतुं 8122
पॆट्टा@@ 8121
स्पर्धा 8120
सल्प@@ 8119
तस्@@ 8118
ओवर@@ 8118
वरुन्नु 8118
प्रतिबे@@ 8117
सबेर 8117
क्कक् 8117
तीसरी 8117
नीआ 8116
मोर@@ 8115
पम् 8113
कोम्पा@@ 8112
उत्कृष्ट 8112
वध 8112
आयन@@ 8112
अतिकमाऩ 8112
कुऱिप्पाक 8112
न्च 8111
कूटा@@ 8110
नप्पुडु 8110
कुऱिप्पिट्टार् 8109
संघर्@@ 8108
एकीकृत 8108
ॊब्ब@@ 8107
संगत 8106
ंटर् 8106
घोषणा@@ 8105
थार 8105
काट्चि@@ 8105
बाता@@ 8103
सदस्यरा 8103
वुक 8102
ज्बाला@@ 8101
आहतदेर 8100
चेवै@@ 8100
सती@@ 8099
बिबरण 8099
परंपरा 8099
उपग्रह 8098
ण्णु 8098
देशदल्लि 8098
संभाव@@ 8097
बलिदान 8095
पेछने 8095
जरुगु@@ 8095
मैडीकल 8094
लए 8093
चिल् 8093
मानिलम् 8093
बाधा@@ 8091
ियायिरुन्नु 8091
पॊरुट्कळ् 8091
ंध@@ 8090
न्नाൽ 8090
युण्टा@@ 8090
लान 8089
धमा@@ 8089
मसजि@@ 8089
समझा 8089
चालानो 8088
अर्पण 8088
ट्यु@@ 8088
खत 8087
य़नेर 8087
तेम@@ 8087
रंजन 8087
ड़ियों 8087
पुरं 8087
चालि@@ 8085
पारस्परिक 8085
स्वीकृति 8085
चलन 8084
धार्@@ 8084
भर्त@@ 8084
पोरेट 8084
मतदार@@ 8084
य्या@@ 8083
पीएस 8081
किक 8080
माहिती@@ 8080
इष्टं 8080
मऴै@@ 8080
तवागि 8079
प्रत्येकि@@ 8079
परा 8078
मुट्ट@@ 8078
निङ्ङൾक्कु 8078
सेमानङ्कु 8078
गाह 8077
बळि@@ 8077
पोशाक 8076
किर्@@ 8076
वरों 8076
पॊरुट्@@ 8076
देखाय़ 8075
टमां 8075
अमेरिकन 8074
नील@@ 8073
चात्तिय@@ 8073
१३@@ 8071
शान्त 8071
नाणा@@ 8069
सेठारे 8069
एफआईआर 8068
स्थायि 8068
बੰदी 8068
तॆलुस्तोंदि 8067
व्याख्या@@ 8066
प्पऱ@@ 8065
ंचगा 8065
आसुन 8062
चांग@@ 8062
कटुमैयाऩ 8062
पालक 8061
वेट 8061
मत्सरं 8061
इन्ऱർ@@ 8061
ञ्ञत् 8060
ऎटुवंटि 8060
नेक 8059
आत्मी@@ 8058
प्ल्या@@ 8058
वार्त्तै 8058
इस्लाम 8057
अवरो@@ 8056
जट्टु@@ 8056
क्रमशः 8055
गांवों 8055
इच्छ@@ 8054
सिल 8054
ओलंपिक 8054
सर्विस 8053
कळुण्ट् 8053
प्रांताल्लो 8053
आतापर्यंत 8052
प्रकास़ 8052
महल 8051
वैऱस् 8051
ओय़ार्ड 8050
निम्@@ 8049
ओय़ाल 8049
अन्तत 8048
मृत्यू@@ 8048
हओय़ाय़ 8048
तेवी 8047
देशाल 8046
वडा 8045
चॆलुत्तु@@ 8044
विण्यात 8044
ब्य़बस्था 8044
आसक्ति 8043
झड़ 8043
मुंबैः 8042
निवड 8042
चल् 8041
पासेथी 8041
नगर् 8040
चिऩिमा@@ 8040
उपलक्षे 8039
चॆन्नै@@ 8039
दय 8038
इरानेर 8037
साडा 8037
निरी@@ 8036
अरुण् 8036
काटा 8034
हीन@@ 8033
स्मार@@ 8033
कमी@@ 8033
कल्लूरि 8033
वऴङ्कप्पटुम् 8033
बललाम 8032
ज़र 8031
र्यं 8031
मोटे@@ 8030
ർण@@ 8030
ऱ्काक 8030
यारा@@ 8029
सिनि@@ 8029
जित् 8029
ताऴ@@ 8029
चरा@@ 8028
बध 8027
मिली@@ 8027
पिछली 8027
राकेश 8026
गवൺ@@ 8026
डब्ल्यू 8025
तुम्भ@@ 8024
रोस 8022
जनते@@ 8022
नतीजा 8021
खोँ@@ 8020
छय़@@ 8020
क्कातॆ 8020
फुट्@@ 8019
करबो 8018
इब्रीय़ 8018
बाइ 8017
बिधान 8017
लष्@@ 8017
एसोसिएशन 8017
विले 8017
मद्दतु 8017
अधिबे@@ 8015
भिडिओ@@ 8015
हिरा@@ 8015
भाजपा@@ 8015
रीआ 8015
क्कारॆ 8014
छोड़@@ 8013
हालु 8013
निकऴ्च्चि@@ 8013
राजे 8012
अवचिय@@ 8012
दिनां 8010
मिलण 8010
दफ@@ 8009
प्पॆट्टिरुन्नु 8009
रेशन 8008
विटामिन 8008
रनों 8008
अधिनेत 8008
सोनी 8007
वृक्ष@@ 8007
वोर् 8007
कार्यक्र@@ 8006
अच्छ@@ 8006
स़ुरूआत 8006
वचति@@ 8004
उपदेश 8003
योजित 8003
मानों 8003
ऎऩ्पत@@ 8003
एक्ट 8002
चाम@@ 8002
त्याच@@ 8002
कुटुं@@ 8001
बलुन 8000
स्वातंत्र@@ 8000
तैयार@@ 8000
इतिनु 7999
पৰा 7997
कूटु@@ 7997
समझते 7997
लभिक्कुं 7997
खबर@@ 7996
रमा@@ 7995
शव@@ 7995
बढ़ते 7995
तॆरिवित्तुळ्ळऩर् 7995
सम्पत्ति 7994
प्रीत् 7994
कयिल्ल 7993
आनन्दित 7992
ईसु@@ 7992
अशोक् 7992
पढ़ाई 7990
संघർष@@ 7990
अੰदर 7989
पर्यवे@@ 7988
असोसिये@@ 7988
पिट@@ 7987
शुनते 7987
अभिमानि@@ 7986
वुत् 7986
एनि@@ 7985
चीर@@ 7983
धराव@@ 7983
उंटारु 7983
चेपट्टारु 7983
पार्टिर 7982
स्वातंत्र्य 7982
सत्यनिषेधि@@ 7982
इतिमध्ये 7981
नमुना 7980
भारतीयों 7980
बुद्ध 7979
सकेंगे 7977
उतार@@ 7976
रहेला 7975
डाक्तर@@ 7974
पगले 7974
इतिनॆ 7974
युद्धा@@ 7973
केळु@@ 7973
तलाक 7972
नगरं 7972
क्यां 7971
काजेइ 7970
साध्यत 7970
कॊऴु@@ 7970
बहस 7969
एम्@@ 7968
कठिन@@ 7968
छाड़ 7968
ऩाऩ 7968
हासपातालेर 7967
परम 7967
षन्स् 7967
सुविधाएं 7966
12:@@ 7965
अबसररे 7965
वॆळिये 7965
जिया@@ 7964
केंद्रों 7964
फ़ी@@ 7964
मलयाळं 7964
वॆप्प@@ 7964
भावं 7963
हੱल 7962
योगि@@ 7961
पोट@@ 7961
शः 7960
क्यारेय 7959
बासेर 7958
कൺ@@ 7958
उड़@@ 7957
जङ्गि 7957
कवऩम् 7957
कृत्रिम 7956
गेंद@@ 7956
बहुतेक 7956
सॆक्रट्ट@@ 7955
नेट्ट@@ 7953
अड्ड@@ 7953
मिळाले 7953
रोमीय़ 7952
नॊप्पं 7952
गणे@@ 7949
रसा@@ 7949
ऑर्@@ 7949
मारॆ 7949
मीरा 7948
नूआ 7948
घरेर 7947
सॆल्@@ 7947
बिऎस् 7947
चेस्तू 7947
घर्@@ 7946
्लै@@ 7946
संसाधनों 7946
अन्नाडु 7946
ऎप्पुडू 7946
आपे@@ 7945
निय़ो@@ 7945
जेने@@ 7945
कॊळ@@ 7945
अग्रवाल 7944
निऱुव@@ 7942
लाइफ 7941
वल्लि 7941
मॆट्रो 7941
चट्टं 7941
अनुष्ठा@@ 7940
तम्@@ 7939
सकलेइ 7939
देवामां 7939
गർ@@ 7939
िय़ेछिल 7937
भालो@@ 7936
आशुपत्रिय@@ 7936
काते 7935
तया@@ 7935
हटाने 7934
मूडि@@ 7933
प्रकटन@@ 7932
काके 7931
डमां 7931
वयॆ 7931
पेट्रो@@ 7930
कहाः 7930
मिळिछि 7929
म्याने@@ 7928
खूबसूरत 7928
एनू 7928
मऩितर्@@ 7928
तके 7927
मशीन 7927
ट्टिगॆ 7927
च्चिरुन्नत् 7927
कऴियिल्ल 7927
तटै@@ 7927
गोष्ठीर 7926
सिकॊंडिद्दारॆ 7926
उलट 7925
मुठभेड़ 7925
त्तिवॆ 7925
आरेकटि 7924
प्रवർत्तनं 7924
मिळाला 7924
चर्च्च@@ 7923
यान@@ 7922
मिया 7922
व्यक्ती 7922
निर्बा@@ 7921
ईसुए 7921
िलाऩ 7921
अरवि@@ 7920
नाण@@ 7920
अत्तरं 7920
अटिक्कटि 7920
शुभ्र@@ 7918
अवसान 7917
छात्री 7916
ीय@@ 7916
मैंबरां 7916
उपेक्षि@@ 7915
निती@@ 7915
इंदु 7915
पकिर्@@ 7915
निऱैवेऱ्ऱ@@ 7915
तोमा@@ 7914
विऴाविल् 7914
ओल@@ 7913
जनम 7913
प्लास्टिक 7913
ढाकार 7913
CO@@ 7911
संभावित 7910
डना 7909
लोक्सभा 7909
प्रतिनिधियों 7909
मौल्य@@ 7908
ञॆ@@ 7908
बलबे 7907
रूपाय@@ 7907
ोए 7906
फ्ऱ्ऱ@@ 7906
पंचा@@ 7905
विपण@@ 7905
लीग् 7905
बाहि@@ 7904
वेब 7904
ऎतिरा@@ 7904
ंचबडिंदि 7904
बन्धन 7903
94 7903
शेखर@@ 7903
चॆय्यप्पट्टु 7903
डस 7901
नाई@@ 7901
टीमु@@ 7901
मुतलमैच्चर् 7900
कारणालु 7900
वैक् 7899
ाऱ्या 7899
छिल@@ 7898
23@@ 7898
स्के@@ 7897
पिरे@@ 7897
सुन्दर@@ 7896
पछाण 7896
नम्पिक्कै@@ 7896
बरकरार 7895
ब्यबसा@@ 7894
परिबह@@ 7894
सिद्धा@@ 7893
सम्मुखीन 7892
सबकिछु 7892
स्लो@@ 7892
वेसि 7892
जताया 7891
ध्बं@@ 7889
कमिस़नर 7887
वऴङ्क 7887
क्यान्@@ 7886
दिੰदे 7886
मेर@@ 7885
परिक्केऱ्ऱ@@ 7885
कੰपनी 7885
मानब@@ 7884
बैबिलु 7884
राष्ट्रपति@@ 7883
मॆंट@@ 7883
प्रार@@ 7879
लागी 7879
ट्टॆ@@ 7879
जार्मान 7878
वेग 7877
मामलिआं 7877
अऱिमुक@@ 7877
व्याया@@ 7876
लड़ 7874
नमस्@@ 7873
वाराणसी 7873
बोधि@@ 7872
एमओ@@ 7872
जैव 7872
वागलिदॆ 7872
प्रसा@@ 7870
नारीदेर 7870
विक्रम् 7870
अम्मा 7869
मीताऩ 7869
दलित 7868
वहन 7865
पाछ@@ 7864
तिरस्करि@@ 7864
ऎप्प@@ 7864
२००१ 7863
नाना@@ 7863
कमिशनेर 7863
ऑक्@@ 7863
दगी 7862
संपन्न 7862
तमैन 7862
बർ 7862
लेक@@ 7861
स़हि@@ 7861
पडॆय@@ 7859
प्रणाळि@@ 7859
अ्याल@@ 7858
वण्ण@@ 7858
ङ्ङळायि 7858
[...]
